{
  "version": "1.0",
  "truncation": null,
  "padding": null,
  "added_tokens": [
    {
      "id": 0,
      "content": "[UNK]",
      "single_word": false,
      "lstrip": false,
      "rstrip": false,
      "normalized": false,
      "special": true
    },
    {
      "id": 1,
      "content": "[CLS]",
      "single_word": false,
      "lstrip": false,
      "rstrip": false,
      "normalized": false,
      "special": true
    },
    {
      "id": 2,
      "content": "[SEP]",
      "single_word": false,
      "lstrip": false,
      "rstrip": false,
      "normalized": false,
      "special": true
    },
    {
      "id": 3,
      "content": "[PAD]",
      "single_word": false,
      "lstrip": false,
      "rstrip": false,
      "normalized": false,
      "special": true
    },
    {
      "id": 4,
      "content": "[MASK]",
      "single_word": false,
      "lstrip": false,
      "rstrip": false,
      "normalized": false,
      "special": true
    },
    {
      "id": 5,
      "content": "[PAR]",
      "single_word": false,
      "lstrip": false,
      "rstrip": false,
      "normalized": false,
      "special": true
    },
    {
      "id": 6,
      "content": "[TAB]",
      "single_word": false,
      "lstrip": false,
      "rstrip": false,
      "normalized": false,
      "special": true
    }
  ],
  "normalizer": null,
  "pre_tokenizer": {
    "type": "Whitespace"
  },
  "post_processor": null,
  "decoder": null,
  "model": {
    "type": "BPE",
    "dropout": null,
    "unk_token": "[UNK]",
    "continuing_subword_prefix": null,
    "end_of_word_suffix": null,
    "fuse_unk": false,
    "byte_fallback": false,
    "ignore_merges": false,
    "vocab": {
      "[UNK]": 0,
      "[CLS]": 1,
      "[SEP]": 2,
      "[PAD]": 3,
      "[MASK]": 4,
      "[PAR]": 5,
      "[TAB]": 6,
      "!": 7,
      "\"": 8,
      "#": 9,
      "$": 10,
      "%": 11,
      "&": 12,
      "'": 13,
      "(": 14,
      ")": 15,
      "*": 16,
      "+": 17,
      ",": 18,
      "-": 19,
      ".": 20,
      "/": 21,
      "0": 22,
      "1": 23,
      "2": 24,
      "3": 25,
      "4": 26,
      "5": 27,
      "6": 28,
      "7": 29,
      "8": 30,
      "9": 31,
      ":": 32,
      ";": 33,
      "<": 34,
      "=": 35,
      ">": 36,
      "?": 37,
      "@": 38,
      "A": 39,
      "B": 40,
      "C": 41,
      "D": 42,
      "E": 43,
      "F": 44,
      "G": 45,
      "H": 46,
      "I": 47,
      "J": 48,
      "K": 49,
      "L": 50,
      "M": 51,
      "N": 52,
      "O": 53,
      "P": 54,
      "Q": 55,
      "R": 56,
      "S": 57,
      "T": 58,
      "U": 59,
      "V": 60,
      "W": 61,
      "X": 62,
      "Y": 63,
      "Z": 64,
      "[": 65,
      "\\": 66,
      "]": 67,
      "^": 68,
      "_": 69,
      "`": 70,
      "a": 71,
      "b": 72,
      "c": 73,
      "d": 74,
      "e": 75,
      "f": 76,
      "g": 77,
      "h": 78,
      "i": 79,
      "j": 80,
      "k": 81,
      "l": 82,
      "m": 83,
      "n": 84,
      "o": 85,
      "p": 86,
      "q": 87,
      "r": 88,
      "s": 89,
      "t": 90,
      "u": 91,
      "v": 92,
      "w": 93,
      "x": 94,
      "y": 95,
      "z": 96,
      "{": 97,
      "|": 98,
      "}": 99,
      "~": 100,
      "": 101,
      "": 102,
      "": 103,
      "": 104,
      "": 105,
      "": 106,
      "": 107,
      "": 108,
      "": 109,
      "": 110,
      "": 111,
      "": 112,
      "": 113,
      "": 114,
      "": 115,
      "": 116,
      "": 117,
      "": 118,
      "": 119,
      "": 120,
      "": 121,
      "": 122,
      "": 123,
      "": 124,
      "": 125,
      "": 126,
      "": 127,
      "": 128,
      "": 129,
      "": 130,
      "": 131,
      "": 132,
      "¡": 133,
      "¢": 134,
      "£": 135,
      "¤": 136,
      "¥": 137,
      "¦": 138,
      "§": 139,
      "¨": 140,
      "©": 141,
      "ª": 142,
      "«": 143,
      "¬": 144,
      "­": 145,
      "®": 146,
      "¯": 147,
      "°": 148,
      "±": 149,
      "²": 150,
      "³": 151,
      "´": 152,
      "µ": 153,
      "¶": 154,
      "·": 155,
      "¸": 156,
      "¹": 157,
      "º": 158,
      "»": 159,
      "¼": 160,
      "½": 161,
      "¾": 162,
      "¿": 163,
      "À": 164,
      "Á": 165,
      "Â": 166,
      "Ã": 167,
      "Ä": 168,
      "Å": 169,
      "Ç": 170,
      "È": 171,
      "É": 172,
      "Ê": 173,
      "Ì": 174,
      "Í": 175,
      "Î": 176,
      "Ï": 177,
      "Ñ": 178,
      "Ò": 179,
      "Ó": 180,
      "Ô": 181,
      "Õ": 182,
      "Ö": 183,
      "×": 184,
      "Ø": 185,
      "Ù": 186,
      "Ú": 187,
      "Û": 188,
      "Ü": 189,
      "Ý": 190,
      "Þ": 191,
      "ß": 192,
      "à": 193,
      "á": 194,
      "â": 195,
      "ã": 196,
      "ä": 197,
      "å": 198,
      "æ": 199,
      "ç": 200,
      "è": 201,
      "é": 202,
      "ê": 203,
      "ë": 204,
      "ì": 205,
      "í": 206,
      "î": 207,
      "ï": 208,
      "ð": 209,
      "ñ": 210,
      "ò": 211,
      "ó": 212,
      "ô": 213,
      "õ": 214,
      "ö": 215,
      "÷": 216,
      "ø": 217,
      "ù": 218,
      "ú": 219,
      "û": 220,
      "ü": 221,
      "ý": 222,
      "þ": 223,
      "ÿ": 224,
      "Ā": 225,
      "ā": 226,
      "Ă": 227,
      "ă": 228,
      "ą": 229,
      "Ć": 230,
      "ć": 231,
      "ĉ": 232,
      "Č": 233,
      "č": 234,
      "Đ": 235,
      "đ": 236,
      "ē": 237,
      "ė": 238,
      "ę": 239,
      "ě": 240,
      "ğ": 241,
      "ĩ": 242,
      "Ī": 243,
      "ī": 244,
      "ĭ": 245,
      "į": 246,
      "İ": 247,
      "ı": 248,
      "ĵ": 249,
      "ĺ": 250,
      "Ł": 251,
      "ł": 252,
      "ń": 253,
      "ň": 254,
      "ŋ": 255,
      "Ō": 256,
      "ō": 257,
      "ő": 258,
      "œ": 259,
      "ŕ": 260,
      "ř": 261,
      "Ś": 262,
      "ś": 263,
      "Ş": 264,
      "ş": 265,
      "Š": 266,
      "š": 267,
      "ţ": 268,
      "ť": 269,
      "ũ": 270,
      "Ū": 271,
      "ū": 272,
      "ŭ": 273,
      "ų": 274,
      "Ÿ": 275,
      "ź": 276,
      "Ż": 277,
      "Ž": 278,
      "ž": 279,
      "Ɔ": 280,
      "Ǝ": 281,
      "ƒ": 282,
      "ơ": 283,
      "ư": 284,
      "ƴ": 285,
      "ƿ": 286,
      "ș": 287,
      "ȼ": 288,
      "ɘ": 289,
      "ə": 290,
      "ɛ": 291,
      "ɢ": 292,
      "ɣ": 293,
      "ɧ": 294,
      "ɨ": 295,
      "ɪ": 296,
      "ɴ": 297,
      "ɿ": 298,
      "ʀ": 299,
      "ʊ": 300,
      "ʋ": 301,
      "ʌ": 302,
      "ʍ": 303,
      "ʏ": 304,
      "ʘ": 305,
      "ʙ": 306,
      "ʝ": 307,
      "ʟ": 308,
      "ʹ": 309,
      "ʼ": 310,
      "ʿ": 311,
      "ˆ": 312,
      "ˈ": 313,
      "˙": 314,
      "˚": 315,
      "˜": 316,
      "ˤ": 317,
      "́": 318,
      "̂": 319,
      "̄": 320,
      "̆": 321,
      "̇": 322,
      "̈": 323,
      "̊": 324,
      "̣": 325,
      "̧": 326,
      "̴": 327,
      "Α": 328,
      "Λ": 329,
      "Σ": 330,
      "Χ": 331,
      "Ω": 332,
      "ή": 333,
      "α": 334,
      "β": 335,
      "γ": 336,
      "ε": 337,
      "η": 338,
      "θ": 339,
      "ι": 340,
      "μ": 341,
      "ν": 342,
      "ο": 343,
      "π": 344,
      "ρ": 345,
      "ς": 346,
      "τ": 347,
      "φ": 348,
      "ω": 349,
      "ύ": 350,
      "В": 351,
      "Е": 352,
      "З": 353,
      "К": 354,
      "М": 355,
      "О": 356,
      "С": 357,
      "У": 358,
      "Я": 359,
      "а": 360,
      "б": 361,
      "в": 362,
      "г": 363,
      "д": 364,
      "е": 365,
      "з": 366,
      "и": 367,
      "й": 368,
      "к": 369,
      "л": 370,
      "м": 371,
      "н": 372,
      "о": 373,
      "п": 374,
      "р": 375,
      "с": 376,
      "т": 377,
      "у": 378,
      "ц": 379,
      "ч": 380,
      "ш": 381,
      "щ": 382,
      "ы": 383,
      "ь": 384,
      "ю": 385,
      "я": 386,
      "ё": 387,
      "і": 388,
      "ў": 389,
      "ғ": 390,
      "ҫ": 391,
      "Թ": 392,
      "Վ": 393,
      "Տ": 394,
      "֫": 395,
      "،": 396,
      "ء": 397,
      "ؤ": 398,
      "ا": 399,
      "ب": 400,
      "ة": 401,
      "ح": 402,
      "د": 403,
      "ر": 404,
      "س": 405,
      "ش": 406,
      "ص": 407,
      "ض": 408,
      "ع": 409,
      "ـ": 410,
      "ف": 411,
      "ق": 412,
      "ل": 413,
      "م": 414,
      "ن": 415,
      "ى": 416,
      "ِ": 417,
      "ٰ": 418,
      "ہ": 419,
      "ی": 420,
      "۞": 421,
      "ं": 422,
      "अ": 423,
      "आ": 424,
      "इ": 425,
      "ई": 426,
      "ऑ": 427,
      "क": 428,
      "ग": 429,
      "च": 430,
      "छ": 431,
      "ज": 432,
      "झ": 433,
      "ट": 434,
      "ठ": 435,
      "ड": 436,
      "ण": 437,
      "त": 438,
      "थ": 439,
      "द": 440,
      "ध": 441,
      "न": 442,
      "प": 443,
      "ब": 444,
      "भ": 445,
      "म": 446,
      "य": 447,
      "र": 448,
      "ल": 449,
      "व": 450,
      "श": 451,
      "स": 452,
      "ह": 453,
      "़": 454,
      "ा": 455,
      "ि": 456,
      "ी": 457,
      "ु": 458,
      "ू": 459,
      "े": 460,
      "ै": 461,
      "ो": 462,
      "ौ": 463,
      "्": 464,
      "ज़": 465,
      "।": 466,
      "०": 467,
      "१": 468,
      "অ": 469,
      "ক": 470,
      "ট": 471,
      "ফ": 472,
      "ব": 473,
      "ভ": 474,
      "ষ": 475,
      "ি": 476,
      "ে": 477,
      "ਈ": 478,
      "ਭ": 479,
      "ਾ": 480,
      "੦": 481,
      "੧": 482,
      "੨": 483,
      "੩": 484,
      "੪": 485,
      "੫": 486,
      "੬": 487,
      "੭": 488,
      "੮": 489,
      "੯": 490,
      "ੴ": 491,
      "૯": 492,
      "க": 493,
      "ஜ": 494,
      "ட": 495,
      "த": 496,
      "ய": 497,
      "ல": 498,
      "ா": 499,
      "ி": 500,
      "ு": 501,
      "ெ": 502,
      "ோ": 503,
      "்": 504,
      "ಂ": 505,
      "ಕ": 506,
      "ಘ": 507,
      "ತ": 508,
      "ನ": 509,
      "ವ": 510,
      "ಶ": 511,
      "ಸ": 512,
      "ಿ": 513,
      "ೇ": 514,
      "ძ": 515,
      "ᄧ": 516,
      "Ꮶ": 517,
      "ᗡ": 518,
      "ត": 519,
      "ផ": 520,
      "ុ": 521,
      "ំ": 522,
      "្": 523,
      "ᴀ": 524,
      "ᴄ": 525,
      "ᴅ": 526,
      "ᴇ": 527,
      "ᴏ": 528,
      "ᴘ": 529,
      "ᴚ": 530,
      "ᴛ": 531,
      "ᴜ": 532,
      "ᴠ": 533,
      "ᴡ": 534,
      "ᴷ": 535,
      "ᴺ": 536,
      "ᴾ": 537,
      "ᵢ": 538,
      "ᵤ": 539,
      "ᵥ": 540,
      "Ḍ": 541,
      "ḍ": 542,
      "ḥ": 543,
      "ḳ": 544,
      "ḷ": 545,
      "ṁ": 546,
      "ṃ": 547,
      "ṅ": 548,
      "Ṇ": 549,
      "ṇ": 550,
      "Ṛ": 551,
      "ṛ": 552,
      "ṣ": 553,
      "Ṭ": 554,
      "ṭ": 555,
      "ị": 556,
      "ọ": 557,
      "ổ": 558,
      "ộ": 559,
      "ữ": 560,
      "ỳ": 561,
      "Ᾱ": 562,
      "​": 563,
      "‌": 564,
      "‍": 565,
      "‎": 566,
      "‏": 567,
      "‐": 568,
      "‑": 569,
      "‒": 570,
      "–": 571,
      "—": 572,
      "―": 573,
      "‖": 574,
      "‗": 575,
      "‘": 576,
      "’": 577,
      "‚": 578,
      "“": 579,
      "”": 580,
      "„": 581,
      "‟": 582,
      "†": 583,
      "•": 584,
      "‣": 585,
      "…": 586,
      "‪": 587,
      "‬": 588,
      "′": 589,
      "″": 590,
      "‹": 591,
      "›": 592,
      "‼": 593,
      "⁄": 594,
      "⁉": 595,
      "⁠": 596,
      "⁦": 597,
      "⁩": 598,
      "⁰": 599,
      "⁷": 600,
      "ₕ": 601,
      "ₛ": 602,
      "₤": 603,
      "€": 604,
      "₹": 605,
      "₽": 606,
      "₾": 607,
      "⃣": 608,
      "℃": 609,
      "℅": 610,
      "℉": 611,
      "ℒ": 612,
      "℘": 613,
      "™": 614,
      "⅓": 615,
      "→": 616,
      "↓": 617,
      "↔": 618,
      "↗": 619,
      "⇒": 620,
      "∆": 621,
      "−": 622,
      "√": 623,
      "≈": 624,
      "≠": 625,
      "≤": 626,
      "≥": 627,
      "⊥": 628,
      "⋊": 629,
      "⌚": 630,
      "⌛": 631,
      "⏰": 632,
      "⏱": 633,
      "⏲": 634,
      "⏺": 635,
      "ⓙ": 636,
      "ⓞ": 637,
      "─": 638,
      "█": 639,
      "■": 640,
      "▪": 641,
      "▶": 642,
      "►": 643,
      "●": 644,
      "◘": 645,
      "◼": 646,
      "☀": 647,
      "☁": 648,
      "☔": 649,
      "☕": 650,
      "☘": 651,
      "☝": 652,
      "☠": 653,
      "☪": 654,
      "☮": 655,
      "☹": 656,
      "☺": 657,
      "♀": 658,
      "♂": 659,
      "♏": 660,
      "♐": 661,
      "♑": 662,
      "♔": 663,
      "♛": 664,
      "♡": 665,
      "♥": 666,
      "♦": 667,
      "♬": 668,
      "♾": 669,
      "⚓": 670,
      "⚔": 671,
      "⚕": 672,
      "⚜": 673,
      "⚠": 674,
      "⚡": 675,
      "⚪": 676,
      "⚫": 677,
      "⚽": 678,
      "⛈": 679,
      "⛷": 680,
      "✅": 681,
      "✈": 682,
      "✊": 683,
      "✌": 684,
      "✍": 685,
      "✞": 686,
      "✧": 687,
      "✨": 688,
      "✰": 689,
      "❀": 690,
      "❁": 691,
      "❄": 692,
      "❗": 693,
      "❣": 694,
      "❤": 695,
      "➕": 696,
      "➡": 697,
      "➤": 698,
      "⦁": 699,
      "⧗": 700,
      "⬇": 701,
      "⭐": 702,
      "⭕": 703,
      "《": 704,
      "》": 705,
      "ツ": 706,
      "・": 707,
      "一": 708,
      "上": 709,
      "下": 710,
      "与": 711,
      "个": 712,
      "中": 713,
      "交": 714,
      "今": 715,
      "伟": 716,
      "作": 717,
      "信": 718,
      "個": 719,
      "元": 720,
      "內": 721,
      "内": 722,
      "凌": 723,
      "几": 724,
      "分": 725,
      "前": 726,
      "午": 727,
      "友": 728,
      "周": 729,
      "和": 730,
      "嘉": 731,
      "天": 732,
      "姜": 733,
      "孔": 734,
      "宋": 735,
      "審": 736,
      "小": 737,
      "崇": 738,
      "年": 739,
      "幾": 740,
      "庆": 741,
      "庭": 742,
      "式": 743,
      "息": 744,
      "换": 745,
      "据": 746,
      "效": 747,
      "数": 748,
      "日": 749,
      "早": 750,
      "时": 751,
      "明": 752,
      "昨": 753,
      "時": 754,
      "晓": 755,
      "晚": 756,
      "晨": 757,
      "月": 758,
      "期": 759,
      "格": 760,
      "民": 761,
      "法": 762,
      "港": 763,
      "澤": 764,
      "災": 765,
      "爾": 766,
      "王": 767,
      "白": 768,
      "知": 769,
      "示": 770,
      "秒": 771,
      "第": 772,
      "等": 773,
      "经": 774,
      "茜": 775,
      "表": 776,
      "記": 777,
      "财": 778,
      "週": 779,
      "録": 780,
      "鐘": 781,
      "钟": 782,
      "间": 783,
      "雨": 784,
      "韵": 785,
      "香": 786,
      "髪": 787,
      "黄": 788,
      "ꜱ": 789,
      "공": 790,
      "내": 791,
      "년": 792,
      "단": 793,
      "매": 794,
      "발": 795,
      "방": 796,
      "소": 797,
      "슨": 798,
      "안": 799,
      "왕": 800,
      "잭": 801,
      "지": 802,
      "탄": 803,
      "푀": 804,
      "푅": 805,
      "": 806,
      "": 807,
      "": 808,
      "": 809,
      "": 810,
      "": 811,
      "": 812,
      "": 813,
      "": 814,
      "": 815,
      "": 816,
      "": 817,
      "": 818,
      "": 819,
      "": 820,
      "": 821,
      "": 822,
      "": 823,
      "": 824,
      "": 825,
      "": 826,
      "": 827,
      "": 828,
      "": 829,
      "": 830,
      "": 831,
      "": 832,
      "": 833,
      "": 834,
      "": 835,
      "": 836,
      "": 837,
      "": 838,
      "": 839,
      "": 840,
      "": 841,
      "": 842,
      "": 843,
      "": 844,
      "": 845,
      "": 846,
      "": 847,
      "": 848,
      "": 849,
      "": 850,
      "": 851,
      "": 852,
      "": 853,
      "": 854,
      "": 855,
      "": 856,
      "": 857,
      "": 858,
      "": 859,
      "": 860,
      "": 861,
      "": 862,
      "": 863,
      "": 864,
      "": 865,
      "": 866,
      "": 867,
      "": 868,
      "": 869,
      "": 870,
      "": 871,
      "": 872,
      "": 873,
      "": 874,
      "": 875,
      "": 876,
      "": 877,
      "": 878,
      "": 879,
      "": 880,
      "": 881,
      "": 882,
      "": 883,
      "": 884,
      "": 885,
      "": 886,
      "": 887,
      "": 888,
      "": 889,
      "": 890,
      "": 891,
      "": 892,
      "": 893,
      "": 894,
      "": 895,
      "": 896,
      "": 897,
      "": 898,
      "": 899,
      "": 900,
      "": 901,
      "": 902,
      "": 903,
      "": 904,
      "": 905,
      "": 906,
      "": 907,
      "": 908,
      "": 909,
      "": 910,
      "": 911,
      "": 912,
      "": 913,
      "": 914,
      "": 915,
      "": 916,
      "": 917,
      "": 918,
      "": 919,
      "": 920,
      "": 921,
      "": 922,
      "": 923,
      "": 924,
      "": 925,
      "": 926,
      "": 927,
      "": 928,
      "": 929,
      "": 930,
      "": 931,
      "": 932,
      "": 933,
      "": 934,
      "": 935,
      "": 936,
      "": 937,
      "": 938,
      "": 939,
      "": 940,
      "": 941,
      "": 942,
      "": 943,
      "": 944,
      "": 945,
      "": 946,
      "": 947,
      "": 948,
      "": 949,
      "": 950,
      "": 951,
      "": 952,
      "": 953,
      "": 954,
      "": 955,
      "": 956,
      "": 957,
      "": 958,
      "": 959,
      "": 960,
      "": 961,
      "": 962,
      "": 963,
      "": 964,
      "": 965,
      "": 966,
      "": 967,
      "": 968,
      "": 969,
      "": 970,
      "": 971,
      "": 972,
      "": 973,
      "": 974,
      "": 975,
      "": 976,
      "": 977,
      "": 978,
      "": 979,
      "": 980,
      "": 981,
      "": 982,
      "": 983,
      "": 984,
      "": 985,
      "": 986,
      "": 987,
      "": 988,
      "": 989,
      "": 990,
      "": 991,
      "": 992,
      "": 993,
      "": 994,
      "": 995,
      "": 996,
      "": 997,
      "": 998,
      "": 999,
      "": 1000,
      "": 1001,
      "": 1002,
      "": 1003,
      "": 1004,
      "": 1005,
      "": 1006,
      "": 1007,
      "": 1008,
      "": 1009,
      "": 1010,
      "": 1011,
      "": 1012,
      "": 1013,
      "": 1014,
      "": 1015,
      "": 1016,
      "": 1017,
      "": 1018,
      "": 1019,
      "": 1020,
      "": 1021,
      "": 1022,
      "": 1023,
      "": 1024,
      "": 1025,
      "": 1026,
      "": 1027,
      "": 1028,
      "": 1029,
      "": 1030,
      "": 1031,
      "": 1032,
      "": 1033,
      "": 1034,
      "": 1035,
      "": 1036,
      "": 1037,
      "": 1038,
      "": 1039,
      "": 1040,
      "": 1041,
      "": 1042,
      "": 1043,
      "": 1044,
      "": 1045,
      "": 1046,
      "": 1047,
      "": 1048,
      "": 1049,
      "": 1050,
      "": 1051,
      "": 1052,
      "": 1053,
      "": 1054,
      "": 1055,
      "": 1056,
      "": 1057,
      "": 1058,
      "": 1059,
      "": 1060,
      "": 1061,
      "": 1062,
      "": 1063,
      "": 1064,
      "": 1065,
      "": 1066,
      "": 1067,
      "": 1068,
      "": 1069,
      "": 1070,
      "": 1071,
      "": 1072,
      "": 1073,
      "": 1074,
      "": 1075,
      "": 1076,
      "": 1077,
      "": 1078,
      "": 1079,
      "": 1080,
      "": 1081,
      "": 1082,
      "": 1083,
      "": 1084,
      "": 1085,
      "": 1086,
      "": 1087,
      "": 1088,
      "": 1089,
      "": 1090,
      "": 1091,
      "": 1092,
      "": 1093,
      "": 1094,
      "": 1095,
      "": 1096,
      "": 1097,
      "": 1098,
      "": 1099,
      "": 1100,
      "": 1101,
      "": 1102,
      "": 1103,
      "": 1104,
      "": 1105,
      "": 1106,
      "": 1107,
      "": 1108,
      "": 1109,
      "": 1110,
      "": 1111,
      "": 1112,
      "": 1113,
      "": 1114,
      "": 1115,
      "": 1116,
      "": 1117,
      "": 1118,
      "": 1119,
      "": 1120,
      "": 1121,
      "": 1122,
      "": 1123,
      "": 1124,
      "": 1125,
      "": 1126,
      "": 1127,
      "": 1128,
      "": 1129,
      "": 1130,
      "": 1131,
      "": 1132,
      "": 1133,
      "": 1134,
      "": 1135,
      "": 1136,
      "": 1137,
      "": 1138,
      "": 1139,
      "": 1140,
      "": 1141,
      "": 1142,
      "": 1143,
      "": 1144,
      "": 1145,
      "": 1146,
      "": 1147,
      "": 1148,
      "": 1149,
      "": 1150,
      "": 1151,
      "": 1152,
      "": 1153,
      "": 1154,
      "": 1155,
      "": 1156,
      "": 1157,
      "": 1158,
      "": 1159,
      "": 1160,
      "": 1161,
      "": 1162,
      "": 1163,
      "": 1164,
      "": 1165,
      "": 1166,
      "": 1167,
      "": 1168,
      "": 1169,
      "": 1170,
      "蘿": 1171,
      "邏": 1172,
      "樂": 1173,
      "洛": 1174,
      "烙": 1175,
      "珞": 1176,
      "落": 1177,
      "酪": 1178,
      "欄": 1179,
      "爛": 1180,
      "蘭": 1181,
      "藍": 1182,
      "襤": 1183,
      "拉": 1184,
      "臘": 1185,
      "朗": 1186,
      "浪": 1187,
      "郎": 1188,
      "來": 1189,
      "冷": 1190,
      "勞": 1191,
      "擄": 1192,
      "櫓": 1193,
      "路": 1194,
      "祿": 1195,
      "鹿": 1196,
      "論": 1197,
      "壟": 1198,
      "弄": 1199,
      "磊": 1200,
      "賂": 1201,
      "雷": 1202,
      "壘": 1203,
      "陋": 1204,
      "稜": 1205,
      "讀": 1206,
      "拏": 1207,
      "索": 1208,
      "殺": 1209,
      "拾": 1210,
      "梁": 1211,
      "女": 1212,
      "濾": 1213,
      "礪": 1214,
      "驪": 1215,
      "麗": 1216,
      "力": 1217,
      "曆": 1218,
      "歷": 1219,
      "轢": 1220,
      "憐": 1221,
      "戀": 1222,
      "連": 1223,
      "領": 1224,
      "類": 1225,
      "倫": 1226,
      "律": 1227,
      "率": 1228,
      "易": 1229,
      "李": 1230,
      "裡": 1231,
      "笠": 1232,
      "刺": 1233,
      "ﬀ": 1234,
      "ﬁ": 1235,
      "ﬂ": 1236,
      "ﬃ": 1237,
      "ﷺ": 1238,
      "ﷻ": 1239,
      "︎": 1240,
      "️": 1241,
      "﻿": 1242,
      "＆": 1243,
      "（": 1244,
      "）": 1245,
      "＋": 1246,
      "，": 1247,
      "－": 1248,
      "０": 1249,
      "１": 1250,
      "：": 1251,
      "Ａ": 1252,
      "Ｂ": 1253,
      "Ｃ": 1254,
      "Ｅ": 1255,
      "Ｇ": 1256,
      "Ｉ": 1257,
      "Ｌ": 1258,
      "Ｍ": 1259,
      "Ｎ": 1260,
      "Ｏ": 1261,
      "Ｓ": 1262,
      "Ｔ": 1263,
      "Ｖ": 1264,
      "Ｗ": 1265,
      "ａ": 1266,
      "ｂ": 1267,
      "ｄ": 1268,
      "ｅ": 1269,
      "ｈ": 1270,
      "ｌ": 1271,
      "ｍ": 1272,
      "ｎ": 1273,
      "ｏ": 1274,
      "ｐ": 1275,
      "ｒ": 1276,
      "ｙ": 1277,
      "ﾙ": 1278,
      "ﾥ": 1279,
      "￢": 1280,
      "￼": 1281,
      "�": 1282,
      "th": 1283,
      "in": 1284,
      "an": 1285,
      "er": 1286,
      "the": 1287,
      "on": 1288,
      "re": 1289,
      "at": 1290,
      "en": 1291,
      "ed": 1292,
      "st": 1293,
      "al": 1294,
      "ar": 1295,
      "or": 1296,
      "ing": 1297,
      "to": 1298,
      "is": 1299,
      "of": 1300,
      "and": 1301,
      "as": 1302,
      "it": 1303,
      "es": 1304,
      "ou": 1305,
      "ic": 1306,
      "ion": 1307,
      "le": 1308,
      "ent": 1309,
      "om": 1310,
      "he": 1311,
      "il": 1312,
      "ad": 1313,
      "id": 1314,
      "ve": 1315,
      "ac": 1316,
      "be": 1317,
      "se": 1318,
      "am": 1319,
      "ro": 1320,
      "ay": 1321,
      "for": 1322,
      "ch": 1323,
      "ol": 1324,
      "ur": 1325,
      "nd": 1326,
      "ver": 1327,
      "ly": 1328,
      "ir": 1329,
      "im": 1330,
      "wh": 1331,
      "ct": 1332,
      "ation": 1333,
      "ha": 1334,
      "de": 1335,
      "that": 1336,
      "ot": 1337,
      "ow": 1338,
      "The": 1339,
      "ag": 1340,
      "ig": 1341,
      "ce": 1342,
      "ter": 1343,
      "res": 1344,
      "ment": 1345,
      "et": 1346,
      "ist": 1347,
      "ut": 1348,
      "ith": 1349,
      "con": 1350,
      "ers": 1351,
      "ill": 1352,
      "are": 1353,
      "ab": 1354,
      "un": 1355,
      "ak": 1356,
      "with": 1357,
      "com": 1358,
      "20": 1359,
      "su": 1360,
      "ate": 1361,
      "sa": 1362,
      "op": 1363,
      "el": 1364,
      "ul": 1365,
      "ere": 1366,
      "us": 1367,
      "was": 1368,
      "fr": 1369,
      "tr": 1370,
      "pro": 1371,
      "our": 1372,
      "said": 1373,
      "pe": 1374,
      "by": 1375,
      "li": 1376,
      "ain": 1377,
      "has": 1378,
      "ld": 1379,
      "lo": 1380,
      "art": 1381,
      "ap": 1382,
      "ne": 1383,
      "over": 1384,
      "so": 1385,
      "te": 1386,
      "all": 1387,
      "mo": 1388,
      "hi": 1389,
      "ia": 1390,
      "from": 1391,
      "201": 1392,
      "ies": 1393,
      "pl": 1394,
      "Ind": 1395,
      "out": 1396,
      "um": 1397,
      "ity": 1398,
      "ex": 1399,
      "have": 1400,
      "his": 1401,
      "od": 1402,
      "not": 1403,
      "po": 1404,
      "ri": 1405,
      "sh": 1406,
      "ess": 1407,
      "we": 1408,
      "ant": 1409,
      "igh": 1410,
      "will": 1411,
      "per": 1412,
      "me": 1413,
      "ear": 1414,
      "ort": 1415,
      "ther": 1416,
      "one": 1417,
      "day": 1418,
      "ial": 1419,
      "if": 1420,
      "up": 1421,
      "qu": 1422,
      "ast": 1423,
      "ive": 1424,
      "ra": 1425,
      "ud": 1426,
      "ould": 1427,
      "end": 1428,
      "act": 1429,
      "ong": 1430,
      "ice": 1431,
      "est": 1432,
      "ated": 1433,
      "iv": 1434,
      "pr": 1435,
      "ust": 1436,
      "part": 1437,
      "port": 1438,
      "man": 1439,
      "oun": 1440,
      "ind": 1441,
      "cl": 1442,
      "wor": 1443,
      "had": 1444,
      "af": 1445,
      "ke": 1446,
      "ich": 1447,
      "ard": 1448,
      "In": 1449,
      "fe": 1450,
      "its": 1451,
      "India": 1452,
      "pol": 1453,
      "gh": 1454,
      "off": 1455,
      "und": 1456,
      "ge": 1457,
      "this": 1458,
      "who": 1459,
      "ary": 1460,
      "year": 1461,
      "ber": 1462,
      "which": 1463,
      "also": 1464,
      "ef": 1465,
      "em": 1466,
      "their": 1467,
      "ction": 1468,
      "overn": 1469,
      "been": 1470,
      "ore": 1471,
      "ight": 1472,
      "00": 1473,
      "ress": 1474,
      "inist": 1475,
      "ack": 1476,
      "ian": 1477,
      "but": 1478,
      "ok": 1479,
      "ome": 1480,
      "ire": 1481,
      "ure": 1482,
      "gr": 1483,
      "were": 1484,
      "age": 1485,
      "ish": 1486,
      "ev": 1487,
      "ous": 1488,
      "overnment": 1489,
      "Ch": 1490,
      "ep": 1491,
      "sp": 1492,
      "av": 1493,
      "du": 1494,
      "ence": 1495,
      "ime": 1496,
      "comp": 1497,
      "cre": 1498,
      "Th": 1499,
      "ound": 1500,
      "au": 1501,
      "ts": 1502,
      "har": 1503,
      "her": 1504,
      "ord": 1505,
      "ru": 1506,
      "cent": 1507,
      "do": 1508,
      "form": 1509,
      "ough": 1510,
      "ance": 1511,
      "ash": 1512,
      "ide": 1513,
      "aj": 1514,
      "bo": 1515,
      "bl": 1516,
      "any": 1517,
      "go": 1518,
      "aw": 1519,
      "can": 1520,
      "ition": 1521,
      "ake": 1522,
      "ical": 1523,
      "they": 1524,
      "ach": 1525,
      "wo": 1526,
      "ass": 1527,
      "other": 1528,
      "after": 1529,
      "ew": 1530,
      "coun": 1531,
      "ident": 1532,
      "ang": 1533,
      "ine": 1534,
      "dis": 1535,
      "now": 1536,
      "ail": 1537,
      "work": 1538,
      "inister": 1539,
      "ations": 1540,
      "ile": 1541,
      "no": 1542,
      "co": 1543,
      "It": 1544,
      "ans": 1545,
      "ame": 1546,
      "pos": 1547,
      "would": 1548,
      "ict": 1549,
      ",”": 1550,
      "ople": 1551,
      "pre": 1552,
      "ank": 1553,
      "int": 1554,
      "you": 1555,
      "vel": 1556,
      "old": 1557,
      "mar": 1558,
      "comm": 1559,
      "ign": 1560,
      "He": 1561,
      "vi": 1562,
      "ever": 1563,
      "cr": 1564,
      "able": 1565,
      "get": 1566,
      "about": 1567,
      "fir": 1568,
      "ace": 1569,
      "ell": 1570,
      "br": 1571,
      "government": 1572,
      "As": 1573,
      "ree": 1574,
      "people": 1575,
      "St": 1576,
      "ip": 1577,
      "more": 1578,
      "state": 1579,
      "ions": 1580,
      "ase": 1581,
      "ck": 1582,
      "ays": 1583,
      "under": 1584,
      "med": 1585,
      "Pr": 1586,
      "cial": 1587,
      "ade": 1588,
      "new": 1589,
      "ST": 1590,
      "again": 1591,
      "ational": 1592,
      "ser": 1593,
      "add": 1594,
      "sc": 1595,
      "own": 1596,
      "pres": 1597,
      "two": 1598,
      "ai": 1599,
      "att": 1600,
      "De": 1601,
      "inter": 1602,
      "ctor": 1603,
      "mon": 1604,
      "fer": 1605,
      "lead": 1606,
      "time": 1607,
      "like": 1608,
      "there": 1609,
      "them": 1610,
      "ll": 1611,
      "Rs": 1612,
      "ult": 1613,
      "reg": 1614,
      "ho": 1615,
      "cted": 1616,
      "offic": 1617,
      "spe": 1618,
      "low": 1619,
      "mber": 1620,
      "ick": 1621,
      "ally": 1622,
      "ath": 1623,
      "ens": 1624,
      "some": 1625,
      "ry": 1626,
      "leg": 1627,
      "Indian": 1628,
      "when": 1629,
      "2019": 1630,
      "fore": 1631,
      "enc": 1632,
      "ities": 1633,
      "IST": 1634,
      "air": 1635,
      "ates": 1636,
      "ite": 1637,
      "ue": 1638,
      "ann": 1639,
      "ren": 1640,
      "cur": 1641,
      "against": 1642,
      "10": 1643,
      "cont": 1644,
      "je": 1645,
      "ater": 1646,
      "19": 1647,
      "iss": 1648,
      "ele": 1649,
      "We": 1650,
      "vis": 1651,
      "she": 1652,
      "Del": 1653,
      "iz": 1654,
      "uring": 1655,
      ",\"": 1656,
      "him": 1657,
      "ib": 1658,
      "fin": 1659,
      "first": 1660,
      "Minister": 1661,
      "fil": 1662,
      "Delhi": 1663,
      "my": 1664,
      "pp": 1665,
      "ted": 1666,
      "cess": 1667,
      "ings": 1668,
      "cro": 1669,
      "ubl": 1670,
      "og": 1671,
      "than": 1672,
      "come": 1673,
      "ah": 1674,
      "ild": 1675,
      "into": 1676,
      "try": 1677,
      "bet": 1678,
      "Sing": 1679,
      "while": 1680,
      "ents": 1681,
      "ory": 1682,
      "ors": 1683,
      "ments": 1684,
      "An": 1685,
      "..": 1686,
      "only": 1687,
      "ting": 1688,
      "dated": 1689,
      "ise": 1690,
      "play": 1691,
      "police": 1692,
      "years": 1693,
      "amp": 1694,
      "ious": 1695,
      "eng": 1696,
      "last": 1697,
      "urn": 1698,
      "Com": 1699,
      "han": 1700,
      "mark": 1701,
      "Up": 1702,
      "BJ": 1703,
      "esh": 1704,
      "Singh": 1705,
      "ating": 1706,
      "cord": 1707,
      "prov": 1708,
      "being": 1709,
      "Un": 1710,
      "ss": 1711,
      "pers": 1712,
      "row": 1713,
      "red": 1714,
      "used": 1715,
      "New": 1716,
      "ob": 1717,
      "BJP": 1718,
      "incl": 1719,
      "issu": 1720,
      "tak": 1721,
      "vers": 1722,
      "la": 1723,
      "als": 1724,
      "col": 1725,
      "mb": 1726,
      "Cong": 1727,
      "ci": 1728,
      "vest": 1729,
      "ces": 1730,
      "back": 1731,
      "dec": 1732,
      "pt": 1733,
      "fl": 1734,
      "dist": 1735,
      "Ar": 1736,
      "where": 1737,
      "str": 1738,
      "mu": 1739,
      "Updated": 1740,
      "12": 1741,
      "ek": 1742,
      "stud": 1743,
      "ased": 1744,
      "most": 1745,
      "cho": 1746,
      "high": 1747,
      "should": 1748,
      "ourt": 1749,
      "ced": 1750,
      "This": 1751,
      "even": 1752,
      "report": 1753,
      "Congress": 1754,
      "Mar": 1755,
      "set": 1756,
      "read": 1757,
      "ied": 1758,
      "cer": 1759,
      "ener": 1760,
      "tain": 1761,
      "led": 1762,
      "ful": 1763,
      "ven": 1764,
      "such": 1765,
      "way": 1766,
      "min": 1767,
      "thr": 1768,
      "tal": 1769,
      "person": 1770,
      "ik": 1771,
      "mat": 1772,
      "2018": 1773,
      "Wh": 1774,
      "rit": 1775,
      "But": 1776,
      "velop": 1777,
      "main": 1778,
      "umb": 1779,
      "war": 1780,
      "party": 1781,
      "made": 1782,
      "miss": 1783,
      "oc": 1784,
      "ma": 1785,
      "hel": 1786,
      "land": 1787,
      "cond": 1788,
      "official": 1789,
      "hip": 1790,
      "national": 1791,
      "No": 1792,
      "test": 1793,
      "three": 1794,
      "need": 1795,
      "ital": 1796,
      "serv": 1797,
      "mer": 1798,
      "just": 1799,
      "sel": 1800,
      "hand": 1801,
      "gan": 1802,
      "ms": 1803,
      "how": 1804,
      "could": 1805,
      "bu": 1806,
      "stit": 1807,
      "during": 1808,
      "cau": 1809,
      "amil": 1810,
      "dire": 1811,
      "Se": 1812,
      "11": 1813,
      "ink": 1814,
      "ised": 1815,
      "ask": 1816,
      "invest": 1817,
      "these": 1818,
      "sur": 1819,
      "rel": 1820,
      "US": 1821,
      "polit": 1822,
      "country": 1823,
      "ph": 1824,
      "ices": 1825,
      "meet": 1826,
      "ple": 1827,
      "well": 1828,
      "istan": 1829,
      "cle": 1830,
      "15": 1831,
      "ower": 1832,
      "ya": 1833,
      "call": 1834,
      "very": 1835,
      "month": 1836,
      "Raj": 1837,
      "ject": 1838,
      "take": 1839,
      ".”": 1840,
      "mir": 1841,
      "),": 1842,
      "says": 1843,
      "includ": 1844,
      "through": 1845,
      "ty": 1846,
      "ta": 1847,
      "sha": 1848,
      "000": 1849,
      "cap": 1850,
      "wom": 1851,
      "ward": 1852,
      "start": 1853,
      "des": 1854,
      "crore": 1855,
      "Jan": 1856,
      "State": 1857,
      "cause": 1858,
      "what": 1859,
      "ited": 1860,
      "ata": 1861,
      "sub": 1862,
      "ters": 1863,
      "turn": 1864,
      "ug": 1865,
      "then": 1866,
      "esday": 1867,
      "riv": 1868,
      "many": 1869,
      "mak": 1870,
      "know": 1871,
      "head": 1872,
      "long": 1873,
      "stru": 1874,
      "ered": 1875,
      "pur": 1876,
      "ince": 1877,
      "exp": 1878,
      "Pak": 1879,
      "car": 1880,
      "put": 1881,
      "ctions": 1882,
      "mit": 1883,
      "reat": 1884,
      "sy": 1885,
      "Kash": 1886,
      "ond": 1887,
      "ft": 1888,
      "thing": 1889,
      "dif": 1890,
      "pm": 1891,
      "look": 1892,
      "show": 1893,
      "ative": 1894,
      "ose": 1895,
      "down": 1896,
      "Government": 1897,
      "arg": 1898,
      "Fr": 1899,
      "ublic": 1900,
      "ning": 1901,
      "fic": 1902,
      "chi": 1903,
      "far": 1904,
      "Go": 1905,
      "ween": 1906,
      "par": 1907,
      "ral": 1908,
      "want": 1909,
      "develop": 1910,
      "Kashmir": 1911,
      "case": 1912,
      "rest": 1913,
      "Re": 1914,
      "between": 1915,
      "before": 1916,
      "make": 1917,
      "ons": 1918,
      "ix": 1919,
      "every": 1920,
      "produ": 1921,
      "ution": 1922,
      "odi": 1923,
      "bus": 1924,
      "30": 1925,
      "world": 1926,
      "ual": 1927,
      "ular": 1928,
      "Pakistan": 1929,
      "ility": 1930,
      "your": 1931,
      "giv": 1932,
      "ange": 1933,
      "power": 1934,
      "aim": 1935,
      "did": 1936,
      "ten": 1937,
      "alth": 1938,
      "Man": 1939,
      "200": 1940,
      "film": 1941,
      "Sh": 1942,
      "may": 1943,
      "fact": 1944,
      "mand": 1945,
      "help": 1946,
      "team": 1947,
      "stand": 1948,
      "oup": 1949,
      "ics": 1950,
      "run": 1951,
      "tar": 1952,
      "loc": 1953,
      "here": 1954,
      "Mo": 1955,
      "On": 1956,
      "lim": 1957,
      "illion": 1958,
      "2017": 1959,
      "ures": 1960,
      "Modi": 1961,
      "ana": 1962,
      "ished": 1963,
      "And": 1964,
      "ific": 1965,
      "market": 1966,
      "PM": 1967,
      "present": 1968,
      "distr": 1969,
      "xt": 1970,
      "chool": 1971,
      "tra": 1972,
      "iness": 1973,
      "For": 1974,
      "umbai": 1975,
      "side": 1976,
      "fol": 1977,
      "There": 1978,
      "ists": 1979,
      "ub": 1980,
      "sure": 1981,
      "conom": 1982,
      "May": 1983,
      "ving": 1984,
      "por": 1985,
      "wal": 1986,
      "cor": 1987,
      "cording": 1988,
      "clo": 1989,
      "ved": 1990,
      "olog": 1991,
      "famil": 1992,
      "Chi": 1993,
      "fo": 1994,
      "jo": 1995,
      "app": 1996,
      "sen": 1997,
      "Par": 1998,
      "oper": 1999,
      "minister": 2000,
      "four": 2001,
      "post": 2002,
      "grow": 2003,
      "resident": 2004,
      "les": 2005,
      "Mumbai": 2006,
      "18": 2007,
      "ble": 2008,
      "che": 2009,
      "including": 2010,
      "Ma": 2011,
      "ines": 2012,
      "right": 2013,
      "pect": 2014,
      "because": 2015,
      "say": 2016,
      "view": 2017,
      "cut": 2018,
      "How": 2019,
      "around": 2020,
      "ani": 2021,
      "ush": 2022,
      "ner": 2023,
      "ats": 2024,
      "order": 2025,
      "kill": 2026,
      "good": 2027,
      "Tr": 2028,
      "ism": 2029,
      "self": 2030,
      "ched": 2031,
      "25": 2032,
      "point": 2033,
      "Chief": 2034,
      "win": 2035,
      "ouse": 2036,
      "14": 2037,
      ".\"": 2038,
      "Af": 2039,
      "ought": 2040,
      "law": 2041,
      "chief": 2042,
      "ness": 2043,
      "road": 2044,
      "sl": 2045,
      "Ro": 2046,
      "minist": 2047,
      "Al": 2048,
      "Sha": 2049,
      "ati": 2050,
      "16": 2051,
      "fac": 2052,
      "ina": 2053,
      "Ad": 2054,
      "eb": 2055,
      "cas": 2056,
      "life": 2057,
      "child": 2058,
      "found": 2059,
      "ants": 2060,
      "added": 2061,
      "soci": 2062,
      "inc": 2063,
      "bal": 2064,
      "sid": 2065,
      "less": 2066,
      "icket": 2067,
      "bank": 2068,
      "trans": 2069,
      "umar": 2070,
      "sm": 2071,
      "ior": 2072,
      "quest": 2073,
      "public": 2074,
      "They": 2075,
      "court": 2076,
      "prom": 2077,
      "der": 2078,
      "company": 2079,
      "une": 2080,
      "hold": 2081,
      "acc": 2082,
      "She": 2083,
      "oth": 2084,
      "organ": 2085,
      "line": 2086,
      "ared": 2087,
      "17": 2088,
      "akh": 2089,
      "came": 2090,
      "told": 2091,
      "sup": 2092,
      "var": 2093,
      "13": 2094,
      "Pol": 2095,
      "vot": 2096,
      "Cent": 2097,
      "mission": 2098,
      "resp": 2099,
      "Con": 2100,
      "leaders": 2101,
      "differ": 2102,
      "week": 2103,
      "tem": 2104,
      "ible": 2105,
      "alleg": 2106,
      "place": 2107,
      "gu": 2108,
      "econom": 2109,
      "arge": 2110,
      "ided": 2111,
      "So": 2112,
      "num": 2113,
      "follow": 2114,
      "women": 2115,
      "ody": 2116,
      "pass": 2117,
      "since": 2118,
      "Sep": 2119,
      "incre": 2120,
      "ves": 2121,
      "ivers": 2122,
      "contin": 2123,
      "loy": 2124,
      "men": 2125,
      "ency": 2126,
      "let": 2127,
      "ls": 2128,
      "50": 2129,
      "political": 2130,
      "book": 2131,
      "AM": 2132,
      "gg": 2133,
      "taken": 2134,
      "use": 2135,
      "az": 2136,
      "ump": 2137,
      "partment": 2138,
      "ways": 2139,
      "Mon": 2140,
      "kar": 2141,
      "ale": 2142,
      "second": 2143,
      "gener": 2144,
      "big": 2145,
      "days": 2146,
      "Aug": 2147,
      "2016": 2148,
      "those": 2149,
      "vol": 2150,
      "thor": 2151,
      "project": 2152,
      "both": 2153,
      "ural": 2154,
      "Bh": 2155,
      "io": 2156,
      "students": 2157,
      "Jam": 2158,
      "Feb": 2159,
      "sit": 2160,
      "Kumar": 2161,
      "uss": 2162,
      "En": 2163,
      "district": 2164,
      "claim": 2165,
      "same": 2166,
      "urs": 2167,
      "top": 2168,
      "rele": 2169,
      "...": 2170,
      "ga": 2171,
      "next": 2172,
      "much": 2173,
      "inform": 2174,
      "support": 2175,
      "ling": 2176,
      "number": 2177,
      "ross": 2178,
      "peri": 2179,
      "uk": 2180,
      "demand": 2181,
      "position": 2182,
      "commun": 2183,
      "chn": 2184,
      "Me": 2185,
      "meeting": 2186,
      "held": 2187,
      "import": 2188,
      "ising": 2189,
      "too": 2190,
      "ended": 2191,
      "open": 2192,
      "ploy": 2193,
      "group": 2194,
      "cover": 2195,
      "Home": 2196,
      ").": 2197,
      "ision": 2198,
      "Ac": 2199,
      "stem": 2200,
      "ala": 2201,
      "water": 2202,
      "Apr": 2203,
      "level": 2204,
      "five": 2205,
      "pay": 2206,
      "curity": 2207,
      "ie": 2208,
      "got": 2209,
      "agar": 2210,
      "vent": 2211,
      "sign": 2212,
      "Ex": 2213,
      "business": 2214,
      "adesh": 2215,
      "school": 2216,
      "ready": 2217,
      "today": 2218,
      "camp": 2219,
      "action": 2220,
      "attack": 2221,
      "outh": 2222,
      "gram": 2223,
      "fect": 2224,
      "city": 2225,
      "happ": 2226,
      "cy": 2227,
      "based": 2228,
      "real": 2229,
      "ror": 2230,
      "cret": 2231,
      "former": 2232,
      "see": 2233,
      "Wor": 2234,
      "fund": 2235,
      "family": 2236,
      "asked": 2237,
      "val": 2238,
      "indust": 2239,
      "clear": 2240,
      "arch": 2241,
      "move": 2242,
      "ages": 2243,
      "does": 2244,
      "near": 2245,
      "tre": 2246,
      "press": 2247,
      "ired": 2248,
      "However": 2249,
      "sing": 2250,
      "21": 2251,
      "If": 2252,
      "recent": 2253,
      "few": 2254,
      "given": 2255,
      "home": 2256,
      "coming": 2257,
      "24": 2258,
      "president": 2259,
      "Tu": 2260,
      "iday": 2261,
      "issue": 2262,
      "ajor": 2263,
      "lakh": 2264,
      "ours": 2265,
      "hal": 2266,
      "sol": 2267,
      "vill": 2268,
      "ilit": 2269,
      "plain": 2270,
      "ben": 2271,
      "Sat": 2272,
      "remain": 2273,
      "comple": 2274,
      "National": 2275,
      "leader": 2276,
      "Of": 2277,
      "ys": 2278,
      "22": 2279,
      "imes": 2280,
      "Ram": 2281,
      "ged": 2282,
      "ason": 2283,
      "among": 2284,
      "ament": 2285,
      "took": 2286,
      "different": 2287,
      "appe": 2288,
      "ety": 2289,
      "commit": 2290,
      "lier": 2291,
      "partic": 2292,
      "colle": 2293,
      "curren": 2294,
      "another": 2295,
      "wit": 2296,
      "going": 2297,
      "due": 2298,
      "sever": 2299,
      "Mus": 2300,
      "system": 2301,
      "officials": 2302,
      "still": 2303,
      "mor": 2304,
      "across": 2305,
      "interest": 2306,
      "laun": 2307,
      "atch": 2308,
      "don": 2309,
      "health": 2310,
      "23": 2311,
      "China": 2312,
      "ute": 2313,
      "body": 2314,
      "ric": 2315,
      "mbers": 2316,
      "members": 2317,
      "DA": 2318,
      "major": 2319,
      "ned": 2320,
      "hile": 2321,
      "Monday": 2322,
      "ars": 2323,
      "along": 2324,
      "os": 2325,
      "inst": 2326,
      "While": 2327,
      "media": 2328,
      "vict": 2329,
      "Shar": 2330,
      "process": 2331,
      "uly": 2332,
      "ering": 2333,
      "urther": 2334,
      "ublished": 2335,
      "At": 2336,
      "prof": 2337,
      "tee": 2338,
      "uary": 2339,
      "uc": 2340,
      "Court": 2341,
      "Friday": 2342,
      "bre": 2343,
      "called": 2344,
      "Gand": 2345,
      "dr": 2346,
      "2015": 2347,
      "light": 2348,
      "2014": 2349,
      "change": 2350,
      "area": 2351,
      "development": 2352,
      "announ": 2353,
      "Kar": 2354,
      "Khan": 2355,
      "cretary": 2356,
      "ration": 2357,
      "net": 2358,
      "Sab": 2359,
      "alleged": 2360,
      "Prime": 2361,
      "oney": 2362,
      "each": 2363,
      "nor": 2364,
      "na": 2365,
      "BI": 2366,
      "security": 2367,
      "fa": 2368,
      "nat": 2369,
      "lit": 2370,
      "qual": 2371,
      "Wed": 2372,
      "think": 2373,
      "ending": 2374,
      "Tuesday": 2375,
      "rece": 2376,
      "tax": 2377,
      "Dece": 2378,
      "met": 2379,
      "suc": 2380,
      "aud": 2381,
      "talk": 2382,
      "keep": 2383,
      "polic": 2384,
      "sum": 2385,
      "December": 2386,
      "allow": 2387,
      "January": 2388,
      "vir": 2389,
      "ides": 2390,
      "hit": 2391,
      "UP": 2392,
      "ology": 2393,
      "build": 2394,
      "Police": 2395,
      "social": 2396,
      "Le": 2397,
      "protest": 2398,
      "Pro": 2399,
      "ateg": 2400,
      "President": 2401,
      "author": 2402,
      "nesday": 2403,
      "Wednesday": 2404,
      "months": 2405,
      "hu": 2406,
      "Thurs": 2407,
      "aged": 2408,
      "train": 2409,
      "Thursday": 2410,
      "March": 2411,
      "six": 2412,
      "wards": 2413,
      "match": 2414,
      "contr": 2415,
      "care": 2416,
      "Bo": 2417,
      "contro": 2418,
      "semb": 2419,
      "concer": 2420,
      "Ab": 2421,
      "World": 2422,
      "unj": 2423,
      "pop": 2424,
      "requ": 2425,
      "house": 2426,
      "tail": 2427,
      "making": 2428,
      "best": 2429,
      "Gandhi": 2430,
      "techn": 2431,
      "26": 2432,
      "posed": 2433,
      "Gu": 2434,
      "Inter": 2435,
      "arrest": 2436,
      "past": 2437,
      "son": 2438,
      "Dr": 2439,
      "gre": 2440,
      "priv": 2441,
      "late": 2442,
      "ives": 2443,
      "list": 2444,
      "compan": 2445,
      "seen": 2446,
      "aren": 2447,
      "Sund": 2448,
      "ird": 2449,
      "fi": 2450,
      "million": 2451,
      "ified": 2452,
      "hum": 2453,
      "sent": 2454,
      "poss": 2455,
      "sector": 2456,
      "Pradesh": 2457,
      "ones": 2458,
      "employ": 2459,
      "various": 2460,
      "ran": 2461,
      "visit": 2462,
      "children": 2463,
      "without": 2464,
      "eld": 2465,
      "With": 2466,
      "educ": 2467,
      "imp": 2468,
      "28": 2469,
      "growth": 2470,
      "ali": 2471,
      "further": 2472,
      "andid": 2473,
      "activ": 2474,
      "June": 2475,
      "wa": 2476,
      "ball": 2477,
      "ports": 2478,
      "Cha": 2479,
      "elections": 2480,
      "gar": 2481,
      "Oc": 2482,
      "writ": 2483,
      "den": 2484,
      "viol": 2485,
      "comes": 2486,
      "ured": 2487,
      "When": 2488,
      "ional": 2489,
      "Jammu": 2490,
      "aring": 2491,
      "tember": 2492,
      "July": 2493,
      "September": 2494,
      "iversity": 2495,
      "sembly": 2496,
      "blo": 2497,
      "27": 2498,
      "senior": 2499,
      "special": 2500,
      "cost": 2501,
      "local": 2502,
      "ris": 2503,
      "reach": 2504,
      "proble": 2505,
      "After": 2506,
      "glo": 2507,
      "Co": 2508,
      "2020": 2509,
      "ham": 2510,
      "terror": 2511,
      "ources": 2512,
      "several": 2513,
      "away": 2514,
      "fun": 2515,
      "tober": 2516,
      "ends": 2517,
      "October": 2518,
      "ium": 2519,
      "program": 2520,
      "Muslim": 2521,
      "April": 2522,
      "aid": 2523,
      "del": 2524,
      "return": 2525,
      "started": 2526,
      "Te": 2527,
      "beli": 2528,
      "Part": 2529,
      "bar": 2530,
      "lot": 2531,
      "chang": 2532,
      "ton": 2533,
      "accused": 2534,
      "candid": 2535,
      "statement": 2536,
      "director": 2537,
      "According": 2538,
      "All": 2539,
      "money": 2540,
      "unjab": 2541,
      "plan": 2542,
      "trad": 2543,
      "ancial": 2544,
      "Chand": 2545,
      "must": 2546,
      "find": 2547,
      "deal": 2548,
      "already": 2549,
      "Nove": 2550,
      "November": 2551,
      "cept": 2552,
      "rul": 2553,
      "di": 2554,
      "search": 2555,
      "pet": 2556,
      "Gr": 2557,
      "tle": 2558,
      "Sunday": 2559,
      "Sabha": 2560,
      "sto": 2561,
      "Bank": 2562,
      "nam": 2563,
      "August": 2564,
      "IC": 2565,
      "ca": 2566,
      "Punjab": 2567,
      "bas": 2568,
      "current": 2569,
      "Febru": 2570,
      "accoun": 2571,
      "February": 2572,
      "decision": 2573,
      "give": 2574,
      "dom": 2575,
      "fri": 2576,
      "Su": 2577,
      "Act": 2578,
      "working": 2579,
      "Vi": 2580,
      "anch": 2581,
      "Hind": 2582,
      "fail": 2583,
      "feel": 2584,
      "uation": 2585,
      "record": 2586,
      "aff": 2587,
      "40": 2588,
      "Union": 2589,
      "29": 2590,
      "spo": 2591,
      "using": 2592,
      "others": 2593,
      "Published": 2594,
      "left": 2595,
      "ese": 2596,
      "plac": 2597,
      "ref": 2598,
      "oung": 2599,
      "fort": 2600,
      "ban": 2601,
      "Commission": 2602,
      "tries": 2603,
      "better": 2604,
      "gin": 2605,
      "jud": 2606,
      "Satur": 2607,
      "night": 2608,
      "become": 2609,
      "areas": 2610,
      "ination": 2611,
      "spital": 2612,
      "bit": 2613,
      "Saturday": 2614,
      "decl": 2615,
      "dra": 2616,
      "constit": 2617,
      "abad": 2618,
      "nal": 2619,
      "ined": 2620,
      "fall": 2621,
      "ext": 2622,
      "plic": 2623,
      "San": 2624,
      "jay": 2625,
      "success": 2626,
      "ability": 2627,
      "Is": 2628,
      "isation": 2629,
      "disc": 2630,
      "Res": 2631,
      "kes": 2632,
      "won": 2633,
      "supp": 2634,
      "taking": 2635,
      "role": 2636,
      "ground": 2637,
      "consid": 2638,
      "later": 2639,
      "important": 2640,
      "soon": 2641,
      "member": 2642,
      "cases": 2643,
      "condu": 2644,
      "Shah": 2645,
      "init": 2646,
      "milit": 2647,
      "hic": 2648,
      "issues": 2649,
      "companies": 2650,
      "Be": 2651,
      "ived": 2652,
      "gir": 2653,
      "cast": 2654,
      "reported": 2655,
      "ards": 2656,
      "SP": 2657,
      "quar": 2658,
      "Sen": 2659,
      "ically": 2660,
      "bro": 2661,
      "dri": 2662,
      "death": 2663,
      "strong": 2664,
      "done": 2665,
      "hist": 2666,
      "class": 2667,
      "Col": 2668,
      "def": 2669,
      "ED": 2670,
      "To": 2671,
      "Eng": 2672,
      "eve": 2673,
      "step": 2674,
      "large": 2675,
      "avail": 2676,
      "office": 2677,
      "appro": 2678,
      "regist": 2679,
      "election": 2680,
      "IT": 2681,
      "News": 2682,
      "ately": 2683,
      "inj": 2684,
      "final": 2685,
      "ues": 2686,
      "though": 2687,
      "cts": 2688,
      "imple": 2689,
      "incident": 2690,
      "dep": 2691,
      "South": 2692,
      "acy": 2693,
      "key": 2694,
      "went": 2695,
      "non": 2696,
      "mis": 2697,
      "pected": 2698,
      "Sam": 2699,
      "farm": 2700,
      "mid": 2701,
      "whe": 2702,
      "event": 2703,
      "NS": 2704,
      "rate": 2705,
      "young": 2706,
      "”.": 2707,
      "agement": 2708,
      "policy": 2709,
      "Mad": 2710,
      "department": 2711,
      "ude": 2712,
      "ury": 2713,
      "sche": 2714,
      "countries": 2715,
      "bed": 2716,
      "hop": 2717,
      "ences": 2718,
      "ized": 2719,
      "augh": 2720,
      "within": 2721,
      "2013": 2722,
      "close": 2723,
      "MP": 2724,
      "face": 2725,
      "You": 2726,
      "chall": 2727,
      "Mal": 2728,
      "aking": 2729,
      "West": 2730,
      "feat": 2731,
      "adv": 2732,
      "cour": 2733,
      "Ra": 2734,
      "Centre": 2735,
      "financial": 2736,
      "31": 2737,
      "Cor": 2738,
      "cal": 2739,
      "never": 2740,
      "Beng": 2741,
      "ama": 2742,
      "free": 2743,
      "respect": 2744,
      "One": 2745,
      "earlier": 2746,
      "idence": 2747,
      "sal": 2748,
      "ential": 2749,
      "Air": 2750,
      "food": 2751,
      "hoto": 2752,
      "ying": 2753,
      "sho": 2754,
      "fron": 2755,
      "ern": 2756,
      "gy": 2757,
      "cele": 2758,
      "ator": 2759,
      "data": 2760,
      "job": 2761,
      "itional": 2762,
      "mind": 2763,
      "ley": 2764,
      "oh": 2765,
      "stre": 2766,
      "effect": 2767,
      "mi": 2768,
      "Trump": 2769,
      "tion": 2770,
      "hy": 2771,
      "ually": 2772,
      "Shi": 2773,
      "aign": 2774,
      "expected": 2775,
      "TI": 2776,
      "equ": 2777,
      "invol": 2778,
      "bring": 2779,
      "cture": 2780,
      "address": 2781,
      "capital": 2782,
      "actor": 2783,
      "matter": 2784,
      "conne": 2785,
      "discuss": 2786,
      "short": 2787,
      "Mr": 2788,
      "cu": 2789,
      "question": 2790,
      "ey": 2791,
      "always": 2792,
      "ped": 2793,
      "Ak": 2794,
      "oor": 2795,
      "ndra": 2796,
      "pri": 2797,
      "exam": 2798,
      "king": 2799,
      "que": 2800,
      "What": 2801,
      "ient": 2802,
      "investig": 2803,
      "ung": 2804,
      "services": 2805,
      "wood": 2806,
      "rup": 2807,
      "celebr": 2808,
      "seek": 2809,
      "share": 2810,
      "ances": 2811,
      "according": 2812,
      "uck": 2813,
      "IP": 2814,
      "Cl": 2815,
      "complain": 2816,
      "great": 2817,
      "known": 2818,
      "ago": 2819,
      "benef": 2820,
      "small": 2821,
      "constru": 2822,
      "likely": 2823,
      "campaign": 2824,
      "Sharma": 2825,
      "star": 2826,
      "cust": 2827,
      "third": 2828,
      "Party": 2829,
      "ery": 2830,
      "Sa": 2831,
      "cit": 2832,
      "design": 2833,
      "AP": 2834,
      "crit": 2835,
      "killed": 2836,
      "saying": 2837,
      "wn": 2838,
      "Lt": 2839,
      "meric": 2840,
      "industry": 2841,
      "100": 2842,
      "char": 2843,
      "yet": 2844,
      "High": 2845,
      "towards": 2846,
      "international": 2847,
      "erv": 2848,
      "pecial": 2849,
      "Kap": 2850,
      "IA": 2851,
      "hard": 2852,
      "eas": 2853,
      "shi": 2854,
      "total": 2855,
      "mal": 2856,
      "ession": 2857,
      "Har": 2858,
      "deli": 2859,
      "vehic": 2860,
      "name": 2861,
      "Sup": 2862,
      "stri": 2863,
      "states": 2864,
      "seem": 2865,
      "global": 2866,
      "vious": 2867,
      "half": 2868,
      "least": 2869,
      "Americ": 2870,
      "announced": 2871,
      "ulture": 2872,
      "Nare": 2873,
      "officer": 2874,
      "Dire": 2875,
      "Bengal": 2876,
      "ators": 2877,
      "Ne": 2878,
      "certain": 2879,
      "uty": 2880,
      "mad": 2881,
      "education": 2882,
      "bi": 2883,
      "ps": 2884,
      "foc": 2885,
      "slam": 2886,
      "condition": 2887,
      "ference": 2888,
      "till": 2889,
      "stop": 2890,
      "mus": 2891,
      "Am": 2892,
      "Ut": 2893,
      "itive": 2894,
      "sk": 2895,
      "That": 2896,
      "private": 2897,
      "situation": 2898,
      "ave": 2899,
      "appoint": 2900,
      "MC": 2901,
      "village": 2902,
      "ened": 2903,
      "proper": 2904,
      "Mah": 2905,
      "why": 2906,
      "field": 2907,
      "information": 2908,
      "anti": 2909,
      "Narendra": 2910,
      "liament": 2911,
      "experi": 2912,
      "Pe": 2913,
      "uro": 2914,
      "div": 2915,
      "Ah": 2916,
      "legal": 2917,
      "instit": 2918,
      "fut": 2919,
      "Lok": 2920,
      "charg": 2921,
      "ints": 2922,
      "University": 2923,
      "parties": 2924,
      "phone": 2925,
      "decided": 2926,
      "Pl": 2927,
      "human": 2928,
      "conf": 2929,
      "ily": 2930,
      "series": 2931,
      "woman": 2932,
      "rain": 2933,
      "game": 2934,
      "lear": 2935,
      "round": 2936,
      "ibut": 2937,
      "Sr": 2938,
      "cing": 2939,
      "ife": 2940,
      "Nor": 2941,
      "Rah": 2942,
      "compet": 2943,
      "having": 2944,
      "Mahar": 2945,
      "ulation": 2946,
      "target": 2947,
      "early": 2948,
      "billion": 2949,
      "term": 2950,
      "grap": 2951,
      "room": 2952,
      "olly": 2953,
      "redu": 2954,
      "mot": 2955,
      "Bar": 2956,
      "arrested": 2957,
      "Just": 2958,
      "economic": 2959,
      "ka": 2960,
      "ensure": 2961,
      "times": 2962,
      "suf": 2963,
      "lish": 2964,
      "Fin": 2965,
      "jar": 2966,
      "onment": 2967,
      "achi": 2968,
      "provide": 2969,
      "Pat": 2970,
      "pite": 2971,
      "ecut": 2972,
      "Mu": 2973,
      "general": 2974,
      "vide": 2975,
      "Ltd": 2976,
      "flo": 2977,
      "prote": 2978,
      "administ": 2979,
      "Aust": 2980,
      "Bi": 2981,
      "By": 2982,
      "199": 2983,
      "hind": 2984,
      "foreign": 2985,
      "particip": 2986,
      "medi": 2987,
      "gether": 2988,
      "atic": 2989,
      "Goa": 2990,
      "tour": 2991,
      "uru": 2992,
      "period": 2993,
      "band": 2994,
      "jour": 2995,
      "fight": 2996,
      "els": 2997,
      "ets": 2998,
      "sist": 2999,
      "vision": 3000,
      "ipal": 3001,
      "pan": 3002,
      "things": 3003,
      "ners": 3004,
      "ilar": 3005,
      "infl": 3006,
      "mob": 3007,
      "result": 3008,
      "CC": 3009,
      "ivil": 3010,
      "following": 3011,
      "lab": 3012,
      "ians": 3013,
      "ste": 3014,
      "love": 3015,
      "cru": 3016,
      "community": 3017,
      "Bang": 3018,
      "wr": 3019,
      "IS": 3020,
      "available": 3021,
      "bir": 3022,
      "Director": 3023,
      "gn": 3024,
      "sell": 3025,
      "fire": 3026,
      "together": 3027,
      "ried": 3028,
      "iding": 3029,
      "ots": 3030,
      "respons": 3031,
      "received": 3032,
      "forman": 3033,
      "35": 3034,
      "express": 3035,
      "poll": 3036,
      "ults": 3037,
      "hours": 3038,
      "ively": 3039,
      "cannot": 3040,
      "played": 3041,
      "force": 3042,
      "research": 3043,
      "claimed": 3044,
      "My": 3045,
      "sugg": 3046,
      "suggest": 3047,
      "however": 3048,
      "ibility": 3049,
      "Ran": 3050,
      "issued": 3051,
      "dro": 3052,
      "news": 3053,
      "deb": 3054,
      "Minist": 3055,
      "ees": 3056,
      "atter": 3057,
      "09": 3058,
      "board": 3059,
      "sex": 3060,
      "lost": 3061,
      "price": 3062,
      "Austral": 3063,
      "inal": 3064,
      "future": 3065,
      "TV": 3066,
      "hot": 3067,
      "promot": 3068,
      "AI": 3069,
      "performan": 3070,
      "elect": 3071,
      "needs": 3072,
      "chair": 3073,
      "SC": 3074,
      "getting": 3075,
      "threat": 3076,
      "ival": 3077,
      "ises": 3078,
      "station": 3079,
      "complete": 3080,
      "hospital": 3081,
      "imilar": 3082,
      "ull": 3083,
      "udget": 3084,
      "service": 3085,
      "launch": 3086,
      "era": 3087,
      "tell": 3088,
      "larg": 3089,
      "ollywood": 3090,
      "Op": 3091,
      "70": 3092,
      "Department": 3093,
      "once": 3094,
      "ories": 3095,
      "Uttar": 3096,
      "detail": 3097,
      "aging": 3098,
      "travel": 3099,
      "recently": 3100,
      "aly": 3101,
      "reed": 3102,
      "cil": 3103,
      "implement": 3104,
      "continue": 3105,
      "spec": 3106,
      "tou": 3107,
      "shop": 3108,
      "Islam": 3109,
      "Gener": 3110,
      "Bhar": 3111,
      "reme": 3112,
      "firm": 3113,
      "mocr": 3114,
      "farmers": 3115,
      "alli": 3116,
      "08": 3117,
      "\".": 3118,
      "pot": 3119,
      "front": 3120,
      "ilities": 3121,
      "tro": 3122,
      "higher": 3123,
      "stat": 3124,
      "story": 3125,
      "gress": 3126,
      "CP": 3127,
      "ns": 3128,
      "season": 3129,
      "bad": 3130,
      "charge": 3131,
      "seven": 3132,
      "mes": 3133,
      "full": 3134,
      "cred": 3135,
      "unt": 3136,
      "consu": 3137,
      "victim": 3138,
      "ost": 3139,
      "points": 3140,
      "ission": 3141,
      "prove": 3142,
      "region": 3143,
      "ience": 3144,
      "possible": 3145,
      "function": 3146,
      "Supreme": 3147,
      "vo": 3148,
      "Secretary": 3149,
      "spir": 3150,
      "meas": 3151,
      "fair": 3152,
      "forces": 3153,
      "60": 3154,
      "host": 3155,
      "works": 3156,
      "ashtra": 3157,
      "loss": 3158,
      "lect": 3159,
      "AN": 3160,
      "whether": 3161,
      "Sar": 3162,
      "ron": 3163,
      "--": 3164,
      "treat": 3165,
      "increase": 3166,
      "polls": 3167,
      "father": 3168,
      "ram": 3169,
      "vironment": 3170,
      "seats": 3171,
      "portun": 3172,
      "emer": 3173,
      "Sal": 3174,
      "initi": 3175,
      "ging": 3176,
      "trade": 3177,
      "Central": 3178,
      "doing": 3179,
      "Sy": 3180,
      "relations": 3181,
      "foot": 3182,
      "break": 3183,
      "United": 3184,
      "ML": 3185,
      "youth": 3186,
      "quality": 3187,
      "Ag": 3188,
      "range": 3189,
      "ably": 3190,
      "Assembly": 3191,
      "pract": 3192,
      "CM": 3193,
      "BS": 3194,
      "izens": 3195,
      "regard": 3196,
      "Son": 3197,
      "programme": 3198,
      "ither": 3199,
      "committee": 3200,
      "bigg": 3201,
      "amoun": 3202,
      "account": 3203,
      "AT": 3204,
      "ening": 3205,
      "fest": 3206,
      "might": 3207,
      "itor": 3208,
      "opportun": 3209,
      "Bha": 3210,
      "These": 3211,
      "scre": 3212,
      "Srin": 3213,
      "relig": 3214,
      "entire": 3215,
      "DP": 3216,
      "ane": 3217,
      "officers": 3218,
      "Ja": 3219,
      "ari": 3220,
      "live": 3221,
      "hur": 3222,
      "exper": 3223,
      "mass": 3224,
      "2012": 3225,
      "AR": 3226,
      "heart": 3227,
      "represent": 3228,
      "behind": 3229,
      "Day": 3230,
      "enn": 3231,
      "projects": 3232,
      "General": 3233,
      "resol": 3234,
      "ier": 3235,
      "space": 3236,
      "Cup": 3237,
      "site": 3238,
      "economy": 3239,
      "asing": 3240,
      "direct": 3241,
      "photo": 3242,
      "mult": 3243,
      "fast": 3244,
      "fav": 3245,
      "cricket": 3246,
      "adding": 3247,
      "something": 3248,
      "dou": 3249,
      "45": 3250,
      "nation": 3251,
      "study": 3252,
      "Coun": 3253,
      "word": 3254,
      "spot": 3255,
      "Dec": 3256,
      "little": 3257,
      "dict": 3258,
      "prices": 3259,
      "bor": 3260,
      "Des": 3261,
      "kind": 3262,
      "banks": 3263,
      "esides": 3264,
      "custom": 3265,
      "ague": 3266,
      "workers": 3267,
      "begin": 3268,
      "ahead": 3269,
      "released": 3270,
      "encies": 3271,
      "central": 3272,
      "stay": 3273,
      "Rahul": 3274,
      "gl": 3275,
      "personal": 3276,
      "understand": 3277,
      "Gujar": 3278,
      "Maharashtra": 3279,
      "sed": 3280,
      "International": 3281,
      "release": 3282,
      "07": 3283,
      "launched": 3284,
      "risk": 3285,
      "poor": 3286,
      "expect": 3287,
      "wel": 3288,
      "paren": 3289,
      "lack": 3290,
      "bow": 3291,
      "technology": 3292,
      "aur": 3293,
      "building": 3294,
      "teach": 3295,
      "dead": 3296,
      "looking": 3297,
      "utions": 3298,
      "pain": 3299,
      "quarter": 3300,
      "outside": 3301,
      "House": 3302,
      "His": 3303,
      "watch": 3304,
      "execut": 3305,
      "applic": 3306,
      "Ali": 3307,
      "super": 3308,
      "authorities": 3309,
      "investment": 3310,
      "course": 3311,
      "control": 3312,
      "Brit": 3313,
      "mother": 3314,
      "mitted": 3315,
      "gam": 3316,
      "sources": 3317,
      "continu": 3318,
      "dest": 3319,
      "atory": 3320,
      "strateg": 3321,
      "check": 3322,
      "Not": 3323,
      "Kapoor": 3324,
      "App": 3325,
      "ention": 3326,
      "PTI": 3327,
      "deep": 3328,
      "batt": 3329,
      "depend": 3330,
      "approach": 3331,
      "plann": 3332,
      "ification": 3333,
      "Cr": 3334,
      "brought": 3335,
      "music": 3336,
      "block": 3337,
      "management": 3338,
      "500": 3339,
      "almost": 3340,
      "dev": 3341,
      "IM": 3342,
      "secretary": 3343,
      "ins": 3344,
      "aut": 3345,
      "ler": 3346,
      "video": 3347,
      "really": 3348,
      "wife": 3349,
      "mom": 3350,
      "sociation": 3351,
      "hon": 3352,
      "girl": 3353,
      "pose": 3354,
      "reason": 3355,
      "Nov": 3356,
      "counter": 3357,
      "ney": 3358,
      "proved": 3359,
      "omb": 3360,
      "IN": 3361,
      "schools": 3362,
      "performance": 3363,
      "Shiv": 3364,
      "problem": 3365,
      "witter": 3366,
      "Ph": 3367,
      "Med": 3368,
      "date": 3369,
      "mess": 3370,
      "funds": 3371,
      "Ash": 3372,
      "oud": 3373,
      "previous": 3374,
      "raised": 3375,
      "trying": 3376,
      "Euro": 3377,
      "players": 3378,
      "Even": 3379,
      "ja": 3380,
      "ada": 3381,
      "resh": 3382,
      "worth": 3383,
      "pati": 3384,
      "dam": 3385,
      "Gujarat": 3386,
      "immedi": 3387,
      "aper": 3388,
      "reports": 3389,
      "icts": 3390,
      "reng": 3391,
      "80": 3392,
      "ring": 3393,
      "estab": 3394,
      "corpor": 3395,
      "Dev": 3396,
      "Sw": 3397,
      "society": 3398,
      "aka": 3399,
      "adu": 3400,
      "leading": 3401,
      "persons": 3402,
      "Do": 3403,
      "01": 3404,
      "sec": 3405,
      "hol": 3406,
      "brand": 3407,
      "ji": 3408,
      "DAT": 3409,
      "sets": 3410,
      "Dal": 3411,
      "atives": 3412,
      "registered": 3413,
      "informed": 3414,
      "review": 3415,
      "directed": 3416,
      "particular": 3417,
      "06": 3418,
      "avy": 3419,
      "serious": 3420,
      "utes": 3421,
      "pecially": 3422,
      "spokes": 3423,
      "Jun": 3424,
      "acqu": 3425,
      "CA": 3426,
      "phas": 3427,
      "cou": 3428,
      "rights": 3429,
      "especially": 3430,
      "impact": 3431,
      "occas": 3432,
      "plans": 3433,
      "scheme": 3434,
      "streng": 3435,
      "05": 3436,
      "Develop": 3437,
      "exist": 3438,
      "Or": 3439,
      "tele": 3440,
      "Ke": 3441,
      "CE": 3442,
      "Ear": 3443,
      "crim": 3444,
      "rid": 3445,
      "ored": 3446,
      "ource": 3447,
      "UPDAT": 3448,
      "adav": 3449,
      "forms": 3450,
      "venue": 3451,
      "tit": 3452,
      "overnor": 3453,
      "films": 3454,
      "civil": 3455,
      "edd": 3456,
      "online": 3457,
      "runs": 3458,
      "forward": 3459,
      "filed": 3460,
      "cri": 3461,
      "Srinagar": 3462,
      "oil": 3463,
      "aware": 3464,
      "results": 3465,
      "dig": 3466,
      "Ministry": 3467,
      "opt": 3468,
      "UPDATED": 3469,
      "hous": 3470,
      "candidates": 3471,
      "stock": 3472,
      "access": 3473,
      "Im": 3474,
      "intro": 3475,
      "administration": 3476,
      "Jul": 3477,
      "often": 3478,
      "town": 3479,
      "ficult": 3480,
      "enter": 3481,
      "Bal": 3482,
      "ension": 3483,
      "wan": 3484,
      "Now": 3485,
      "aled": 3486,
      "Ho": 3487,
      "wanted": 3488,
      "vt": 3489,
      "ret": 3490,
      "maintain": 3491,
      "friend": 3492,
      "ize": 3493,
      "Hary": 3494,
      "history": 3495,
      "percent": 3496,
      "attem": 3497,
      "rad": 3498,
      "pat": 3499,
      "enough": 3500,
      "difficult": 3501,
      "cir": 3502,
      "operation": 3503,
      "angu": 3504,
      "popular": 3505,
      "fit": 3506,
      "lt": 3507,
      "gave": 3508,
      "experience": 3509,
      "Test": 3510,
      "Haryana": 3511,
      "forts": 3512,
      "iting": 3513,
      "charac": 3514,
      "Yadav": 3515,
      "frast": 3516,
      "frastru": 3517,
      "huge": 3518,
      "playing": 3519,
      "ove": 3520,
      "ivid": 3521,
      "ries": 3522,
      "agree": 3523,
      "sil": 3524,
      "categ": 3525,
      "School": 3526,
      "rug": 3527,
      "ctors": 3528,
      "constitu": 3529,
      "contest": 3530,
      "Parliament": 3531,
      "related": 3532,
      "san": 3533,
      "violence": 3534,
      "makes": 3535,
      "Sun": 3536,
      "mun": 3537,
      "arh": 3538,
      "gen": 3539,
      "van": 3540,
      "weet": 3541,
      "North": 3542,
      "Board": 3543,
      "imum": 3544,
      "perform": 3545,
      "aughter": 3546,
      "Off": 3547,
      "rap": 3548,
      "Pre": 3549,
      "construction": 3550,
      "endra": 3551,
      "create": 3552,
      "Serv": 3553,
      "anka": 3554,
      "signific": 3555,
      "regular": 3556,
      "aries": 3557,
      "wide": 3558,
      "ades": 3559,
      "politics": 3560,
      "link": 3561,
      "focus": 3562,
      "offer": 3563,
      "lower": 3564,
      "challeng": 3565,
      "anwhile": 3566,
      "single": 3567,
      "ature": 3568,
      "cra": 3569,
      "sold": 3570,
      "environment": 3571,
      "gain": 3572,
      "products": 3573,
      "favour": 3574,
      "Oct": 3575,
      "Europe": 3576,
      "fully": 3577,
      "isl": 3578,
      "ties": 3579,
      "ster": 3580,
      "despite": 3581,
      "SS": 3582,
      "pict": 3583,
      "wicket": 3584,
      "recover": 3585,
      "Pal": 3586,
      "ti": 3587,
      "reve": 3588,
      "ked": 3589,
      "introdu": 3590,
      "amb": 3591,
      "Development": 3592,
      "03": 3593,
      "eight": 3594,
      "smart": 3595,
      "ender": 3596,
      "gold": 3597,
      "frastructure": 3598,
      "Russ": 3599,
      "suffer": 3600,
      "mur": 3601,
      "”,": 3602,
      "ikh": 3603,
      "medical": 3604,
      "aster": 3605,
      "Sur": 3606,
      "FI": 3607,
      "parts": 3608,
      "inese": 3609,
      "lines": 3610,
      "separ": 3611,
      "ify": 3612,
      "Some": 3613,
      "Bihar": 3614,
      "amount": 3615,
      "track": 3616,
      "request": 3617,
      "Ker": 3618,
      "Chinese": 3619,
      "37": 3620,
      "ently": 3621,
      "ax": 3622,
      "Cap": 3623,
      "reli": 3624,
      "Commit": 3625,
      "carry": 3626,
      "ze": 3627,
      "04": 3628,
      "sequ": 3629,
      "efforts": 3630,
      "inv": 3631,
      "moved": 3632,
      "provided": 3633,
      "petition": 3634,
      "Nag": 3635,
      "vote": 3636,
      "witness": 3637,
      "dle": 3638,
      "ufact": 3639,
      "02": 3640,
      "contribut": 3641,
      "spect": 3642,
      "commer": 3643,
      "Army": 3644,
      "didn": 3645,
      "vey": 3646,
      "36": 3647,
      "problems": 3648,
      "Hy": 3649,
      "ceed": 3650,
      "ony": 3651,
      "Afr": 3652,
      "oft": 3653,
      "ministry": 3654,
      "lying": 3655,
      "failed": 3656,
      "markets": 3657,
      "Australia": 3658,
      "abin": 3659,
      "ption": 3660,
      "morning": 3661,
      "buy": 3662,
      "respond": 3663,
      "individ": 3664,
      "similar": 3665,
      "include": 3666,
      "draw": 3667,
      "mp": 3668,
      "turned": 3669,
      "Bollywood": 3670,
      "basis": 3671,
      "Justice": 3672,
      "parents": 3673,
      "Group": 3674,
      "places": 3675,
      "hest": 3676,
      "talks": 3677,
      "Colle": 3678,
      "sw": 3679,
      "fected": 3680,
      "CBI": 3681,
      "Sri": 3682,
      "saw": 3683,
      "Don": 3684,
      "bur": 3685,
      "regul": 3686,
      "lies": 3687,
      "saf": 3688,
      "selves": 3689,
      "inder": 3690,
      "32": 3691,
      "training": 3692,
      "Pand": 3693,
      "sty": 3694,
      "cross": 3695,
      "speak": 3696,
      "docu": 3697,
      "fare": 3698,
      "Committee": 3699,
      "ena": 3700,
      "estic": 3701,
      "involved": 3702,
      "identified": 3703,
      "Mir": 3704,
      "lives": 3705,
      "terms": 3706,
      "plat": 3707,
      "mobile": 3708,
      "sched": 3709,
      "aland": 3710,
      "web": 3711,
      "UN": 3712,
      "engine": 3713,
      "rep": 3714,
      "Also": 3715,
      "fell": 3716,
      "ship": 3717,
      "giving": 3718,
      "sens": 3719,
      "whose": 3720,
      "friends": 3721,
      "Spe": 3722,
      "common": 3723,
      "join": 3724,
      "2011": 3725,
      "Tamil": 3726,
      "pick": 3727,
      "explo": 3728,
      "34": 3729,
      "rish": 3730,
      "cop": 3731,
      "improve": 3732,
      "onse": 3733,
      "SA": 3734,
      "apan": 3735,
      "scen": 3736,
      "shows": 3737,
      "adem": 3738,
      "production": 3739,
      "cell": 3740,
      "roll": 3741,
      "ensive": 3742,
      "latest": 3743,
      "allowed": 3744,
      "Ste": 3745,
      "commission": 3746,
      "attr": 3747,
      "gun": 3748,
      "necess": 3749,
      "sam": 3750,
      "shot": 3751,
      "believe": 3752,
      "biggest": 3753,
      "gets": 3754,
      "award": 3755,
      "Offic": 3756,
      "rates": 3757,
      "States": 3758,
      "followed": 3759,
      "During": 3760,
      "chairman": 3761,
      "conducted": 3762,
      "hya": 3763,
      "prep": 3764,
      "American": 3765,
      "cities": 3766,
      "Kh": 3767,
      "bench": 3768,
      "II": 3769,
      "cogn": 3770,
      "strict": 3771,
      "largest": 3772,
      "consum": 3773,
      "budget": 3774,
      "activities": 3775,
      "fill": 3776,
      "stage": 3777,
      "plant": 3778,
      "Nar": 3779,
      "employees": 3780,
      "Corpor": 3781,
      "Afric": 3782,
      "session": 3783,
      "FC": 3784,
      "Meanwhile": 3785,
      "Reg": 3786,
      "military": 3787,
      "injured": 3788,
      "cash": 3789,
      "cam": 3790,
      "Muslims": 3791,
      "48": 3792,
      "himself": 3793,
      "nel": 3794,
      "bill": 3795,
      "manufact": 3796,
      "vehicles": 3797,
      "birth": 3798,
      "vie": 3799,
      "fig": 3800,
      "East": 3801,
      "langu": 3802,
      "auto": 3803,
      "ization": 3804,
      "jee": 3805,
      "ita": 3806,
      "ids": 3807,
      "imate": 3808,
      "nothing": 3809,
      "aver": 3810,
      "iple": 3811,
      "sought": 3812,
      "tic": 3813,
      "means": 3814,
      "black": 3815,
      "ee": 3816,
      "pressure": 3817,
      "occasion": 3818,
      "clean": 3819,
      "33": 3820,
      "shared": 3821,
      "assembly": 3822,
      "nder": 3823,
      "adi": 3824,
      "uni": 3825,
      "ultural": 3826,
      "citizens": 3827,
      "mag": 3828,
      "Council": 3829,
      "Au": 3830,
      "song": 3831,
      "abinet": 3832,
      "People": 3833,
      "allegedly": 3834,
      "hib": 3835,
      "became": 3836,
      "candidate": 3837,
      "opposition": 3838,
      "propos": 3839,
      "cation": 3840,
      "dem": 3841,
      "traf": 3842,
      "nearly": 3843,
      "beat": 3844,
      "rail": 3845,
      "Japan": 3846,
      "55": 3847,
      "traffic": 3848,
      "coach": 3849,
      "Tri": 3850,
      "consider": 3851,
      "ruption": 3852,
      "increased": 3853,
      "Tal": 3854,
      "significant": 3855,
      "susp": 3856,
      "peace": 3857,
      "groups": 3858,
      "served": 3859,
      "Far": 3860,
      "ipur": 3861,
      "anim": 3862,
      "charges": 3863,
      "ferred": 3864,
      "doesn": 3865,
      "Kol": 3866,
      "cise": 3867,
      "ded": 3868,
      "Karnat": 3869,
      "47": 3870,
      "aya": 3871,
      "leadership": 3872,
      "paid": 3873,
      "itself": 3874,
      "Iran": 3875,
      "ech": 3876,
      "investors": 3877,
      "ping": 3878,
      "gone": 3879,
      "letter": 3880,
      "concerned": 3881,
      "ara": 3882,
      "border": 3883,
      "ming": 3884,
      "believ": 3885,
      "sales": 3886,
      "Karnataka": 3887,
      "RE": 3888,
      "ribut": 3889,
      "infrastructure": 3890,
      "squ": 3891,
      "potential": 3892,
      "income": 3893,
      "response": 3894,
      "Writ": 3895,
      "drug": 3896,
      "Instit": 3897,
      "details": 3898,
      "fel": 3899,
      "student": 3900,
      "Amit": 3901,
      "ager": 3902,
      "comb": 3903,
      "minor": 3904,
      "More": 3905,
      "investigation": 3906,
      "moder": 3907,
      "eder": 3908,
      "aug": 3909,
      "orig": 3910,
      "vert": 3911,
      "Sid": 3912,
      "couple": 3913,
      "Express": 3914,
      "chan": 3915,
      "nu": 3916,
      "Hindu": 3917,
      "ampions": 3918,
      "Jo": 3919,
      "push": 3920,
      "changes": 3921,
      "domestic": 3922,
      "Can": 3923,
      "Po": 3924,
      "recomm": 3925,
      "Twitter": 3926,
      "Kerala": 3927,
      "Li": 3928,
      "rise": 3929,
      "passed": 3930,
      "Pri": 3931,
      "conduct": 3932,
      "igarh": 3933,
      "lection": 3934,
      "centre": 3935,
      "daughter": 3936,
      "Muk": 3937,
      "England": 3938,
      "movie": 3939,
      "pack": 3940,
      "created": 3941,
      "advis": 3942,
      "prevent": 3943,
      "agency": 3944,
      "itation": 3945,
      "udd": 3946,
      "assist": 3947,
      "jan": 3948,
      "joint": 3949,
      "legisl": 3950,
      "38": 3951,
      "ami": 3952,
      "ghan": 3953,
      "nings": 3954,
      "Edu": 3955,
      "slow": 3956,
      "shoot": 3957,
      "AAP": 3958,
      "hood": 3959,
      "seat": 3960,
      "ison": 3961,
      "treatment": 3962,
      "organised": 3963,
      "wants": 3964,
      "staff": 3965,
      "ika": 3966,
      "died": 3967,
      "Add": 3968,
      "defin": 3969,
      "relationship": 3970,
      "Rep": 3971,
      "began": 3972,
      "kept": 3973,
      "Our": 3974,
      "ero": 3975,
      "upta": 3976,
      "movement": 3977,
      "flow": 3978,
      "dre": 3979,
      "rote": 3980,
      "moment": 3981,
      "idea": 3982,
      "either": 3983,
      "uses": 3984,
      "Health": 3985,
      "value": 3986,
      "stated": 3987,
      "va": 3988,
      "revenue": 3989,
      "39": 3990,
      "mean": 3991,
      "written": 3992,
      "hus": 3993,
      "49": 3994,
      "above": 3995,
      "pen": 3996,
      "aving": 3997,
      "supply": 3998,
      "avi": 3999,
      "card": 4000,
      "demon": 4001,
      "actions": 4002,
      "Meh": 4003,
      "energy": 4004,
      "prime": 4005,
      "takes": 4006,
      "mater": 4007,
      "seeking": 4008,
      "measures": 4009,
      "democr": 4010,
      "rist": 4011,
      "product": 4012,
      "deliver": 4013,
      "Governor": 4014,
      "aste": 4015,
      "indic": 4016,
      "path": 4017,
      "ample": 4018,
      "required": 4019,
      "Fore": 4020,
      "wrote": 4021,
      "Moham": 4022,
      "RC": 4023,
      "ges": 4024,
      "affected": 4025,
      "Road": 4026,
      "yal": 4027,
      "aran": 4028,
      "profess": 4029,
      "rank": 4030,
      "rial": 4031,
      "districts": 4032,
      "happy": 4033,
      "RBI": 4034,
      "insur": 4035,
      "enge": 4036,
      "Asia": 4037,
      "jun": 4038,
      "\",": 4039,
      "seems": 4040,
      "uled": 4041,
      "unit": 4042,
      "spread": 4043,
      "coal": 4044,
      "ald": 4045,
      "currently": 4046,
      "bul": 4047,
      "pted": 4048,
      "bag": 4049,
      "ondon": 4050,
      "Vijay": 4051,
      "Az": 4052,
      "thought": 4053,
      "soft": 4054,
      "Dep": 4055,
      "ark": 4056,
      "ashing": 4057,
      "population": 4058,
      "aily": 4059,
      "inste": 4060,
      "Dist": 4061,
      "Ko": 4062,
      "mention": 4063,
      "hope": 4064,
      "ples": 4065,
      "cul": 4066,
      "omet": 4067,
      "bound": 4068,
      "forest": 4069,
      "198": 4070,
      "progress": 4071,
      "living": 4072,
      "distribut": 4073,
      "km": 4074,
      "growing": 4075,
      "leave": 4076,
      "minutes": 4077,
      "reached": 4078,
      "ighest": 4079,
      "reas": 4080,
      "hai": 4081,
      "inside": 4082,
      "credit": 4083,
      "status": 4084,
      "safe": 4085,
      "Pan": 4086,
      "proposed": 4087,
      "NG": 4088,
      "explain": 4089,
      "urban": 4090,
      "tweet": 4091,
      "DM": 4092,
      "tried": 4093,
      "anger": 4094,
      "Commissioner": 4095,
      "learn": 4096,
      "pped": 4097,
      "evening": 4098,
      "orders": 4099,
      "changed": 4100,
      "ilt": 4101,
      "highest": 4102,
      "Earlier": 4103,
      "abs": 4104,
      "india": 4105,
      "concl": 4106,
      "2010": 4107,
      "Val": 4108,
      "text": 4109,
      "Ge": 4110,
      "complaint": 4111,
      "Kore": 4112,
      "acted": 4113,
      "erve": 4114,
      "placed": 4115,
      "fear": 4116,
      "inno": 4117,
      "bey": 4118,
      "cris": 4119,
      "’.": 4120,
      "Face": 4121,
      "Written": 4122,
      "roads": 4123,
      "omen": 4124,
      "surpr": 4125,
      "independ": 4126,
      "log": 4127,
      "joy": 4128,
      "executive": 4129,
      "jit": 4130,
      "jail": 4131,
      "box": 4132,
      "Sub": 4133,
      "fresh": 4134,
      "Association": 4135,
      "opal": 4136,
      "British": 4137,
      "extre": 4138,
      "Finance": 4139,
      "Ahmed": 4140,
      "boy": 4141,
      "Afghan": 4142,
      "conditions": 4143,
      "hom": 4144,
      "mig": 4145,
      "Bra": 4146,
      "ather": 4147,
      "active": 4148,
      "quite": 4149,
      "rules": 4150,
      "46": 4151,
      "rural": 4152,
      "families": 4153,
      "themselves": 4154,
      "stake": 4155,
      "associ": 4156,
      "2009": 4157,
      "upon": 4158,
      "Bill": 4159,
      "declared": 4160,
      "Tel": 4161,
      "exer": 4162,
      "nar": 4163,
      "shares": 4164,
      "Bab": 4165,
      "stain": 4166,
      "probe": 4167,
      "increasing": 4168,
      "PC": 4169,
      "scri": 4170,
      "murder": 4171,
      "aman": 4172,
      "worked": 4173,
      "arriv": 4174,
      "nom": 4175,
      "GST": 4176,
      "wrong": 4177,
      "usion": 4178,
      "DC": 4179,
      "fix": 4180,
      "opportunity": 4181,
      "pil": 4182,
      "quot": 4183,
      "goes": 4184,
      "ams": 4185,
      "ease": 4186,
      "90": 4187,
      "Stud": 4188,
      "Bangl": 4189,
      "Education": 4190,
      "ights": 4191,
      "partners": 4192,
      "inde": 4193,
      "ordin": 4194,
      "42": 4195,
      "From": 4196,
      "Lo": 4197,
      "Fo": 4198,
      "neigh": 4199,
      "phys": 4200,
      "votes": 4201,
      "ruling": 4202,
      "conference": 4203,
      "heavy": 4204,
      "Kal": 4205,
      "character": 4206,
      "Abd": 4207,
      "Sm": 4208,
      "journal": 4209,
      "operations": 4210,
      "adha": 4211,
      "City": 4212,
      "College": 4213,
      "goal": 4214,
      "Bl": 4215,
      "steps": 4216,
      "Lal": 4217,
      "levels": 4218,
      "ousand": 4219,
      "ashion": 4220,
      "Nagar": 4221,
      "icipal": 4222,
      "rally": 4223,
      "career": 4224,
      "defence": 4225,
      "achieve": 4226,
      "rather": 4227,
      "Koh": 4228,
      "pa": 4229,
      "personnel": 4230,
      "model": 4231,
      "garh": 4232,
      "acting": 4233,
      "hab": 4234,
      "bour": 4235,
      "hands": 4236,
      "iscal": 4237,
      "asthan": 4238,
      "instead": 4239,
      "Rel": 4240,
      "Ger": 4241,
      "War": 4242,
      "Tod": 4243,
      "Gupta": 4244,
      "aik": 4245,
      "Indians": 4246,
      "religious": 4247,
      "ials": 4248,
      "strugg": 4249,
      "marks": 4250,
      "strike": 4251,
      "note": 4252,
      "hor": 4253,
      "Joh": 4254,
      "igence": 4255,
      "Vir": 4256,
      "presence": 4257,
      "Amb": 4258,
      "male": 4259,
      "expressed": 4260,
      "Facebook": 4261,
      "Gur": 4262,
      "politic": 4263,
      "needed": 4264,
      "London": 4265,
      "appointed": 4266,
      "sports": 4267,
      "wind": 4268,
      "44": 4269,
      "lock": 4270,
      "remains": 4271,
      "whole": 4272,
      "jected": 4273,
      "communic": 4274,
      "raise": 4275,
      "source": 4276,
      "eful": 4277,
      "za": 4278,
      "bri": 4279,
      "instru": 4280,
      "load": 4281,
      "appear": 4282,
      "ork": 4283,
      "Car": 4284,
      "’,": 4285,
      "stress": 4286,
      "husband": 4287,
      "passeng": 4288,
      "Since": 4289,
      "uel": 4290,
      "Institute": 4291,
      "capac": 4292,
      "influ": 4293,
      "weeks": 4294,
      "prim": 4295,
      "positive": 4296,
      "annual": 4297,
      "skill": 4298,
      "kata": 4299,
      "Ka": 4300,
      "hra": 4301,
      "judge": 4302,
      "bid": 4303,
      "formation": 4304,
      "Rail": 4305,
      "Rajasthan": 4306,
      "screen": 4307,
      "alliance": 4308,
      "recogn": 4309,
      "profit": 4310,
      "holding": 4311,
      "75": 4312,
      "ks": 4313,
      "stor": 4314,
      "winning": 4315,
      "oll": 4316,
      "Pras": 4317,
      "weak": 4318,
      "fiscal": 4319,
      "reedom": 4320,
      "users": 4321,
      "usu": 4322,
      "Super": 4323,
      "pal": 4324,
      "nine": 4325,
      "majority": 4326,
      "flood": 4327,
      "Chandigarh": 4328,
      "electric": 4329,
      "Sena": 4330,
      "compared": 4331,
      "units": 4332,
      "apur": 4333,
      "interview": 4334,
      "umbers": 4335,
      "Corporation": 4336,
      "quick": 4337,
      "require": 4338,
      "sle": 4339,
      "verse": 4340,
      "Odis": 4341,
      "grant": 4342,
      "ff": 4343,
      "Tata": 4344,
      "igation": 4345,
      "EC": 4346,
      "Deep": 4347,
      "standing": 4348,
      "challenge": 4349,
      "subject": 4350,
      "section": 4351,
      "brid": 4352,
      "CEO": 4353,
      "blood": 4354,
      "Tha": 4355,
      "Jay": 4356,
      "acce": 4357,
      "critic": 4358,
      "estim": 4359,
      "Kolkata": 4360,
      "attacks": 4361,
      "sured": 4362,
      "prior": 4363,
      "answ": 4364,
      "tegr": 4365,
      "drive": 4366,
      "justice": 4367,
      "Ay": 4368,
      "Hyder": 4369,
      "anything": 4370,
      "anchay": 4371,
      "56": 4372,
      "DI": 4373,
      "vind": 4374,
      "teachers": 4375,
      "etc": 4376,
      "closed": 4377,
      "Two": 4378,
      "gi": 4379,
      "hour": 4380,
      "Kohli": 4381,
      "crisis": 4382,
      "graph": 4383,
      "Mun": 4384,
      "safety": 4385,
      "istic": 4386,
      "victory": 4387,
      "ogle": 4388,
      "running": 4389,
      "additional": 4390,
      "Di": 4391,
      "illegal": 4392,
      "Chenn": 4393,
      "phones": 4394,
      "Ban": 4395,
      "ware": 4396,
      "corruption": 4397,
      "CR": 4398,
      "Chair": 4399,
      "named": 4400,
      "Pad": 4401,
      "constituency": 4402,
      "God": 4403,
      "Her": 4404,
      "appre": 4405,
      "continued": 4406,
      "speech": 4407,
      "showed": 4408,
      "Bad": 4409,
      "makers": 4410,
      "questions": 4411,
      "calls": 4412,
      "cup": 4413,
      "until": 4414,
      "competition": 4415,
      "sale": 4416,
      "deter": 4417,
      "argu": 4418,
      "average": 4419,
      "institutions": 4420,
      "illi": 4421,
      "ivity": 4422,
      "Christ": 4423,
      "Techn": 4424,
      "base": 4425,
      "daily": 4426,
      "establish": 4427,
      "trend": 4428,
      "ora": 4429,
      "transport": 4430,
      "Pate": 4431,
      "Mic": 4432,
      "Rao": 4433,
      "Google": 4434,
      "rict": 4435,
      "claims": 4436,
      "comment": 4437,
      "Indust": 4438,
      "Odisha": 4439,
      "UK": 4440,
      "NE": 4441,
      "culture": 4442,
      "lap": 4443,
      "jobs": 4444,
      "necessary": 4445,
      "Che": 4446,
      "Hyderabad": 4447,
      "houses": 4448,
      "stant": 4449,
      "opening": 4450,
      "content": 4451,
      "apped": 4452,
      "mony": 4453,
      "gas": 4454,
      "delay": 4455,
      "odies": 4456,
      "agric": 4457,
      "thus": 4458,
      "Per": 4459,
      "Today": 4460,
      "Pune": 4461,
      "Sports": 4462,
      "fish": 4463,
      "Mand": 4464,
      "sustain": 4465,
      "sat": 4466,
      "facilities": 4467,
      "forced": 4468,
      "NA": 4469,
      "Ob": 4470,
      "west": 4471,
      "Chennai": 4472,
      "girls": 4473,
      "analy": 4474,
      "craft": 4475,
      "58": 4476,
      "99": 4477,
      "Comp": 4478,
      "speed": 4479,
      "considered": 4480,
      "army": 4481,
      "SR": 4482,
      "accident": 4483,
      "igg": 4484,
      "awa": 4485,
      "immediately": 4486,
      "avo": 4487,
      "57": 4488,
      "alter": 4489,
      "51": 4490,
      "ira": 4491,
      "posted": 4492,
      "Sp": 4493,
      "residents": 4494,
      "everyone": 4495,
      "43": 4496,
      "Asian": 4497,
      "natural": 4498,
      "undred": 4499,
      "Though": 4500,
      "Africa": 4501,
      "Deputy": 4502,
      "numbers": 4503,
      "acts": 4504,
      "hearing": 4505,
      "teams": 4506,
      "earch": 4507,
      "chance": 4508,
      "Bangladesh": 4509,
      "capacity": 4510,
      "anth": 4511,
      "Sci": 4512,
      "PS": 4513,
      "message": 4514,
      "da": 4515,
      "rule": 4516,
      "ini": 4517,
      "captain": 4518,
      "sense": 4519,
      "rich": 4520,
      "Under": 4521,
      "hat": 4522,
      "Dis": 4523,
      "joined": 4524,
      "oo": 4525,
      "Met": 4526,
      "bing": 4527,
      "52": 4528,
      "District": 4529,
      "League": 4530,
      "vari": 4531,
      "helped": 4532,
      "Kam": 4533,
      "included": 4534,
      "maker": 4535,
      "bab": 4536,
      "vehicle": 4537,
      ",": 4538,
      "patients": 4539,
      "announce": 4540,
      "Constit": 4541,
      "inaug": 4542,
      "notice": 4543,
      "grand": 4544,
      "opened": 4545,
      "Bharat": 4546,
      "normal": 4547,
      "gather": 4548,
      "Ur": 4549,
      "Opposition": 4550,
      "connect": 4551,
      "agers": 4552,
      "mode": 4553,
      "providing": 4554,
      "commercial": 4555,
      "MLA": 4556,
      "descri": 4557,
      "Assam": 4558,
      "platform": 4559,
      "villages": 4560,
      "college": 4561,
      "encour": 4562,
      "inated": 4563,
      "controvers": 4564,
      "Mark": 4565,
      "brother": 4566,
      "install": 4567,
      "carried": 4568,
      "English": 4569,
      "ni": 4570,
      "Besides": 4571,
      "repor": 4572,
      "ously": 4573,
      "happened": 4574,
      "true": 4575,
      "pun": 4576,
      "middle": 4577,
      "depart": 4578,
      "Apple": 4579,
      "Patel": 4580,
      "built": 4581,
      "rael": 4582,
      "finance": 4583,
      "words": 4584,
      "language": 4585,
      "41": 4586,
      "Prof": 4587,
      "thousand": 4588,
      "purch": 4589,
      "everything": 4590,
      "Israel": 4591,
      "labor": 4592,
      "chann": 4593,
      "lip": 4594,
      "ledge": 4595,
      "temple": 4596,
      "iya": 4597,
      "thank": 4598,
      "accept": 4599,
      "incipal": 4600,
      "memor": 4601,
      "cha": 4602,
      "attention": 4603,
      "ological": 4604,
      "mil": 4605,
      "touch": 4606,
      "benefit": 4607,
      "John": 4608,
      "Bengaluru": 4609,
      "Invest": 4610,
      "facing": 4611,
      "Arun": 4612,
      "uries": 4613,
      "modern": 4614,
      "tourn": 4615,
      "Jag": 4616,
      "ert": 4617,
      "remained": 4618,
      "protect": 4619,
      "protests": 4620,
      "wish": 4621,
      "anda": 4622,
      "completed": 4623,
      "jri": 4624,
      "easy": 4625,
      "reasons": 4626,
      "histor": 4627,
      "ema": 4628,
      "smo": 4629,
      "Last": 4630,
      "resign": 4631,
      "debt": 4632,
      "ford": 4633,
      "crime": 4634,
      "example": 4635,
      "Das": 4636,
      "iment": 4637,
      "customers": 4638,
      "Pakistani": 4639,
      "2008": 4640,
      "lied": 4641,
      "planning": 4642,
      "freedom": 4643,
      "mach": 4644,
      "digital": 4645,
      "assets": 4646,
      "repe": 4647,
      "voters": 4648,
      "faced": 4649,
      "59": 4650,
      "Him": 4651,
      "cot": 4652,
      "Hospital": 4653,
      "crow": 4654,
      "mist": 4655,
      "fourth": 4656,
      "developed": 4657,
      "itch": 4658,
      "AD": 4659,
      "initial": 4660,
      "felt": 4661,
      "trib": 4662,
      "alone": 4663,
      "MS": 4664,
      "else": 4665,
      "books": 4666,
      "ju": 4667,
      "events": 4668,
      "demanded": 4669,
      "Kejri": 4670,
      "managed": 4671,
      "ministers": 4672,
      "vention": 4673,
      "broad": 4674,
      "schemes": 4675,
      "boost": 4676,
      "retail": 4677,
      "upcoming": 4678,
      "scient": 4679,
      "ken": 4680,
      "York": 4681,
      "JD": 4682,
      "existing": 4683,
      "flag": 4684,
      "54": 4685,
      "govern": 4686,
      "limited": 4687,
      "Every": 4688,
      "relief": 4689,
      "doctors": 4690,
      "ticket": 4691,
      "Kejriwal": 4692,
      "actress": 4693,
      "Many": 4694,
      "Hindi": 4695,
      "khand": 4696,
      "loan": 4697,
      "ureau": 4698,
      "bot": 4699,
      "sn": 4700,
      "rev": 4701,
      "concern": 4702,
      "belong": 4703,
      "ape": 4704,
      "shall": 4705,
      "Jhar": 4706,
      "bodies": 4707,
      "gment": 4708,
      "quir": 4709,
      "ames": 4710,
      "looks": 4711,
      "visited": 4712,
      "lif": 4713,
      "agencies": 4714,
      "audi": 4715,
      "killing": 4716,
      "Over": 4717,
      "paper": 4718,
      "Port": 4719,
      "gency": 4720,
      "evidence": 4721,
      "ba": 4722,
      "committed": 4723,
      "ables": 4724,
      "ense": 4725,
      "image": 4726,
      "Research": 4727,
      "property": 4728,
      "mint": 4729,
      "ashed": 4730,
      "responsible": 4731,
      "scheduled": 4732,
      "integr": 4733,
      "Russia": 4734,
      "liqu": 4735,
      "rape": 4736,
      "53": 4737,
      "Ben": 4738,
      "Nadu": 4739,
      "vice": 4740,
      "employment": 4741,
      "actors": 4742,
      "decades": 4743,
      "festival": 4744,
      "View": 4745,
      "iger": 4746,
      "wise": 4747,
      "stream": 4748,
      "recorded": 4749,
      "offered": 4750,
      "firms": 4751,
      "traditional": 4752,
      "lu": 4753,
      "fans": 4754,
      "agreement": 4755,
      "enced": 4756,
      "Janata": 4757,
      "trust": 4758,
      "quarters": 4759,
      "DE": 4760,
      "surv": 4761,
      "fle": 4762,
      "cere": 4763,
      "highlight": 4764,
      "bel": 4765,
      "organis": 4766,
      "Both": 4767,
      "Prasad": 4768,
      "stood": 4769,
      "harm": 4770,
      "Here": 4771,
      "picture": 4772,
      "Pa": 4773,
      "alore": 4774,
      "ankar": 4775,
      "labour": 4776,
      "lands": 4777,
      "vac": 4778,
      "keeping": 4779,
      "thern": 4780,
      "Net": 4781,
      "Krish": 4782,
      "someone": 4783,
      "pie": 4784,
      "proposal": 4785,
      "uters": 4786,
      "Bus": 4787,
      "fan": 4788,
      "margin": 4789,
      "BC": 4790,
      "missing": 4791,
      "Mot": 4792,
      "Madhya": 4793,
      "white": 4794,
      "regarding": 4795,
      "icide": 4796,
      "lic": 4797,
      "iff": 4798,
      "generation": 4799,
      "Public": 4800,
      "object": 4801,
      "AC": 4802,
      "Cricket": 4803,
      "minute": 4804,
      "duty": 4805,
      "revealed": 4806,
      "option": 4807,
      "uals": 4808,
      "loans": 4809,
      "audience": 4810,
      "utional": 4811,
      "AS": 4812,
      "holders": 4813,
      "Arab": 4814,
      "industrial": 4815,
      "beyond": 4816,
      "Gre": 4817,
      "fee": 4818,
      "approv": 4819,
      "names": 4820,
      "suit": 4821,
      "headed": 4822,
      "Def": 4823,
      "overs": 4824,
      "lay": 4825,
      "ains": 4826,
      "lawy": 4827,
      "iled": 4828,
      "Most": 4829,
      "airport": 4830,
      "amed": 4831,
      "nuclear": 4832,
      "oj": 4833,
      "website": 4834,
      "Why": 4835,
      "updated": 4836,
      "aji": 4837,
      "player": 4838,
      "setting": 4839,
      "table": 4840,
      "Author": 4841,
      "Econom": 4842,
      "HI": 4843,
      "haps": 4844,
      "300": 4845,
      "grad": 4846,
      "fashion": 4847,
      "neg": 4848,
      "iving": 4849,
      "reporters": 4850,
      "formed": 4851,
      "successful": 4852,
      "Sanjay": 4853,
      "green": 4854,
      "particularly": 4855,
      "max": 4856,
      "restrict": 4857,
      "category": 4858,
      "rum": 4859,
      "burn": 4860,
      "mod": 4861,
      "affair": 4862,
      "oing": 4863,
      "shut": 4864,
      "amid": 4865,
      "hundred": 4866,
      "club": 4867,
      "actually": 4868,
      "iy": 4869,
      "Donald": 4870,
      "apers": 4871,
      "throw": 4872,
      "Ed": 4873,
      "ullah": 4874,
      "attempt": 4875,
      "Pur": 4876,
      "century": 4877,
      "drink": 4878,
      "corporate": 4879,
      "individual": 4880,
      "finally": 4881,
      "Dha": 4882,
      "confidence": 4883,
      "extreme": 4884,
      "ida": 4885,
      "ases": 4886,
      "criminal": 4887,
      "Fir": 4888,
      "besides": 4889,
      "circ": 4890,
      "effort": 4891,
      "oring": 4892,
      "solid": 4893,
      "bats": 4894,
      "rang": 4895,
      "phase": 4896,
      "terrorism": 4897,
      "strengthen": 4898,
      "cin": 4899,
      "drop": 4900,
      "holds": 4901,
      "subsid": 4902,
      "spent": 4903,
      "Washing": 4904,
      "attend": 4905,
      "panel": 4906,
      "judic": 4907,
      "raj": 4908,
      "river": 4909,
      "Women": 4910,
      "Ti": 4911,
      "accounts": 4912,
      "Comments": 4913,
      "Bag": 4914,
      "victims": 4915,
      "pul": 4916,
      "tly": 4917,
      "debut": 4918,
      "Another": 4919,
      "disput": 4920,
      "Washington": 4921,
      "benefits": 4922,
      "Akh": 4923,
      "responsibility": 4924,
      "assa": 4925,
      "deput": 4926,
      "sound": 4927,
      "moving": 4928,
      "strategy": 4929,
      "elected": 4930,
      "experts": 4931,
      "lled": 4932,
      "thers": 4933,
      "Chairman": 4934,
      "Em": 4935,
      "Afghanistan": 4936,
      "looked": 4937,
      "conv": 4938,
      "attended": 4939,
      "application": 4940,
      "apart": 4941,
      "Nit": 4942,
      "demands": 4943,
      "tournament": 4944,
      "rush": 4945,
      "BSE": 4946,
      "equip": 4947,
      "stag": 4948,
      "nature": 4949,
      "Var": 4950,
      "submitted": 4951,
      "Ze": 4952,
      "concerns": 4953,
      "selling": 4954,
      "Jharkhand": 4955,
      "scr": 4956,
      "European": 4957,
      "impress": 4958,
      "ayan": 4959,
      "gives": 4960,
      "offers": 4961,
      "mill": 4962,
      "militants": 4963,
      "fortun": 4964,
      "connection": 4965,
      "Sin": 4966,
      "sou": 4967,
      "task": 4968,
      "title": 4969,
      "depos": 4970,
      "prob": 4971,
      "firmed": 4972,
      "implementation": 4973,
      "manner": 4974,
      "temper": 4975,
      "Qu": 4976,
      "Gang": 4977,
      "emot": 4978,
      "lected": 4979,
      "AL": 4980,
      "kg": 4981,
      "prepared": 4982,
      "spokesperson": 4983,
      "command": 4984,
      "ining": 4985,
      "network": 4986,
      "Mish": 4987,
      "nath": 4988,
      "ukh": 4989,
      "Yog": 4990,
      "effective": 4991,
      "bond": 4992,
      "strength": 4993,
      "reduce": 4994,
      "Vik": 4995,
      "pray": 4996,
      "agreed": 4997,
      "regional": 4998,
      "creating": 4999,
      "lers": 5000,
      "expand": 5001,
      "mix": 5002,
      "camera": 5003,
      "guest": 5004,
      "Ms": 5005,
      "battle": 5006,
      "Salman": 5007,
      "resolution": 5008,
      "iance": 5009,
      "covered": 5010,
      "collection": 5011,
      "Fil": 5012,
      "comed": 5013,
      "serve": 5014,
      "survey": 5015,
      "games": 5016,
      "exercise": 5017,
      "located": 5018,
      "uth": 5019,
      "massive": 5020,
      "swe": 5021,
      "sport": 5022,
      "bail": 5023,
      "Div": 5024,
      "spoke": 5025,
      "stone": 5026,
      "ficient": 5027,
      "bann": 5028,
      "born": 5029,
      "style": 5030,
      "ongoing": 5031,
      "Amar": 5032,
      "Ba": 5033,
      "fairs": 5034,
      "lad": 5035,
      "spirit": 5036,
      "allegations": 5037,
      "rative": 5038,
      "struct": 5039,
      "pts": 5040,
      "wond": 5041,
      "angana": 5042,
      "Ahmad": 5043,
      "print": 5044,
      "deploy": 5045,
      "riage": 5046,
      "wat": 5047,
      "197": 5048,
      "scored": 5049,
      "longer": 5050,
      "ER": 5051,
      "posts": 5052,
      "version": 5053,
      "insurance": 5054,
      "hav": 5055,
      "hatt": 5056,
      "Views": 5057,
      "approved": 5058,
      "Mishra": 5059,
      "except": 5060,
      "proceed": 5061,
      "laws": 5062,
      "features": 5063,
      "separate": 5064,
      "south": 5065,
      "tained": 5066,
      "wall": 5067,
      "weight": 5068,
      "lymp": 5069,
      "respectively": 5070,
      "rench": 5071,
      "multiple": 5072,
      "NC": 5073,
      "Ve": 5074,
      "partner": 5075,
      "PF": 5076,
      "astic": 5077,
      "asking": 5078,
      "matches": 5079,
      "wire": 5080,
      "gri": 5081,
      "signed": 5082,
      "Ver": 5083,
      "Vid": 5084,
      "uted": 5085,
      "Ter": 5086,
      "itals": 5087,
      "inaugur": 5088,
      "awareness": 5089,
      "Band": 5090,
      "Olymp": 5091,
      "Power": 5092,
      "decis": 5093,
      "elines": 5094,
      "happen": 5095,
      "lod": 5096,
      "complex": 5097,
      "Constitution": 5098,
      "Dav": 5099,
      "Red": 5100,
      "opin": 5101,
      "rat": 5102,
      "plom": 5103,
      "basic": 5104,
      "QU": 5105,
      "enjoy": 5106,
      "bled": 5107,
      "eddy": 5108,
      "practice": 5109,
      "Gul": 5110,
      "Photo": 5111,
      "academ": 5112,
      "Champions": 5113,
      "doll": 5114,
      "adium": 5115,
      "stead": 5116,
      "unch": 5117,
      "cert": 5118,
      "rav": 5119,
      "provis": 5120,
      "shif": 5121,
      "gree": 5122,
      "specific": 5123,
      "Services": 5124,
      "tough": 5125,
      "vs": 5126,
      "tw": 5127,
      "Security": 5128,
      "IJ": 5129,
      "costs": 5130,
      "shar": 5131,
      "eye": 5132,
      "Nir": 5133,
      "Mem": 5134,
      "defe": 5135,
      "missed": 5136,
      "ela": 5137,
      "inflation": 5138,
      "voice": 5139,
      "asp": 5140,
      "uded": 5141,
      "Bas": 5142,
      "aves": 5143,
      "liter": 5144,
      "owners": 5145,
      "material": 5146,
      "appeared": 5147,
      "tradition": 5148,
      "fam": 5149,
      "iers": 5150,
      "ule": 5151,
      "arrange": 5152,
      "door": 5153,
      "ius": 5154,
      "plays": 5155,
      "Hum": 5156,
      "dress": 5157,
      "Special": 5158,
      "collect": 5159,
      "iced": 5160,
      "Affairs": 5161,
      "comfort": 5162,
      "published": 5163,
      "urged": 5164,
      "compr": 5165,
      "prepar": 5166,
      "policies": 5167,
      "ancy": 5168,
      "native": 5169,
      "Priy": 5170,
      "lok": 5171,
      "journey": 5172,
      "knowledge": 5173,
      "Medical": 5174,
      "addition": 5175,
      "includes": 5176,
      "below": 5177,
      "continues": 5178,
      "anyone": 5179,
      "critical": 5180,
      "GB": 5181,
      "Na": 5182,
      "driv": 5183,
      "parliament": 5184,
      "Service": 5185,
      "equity": 5186,
      "capt": 5187,
      "ger": 5188,
      "Rash": 5189,
      "thi": 5190,
      "heard": 5191,
      "ires": 5192,
      "Bharati": 5193,
      "AG": 5194,
      "core": 5195,
      "overall": 5196,
      "colleg": 5197,
      "neighbour": 5198,
      "intell": 5199,
      "waste": 5200,
      "assess": 5201,
      "Business": 5202,
      "innov": 5203,
      "completely": 5204,
      "inner": 5205,
      "shock": 5206,
      "akes": 5207,
      "location": 5208,
      "65": 5209,
      "appeal": 5210,
      "First": 5211,
      "Park": 5212,
      "payment": 5213,
      "fine": 5214,
      "purpose": 5215,
      "Mas": 5216,
      "talking": 5217,
      "Islamic": 5218,
      "suicide": 5219,
      "choice": 5220,
      "resources": 5221,
      "Cabinet": 5222,
      "Paris": 5223,
      "avoid": 5224,
      "sexual": 5225,
      "eth": 5226,
      "Sum": 5227,
      "Feder": 5228,
      "atra": 5229,
      "ester": 5230,
      "Bomb": 5231,
      "RI": 5232,
      "ops": 5233,
      "ij": 5234,
      "hang": 5235,
      "Roy": 5236,
      "tempor": 5237,
      "rupe": 5238,
      "AF": 5239,
      "arm": 5240,
      "tor": 5241,
      "sus": 5242,
      "goti": 5243,
      "introduced": 5244,
      "guid": 5245,
      "rock": 5246,
      "reality": 5247,
      "documents": 5248,
      "sts": 5249,
      "affect": 5250,
      "rising": 5251,
      "inent": 5252,
      "El": 5253,
      "ny": 5254,
      "rol": 5255,
      "Democr": 5256,
      "raf": 5257,
      "medic": 5258,
      "produced": 5259,
      "football": 5260,
      "enders": 5261,
      "mentioned": 5262,
      "secut": 5263,
      "tty": 5264,
      "extra": 5265,
      "stars": 5266,
      "driver": 5267,
      "(@": 5268,
      "anced": 5269,
      "anchayat": 5270,
      "Officer": 5271,
      "maximum": 5272,
      "ght": 5273,
      "Zealand": 5274,
      "confirmed": 5275,
      "disease": 5276,
      "inspe": 5277,
      "shown": 5278,
      "antic": 5279,
      "Sand": 5280,
      "gent": 5281,
      "initiative": 5282,
      "speaking": 5283,
      "trial": 5284,
      "lal": 5285,
      "founder": 5286,
      "inch": 5287,
      "400": 5288,
      "scale": 5289,
      "bomb": 5290,
      "weap": 5291,
      "wickets": 5292,
      "stra": 5293,
      "gang": 5294,
      "Valley": 5295,
      "inations": 5296,
      "caused": 5297,
      "ordered": 5298,
      "confl": 5299,
      "handed": 5300,
      "dy": 5301,
      "zon": 5302,
      "recommend": 5303,
      "excl": 5304,
      "rout": 5305,
      "spokesman": 5306,
      "ula": 5307,
      "Sikh": 5308,
      "Class": 5309,
      "division": 5310,
      "trou": 5311,
      "sea": 5312,
      "programmes": 5313,
      "north": 5314,
      "ishing": 5315,
      "clar": 5316,
      "iles": 5317,
      "rupt": 5318,
      "hero": 5319,
      "Andhra": 5320,
      "ucknow": 5321,
      "pollution": 5322,
      "importance": 5323,
      "essential": 5324,
      "isgarh": 5325,
      "pow": 5326,
      "itude": 5327,
      "iful": 5328,
      "university": 5329,
      "deleg": 5330,
      "wedd": 5331,
      "rog": 5332,
      "science": 5333,
      "talent": 5334,
      "cultural": 5335,
      "ki": 5336,
      "dance": 5337,
      "compens": 5338,
      "display": 5339,
      "Glo": 5340,
      "democracy": 5341,
      "meant": 5342,
      "respective": 5343,
      "balance": 5344,
      "mic": 5345,
      "refused": 5346,
      "Neh": 5347,
      "presented": 5348,
      "independent": 5349,
      "caste": 5350,
      "beaut": 5351,
      "consult": 5352,
      "Korea": 5353,
      "negoti": 5354,
      "America": 5355,
      "degree": 5356,
      "Former": 5357,
      "wing": 5358,
      "Company": 5359,
      "cancer": 5360,
      "RO": 5361,
      "monitor": 5362,
      "starting": 5363,
      "learning": 5364,
      "score": 5365,
      "iter": 5366,
      "solution": 5367,
      "usive": 5368,
      "ras": 5369,
      "feature": 5370,
      "brief": 5371,
      "beha": 5372,
      "quiry": 5373,
      "alys": 5374,
      "advert": 5375,
      "owned": 5376,
      "becoming": 5377,
      "thousands": 5378,
      "save": 5379,
      "remember": 5380,
      "send": 5381,
      "dial": 5382,
      "governments": 5383,
      "Govt": 5384,
      "conven": 5385,
      "planned": 5386,
      "akash": 5387,
      "ems": 5388,
      "incidents": 5389,
      "anna": 5390,
      "double": 5391,
      "orters": 5392,
      "theat": 5393,
      "unique": 5394,
      "acher": 5395,
      "sides": 5396,
      "French": 5397,
      "rose": 5398,
      "Vish": 5399,
      "wara": 5400,
      "stories": 5401,
      "activity": 5402,
      "ceremony": 5403,
      "Trans": 5404,
      "Chhatt": 5405,
      "challenges": 5406,
      "admitted": 5407,
      "Speaking": 5408,
      "railway": 5409,
      "crowd": 5410,
      "diplom": 5411,
      "fighting": 5412,
      "Jait": 5413,
      "noted": 5414,
      "HC": 5415,
      "Guru": 5416,
      "stations": 5417,
      "protection": 5418,
      "fif": 5419,
      "goods": 5420,
      "Dar": 5421,
      "ICC": 5422,
      "minimum": 5423,
      "flight": 5424,
      "GP": 5425,
      "Ven": 5426,
      "dog": 5427,
      "entry": 5428,
      "Anand": 5429,
      "mental": 5430,
      "walk": 5431,
      "exchange": 5432,
      "doub": 5433,
      "penal": 5434,
      "guard": 5435,
      "carrying": 5436,
      "colour": 5437,
      "Os": 5438,
      "RSS": 5439,
      "Kan": 5440,
      "decade": 5441,
      "manufacturing": 5442,
      "perfect": 5443,
      "colleges": 5444,
      "wid": 5445,
      "organisation": 5446,
      "opportunities": 5447,
      "raising": 5448,
      "gap": 5449,
      "Mor": 5450,
      "CCI": 5451,
      "ternal": 5452,
      "caught": 5453,
      "rob": 5454,
      "Saudi": 5455,
      "oured": 5456,
      "file": 5457,
      "Paw": 5458,
      "consumer": 5459,
      "Bombay": 5460,
      "examination": 5461,
      "venture": 5462,
      "kur": 5463,
      "aspect": 5464,
      "appreci": 5465,
      "tweeted": 5466,
      "corre": 5467,
      "immediate": 5468,
      "whom": 5469,
      "aircraft": 5470,
      "denied": 5471,
      "Chhattisgarh": 5472,
      "wait": 5473,
      "Rajya": 5474,
      "wealth": 5475,
      "residence": 5476,
      "anes": 5477,
      "Capital": 5478,
      "Then": 5479,
      "nav": 5480,
      "spitals": 5481,
      "marriage": 5482,
      "TO": 5483,
      "writing": 5484,
      "sort": 5485,
      "leaving": 5486,
      "simple": 5487,
      "MLAs": 5488,
      "banking": 5489,
      "FIR": 5490,
      "gaon": 5491,
      "Br": 5492,
      "passengers": 5493,
      "ows": 5494,
      "xy": 5495,
      "lished": 5496,
      "IPL": 5497,
      "writer": 5498,
      "fuel": 5499,
      "tran": 5500,
      "Artic": 5501,
      "ua": 5502,
      "east": 5503,
      "migr": 5504,
      "reserv": 5505,
      "cance": 5506,
      "bringing": 5507,
      "SE": 5508,
      "Despite": 5509,
      "tack": 5510,
      "document": 5511,
      "Jaitley": 5512,
      "ogue": 5513,
      "direction": 5514,
      "indra": 5515,
      "bat": 5516,
      "discussed": 5517,
      "demonstr": 5518,
      "Force": 5519,
      "Mohammad": 5520,
      "danger": 5521,
      "cars": 5522,
      "Nav": 5523,
      "akhand": 5524,
      "abh": 5525,
      "mut": 5526,
      "achiev": 5527,
      "Gold": 5528,
      "advant": 5529,
      "appointment": 5530,
      "Bangalore": 5531,
      "transfer": 5532,
      "Election": 5533,
      "investments": 5534,
      "beginning": 5535,
      "operating": 5536,
      "Kul": 5537,
      "exc": 5538,
      "ilater": 5539,
      "endent": 5540,
      "skills": 5541,
      "Ama": 5542,
      "FA": 5543,
      "elector": 5544,
      "stopped": 5545,
      "occup": 5546,
      "ingly": 5547,
      "urch": 5548,
      "lets": 5549,
      "Inc": 5550,
      "Tour": 5551,
      "suggested": 5552,
      "approval": 5553,
      "ope": 5554,
      "Other": 5555,
      "achal": 5556,
      "extended": 5557,
      "esterday": 5558,
      "regime": 5559,
      "ield": 5560,
      "yan": 5561,
      "assured": 5562,
      "arily": 5563,
      "PNS": 5564,
      "arian": 5565,
      "returned": 5566,
      "Bu": 5567,
      "size": 5568,
      "shan": 5569,
      "centres": 5570,
      "eper": 5571,
      "shooting": 5572,
      "Ser": 5573,
      "powerful": 5574,
      "decide": 5575,
      "seed": 5576,
      "crack": 5577,
      "weather": 5578,
      "TC": 5579,
      "settle": 5580,
      "plea": 5581,
      "Republic": 5582,
      "Nep": 5583,
      "uter": 5584,
      "Management": 5585,
      "anta": 5586,
      "count": 5587,
      "delivery": 5588,
      "demanding": 5589,
      "trip": 5590,
      "Organ": 5591,
      "Authority": 5592,
      "established": 5593,
      "crucial": 5594,
      "Budget": 5595,
      "hibition": 5596,
      "pointed": 5597,
      "Lanka": 5598,
      "physical": 5599,
      "original": 5600,
      "witnessed": 5601,
      "professional": 5602,
      "pace": 5603,
      "pic": 5604,
      "France": 5605,
      "rou": 5606,
      "bridge": 5607,
      "chol": 5608,
      "thod": 5609,
      "T20": 5610,
      "healthy": 5611,
      "HE": 5612,
      "Mang": 5613,
      "ulated": 5614,
      "ME": 5615,
      "sitting": 5616,
      "recru": 5617,
      "contain": 5618,
      "sung": 5619,
      "Senior": 5620,
      "appropri": 5621,
      "offering": 5622,
      "eyes": 5623,
      "married": 5624,
      "Ir": 5625,
      "recovered": 5626,
      "Read": 5627,
      "deputy": 5628,
      "famous": 5629,
      "instance": 5630,
      "predict": 5631,
      "erjee": 5632,
      "via": 5633,
      "refer": 5634,
      "Open": 5635,
      "Priyanka": 5636,
      "answer": 5637,
      "nut": 5638,
      "Times": 5639,
      "Uttarakhand": 5640,
      "Anil": 5641,
      "systems": 5642,
      "defic": 5643,
      "moun": 5644,
      "Sinha": 5645,
      "facility": 5646,
      "hips": 5647,
      "hotel": 5648,
      "options": 5649,
      "blast": 5650,
      "simp": 5651,
      "Contro": 5652,
      "cycl": 5653,
      "Bhatt": 5654,
      "Real": 5655,
      "definite": 5656,
      "Tur": 5657,
      "defeat": 5658,
      "terrorist": 5659,
      "consist": 5660,
      "endment": 5661,
      "charged": 5662,
      "injuries": 5663,
      "Bharatiya": 5664,
      "typ": 5665,
      "damage": 5666,
      "estimated": 5667,
      "meetings": 5668,
      "interests": 5669,
      "iture": 5670,
      "NDA": 5671,
      "stagram": 5672,
      "religion": 5673,
      "Ud": 5674,
      "collabor": 5675,
      "accom": 5676,
      "terrorists": 5677,
      "Instagram": 5678,
      "observed": 5679,
      "suffered": 5680,
      "clash": 5681,
      "wild": 5682,
      "sections": 5683,
      "Ml": 5684,
      "kil": 5685,
      "aker": 5686,
      "failure": 5687,
      "DMK": 5688,
      "IANS": 5689,
      "Lad": 5690,
      "adequ": 5691,
      "innings": 5692,
      "Reddy": 5693,
      "tim": 5694,
      "tel": 5695,
      "developing": 5696,
      "Article": 5697,
      "ometimes": 5698,
      "calling": 5699,
      "consumers": 5700,
      "artic": 5701,
      "evol": 5702,
      "debate": 5703,
      "dream": 5704,
      "inary": 5705,
      "NT": 5706,
      "currency": 5707,
      "store": 5708,
      "wear": 5709,
      "faith": 5710,
      "Ang": 5711,
      "prem": 5712,
      "kid": 5713,
      "jump": 5714,
      "teen": 5715,
      "ww": 5716,
      "tourism": 5717,
      "hir": 5718,
      "mining": 5719,
      "bra": 5720,
      "pled": 5721,
      "agriculture": 5722,
      "promised": 5723,
      "restaur": 5724,
      "pon": 5725,
      "frame": 5726,
      "departments": 5727,
      "fru": 5728,
      "artist": 5729,
      "anc": 5730,
      "relev": 5731,
      "concept": 5732,
      "behavi": 5733,
      "Games": 5734,
      "reduced": 5735,
      "reportedly": 5736,
      "oshi": 5737,
      "television": 5738,
      "managing": 5739,
      "adds": 5740,
      "ky": 5741,
      "wedding": 5742,
      "female": 5743,
      "greater": 5744,
      "Cit": 5745,
      "highly": 5746,
      "%.": 5747,
      "advoc": 5748,
      "manager": 5749,
      "ronic": 5750,
      "newsp": 5751,
      "ites": 5752,
      "lose": 5753,
      "Bhopal": 5754,
      "Vin": 5755,
      "enda": 5756,
      "sectors": 5757,
      "severe": 5758,
      "wari": 5759,
      "Technology": 5760,
      "liance": 5761,
      "Sush": 5762,
      "kh": 5763,
      "yr": 5764,
      "structure": 5765,
      "Phone": 5766,
      "beautiful": 5767,
      "welfare": 5768,
      "prene": 5769,
      "posing": 5770,
      "mier": 5771,
      "scene": 5772,
      "affairs": 5773,
      "catch": 5774,
      "assault": 5775,
      "sites": 5776,
      "Ashok": 5777,
      "sharp": 5778,
      "isition": 5779,
      "150": 5780,
      "decisions": 5781,
      "ancing": 5782,
      "ker": 5783,
      "directly": 5784,
      "race": 5785,
      "provisions": 5786,
      "zz": 5787,
      "pending": 5788,
      "waiting": 5789,
      "mostly": 5790,
      "clearly": 5791,
      "opted": 5792,
      "NP": 5793,
      "armed": 5794,
      "Gir": 5795,
      "prison": 5796,
      "willing": 5797,
      "authority": 5798,
      "HO": 5799,
      "Nehru": 5800,
      "believed": 5801,
      "cook": 5802,
      "Foreign": 5803,
      "Municipal": 5804,
      "Reliance": 5805,
      "listed": 5806,
      "promote": 5807,
      "Commun": 5808,
      "revol": 5809,
      "Administ": 5810,
      "isn": 5811,
      "route": 5812,
      "repeated": 5813,
      "intelligence": 5814,
      "politicians": 5815,
      "polling": 5816,
      "Found": 5817,
      "Banerjee": 5818,
      "Mur": 5819,
      "ilateral": 5820,
      "Mer": 5821,
      "Kashmiri": 5822,
      "pursu": 5823,
      "CPI": 5824,
      "oda": 5825,
      "dedic": 5826,
      "changing": 5827,
      "associated": 5828,
      "larger": 5829,
      "trail": 5830,
      "satis": 5831,
      "Law": 5832,
      "Cur": 5833,
      "sharing": 5834,
      "RA": 5835,
      "Virat": 5836,
      "cli": 5837,
      "mechan": 5838,
      "ume": 5839,
      "promise": 5840,
      "convict": 5841,
      "Jain": 5842,
      "produce": 5843,
      "Baj": 5844,
      "veget": 5845,
      "Section": 5846,
      "liber": 5847,
      "kids": 5848,
      "SO": 5849,
      "tri": 5850,
      "Aam": 5851,
      "climate": 5852,
      "vies": 5853,
      "goals": 5854,
      "insp": 5855,
      "harass": 5856,
      "multi": 5857,
      "verdict": 5858,
      "hospitals": 5859,
      "ila": 5860,
      "perhaps": 5861,
      "contract": 5862,
      "occur": 5863,
      "Rohit": 5864,
      "opinion": 5865,
      "iary": 5866,
      "Chow": 5867,
      "Vice": 5868,
      "dies": 5869,
      "becomes": 5870,
      "technical": 5871,
      "Defence": 5872,
      "Amazon": 5873,
      "bon": 5874,
      "scam": 5875,
      "primary": 5876,
      "attacked": 5877,
      "trading": 5878,
      "citing": 5879,
      "electricity": 5880,
      "iling": 5881,
      "Adity": 5882,
      "communal": 5883,
      "interesting": 5884,
      "ups": 5885,
      "Bach": 5886,
      "identity": 5887,
      "discussion": 5888,
      "feels": 5889,
      "shops": 5890,
      "Dut": 5891,
      "Sto": 5892,
      "afford": 5893,
      "views": 5894,
      "rend": 5895,
      "motor": 5896,
      "yesterday": 5897,
      "Reserve": 5898,
      "Arvind": 5899,
      "tur": 5900,
      "Apart": 5901,
      "internal": 5902,
      "hair": 5903,
      "probably": 5904,
      "2007": 5905,
      "amy": 5906,
      "communication": 5907,
      "addressing": 5908,
      "comments": 5909,
      "governance": 5910,
      "entered": 5911,
      "stable": 5912,
      "ID": 5913,
      "therefore": 5914,
      "noon": 5915,
      "sett": 5916,
      "CO": 5917,
      "Sol": 5918,
      "univers": 5919,
      "boys": 5920,
      "Metro": 5921,
      "cue": 5922,
      "iny": 5923,
      "remaining": 5924,
      "suspe": 5925,
      "ifying": 5926,
      "difference": 5927,
      "spending": 5928,
      "berg": 5929,
      "Bhag": 5930,
      "tech": 5931,
      "figure": 5932,
      "Once": 5933,
      "homes": 5934,
      "',": 5935,
      "Tax": 5936,
      "temporary": 5937,
      "convers": 5938,
      "feed": 5939,
      "cabinet": 5940,
      "Mag": 5941,
      "pping": 5942,
      "sud": 5943,
      "hear": 5944,
      "condem": 5945,
      "Similar": 5946,
      "entre": 5947,
      "NB": 5948,
      "tt": 5949,
      "Head": 5950,
      "expert": 5951,
      "imag": 5952,
      "helps": 5953,
      "Fund": 5954,
      "iversary": 5955,
      "segment": 5956,
      "Film": 5957,
      "conflict": 5958,
      "limit": 5959,
      "Mit": 5960,
      "matters": 5961,
      "Rav": 5962,
      "Their": 5963,
      "khar": 5964,
      "67": 5965,
      "RS": 5966,
      "cards": 5967,
      "apore": 5968,
      "dar": 5969,
      "Sud": 5970,
      "understanding": 5971,
      "Obama": 5972,
      "athi": 5973,
      "activists": 5974,
      "atever": 5975,
      "agon": 5976,
      "mere": 5977,
      "Sir": 5978,
      "Pul": 5979,
      "Bhat": 5980,
      "Club": 5981,
      "Nepal": 5982,
      "strategic": 5983,
      "losing": 5984,
      "laid": 5985,
      "GDP": 5986,
      "Child": 5987,
      "Chop": 5988,
      "tainment": 5989,
      "nes": 5990,
      "Prakash": 5991,
      "driving": 5992,
      "Mc": 5993,
      "frequ": 5994,
      "pictures": 5995,
      "stands": 5996,
      "bs": 5997,
      "faces": 5998,
      "Adv": 5999,
      "trigg": 6000,
      "sac": 6001,
      "Ira": 6002,
      "feet": 6003,
      "NCP": 6004,
      "jew": 6005,
      "ologies": 6006,
      "organisations": 6007,
      "rom": 6008,
      "branch": 6009,
      "Raw": 6010,
      "lin": 6011,
      "granted": 6012,
      "fake": 6013,
      "truck": 6014,
      "cooperation": 6015,
      "smartphone": 6016,
      "Mam": 6017,
      "spend": 6018,
      "Indep": 6019,
      "worst": 6020,
      "association": 6021,
      "announcement": 6022,
      "edition": 6023,
      "destro": 6024,
      "seas": 6025,
      "ses": 6026,
      "fraud": 6027,
      "page": 6028,
      "bear": 6029,
      "notes": 6030,
      "ruled": 6031,
      "rare": 6032,
      "Among": 6033,
      "Art": 6034,
      "type": 6035,
      "%,": 6036,
      "Av": 6037,
      "aspir": 6038,
      "fixed": 6039,
      "Nath": 6040,
      "transp": 6041,
      "phy": 6042,
      "Char": 6043,
      "stick": 6044,
      "agenda": 6045,
      "coalition": 6046,
      "Post": 6047,
      "submit": 6048,
      "arya": 6049,
      "Lucknow": 6050,
      "IL": 6051,
      "complaints": 6052,
      "sav": 6053,
      "Global": 6054,
      "territ": 6055,
      "statements": 6056,
      "Min": 6057,
      "rough": 6058,
      "marked": 6059,
      "Bel": 6060,
      "Let": 6061,
      "floor": 6062,
      "sun": 6063,
      "Sou": 6064,
      "valu": 6065,
      "coast": 6066,
      "thinking": 6067,
      "zen": 6068,
      "igil": 6069,
      "Jud": 6070,
      "mas": 6071,
      "facilit": 6072,
      "ills": 6073,
      "usually": 6074,
      "Rajiv": 6075,
      "serving": 6076,
      "Control": 6077,
      "resist": 6078,
      "businesses": 6079,
      "grat": 6080,
      "uddin": 6081,
      "ibly": 6082,
      "powers": 6083,
      "communities": 6084,
      "ador": 6085,
      "rejected": 6086,
      "doctor": 6087,
      "honi": 6088,
      "arms": 6089,
      "Swar": 6090,
      "pool": 6091,
      "showing": 6092,
      "arrived": 6093,
      "kick": 6094,
      "ov": 6095,
      "HD": 6096,
      "broke": 6097,
      "King": 6098,
      "ES": 6099,
      "norms": 6100,
      "suspended": 6101,
      "standard": 6102,
      "method": 6103,
      "extremely": 6104,
      "aceful": 6105,
      "lodged": 6106,
      "fat": 6107,
      "anniversary": 6108,
      "summer": 6109,
      "eed": 6110,
      "Second": 6111,
      "internet": 6112,
      "researchers": 6113,
      "wasn": 6114,
      "Fol": 6115,
      "filled": 6116,
      "sain": 6117,
      "Telangana": 6118,
      "Gen": 6119,
      "Australian": 6120,
      "Sad": 6121,
      "66": 6122,
      "distribution": 6123,
      "Dhoni": 6124,
      "index": 6125,
      "earth": 6126,
      "folio": 6127,
      "dark": 6128,
      "asi": 6129,
      "compensation": 6130,
      "Maha": 6131,
      "Food": 6132,
      "dece": 6133,
      "union": 6134,
      "supporters": 6135,
      "Iraq": 6136,
      "rival": 6137,
      "Out": 6138,
      "JK": 6139,
      "sleep": 6140,
      "Star": 6141,
      "Kish": 6142,
      "Samaj": 6143,
      "izing": 6144,
      "DS": 6145,
      "BSP": 6146,
      "provides": 6147,
      "Conference": 6148,
      "UT": 6149,
      "aces": 6150,
      "Ap": 6151,
      "advantage": 6152,
      "Social": 6153,
      "Engine": 6154,
      "Abdul": 6155,
      "fal": 6156,
      "truth": 6157,
      "individuals": 6158,
      "Je": 6159,
      "Sources": 6160,
      "domin": 6161,
      "cretar": 6162,
      "funding": 6163,
      "strain": 6164,
      "Mid": 6165,
      "veter": 6166,
      "Rai": 6167,
      "Sonia": 6168,
      "arti": 6169,
      "encounter": 6170,
      "constant": 6171,
      "servation": 6172,
      "figures": 6173,
      "Russian": 6174,
      "dropped": 6175,
      "nic": 6176,
      "imately": 6177,
      "confident": 6178,
      "odd": 6179,
      "taining": 6180,
      "Rag": 6181,
      "Singapore": 6182,
      "bes": 6183,
      "loom": 6184,
      "league": 6185,
      "ength": 6186,
      "villagers": 6187,
      "Those": 6188,
      "benefic": 6189,
      "Ajay": 6190,
      "ensions": 6191,
      "honour": 6192,
      "apping": 6193,
      "drawn": 6194,
      "iction": 6195,
      "campus": 6196,
      "believes": 6197,
      "Academ": 6198,
      "Railway": 6199,
      "plants": 6200,
      "linked": 6201,
      "BCCI": 6202,
      "analys": 6203,
      "simply": 6204,
      "iven": 6205,
      "Karan": 6206,
      "Krishna": 6207,
      "custody": 6208,
      "Germany": 6209,
      "Vas": 6210,
      "iculture": 6211,
      "cycle": 6212,
      "housing": 6213,
      "photograph": 6214,
      "Bre": 6215,
      "squad": 6216,
      "records": 6217,
      "heads": 6218,
      "Sah": 6219,
      "yle": 6220,
      "etary": 6221,
      "Three": 6222,
      "returns": 6223,
      "reply": 6224,
      "Ravi": 6225,
      "pting": 6226,
      "reforms": 6227,
      "drugs": 6228,
      "Malik": 6229,
      "ivic": 6230,
      "Chopra": 6231,
      "negative": 6232,
      "[…": 6233,
      "[…]": 6234,
      "hundreds": 6235,
      "influence": 6236,
      "treated": 6237,
      "Shr": 6238,
      "wadi": 6239,
      "allot": 6240,
      "Although": 6241,
      "dish": 6242,
      "easily": 6243,
      "imposed": 6244,
      "items": 6245,
      "appa": 6246,
      "roid": 6247,
      "permission": 6248,
      "joining": 6249,
      "ijing": 6250,
      "flu": 6251,
      "profession": 6252,
      "Bir": 6253,
      "birthday": 6254,
      "gradu": 6255,
      "Office": 6256,
      "icy": 6257,
      "Beijing": 6258,
      "entreprene": 6259,
      "64": 6260,
      "atar": 6261,
      "master": 6262,
      "shift": 6263,
      "receive": 6264,
      "exact": 6265,
      "emphas": 6266,
      "USD": 6267,
      "Shri": 6268,
      "proced": 6269,
      "accepted": 6270,
      "assistance": 6271,
      "grees": 6272,
      "nations": 6273,
      "Science": 6274,
      "nagar": 6275,
      "determin": 6276,
      "iar": 6277,
      "consumption": 6278,
      "schol": 6279,
      "puts": 6280,
      "Dig": 6281,
      "certific": 6282,
      "David": 6283,
      "Mi": 6284,
      "itage": 6285,
      "designed": 6286,
      "virt": 6287,
      "Gan": 6288,
      "Bachchan": 6289,
      "stret": 6290,
      "ont": 6291,
      "relevant": 6292,
      "sudden": 6293,
      "Wel": 6294,
      "skip": 6295,
      "feeling": 6296,
      "ria": 6297,
      "'.": 6298,
      "graphy": 6299,
      "Kab": 6300,
      "implemented": 6301,
      "maintained": 6302,
      "cipl": 6303,
      "involve": 6304,
      "batter": 6305,
      "iah": 6306,
      "ils": 6307,
      "skin": 6308,
      "western": 6309,
      "OC": 6310,
      "brain": 6311,
      "Britain": 6312,
      "straight": 6313,
      "putting": 6314,
      "uge": 6315,
      "described": 6316,
      "warned": 6317,
      "GM": 6318,
      "acquisition": 6319,
      "shr": 6320,
      "celebrated": 6321,
      "UPA": 6322,
      "La": 6323,
      "Dil": 6324,
      "teacher": 6325,
      "Ha": 6326,
      "medium": 6327,
      "estate": 6328,
      "deaths": 6329,
      "monsoon": 6330,
      "sister": 6331,
      "pilgr": 6332,
      "haz": 6333,
      "piece": 6334,
      "PDP": 6335,
      "rif": 6336,
      "bles": 6337,
      "plus": 6338,
      "portfolio": 6339,
      "fifth": 6340,
      "abilities": 6341,
      "Hus": 6342,
      "partnership": 6343,
      "iti": 6344,
      "adequate": 6345,
      "welcome": 6346,
      "Moh": 6347,
      "psy": 6348,
      "unal": 6349,
      "gender": 6350,
      "rent": 6351,
      "iat": 6352,
      "degrees": 6353,
      "delegation": 6354,
      "zone": 6355,
      "White": 6356,
      "Aksh": 6357,
      "ET": 6358,
      "thes": 6359,
      "correct": 6360,
      "sugar": 6361,
      "commissioner": 6362,
      "channel": 6363,
      "iPhone": 6364,
      "priority": 6365,
      "acker": 6366,
      "losses": 6367,
      "injury": 6368,
      "spl": 6369,
      "Hot": 6370,
      "hary": 6371,
      "reser": 6372,
      "cel": 6373,
      "grounds": 6374,
      "ols": 6375,
      "Pay": 6376,
      "owner": 6377,
      "68": 6378,
      "movies": 6379,
      "aggress": 6380,
      "soldiers": 6381,
      "Civil": 6382,
      "busy": 6383,
      "Such": 6384,
      "Reuters": 6385,
      "Year": 6386,
      "false": 6387,
      "Sach": 6388,
      "Follow": 6389,
      "lawyer": 6390,
      "tend": 6391,
      "Dh": 6392,
      "EV": 6393,
      "Chandr": 6394,
      "champ": 6395,
      "Abdullah": 6396,
      "picked": 6397,
      "supported": 6398,
      "addressed": 6399,
      "IIT": 6400,
      "ode": 6401,
      "mical": 6402,
      "courts": 6403,
      "performed": 6404,
      "qui": 6405,
      "appears": 6406,
      "Kir": 6407,
      "zil": 6408,
      "novel": 6409,
      "Thakur": 6410,
      "write": 6411,
      "mises": 6412,
      "visiting": 6413,
      "promises": 6414,
      "electoral": 6415,
      "aza": 6416,
      "tha": 6417,
      "tribut": 6418,
      "struggle": 6419,
      "Dhar": 6420,
      "sess": 6421,
      "hopes": 6422,
      "aimed": 6423,
      "steel": 6424,
      "Path": 6425,
      "icon": 6426,
      "studies": 6427,
      "declined": 6428,
      "MPs": 6429,
      "appropriate": 6430,
      "omi": 6431,
      "devices": 6432,
      "poses": 6433,
      "aling": 6434,
      "aming": 6435,
      "Str": 6436,
      "ims": 6437,
      "ressing": 6438,
      "dollar": 6439,
      "Its": 6440,
      "cult": 6441,
      "abroad": 6442,
      "Students": 6443,
      "NEW": 6444,
      "Internet": 6445,
      "surprise": 6446,
      "Gh": 6447,
      "length": 6448,
      "eat": 6449,
      "Sunil": 6450,
      "Elect": 6451,
      "wonder": 6452,
      "knew": 6453,
      "relative": 6454,
      "tourists": 6455,
      "origin": 6456,
      "Economic": 6457,
      "champions": 6458,
      "behaviour": 6459,
      "Mohan": 6460,
      "PG": 6461,
      "elder": 6462,
      "seized": 6463,
      "requested": 6464,
      "selected": 6465,
      "software": 6466,
      "emergency": 6467,
      "si": 6468,
      "Will": 6469,
      "sem": 6470,
      "dialogue": 6471,
      "meaning": 6472,
      "sco": 6473,
      "user": 6474,
      "FY": 6475,
      "gif": 6476,
      "preced": 6477,
      "sim": 6478,
      "mohan": 6479,
      "formal": 6480,
      "Only": 6481,
      "ourses": 6482,
      "proving": 6483,
      "bureau": 6484,
      "purchase": 6485,
      "lax": 6486,
      "removed": 6487,
      "hari": 6488,
      "dete": 6489,
      "Plus": 6490,
      "apex": 6491,
      "Shankar": 6492,
      "ino": 6493,
      "absence": 6494,
      "deficit": 6495,
      "marketing": 6496,
      "ifest": 6497,
      "premises": 6498,
      "tank": 6499,
      "factors": 6500,
      "definitely": 6501,
      "device": 6502,
      "replace": 6503,
      "certainly": 6504,
      "rated": 6505,
      "surg": 6506,
      "premium": 6507,
      "paying": 6508,
      "weapons": 6509,
      "equal": 6510,
      "aidu": 6511,
      "educational": 6512,
      "NH": 6513,
      "inquiry": 6514,
      "FB": 6515,
      "tally": 6516,
      "Fest": 6517,
      "fly": 6518,
      "Team": 6519,
      "dispute": 6520,
      "Ranchi": 6521,
      "ico": 6522,
      "friendly": 6523,
      "Chandra": 6524,
      "sad": 6525,
      "Mao": 6526,
      "Similarly": 6527,
      "peaceful": 6528,
      "remarks": 6529,
      "invited": 6530,
      "civic": 6531,
      "Rat": 6532,
      "Kur": 6533,
      "temperature": 6534,
      "drama": 6535,
      "69": 6536,
      "commitment": 6537,
      "Sil": 6538,
      "eep": 6539,
      "Bah": 6540,
      "municipal": 6541,
      "pair": 6542,
      "Sector": 6543,
      "dates": 6544,
      "Samsung": 6545,
      "favourite": 6546,
      "representatives": 6547,
      "academic": 6548,
      "Principal": 6549,
      "consequ": 6550,
      "organized": 6551,
      "locals": 6552,
      "sanction": 6553,
      "largely": 6554,
      "questioned": 6555,
      "perman": 6556,
      "commerce": 6557,
      "figh": 6558,
      "abled": 6559,
      "newly": 6560,
      "measure": 6561,
      "prop": 6562,
      "baby": 6563,
      "decline": 6564,
      "portion": 6565,
      "learnt": 6566,
      "rains": 6567,
      "participants": 6568,
      "symb": 6569,
      "cinema": 6570,
      "Yu": 6571,
      "bers": 6572,
      "considering": 6573,
      "expans": 6574,
      "protesters": 6575,
      "Western": 6576,
      "street": 6577,
      "600": 6578,
      "registration": 6579,
      "equipment": 6580,
      "Mil": 6581,
      "expend": 6582,
      "suffering": 6583,
      "provision": 6584,
      "summit": 6585,
      "crimin": 6586,
      "doubt": 6587,
      "exem": 6588,
      "guidelines": 6589,
      "Ki": 6590,
      "Rak": 6591,
      "mart": 6592,
      "Verma": 6593,
      "booked": 6594,
      "usual": 6595,
      "collap": 6596,
      "resort": 6597,
      "feder": 6598,
      "couldn": 6599,
      "apparen": 6600,
      "approached": 6601,
      "Naidu": 6602,
      "bigger": 6603,
      "util": 6604,
      "rescue": 6605,
      "judicial": 6606,
      "telecom": 6607,
      "toll": 6608,
      "wai": 6609,
      "initiated": 6610,
      "Ahmedabad": 6611,
      "erson": 6612,
      "songs": 6613,
      "emerged": 6614,
      "2000": 6615,
      "Information": 6616,
      "quoted": 6617,
      "engineering": 6618,
      "Men": 6619,
      "ideas": 6620,
      "Tar": 6621,
      "tariff": 6622,
      "ario": 6623,
      "although": 6624,
      "buses": 6625,
      "offices": 6626,
      "Ele": 6627,
      "ood": 6628,
      "Android": 6629,
      "62": 6630,
      "opposed": 6631,
      "OS": 6632,
      "Wal": 6633,
      "milk": 6634,
      "ON": 6635,
      "fold": 6636,
      "latter": 6637,
      "edge": 6638,
      "seeing": 6639,
      "wake": 6640,
      "orge": 6641,
      "applications": 6642,
      "Prad": 6643,
      "shel": 6644,
      "Kot": 6645,
      "emerging": 6646,
      "rushed": 6647,
      "govt": 6648,
      "eline": 6649,
      "Joshi": 6650,
      "Press": 6651,
      "AFP": 6652,
      "Haz": 6653,
      "Human": 6654,
      "silver": 6655,
      "creation": 6656,
      "fault": 6657,
      "animals": 6658,
      "trees": 6659,
      "tests": 6660,
      "una": 6661,
      "functioning": 6662,
      "remind": 6663,
      "OR": 6664,
      "wheel": 6665,
      "voting": 6666,
      "IG": 6667,
      "prev": 6668,
      "clim": 6669,
      "Muham": 6670,
      "minority": 6671,
      "Polit": 6672,
      "chain": 6673,
      "Maj": 6674,
      "Lim": 6675,
      "ava": 6676,
      "tribal": 6677,
      "deployed": 6678,
      "conspir": 6679,
      "sensitive": 6680,
      "transparen": 6681,
      "circum": 6682,
      "draft": 6683,
      "Citizens": 6684,
      "throughout": 6685,
      "headquarters": 6686,
      "roles": 6687,
      "cric": 6688,
      "secure": 6689,
      "symp": 6690,
      "filing": 6691,
      "asan": 6692,
      "hurt": 6693,
      "patter": 6694,
      "possibility": 6695,
      "Hol": 6696,
      "driven": 6697,
      "recruit": 6698,
      "troops": 6699,
      "plastic": 6700,
      "surround": 6701,
      "obvious": 6702,
      "HT": 6703,
      "Tele": 6704,
      "cry": 6705,
      "controversy": 6706,
      "backed": 6707,
      "awarded": 6708,
      "Democratic": 6709,
      "proud": 6710,
      "Academy": 6711,
      "papers": 6712,
      "bling": 6713,
      "asks": 6714,
      "Ber": 6715,
      "shifted": 6716,
      "crop": 6717,
      "MB": 6718,
      "stressed": 6719,
      "collected": 6720,
      "lie": 6721,
      "Foundation": 6722,
      "twice": 6723,
      "selection": 6724,
      "apply": 6725,
      "Soci": 6726,
      "riot": 6727,
      "participate": 6728,
      "Speaker": 6729,
      "istics": 6730,
      "blue": 6731,
      "map": 6732,
      "icing": 6733,
      "heav": 6734,
      "ially": 6735,
      "penalty": 6736,
      "PP": 6737,
      "quickly": 6738,
      "council": 6739,
      "Yes": 6740,
      "rainfall": 6741,
      "manage": 6742,
      "principal": 6743,
      "payments": 6744,
      "Further": 6745,
      "choose": 6746,
      "Brah": 6747,
      "Pawar": 6748,
      "recovery": 6749,
      "ches": 6750,
      "empower": 6751,
      "Arjun": 6752,
      "winner": 6753,
      "EU": 6754,
      "celebrate": 6755,
      "DEL": 6756,
      "batsman": 6757,
      "Trust": 6758,
      "gra": 6759,
      "aksh": 6760,
      "Brazil": 6761,
      "hik": 6762,
      "patient": 6763,
      "Ju": 6764,
      "owing": 6765,
      "ona": 6766,
      "buying": 6767,
      "fundament": 6768,
      "ching": 6769,
      "elements": 6770,
      "ec": 6771,
      "demonet": 6772,
      "Roh": 6773,
      "motiv": 6774,
      "shed": 6775,
      "Dur": 6776,
      "resolve": 6777,
      "2006": 6778,
      "atest": 6779,
      "constitutional": 6780,
      "theatre": 6781,
      "absol": 6782,
      "inf": 6783,
      "stances": 6784,
      "cricke": 6785,
      "classes": 6786,
      "bird": 6787,
      "challenging": 6788,
      "asser": 6789,
      "fti": 6790,
      "afternoon": 6791,
      "Saf": 6792,
      "wash": 6793,
      "Bur": 6794,
      "characters": 6795,
      "exhibition": 6796,
      "Good": 6797,
      "tells": 6798,
      "rooms": 6799,
      "alle": 6800,
      "Steel": 6801,
      "eshwar": 6802,
      "cad": 6803,
      "threatened": 6804,
      "resent": 6805,
      "streets": 6806,
      "adhaar": 6807,
      "Agr": 6808,
      "borrow": 6809,
      "AB": 6810,
      "elig": 6811,
      "tight": 6812,
      "Willi": 6813,
      "discipl": 6814,
      "gathering": 6815,
      "eries": 6816,
      "hub": 6817,
      "ached": 6818,
      "industries": 6819,
      "Akhil": 6820,
      "nan": 6821,
      "export": 6822,
      "77": 6823,
      "Enter": 6824,
      "ambar": 6825,
      "iron": 6826,
      "passing": 6827,
      "pleas": 6828,
      "stocks": 6829,
      "models": 6830,
      "fields": 6831,
      "sometimes": 6832,
      "keen": 6833,
      "rupee": 6834,
      "standards": 6835,
      "renew": 6836,
      "Additional": 6837,
      "CB": 6838,
      "HR": 6839,
      "MM": 6840,
      "Mufti": 6841,
      "retired": 6842,
      "Pandey": 6843,
      "helping": 6844,
      "firing": 6845,
      "happens": 6846,
      "solar": 6847,
      "cold": 6848,
      "balls": 6849,
      "accord": 6850,
      "uti": 6851,
      "overty": 6852,
      "ato": 6853,
      "extent": 6854,
      "morrow": 6855,
      "andal": 6856,
      "Us": 6857,
      "bha": 6858,
      "Consu": 6859,
      "wins": 6860,
      "Nagaland": 6861,
      "alternative": 6862,
      "tomorrow": 6863,
      "email": 6864,
      "arrangements": 6865,
      "expansion": 6866,
      "performing": 6867,
      "Aadhaar": 6868,
      "DELHI": 6869,
      "wala": 6870,
      "Mukher": 6871,
      "destroy": 6872,
      "engaged": 6873,
      "deals": 6874,
      "moral": 6875,
      "practices": 6876,
      "exports": 6877,
      "beaten": 6878,
      "proc": 6879,
      "Grand": 6880,
      "hike": 6881,
      "detailed": 6882,
      "tonnes": 6883,
      "oked": 6884,
      "Ale": 6885,
      "Bagh": 6886,
      "Cal": 6887,
      "winter": 6888,
      "antly": 6889,
      "tray": 6890,
      ".": 6891,
      "lux": 6892,
      "knows": 6893,
      "ene": 6894,
      "deceased": 6895,
      "hall": 6896,
      "thanks": 6897,
      ".,": 6898,
      "code": 6899,
      "Muhammad": 6900,
      "Leg": 6901,
      "Mission": 6902,
      "Vis": 6903,
      "factor": 6904,
      "800": 6905,
      "none": 6906,
      "reading": 6907,
      "struck": 6908,
      "CAA": 6909,
      "idity": 6910,
      "buildings": 6911,
      "aked": 6912,
      "tea": 6913,
      "sar": 6914,
      "comprising": 6915,
      "Kath": 6916,
      "itors": 6917,
      "duo": 6918,
      "Sain": 6919,
      "watching": 6920,
      "SU": 6921,
      "targeted": 6922,
      "Corp": 6923,
      "ito": 6924,
      "finding": 6925,
      "contact": 6926,
      "batting": 6927,
      "trained": 6928,
      "rian": 6929,
      "Like": 6930,
      "Pet": 6931,
      "gest": 6932,
      "ares": 6933,
      "intendent": 6934,
      "Play": 6935,
      "Akshay": 6936,
      "yield": 6937,
      "customer": 6938,
      "Tan": 6939,
      "tip": 6940,
      "violation": 6941,
      "forecast": 6942,
      "gains": 6943,
      "identify": 6944,
      "Dub": 6945,
      "Sim": 6946,
      "theast": 6947,
      "expenditure": 6948,
      "journalist": 6949,
      "orter": 6950,
      "Deh": 6951,
      "mainly": 6952,
      "transferred": 6953,
      "participated": 6954,
      "Division": 6955,
      "Raf": 6956,
      "aught": 6957,
      "wali": 6958,
      "Thacker": 6959,
      "concluded": 6960,
      "situ": 6961,
      "rig": 6962,
      "starts": 6963,
      "Ret": 6964,
      "elled": 6965,
      "contribution": 6966,
      "explained": 6967,
      "curities": 6968,
      "banned": 6969,
      "Cels": 6970,
      "scenario": 6971,
      "constituencies": 6972,
      "phen": 6973,
      "Celsius": 6974,
      "admission": 6975,
      "withdraw": 6976,
      "Financial": 6977,
      "brands": 6978,
      "proceedings": 6979,
      "singer": 6980,
      "recommended": 6981,
      "connected": 6982,
      "achieved": 6983,
      "insu": 6984,
      "85": 6985,
      "notification": 6986,
      "sphere": 6987,
      "mm": 6988,
      "Naw": 6989,
      "exit": 6990,
      "advance": 6991,
      "Mohammed": 6992,
      "bureaucr": 6993,
      "bac": 6994,
      "auction": 6995,
      "Following": 6996,
      "MW": 6997,
      "allows": 6998,
      "Black": 6999,
      "keeper": 7000,
      "poet": 7001,
      "properties": 7002,
      "rant": 7003,
      "Stadium": 7004,
      "historic": 7005,
      "uff": 7006,
      "eras": 7007,
      "devot": 7008,
      "focused": 7009,
      "ODI": 7010,
      "Award": 7011,
      "falling": 7012,
      "2004": 7013,
      "habit": 7014,
      "payee": 7015,
      "Blair": 7016,
      "liquor": 7017,
      "Devi": 7018,
      "Sever": 7019,
      "champion": 7020,
      "imal": 7021,
      "leads": 7022,
      "referred": 7023,
      "Watch": 7024,
      "neither": 7025,
      "absolute": 7026,
      "Yet": 7027,
      "Vaj": 7028,
      "posite": 7029,
      "hence": 7030,
      "healthcare": 7031,
      "diesel": 7032,
      "missions": 7033,
      "activist": 7034,
      "percentage": 7035,
      "receiving": 7036,
      "finals": 7037,
      "Noida": 7038,
      "improved": 7039,
      "courses": 7040,
      "250": 7041,
      "nap": 7042,
      "corner": 7043,
      "medal": 7044,
      "MU": 7045,
      "aced": 7046,
      "allowing": 7047,
      "Who": 7048,
      "Mart": 7049,
      "loved": 7050,
      "lam": 7051,
      "Syria": 7052,
      "SK": 7053,
      "ola": 7054,
      "foundation": 7055,
      "Rana": 7056,
      "German": 7057,
      "toile": 7058,
      "Prab": 7059,
      "supposed": 7060,
      "onym": 7061,
      "seeks": 7062,
      "//": 7063,
      "scious": 7064,
      "Ris": 7065,
      "naik": 7066,
      "drinking": 7067,
      "myself": 7068,
      "grew": 7069,
      "Water": 7070,
      "sters": 7071,
      "Thackeray": 7072,
      "forth": 7073,
      "JN": 7074,
      "script": 7075,
      "die": 7076,
      "rive": 7077,
      "nearby": 7078,
      "fired": 7079,
      "auty": 7080,
      "Din": 7081,
      "cat": 7082,
      "Mehta": 7083,
      "Mamata": 7084,
      "vised": 7085,
      "Code": 7086,
      "Sang": 7087,
      "asw": 7088,
      "operate": 7089,
      "retire": 7090,
      "Commer": 7091,
      "discussions": 7092,
      "bowling": 7093,
      "radun": 7094,
      "pel": 7095,
      "schedule": 7096,
      "UR": 7097,
      "fing": 7098,
      "Later": 7099,
      "criticism": 7100,
      "computer": 7101,
      "delivered": 7102,
      "twitter": 7103,
      "vul": 7104,
      "Islamabad": 7105,
      "cool": 7106,
      "About": 7107,
      "Mirror": 7108,
      "Fort": 7109,
      "inspired": 7110,
      "Talib": 7111,
      "transactions": 7112,
      "earnings": 7113,
      "ray": 7114,
      "Execut": 7115,
      "72": 7116,
      "grown": 7117,
      "artists": 7118,
      "ailing": 7119,
      "claiming": 7120,
      "Japanese": 7121,
      "Any": 7122,
      "comfortable": 7123,
      "unable": 7124,
      "deliber": 7125,
      "judges": 7126,
      "brings": 7127,
      "locations": 7128,
      "interested": 7129,
      "Tom": 7130,
      "trains": 7131,
      "mood": 7132,
      "Indira": 7133,
      "DR": 7134,
      "atell": 7135,
      "ulate": 7136,
      "finish": 7137,
      "Jet": 7138,
      "Badal": 7139,
      "monitoring": 7140,
      "explos": 7141,
      "Prat": 7142,
      "participation": 7143,
      "visitors": 7144,
      "luck": 7145,
      "professor": 7146,
      "cher": 7147,
      "happening": 7148,
      "Mukherjee": 7149,
      "producer": 7150,
      "micro": 7151,
      "jection": 7152,
      "Premier": 7153,
      "Hindus": 7154,
      "Industries": 7155,
      "BMC": 7156,
      "Himachal": 7157,
      "Dhan": 7158,
      "expectations": 7159,
      "dedicated": 7160,
      "heat": 7161,
      "dismissed": 7162,
      "secular": 7163,
      "Hindust": 7164,
      "epis": 7165,
      "causing": 7166,
      "seriously": 7167,
      "Gho": 7168,
      "Market": 7169,
      "inspir": 7170,
      "jur": 7171,
      "Aad": 7172,
      "excell": 7173,
      "select": 7174,
      "taxes": 7175,
      "eventually": 7176,
      "Dhawan": 7177,
      "?”": 7178,
      "yam": 7179,
      "channels": 7180,
      "Bef": 7181,
      "reh": 7182,
      "hash": 7183,
      "enses": 7184,
      "inaugurated": 7185,
      "conscious": 7186,
      "wearing": 7187,
      "environmental": 7188,
      "adopted": 7189,
      "shad": 7190,
      "cleared": 7191,
      "Bureau": 7192,
      "crores": 7193,
      "initiatives": 7194,
      "Fl": 7195,
      "whatever": 7196,
      "supporting": 7197,
      "parliamentary": 7198,
      "rapid": 7199,
      "eases": 7200,
      "conver": 7201,
      "positions": 7202,
      "Chid": 7203,
      "2005": 7204,
      "ez": 7205,
      "bilateral": 7206,
      "Bor": 7207,
      "herself": 7208,
      "forcement": 7209,
      "valley": 7210,
      "Lord": 7211,
      "animal": 7212,
      "Dehradun": 7213,
      "clin": 7214,
      "complet": 7215,
      "Paul": 7216,
      ");": 7217,
      "ernand": 7218,
      "Tech": 7219,
      "rating": 7220,
      "younger": 7221,
      "distance": 7222,
      "veer": 7223,
      "Administration": 7224,
      "trouble": 7225,
      "370": 7226,
      "Teh": 7227,
      "insist": 7228,
      "chances": 7229,
      "regions": 7230,
      "Taliban": 7231,
      "alaxy": 7232,
      "Phil": 7233,
      "handle": 7234,
      "pitch": 7235,
      "sque": 7236,
      "63": 7237,
      "Well": 7238,
      "griev": 7239,
      "eval": 7240,
      "chemical": 7241,
      "Ministers": 7242,
      "succeed": 7243,
      "semi": 7244,
      "Rawat": 7245,
      "unfortun": 7246,
      "values": 7247,
      "Bro": 7248,
      "finished": 7249,
      "analysis": 7250,
      "Festival": 7251,
      "reservation": 7252,
      "oul": 7253,
      "Nand": 7254,
      "prefer": 7255,
      "factory": 7256,
      "colon": 7257,
      "prepare": 7258,
      "poverty": 7259,
      "Kha": 7260,
      "Four": 7261,
      "grade": 7262,
      "tag": 7263,
      "andon": 7264,
      "seemed": 7265,
      "Hong": 7266,
      "Lab": 7267,
      "mers": 7268,
      "weekend": 7269,
      "rati": 7270,
      "permanent": 7271,
      "operational": 7272,
      "petrol": 7273,
      "punish": 7274,
      "bell": 7275,
      "Kat": 7276,
      "kno": 7277,
      "Indies": 7278,
      "proof": 7279,
      "ordinary": 7280,
      "ugu": 7281,
      "Stre": 7282,
      "symbol": 7283,
      "pregn": 7284,
      "quit": 7285,
      "airline": 7286,
      "constructed": 7287,
      "Moreover": 7288,
      "Nitish": 7289,
      "Are": 7290,
      "context": 7291,
      "familiar": 7292,
      "Stand": 7293,
      "Hur": 7294,
      "leaves": 7295,
      "prominent": 7296,
      "Best": 7297,
      "Micro": 7298,
      "Swaraj": 7299,
      "Several": 7300,
      "Before": 7301,
      "Agar": 7302,
      "bought": 7303,
      "Pulw": 7304,
      "iency": 7305,
      "Pu": 7306,
      "construct": 7307,
      "spotted": 7308,
      "Executive": 7309,
      "Lead": 7310,
      "yo": 7311,
      "Instead": 7312,
      "Mat": 7313,
      "breaking": 7314,
      "involving": 7315,
      "61": 7316,
      "governor": 7317,
      "pura": 7318,
      "Pulwama": 7319,
      "Youth": 7320,
      "earned": 7321,
      "volun": 7322,
      "attempts": 7323,
      "Jav": 7324,
      "oles": 7325,
      "otherwise": 7326,
      "isha": 7327,
      "izen": 7328,
      "hone": 7329,
      "NRC": 7330,
      "yat": 7331,
      "damaged": 7332,
      "eer": 7333,
      "crimes": 7334,
      "Life": 7335,
      "Tem": 7336,
      "Kong": 7337,
      "jewell": 7338,
      "smaller": 7339,
      "Arabia": 7340,
      "ublish": 7341,
      "travelling": 7342,
      "lights": 7343,
      "passion": 7344,
      "moves": 7345,
      "dhar": 7346,
      "stall": 7347,
      "dia": 7348,
      "panchayat": 7349,
      "fled": 7350,
      "Advis": 7351,
      "Project": 7352,
      "traders": 7353,
      "effects": 7354,
      "CRPF": 7355,
      "democratic": 7356,
      "eless": 7357,
      "Interest": 7358,
      "militant": 7359,
      "termin": 7360,
      "crude": 7361,
      "tom": 7362,
      "strongly": 7363,
      "Deepika": 7364,
      "Ek": 7365,
      "bless": 7366,
      "mel": 7367,
      "Palest": 7368,
      "subsequ": 7369,
      "Sharif": 7370,
      "hek": 7371,
      "scar": 7372,
      "wani": 7373,
      "remark": 7374,
      "Ramesh": 7375,
      "diseases": 7376,
      "operative": 7377,
      "zy": 7378,
      "newspaper": 7379,
      "ilty": 7380,
      "Forest": 7381,
      "videos": 7382,
      "istrate": 7383,
      "Green": 7384,
      "Fernand": 7385,
      "compar": 7386,
      "heritage": 7387,
      "Dubai": 7388,
      "greg": 7389,
      "Nay": 7390,
      "snow": 7391,
      "yot": 7392,
      "IMS": 7393,
      "excess": 7394,
      "cuts": 7395,
      "ima": 7396,
      "Ray": 7397,
      "Manmohan": 7398,
      "nab": 7399,
      "Your": 7400,
      "passenger": 7401,
      "Indo": 7402,
      "ool": 7403,
      "defeated": 7404,
      "hun": 7405,
      "eta": 7406,
      "PD": 7407,
      "hance": 7408,
      "yas": 7409,
      "advanced": 7410,
      "mutual": 7411,
      "spin": 7412,
      "warm": 7413,
      "stun": 7414,
      "iation": 7415,
      "remove": 7416,
      "directors": 7417,
      "turning": 7418,
      "ye": 7419,
      "Addressing": 7420,
      "anonym": 7421,
      "Khal": 7422,
      "Gad": 7423,
      "suspected": 7424,
      "compreh": 7425,
      "SBI": 7426,
      "disaster": 7427,
      "indul": 7428,
      "ambaram": 7429,
      "outs": 7430,
      "awards": 7431,
      "refuge": 7432,
      "TE": 7433,
      "ensuring": 7434,
      "park": 7435,
      "spr": 7436,
      "profile": 7437,
      "camps": 7438,
      "Sheikh": 7439,
      "Faroo": 7440,
      "Pvt": 7441,
      "migration": 7442,
      "abuse": 7443,
      "controversial": 7444,
      "initially": 7445,
      "aspects": 7446,
      "Du": 7447,
      "successfully": 7448,
      ".’": 7449,
      "secret": 7450,
      "Chaud": 7451,
      "tree": 7452,
      "Vajpayee": 7453,
      "reaching": 7454,
      "MA": 7455,
      "asset": 7456,
      "intens": 7457,
      "acknow": 7458,
      "mem": 7459,
      "mail": 7460,
      "alco": 7461,
      "cow": 7462,
      "scientists": 7463,
      "mort": 7464,
      "swit": 7465,
      "Front": 7466,
      "onom": 7467,
      "Nat": 7468,
      "Nations": 7469,
      "QUF": 7470,
      "sole": 7471,
      "strikes": 7472,
      "Patnaik": 7473,
      "Station": 7474,
      "guaran": 7475,
      "storm": 7476,
      "emotional": 7477,
      "fection": 7478,
      "companied": 7479,
      "guilty": 7480,
      "2002": 7481,
      "nergy": 7482,
      "installed": 7483,
      "gross": 7484,
      "quant": 7485,
      "Amendment": 7486,
      "tees": 7487,
      "improving": 7488,
      "Environment": 7489,
      "Chak": 7490,
      "Rad": 7491,
      "ented": 7492,
      "knock": 7493,
      "Lu": 7494,
      "Book": 7495,
      "rice": 7496,
      "err": 7497,
      "Patil": 7498,
      "Narayan": 7499,
      "Chidambaram": 7500,
      "iments": 7501,
      "evi": 7502,
      "Tro": 7503,
      "universities": 7504,
      "celebrations": 7505,
      "enhance": 7506,
      "dry": 7507,
      "Rukh": 7508,
      "solutions": 7509,
      "smooth": 7510,
      "cers": 7511,
      "begins": 7512,
      "hara": 7513,
      "700": 7514,
      "oga": 7515,
      "Bhub": 7516,
      "aims": 7517,
      "directions": 7518,
      "vulner": 7519,
      "mates": 7520,
      "Assist": 7521,
      "Whats": 7522,
      "extend": 7523,
      "recommendations": 7524,
      "Smith": 7525,
      "rah": 7526,
      "Top": 7527,
      "anath": 7528,
      "gry": 7529,
      "substant": 7530,
      "ums": 7531,
      "Bay": 7532,
      "administrative": 7533,
      "Syed": 7534,
      "enable": 7535,
      "cameras": 7536,
      "raw": 7537,
      "tie": 7538,
      "95": 7539,
      "advised": 7540,
      "competitive": 7541,
      "Canada": 7542,
      "metro": 7543,
      "Pac": 7544,
      "pretty": 7545,
      "elim": 7546,
      "trillion": 7547,
      "Jaipur": 7548,
      "cape": 7549,
      "storage": 7550,
      "ura": 7551,
      "atmo": 7552,
      "Kamal": 7553,
      "cloud": 7554,
      "archite": 7555,
      "sures": 7556,
      "WhatsApp": 7557,
      "older": 7558,
      "78": 7559,
      "Mano": 7560,
      "connectivity": 7561,
      "indu": 7562,
      "TA": 7563,
      "fitness": 7564,
      "Sensex": 7565,
      "belief": 7566,
      "stance": 7567,
      "Transport": 7568,
      "habilit": 7569,
      "hr": 7570,
      "gate": 7571,
      "manifest": 7572,
      "aram": 7573,
      "sufficient": 7574,
      "Lef": 7575,
      "itha": 7576,
      "haven": 7577,
      "zero": 7578,
      "stal": 7579,
      "tenure": 7580,
      "Ri": 7581,
      "institution": 7582,
      "Sik": 7583,
      "residential": 7584,
      "returning": 7585,
      "parking": 7586,
      "hardly": 7587,
      "agitation": 7588,
      "millions": 7589,
      "arts": 7590,
      "outfit": 7591,
      "Ty": 7592,
      "eco": 7593,
      "reven": 7594,
      "ider": 7595,
      "Oper": 7596,
      "telling": 7597,
      "beauty": 7598,
      "Mul": 7599,
      "highway": 7600,
      "enthus": 7601,
      "deser": 7602,
      "lived": 7603,
      "Sangh": 7604,
      "ique": 7605,
      "objective": 7606,
      "facts": 7607,
      "rd": 7608,
      "restaurant": 7609,
      "veteran": 7610,
      "upper": 7611,
      "cott": 7612,
      "Prote": 7613,
      "editor": 7614,
      "giant": 7615,
      "Limited": 7616,
      "embar": 7617,
      "phil": 7618,
      "Kaur": 7619,
      "yourself": 7620,
      "abi": 7621,
      "drivers": 7622,
      "falls": 7623,
      "conspiracy": 7624,
      "unve": 7625,
      "reform": 7626,
      "titled": 7627,
      "Trin": 7628,
      "IB": 7629,
      "Left": 7630,
      "Where": 7631,
      "anj": 7632,
      "bally": 7633,
      "counsel": 7634,
      "workshop": 7635,
      "resignation": 7636,
      "Amr": 7637,
      "Pradhan": 7638,
      "Tourism": 7639,
      "iaries": 7640,
      "correspond": 7641,
      "fought": 7642,
      "Command": 7643,
      "circumstances": 7644,
      "ramp": 7645,
      "Camp": 7646,
      "Imran": 7647,
      "agues": 7648,
      "kha": 7649,
      "atma": 7650,
      "worry": 7651,
      "accompanied": 7652,
      "Society": 7653,
      "riots": 7654,
      "slog": 7655,
      "Railways": 7656,
      "franch": 7657,
      "Jio": 7658,
      "rew": 7659,
      "Farooq": 7660,
      "youths": 7661,
      "lling": 7662,
      "platforms": 7663,
      "flat": 7664,
      "Bharti": 7665,
      "tu": 7666,
      "icious": 7667,
      "overseas": 7668,
      "theme": 7669,
      "DL": 7670,
      "enhan": 7671,
      "string": 7672,
      "Sebi": 7673,
      "harassment": 7674,
      "skipper": 7675,
      "tenance": 7676,
      "organiz": 7677,
      "boob": 7678,
      "Report": 7679,
      "Dalit": 7680,
      "battery": 7681,
      "Bet": 7682,
      "hael": 7683,
      "trick": 7684,
      "Galaxy": 7685,
      "farmer": 7686,
      "Sind": 7687,
      "extr": 7688,
      "Amarinder": 7689,
      "encourage": 7690,
      "Main": 7691,
      "Media": 7692,
      "sanctions": 7693,
      "warning": 7694,
      "Olympic": 7695,
      "Naik": 7696,
      "rier": 7697,
      "ko": 7698,
      "HS": 7699,
      "promoting": 7700,
      "intr": 7701,
      "irt": 7702,
      "burden": 7703,
      "Aj": 7704,
      "kers": 7705,
      "demol": 7706,
      "migrants": 7707,
      "Sachin": 7708,
      "subscri": 7709,
      "Kim": 7710,
      "consolid": 7711,
      "Independ": 7712,
      "Common": 7713,
      "Talking": 7714,
      "pump": 7715,
      "Raja": 7716,
      "Vikas": 7717,
      "luxury": 7718,
      "glass": 7719,
      "scholars": 7720,
      "dangerous": 7721,
      "Angel": 7722,
      "orial": 7723,
      "lift": 7724,
      "uls": 7725,
      "aneswar": 7726,
      "HA": 7727,
      "diet": 7728,
      "politician": 7729,
      "Tra": 7730,
      "Regist": 7731,
      "attitude": 7732,
      "manufactur": 7733,
      "assistant": 7734,
      "expo": 7735,
      "discover": 7736,
      "Welfare": 7737,
      "flights": 7738,
      "Rajesh": 7739,
      "plot": 7740,
      "legend": 7741,
      "eties": 7742,
      "journalists": 7743,
      "monthly": 7744,
      "ads": 7745,
      "improvement": 7746,
      "71": 7747,
      "Manohar": 7748,
      "Produ": 7749,
      "Akhilesh": 7750,
      "satell": 7751,
      "Malays": 7752,
      "involvement": 7753,
      "Nas": 7754,
      "memory": 7755,
      "Hollywood": 7756,
      "akshi": 7757,
      "tourist": 7758,
      "dign": 7759,
      "eligible": 7760,
      "til": 7761,
      "Manoj": 7762,
      "Mac": 7763,
      "Ref": 7764,
      "uresh": 7765,
      "ratio": 7766,
      "Max": 7767,
      "uncertain": 7768,
      "semin": 7769,
      "differences": 7770,
      "broken": 7771,
      "designer": 7772,
      "demonetisation": 7773,
      "gained": 7774,
      "regulator": 7775,
      "entr": 7776,
      "VP": 7777,
      "det": 7778,
      "Bhubaneswar": 7779,
      "fellow": 7780,
      "signs": 7781,
      "teaching": 7782,
      "Er": 7783,
      "Gaur": 7784,
      "risks": 7785,
      "Hussain": 7786,
      "closure": 7787,
      "conversation": 7788,
      "fundamental": 7789,
      "Aud": 7790,
      "chant": 7791,
      "onda": 7792,
      "detained": 7793,
      "sustained": 7794,
      "expensive": 7795,
      "plane": 7796,
      "ambit": 7797,
      "casual": 7798,
      "dut": 7799,
      "Hindustan": 7800,
      "Big": 7801,
      "Budd": 7802,
      "unless": 7803,
      "attle": 7804,
      "agricultural": 7805,
      "Suresh": 7806,
      "alive": 7807,
      "mountain": 7808,
      "categories": 7809,
      "anning": 7810,
      "acquired": 7811,
      "assador": 7812,
      "appearance": 7813,
      "neighbouring": 7814,
      "pension": 7815,
      "recruitment": 7816,
      "availability": 7817,
      "analysts": 7818,
      "settled": 7819,
      "Deepak": 7820,
      "violent": 7821,
      "Rights": 7822,
      "Mahatma": 7823,
      "thrill": 7824,
      "1990": 7825,
      "wave": 7826,
      "Kapil": 7827,
      "estimates": 7828,
      "bert": 7829,
      "Abhis": 7830,
      "Asked": 7831,
      "advocate": 7832,
      "wer": 7833,
      "apt": 7834,
      "apps": 7835,
      "efficient": 7836,
      "appealed": 7837,
      "viral": 7838,
      "Profess": 7839,
      "JI": 7840,
      "Urban": 7841,
      "Ku": 7842,
      "fab": 7843,
      "agno": 7844,
      "Samajwadi": 7845,
      "Actor": 7846,
      "machine": 7847,
      "cum": 7848,
      "Khar": 7849,
      "sessions": 7850,
      "ulam": 7851,
      "Mehboob": 7852,
      "HP": 7853,
      "Jas": 7854,
      "suggests": 7855,
      "regulatory": 7856,
      "Fad": 7857,
      "Khur": 7858,
      "Nad": 7859,
      "resulted": 7860,
      "nod": 7861,
      "jack": 7862,
      "Korean": 7863,
      "experiment": 7864,
      "forget": 7865,
      "Tiger": 7866,
      "Kann": 7867,
      "endors": 7868,
      "entrepreneurs": 7869,
      "buyers": 7870,
      "Ham": 7871,
      "ander": 7872,
      "operators": 7873,
      "Ayod": 7874,
      "slogans": 7875,
      "investigating": 7876,
      "reference": 7877,
      "slight": 7878,
      "amaz": 7879,
      "asc": 7880,
      "atmosphere": 7881,
      "sari": 7882,
      "Puri": 7883,
      "98": 7884,
      "images": 7885,
      "peak": 7886,
      "Cam": 7887,
      "bust": 7888,
      "stig": 7889,
      "lawyers": 7890,
      "Gar": 7891,
      "rub": 7892,
      "Omar": 7893,
      "Right": 7894,
      "aga": 7895,
      "delayed": 7896,
      "cited": 7897,
      "requires": 7898,
      "begun": 7899,
      "Tok": 7900,
      "turns": 7901,
      "completion": 7902,
      "cks": 7903,
      "Mahindra": 7904,
      "stab": 7905,
      "Mel": 7906,
      "bonds": 7907,
      "employee": 7908,
      "targets": 7909,
      "Ayodhya": 7910,
      "termed": 7911,
      "register": 7912,
      "offee": 7913,
      "sheet": 7914,
      "Sukh": 7915,
      "sight": 7916,
      "dozen": 7917,
      "Motor": 7918,
      "mechanism": 7919,
      "indeed": 7920,
      "Agarwal": 7921,
      "ouhan": 7922,
      "sustainable": 7923,
      "welcomed": 7924,
      "messages": 7925,
      "sper": 7926,
      "exams": 7927,
      "thy": 7928,
      "pulled": 7929,
      "categor": 7930,
      "pip": 7931,
      "rigation": 7932,
      "rown": 7933,
      "reput": 7934,
      "garb": 7935,
      "Azad": 7936,
      "atures": 7937,
      "grab": 7938,
      "hana": 7939,
      "fruit": 7940,
      "booth": 7941,
      "sees": 7942,
      "Diwali": 7943,
      "oli": 7944,
      "article": 7945,
      "Amitabh": 7946,
      "MT": 7947,
      "previously": 7948,
      "concent": 7949,
      "magaz": 7950,
      "pull": 7951,
      "SAD": 7952,
      "nis": 7953,
      "wound": 7954,
      "bare": 7955,
      "Put": 7956,
      "struction": 7957,
      "Michael": 7958,
      "tickets": 7959,
      "oppon": 7960,
      "Urdu": 7961,
      "aja": 7962,
      "restrictions": 7963,
      "llor": 7964,
      "ibilities": 7965,
      "depress": 7966,
      "easier": 7967,
      "Rom": 7968,
      "Sho": 7969,
      "Vill": 7970,
      "MlA": 7971,
      "exactly": 7972,
      "alert": 7973,
      "caution": 7974,
      "imports": 7975,
      "allies": 7976,
      "variety": 7977,
      "enterpr": 7978,
      "revolution": 7979,
      "jam": 7980,
      "chip": 7981,
      "Foot": 7982,
      "bags": 7983,
      "Gopal": 7984,
      "Having": 7985,
      "dram": 7986,
      "Tiwari": 7987,
      "collaboration": 7988,
      "institute": 7989,
      "routine": 7990,
      "creative": 7991,
      "vigil": 7992,
      "dim": 7993,
      "Ann": 7994,
      "intervention": 7995,
      "pushed": 7996,
      "salary": 7997,
      "Som": 7998,
      "effectively": 7999,
      "chosen": 8000,
      "sand": 8001,
      "Abhishek": 8002,
      "Mob": 8003,
      "udhi": 8004,
      "Olympics": 8005,
      "navis": 8006,
      "ques": 8007,
      "Energy": 8008,
      "ulations": 8009,
      "ocal": 8010,
      "secution": 8011,
      "intent": 8012,
      "reduction": 8013,
      "Jawa": 8014,
      "heed": 8015,
      "graduate": 8016,
      "clothes": 8017,
      "citizen": 8018,
      "dump": 8019,
      "tact": 8020,
      "oration": 8021,
      "kari": 8022,
      "mine": 8023,
      "Info": 8024,
      "bowlers": 8025,
      "Airport": 8026,
      "isol": 8027,
      "presidential": 8028,
      "ause": 8029,
      "pilgrims": 8030,
      "hect": 8031,
      "surve": 8032,
      "Because": 8033,
      "Que": 8034,
      "territory": 8035,
      "floods": 8036,
      "DF": 8037,
      "74": 8038,
      "advice": 8039,
      "owed": 8040,
      "bio": 8041,
      "ride": 8042,
      "relax": 8043,
      "African": 8044,
      "cops": 8045,
      "Auto": 8046,
      "IAS": 8047,
      "relatives": 8048,
      "virus": 8049,
      "incent": 8050,
      "likes": 8051,
      "Chowk": 8052,
      "background": 8053,
      "Independence": 8054,
      "requirements": 8055,
      "aps": 8056,
      "rac": 8057,
      "colours": 8058,
      "testing": 8059,
      "remot": 8060,
      "actual": 8061,
      "Plan": 8062,
      "SI": 8063,
      "stores": 8064,
      "ANI": 8065,
      "occurred": 8066,
      "experienced": 8067,
      "increasingly": 8068,
      "assessment": 8069,
      "Kas": 8070,
      "external": 8071,
      "encing": 8072,
      "Mint": 8073,
      "Yoj": 8074,
      "matic": 8075,
      "conducting": 8076,
      "Agriculture": 8077,
      "Directorate": 8078,
      "Dem": 8079,
      "hasn": 8080,
      "88": 8081,
      "System": 8082,
      "vital": 8083,
      "cutting": 8084,
      "cyber": 8085,
      "valid": 8086,
      "Manish": 8087,
      "Rashtr": 8088,
      "drew": 8089,
      "rolled": 8090,
      "Jose": 8091,
      "Fadnavis": 8092,
      "distur": 8093,
      "Staff": 8094,
      "closely": 8095,
      "Christian": 8096,
      "unity": 8097,
      "vast": 8098,
      "investor": 8099,
      "package": 8100,
      "Hard": 8101,
      "TMC": 8102,
      "Patna": 8103,
      "highlighted": 8104,
      "bright": 8105,
      "effic": 8106,
      "belonging": 8107,
      "73": 8108,
      "Around": 8109,
      "cancelled": 8110,
      "shape": 8111,
      "performances": 8112,
      "maintenance": 8113,
      "coordin": 8114,
      "stakeholders": 8115,
      "earn": 8116,
      "?\"": 8117,
      "Yogi": 8118,
      "shortage": 8119,
      "god": 8120,
      "Da": 8121,
      "unlikely": 8122,
      "worse": 8123,
      "numer": 8124,
      "constituted": 8125,
      ",’": 8126,
      "igned": 8127,
      "htt": 8128,
      "repair": 8129,
      "consecut": 8130,
      "stayed": 8131,
      "James": 8132,
      "120": 8133,
      "march": 8134,
      "findings": 8135,
      "Thom": 8136,
      "deadline": 8137,
      "akar": 8138,
      "Commerce": 8139,
      "chose": 8140,
      "Israeli": 8141,
      "Assistant": 8142,
      "qualified": 8143,
      "root": 8144,
      "laugh": 8145,
      "nia": 8146,
      "establishment": 8147,
      "realised": 8148,
      "Policy": 8149,
      "replaced": 8150,
      "kan": 8151,
      "Panch": 8152,
      "Joint": 8153,
      "athy": 8154,
      "Shetty": 8155,
      "Rajnath": 8156,
      "iders": 8157,
      "whereas": 8158,
      "mandatory": 8159,
      "copy": 8160,
      "://": 8161,
      "ghal": 8162,
      "gear": 8163,
      "kin": 8164,
      "equally": 8165,
      "Exchange": 8166,
      "Boss": 8167,
      "nag": 8168,
      "Street": 8169,
      "Sche": 8170,
      "Agra": 8171,
      "aq": 8172,
      "eating": 8173,
      "George": 8174,
      "surface": 8175,
      "awati": 8176,
      "click": 8177,
      "narrow": 8178,
      "intel": 8179,
      "Program": 8180,
      "southern": 8181,
      "staged": 8182,
      "eing": 8183,
      "jewellery": 8184,
      "Gl": 8185,
      "blocks": 8186,
      "challenged": 8187,
      "sli": 8188,
      "ulkar": 8189,
      "arden": 8190,
      "conce": 8191,
      "fers": 8192,
      "Time": 8193,
      "secured": 8194,
      "prescri": 8195,
      "2003": 8196,
      "ampur": 8197,
      "crew": 8198,
      "entertainment": 8199,
      "Therefore": 8200,
      "aining": 8201,
      "duties": 8202,
      "photos": 8203,
      "scoring": 8204,
      "dil": 8205,
      "Shak": 8206,
      "Hous": 8207,
      "icit": 8208,
      "format": 8209,
      "enjo": 8210,
      "stro": 8211,
      "corrid": 8212,
      "analyst": 8213,
      "itary": 8214,
      "Poon": 8215,
      "employed": 8216,
      "Varun": 8217,
      "Pen": 8218,
      "genu": 8219,
      "furn": 8220,
      "Say": 8221,
      "complic": 8222,
      "stadium": 8223,
      "rescu": 8224,
      "oking": 8225,
      "Recent": 8226,
      "Middle": 8227,
      "Tend": 8228,
      "Mehbooba": 8229,
      "ulty": 8230,
      "coll": 8231,
      "attract": 8232,
      "tam": 8233,
      "reducing": 8234,
      "flows": 8235,
      "Jack": 8236,
      "prin": 8237,
      "jid": 8238,
      "alcohol": 8239,
      "perspect": 8240,
      "aside": 8241,
      "significantly": 8242,
      "surgery": 8243,
      "kart": 8244,
      "compon": 8245,
      "Week": 8246,
      "spectrum": 8247,
      "beach": 8248,
      "innocent": 8249,
      "anticip": 8250,
      "Panchayat": 8251,
      "dealing": 8252,
      "Investigation": 8253,
      "lifest": 8254,
      "rehabilit": 8255,
      "consecutive": 8256,
      "machines": 8257,
      "screening": 8258,
      "congrat": 8259,
      "stretch": 8260,
      "Bigg": 8261,
      "uhan": 8262,
      "scope": 8263,
      "escape": 8264,
      "ellow": 8265,
      "presents": 8266,
      "wah": 8267,
      "colleagues": 8268,
      "opposite": 8269,
      "hits": 8270,
      "anci": 8271,
      "scores": 8272,
      "pit": 8273,
      "brothers": 8274,
      "independence": 8275,
      "dip": 8276,
      "cles": 8277,
      "legally": 8278,
      "araman": 8279,
      "Pran": 8280,
      "monetary": 8281,
      "electronic": 8282,
      "policemen": 8283,
      "JNU": 8284,
      "controlled": 8285,
      "exposure": 8286,
      "Ru": 8287,
      "Alex": 8288,
      "soil": 8289,
      "intellect": 8290,
      "outcome": 8291,
      "edi": 8292,
      "toler": 8293,
      "Church": 8294,
      "Bhavan": 8295,
      "riti": 8296,
      "79": 8297,
      "CCTV": 8298,
      "alal": 8299,
      "possession": 8300,
      "reaction": 8301,
      "acres": 8302,
      "phe": 8303,
      "BJD": 8304,
      "):": 8305,
      "Advani": 8306,
      "totally": 8307,
      "nomination": 8308,
      "onto": 8309,
      "tun": 8310,
      "languages": 8311,
      "Microsoft": 8312,
      "Sc": 8313,
      "extension": 8314,
      "traged": 8315,
      "Ajit": 8316,
      "argued": 8317,
      "mixed": 8318,
      "Ashwin": 8319,
      "volunte": 8320,
      "gathered": 8321,
      "closer": 8322,
      "EE": 8323,
      "talked": 8324,
      "regularly": 8325,
      "dominated": 8326,
      "Andaman": 8327,
      "percept": 8328,
      "resolved": 8329,
      "sending": 8330,
      "surge": 8331,
      "Trinam": 8332,
      "Shahid": 8333,
      "faster": 8334,
      "remote": 8335,
      "stones": 8336,
      "eastern": 8337,
      "distin": 8338,
      "Rural": 8339,
      "citizenship": 8340,
      "winners": 8341,
      "admit": 8342,
      "iring": 8343,
      "species": 8344,
      "voted": 8345,
      "paint": 8346,
      "ios": 8347,
      "Indones": 8348,
      "ding": 8349,
      "square": 8350,
      "burning": 8351,
      "suspect": 8352,
      "urt": 8353,
      "reiter": 8354,
      "anonymity": 8355,
      "ote": 8356,
      "loaded": 8357,
      "Amrits": 8358,
      "2001": 8359,
      "Earth": 8360,
      "Hu": 8361,
      "optim": 8362,
      "appreh": 8363,
      "exposed": 8364,
      "surprising": 8365,
      "reflect": 8366,
      "princ": 8367,
      "ules": 8368,
      "flying": 8369,
      "diagno": 8370,
      "procure": 8371,
      "privile": 8372,
      "keeps": 8373,
      "asters": 8374,
      "tested": 8375,
      "episode": 8376,
      "Choud": 8377,
      "Naga": 8378,
      "shaw": 8379,
      "Tendulkar": 8380,
      "Airtel": 8381,
      "mile": 8382,
      "Dim": 8383,
      "IF": 8384,
      "intention": 8385,
      "settlement": 8386,
      "Oil": 8387,
      "hate": 8388,
      "threats": 8389,
      "transl": 8390,
      "pilot": 8391,
      "regulations": 8392,
      "Federation": 8393,
      "py": 8394,
      "ayam": 8395,
      "Crime": 8396,
      "asy": 8397,
      "VC": 8398,
      "Hr": 8399,
      "Mex": 8400,
      "assu": 8401,
      "Anant": 8402,
      "comedy": 8403,
      "Amritsar": 8404,
      "visible": 8405,
      "allocation": 8406,
      "worker": 8407,
      "Hence": 8408,
      "Myan": 8409,
      "tension": 8410,
      "franchise": 8411,
      "andi": 8412,
      "Gaut": 8413,
      "Ranveer": 8414,
      "recognition": 8415,
      "finds": 8416,
      "casting": 8417,
      "faction": 8418,
      "prayers": 8419,
      "smartphones": 8420,
      "scientific": 8421,
      "batch": 8422,
      "constitution": 8423,
      "Dam": 8424,
      "uri": 8425,
      "Arora": 8426,
      "charging": 8427,
      "udhiana": 8428,
      "GS": 8429,
      "Taking": 8430,
      "blamed": 8431,
      "spoken": 8432,
      "IPC": 8433,
      "76": 8434,
      "genuine": 8435,
      "crash": 8436,
      "Nawaz": 8437,
      "minorities": 8438,
      "Make": 8439,
      "rivals": 8440,
      "Nam": 8441,
      "RJD": 8442,
      "historical": 8443,
      "sky": 8444,
      "lowest": 8445,
      "Note": 8446,
      "spiritual": 8447,
      "Xi": 8448,
      "rec": 8449,
      "Mayawati": 8450,
      "commod": 8451,
      "distributed": 8452,
      "revised": 8453,
      "Vad": 8454,
      "lease": 8455,
      "Guard": 8456,
      "trailer": 8457,
      "psych": 8458,
      "Hurri": 8459,
      "READ": 8460,
      "generated": 8461,
      "Mahesh": 8462,
      "Citizenship": 8463,
      "breath": 8464,
      "satisf": 8465,
      "capable": 8466,
      "powered": 8467,
      "hosts": 8468,
      "Priv": 8469,
      "resulting": 8470,
      "separat": 8471,
      "pock": 8472,
      "excited": 8473,
      "www": 8474,
      "XI": 8475,
      "output": 8476,
      "hill": 8477,
      "technologies": 8478,
      "ND": 8479,
      "otal": 8480,
      "uma": 8481,
      "Ghosh": 8482,
      "walked": 8483,
      "Palestin": 8484,
      "inton": 8485,
      "Rang": 8486,
      "osop": 8487,
      "icop": 8488,
      "Jha": 8489,
      "visits": 8490,
      "invent": 8491,
      "materials": 8492,
      "Dan": 8493,
      "crops": 8494,
      "idi": 8495,
      "combination": 8496,
      "Till": 8497,
      "widely": 8498,
      "entering": 8499,
      "argument": 8500,
      "heavily": 8501,
      "pure": 8502,
      "retirement": 8503,
      "Desk": 8504,
      "trends": 8505,
      "Math": 8506,
      "visa": 8507,
      "tied": 8508,
      "contribute": 8509,
      "garbage": 8510,
      "Flip": 8511,
      "UA": 8512,
      "spell": 8513,
      "Shuk": 8514,
      "acre": 8515,
      "hish": 8516,
      "ordination": 8517,
      "bike": 8518,
      "kal": 8519,
      "gal": 8520,
      "judgment": 8521,
      "ica": 8522,
      "yoga": 8523,
      "experiences": 8524,
      "Trophy": 8525,
      "iden": 8526,
      "prec": 8527,
      "combined": 8528,
      "Myanmar": 8529,
      "Khanna": 8530,
      "comprehensive": 8531,
      "Hurriyat": 8532,
      "filmmaker": 8533,
      "explains": 8534,
      "Industrial": 8535,
      "preparing": 8536,
      "certificate": 8537,
      "punishment": 8538,
      "causes": 8539,
      "implic": 8540,
      "Jawahar": 8541,
      "Trade": 8542,
      "hotels": 8543,
      "maintaining": 8544,
      "continuing": 8545,
      "gypt": 8546,
      "inda": 8547,
      "engage": 8548,
      "brut": 8549,
      "Rs1": 8550,
      "rounds": 8551,
      "guests": 8552,
      "counts": 8553,
      "Kashmiris": 8554,
      "Turkey": 8555,
      "desire": 8556,
      "autonom": 8557,
      "itable": 8558,
      "divided": 8559,
      "Pacific": 8560,
      "Aditya": 8561,
      "obl": 8562,
      "Children": 8563,
      "realise": 8564,
      "cean": 8565,
      "saffron": 8566,
      "split": 8567,
      "anya": 8568,
      "consideration": 8569,
      "Sard": 8570,
      "globally": 8571,
      "Sahib": 8572,
      "Shop": 8573,
      "rition": 8574,
      "iri": 8575,
      "Employ": 8576,
      "limits": 8577,
      "Mill": 8578,
      "pieces": 8579,
      "MD": 8580,
      "affordable": 8581,
      "ifty": 8582,
      "batsmen": 8583,
      "shots": 8584,
      "pond": 8585,
      "invested": 8586,
      "mense": 8587,
      "pora": 8588,
      "attribut": 8589,
      "Manipur": 8590,
      "sweet": 8591,
      "cells": 8592,
      "Om": 8593,
      "facilitate": 8594,
      "confirm": 8595,
      "82": 8596,
      "Alliance": 8597,
      "USA": 8598,
      "stuck": 8599,
      "deposit": 8600,
      "wad": 8601,
      "tered": 8602,
      "LA": 8603,
      "diabet": 8604,
      "immense": 8605,
      "Qual": 8606,
      "conservation": 8607,
      "Love": 8608,
      "ality": 8609,
      "outing": 8610,
      "Thus": 8611,
      "drawal": 8612,
      "liest": 8613,
      "struggling": 8614,
      "adjust": 8615,
      "ING": 8616,
      "fisher": 8617,
      "rolling": 8618,
      "heading": 8619,
      "hopeful": 8620,
      "failing": 8621,
      "lean": 8622,
      "Hel": 8623,
      "organization": 8624,
      "slowdown": 8625,
      "innovation": 8626,
      "RP": 8627,
      "addy": 8628,
      "existence": 8629,
      "gged": 8630,
      "Egypt": 8631,
      "Football": 8632,
      "Five": 8633,
      "umes": 8634,
      "bowler": 8635,
      "fees": 8636,
      "mandate": 8637,
      "Royal": 8638,
      "Emer": 8639,
      "acked": 8640,
      "expenses": 8641,
      "compliance": 8642,
      "Alia": 8643,
      "worldwide": 8644,
      "letters": 8645,
      "Xia": 8646,
      "Navy": 8647,
      "undertaken": 8648,
      "Ambani": 8649,
      "Masjid": 8650,
      "consequences": 8651,
      "wage": 8652,
      "Trinamool": 8653,
      "Italy": 8654,
      "sixth": 8655,
      "generate": 8656,
      "negotiations": 8657,
      "violations": 8658,
      "behalf": 8659,
      "sab": 8660,
      "Gautam": 8661,
      "waters": 8662,
      "Tai": 8663,
      "discovered": 8664,
      "Fi": 8665,
      "uki": 8666,
      "household": 8667,
      "convey": 8668,
      "loyal": 8669,
      "expl": 8670,
      "requirement": 8671,
      "applied": 8672,
      "gro": 8673,
      "encro": 8674,
      "mouth": 8675,
      "church": 8676,
      "Ish": 8677,
      "Rain": 8678,
      "rick": 8679,
      "Sher": 8680,
      "mala": 8681,
      "Ital": 8682,
      "approx": 8683,
      "explore": 8684,
      "federal": 8685,
      "Vol": 8686,
      "counting": 8687,
      "NIA": 8688,
      "Vive": 8689,
      "motion": 8690,
      "represented": 8691,
      "province": 8692,
      "orient": 8693,
      "repeatedly": 8694,
      "DGP": 8695,
      "DG": 8696,
      "solve": 8697,
      "weigh": 8698,
      "Organisation": 8699,
      "umn": 8700,
      "Rajk": 8701,
      "promotion": 8702,
      "Awards": 8703,
      "brilli": 8704,
      "athe": 8705,
      "Muz": 8706,
      "reveals": 8707,
      "MI": 8708,
      "framework": 8709,
      "lifestyle": 8710,
      "types": 8711,
      "determined": 8712,
      "Each": 8713,
      "Inspe": 8714,
      "AIA": 8715,
      "suggestions": 8716,
      "fre": 8717,
      "Punjabi": 8718,
      "aggressive": 8719,
      "lakhs": 8720,
      "Sith": 8721,
      "legislators": 8722,
      "Ladakh": 8723,
      "priced": 8724,
      "moments": 8725,
      "Space": 8726,
      "blame": 8727,
      "window": 8728,
      "interim": 8729,
      "civilian": 8730,
      "resistance": 8731,
      "summon": 8732,
      "beneficiaries": 8733,
      "uting": 8734,
      "Temple": 8735,
      "AK": 8736,
      "PAN": 8737,
      "Captain": 8738,
      "prosecut": 8739,
      "forming": 8740,
      "advertise": 8741,
      "eral": 8742,
      "Blue": 8743,
      "deposits": 8744,
      "celebration": 8745,
      "legislation": 8746,
      "sys": 8747,
      "amend": 8748,
      "Bud": 8749,
      "impressive": 8750,
      "usal": 8751,
      "ciples": 8752,
      "Shukla": 8753,
      "dur": 8754,
      "Dutt": 8755,
      "Jour": 8756,
      "Madrid": 8757,
      "jaw": 8758,
      "Pant": 8759,
      "Agency": 8760,
      "moon": 8761,
      "Americans": 8762,
      "intense": 8763,
      "Officials": 8764,
      "Nave": 8765,
      "developments": 8766,
      "protesting": 8767,
      "mits": 8768,
      "eping": 8769,
      "diplomatic": 8770,
      "Intell": 8771,
      "Goyal": 8772,
      "GA": 8773,
      "prize": 8774,
      "Maruti": 8775,
      "Ganga": 8776,
      "adverse": 8777,
      "withdrawal": 8778,
      "precedented": 8779,
      "pac": 8780,
      "apparently": 8781,
      "meat": 8782,
      "privacy": 8783,
      "pattern": 8784,
      "bills": 8785,
      "Ni": 8786,
      "destination": 8787,
      "Yatra": 8788,
      "BP": 8789,
      "Hon": 8790,
      "contributed": 8791,
      "questioning": 8792,
      "Thank": 8793,
      "Johnson": 8794,
      "height": 8795,
      "neck": 8796,
      "preet": 8797,
      "tap": 8798,
      "introduce": 8799,
      "Given": 8800,
      "Old": 8801,
      "fant": 8802,
      "Cy": 8803,
      "decre": 8804,
      "Famil": 8805,
      "Mis": 8806,
      "opener": 8807,
      "ranked": 8808,
      "sanctioned": 8809,
      "contesting": 8810,
      "vulnerable": 8811,
      "AGAR": 8812,
      "Telugu": 8813,
      "eleph": 8814,
      "chester": 8815,
      "avit": 8816,
      "Championship": 8817,
      "Bloom": 8818,
      "walking": 8819,
      "missile": 8820,
      "Hal": 8821,
      "Line": 8822,
      "benchmark": 8823,
      "JP": 8824,
      "Flipkart": 8825,
      "wherein": 8826,
      "metres": 8827,
      "silence": 8828,
      "crossed": 8829,
      "Vikram": 8830,
      "mainstream": 8831,
      "fli": 8832,
      "truly": 8833,
      "roleum": 8834,
      "Cali": 8835,
      "hoping": 8836,
      "Infosys": 8837,
      "investigations": 8838,
      "Ved": 8839,
      "hima": 8840,
      "outstanding": 8841,
      "Industry": 8842,
      "referring": 8843,
      "lined": 8844,
      "alling": 8845,
      "cretariat": 8846,
      "mugg": 8847,
      "yer": 8848,
      "Curren": 8849,
      "NGO": 8850,
      "professionals": 8851,
      "holiday": 8852,
      "Sitharaman": 8853,
      "Prem": 8854,
      "enem": 8855,
      "Raje": 8856,
      "generally": 8857,
      "Jew": 8858,
      "fits": 8859,
      "Chouhan": 8860,
      "civilians": 8861,
      "forcing": 8862,
      "targeting": 8863,
      "Protection": 8864,
      "reserved": 8865,
      "Wi": 8866,
      "retain": 8867,
      "volume": 8868,
      "uding": 8869,
      "alongside": 8870,
      "Soon": 8871,
      "transaction": 8872,
      "rupees": 8873,
      "Fire": 8874,
      "handling": 8875,
      "elev": 8876,
      "Tej": 8877,
      "asa": 8878,
      "clock": 8879,
      "followers": 8880,
      "Kon": 8881,
      "northern": 8882,
      "Ranjan": 8883,
      "junior": 8884,
      "Judge": 8885,
      "listen": 8886,
      "Abu": 8887,
      "Kare": 8888,
      "Sched": 8889,
      "Jon": 8890,
      "hung": 8891,
      "unprecedented": 8892,
      "Pass": 8893,
      "ioneer": 8894,
      "wenty": 8895,
      "Abhi": 8896,
      "iated": 8897,
      "discrim": 8898,
      "mac": 8899,
      "engineer": 8900,
      "minds": 8901,
      "raped": 8902,
      "cricketer": 8903,
      "Mess": 8904,
      "arrival": 8905,
      "perspective": 8906,
      "prestig": 8907,
      "fate": 8908,
      "liberal": 8909,
      "philosop": 8910,
      "pris": 8911,
      "Pra": 8912,
      "Saj": 8913,
      "worried": 8914,
      "wouldn": 8915,
      "IV": 8916,
      "Raipur": 8917,
      "escal": 8918,
      "Spain": 8919,
      "Adityanath": 8920,
      "MG": 8921,
      "AIADMK": 8922,
      "assum": 8923,
      "audit": 8924,
      "anywhere": 8925,
      "ston": 8926,
      "proposals": 8927,
      "Nik": 8928,
      "divers": 8929,
      "Back": 8930,
      "Sans": 8931,
      "Aadmi": 8932,
      "Califor": 8933,
      "affar": 8934,
      "athlet": 8935,
      "10th": 8936,
      "Han": 8937,
      "royal": 8938,
      "yap": 8939,
      "icted": 8940,
      "yes": 8941,
      "island": 8942,
      "Happ": 8943,
      "irts": 8944,
      "indicated": 8945,
      "rot": 8946,
      "ancient": 8947,
      "contemporary": 8948,
      "institutional": 8949,
      "bott": 8950,
      "ias": 8951,
      "Ren": 8952,
      "viation": 8953,
      "taught": 8954,
      "quota": 8955,
      "edkar": 8956,
      "links": 8957,
      "soul": 8958,
      "promising": 8959,
      "drag": 8960,
      "Iranian": 8961,
      "BO": 8962,
      "convent": 8963,
      "appreciated": 8964,
      "speaker": 8965,
      "magazine": 8966,
      "ranging": 8967,
      "Manchester": 8968,
      "Bis": 8969,
      "backward": 8970,
      "savings": 8971,
      "83": 8972,
      "meal": 8973,
      "Live": 8974,
      "vegetables": 8975,
      "Lah": 8976,
      "Ken": 8977,
      "Traf": 8978,
      "Scheme": 8979,
      "89": 8980,
      "tennis": 8981,
      "tosh": 8982,
      "ental": 8983,
      "Rich": 8984,
      "prosper": 8985,
      "dynam": 8986,
      "hoc": 8987,
      "acle": 8988,
      "helicop": 8989,
      "chap": 8990,
      "dust": 8991,
      "agit": 8992,
      "Mangal": 8993,
      "stability": 8994,
      "properly": 8995,
      "NO": 8996,
      "Yojana": 8997,
      "1980": 8998,
      "participating": 8999,
      "sey": 9000,
      "momentum": 9001,
      "triggered": 9002,
      "muse": 9003,
      "scenes": 9004,
      "roots": 9005,
      "WD": 9006,
      "interpre": 9007,
      "engagement": 9008,
      "External": 9009,
      "staying": 9010,
      "yn": 9011,
      "rational": 9012,
      "pride": 9013,
      "accidents": 9014,
      "contrast": 9015,
      "ukone": 9016,
      "anx": 9017,
      "norm": 9018,
      "unfortunate": 9019,
      "ensured": 9020,
      "INAGAR": 9021,
      "California": 9022,
      "geo": 9023,
      "investing": 9024,
      "hitting": 9025,
      "complained": 9026,
      "scan": 9027,
      "Cham": 9028,
      "whel": 9029,
      "engers": 9030,
      "Trib": 9031,
      "dogs": 9032,
      "procedure": 9033,
      "Ambedkar": 9034,
      "radio": 9035,
      "Ron": 9036,
      "Bri": 9037,
      "stic": 9038,
      "holy": 9039,
      "Ach": 9040,
      "ushan": 9041,
      "quiet": 9042,
      "ounce": 9043,
      "uous": 9044,
      "Superintendent": 9045,
      "Tru": 9046,
      "saving": 9047,
      "Taj": 9048,
      "hotra": 9049,
      "tracks": 9050,
      "aswamy": 9051,
      "jok": 9052,
      "onav": 9053,
      "propag": 9054,
      "ambitious": 9055,
      "suddenly": 9056,
      "Tube": 9057,
      "affil": 9058,
      "amazing": 9059,
      "launching": 9060,
      "Aamir": 9061,
      "Web": 9062,
      "Franc": 9063,
      "relatively": 9064,
      "Six": 9065,
      "jeet": 9066,
      "Smart": 9067,
      "merely": 9068,
      "scrut": 9069,
      "overe": 9070,
      "Kart": 9071,
      "surprised": 9072,
      "roof": 9073,
      "exerc": 9074,
      "subjects": 9075,
      "onso": 9076,
      "neighb": 9077,
      "Intelligence": 9078,
      "lady": 9079,
      "tackle": 9080,
      "rikar": 9081,
      "bron": 9082,
      "Sandeep": 9083,
      "Baba": 9084,
      "wishes": 9085,
      "Sit": 9086,
      "ixel": 9087,
      "expects": 9088,
      "overeign": 9089,
      "interrog": 9090,
      "instructions": 9091,
      "Thir": 9092,
      "Vide": 9093,
      "interaction": 9094,
      "Akhtar": 9095,
      "innovative": 9096,
      "sons": 9097,
      "Reven": 9098,
      "clashes": 9099,
      "igen": 9100,
      "ideal": 9101,
      "nobody": 9102,
      "blocked": 9103,
      "sentence": 9104,
      "Indore": 9105,
      "fined": 9106,
      "attached": 9107,
      "towns": 9108,
      "honest": 9109,
      "BE": 9110,
      "mend": 9111,
      "destroyed": 9112,
      "Interestingly": 9113,
      "chand": 9114,
      "illa": 9115,
      "rific": 9116,
      "Bhut": 9117,
      "bottom": 9118,
      "subsidy": 9119,
      "happiness": 9120,
      "Francis": 9121,
      "2nd": 9122,
      "juris": 9123,
      "surance": 9124,
      "devotees": 9125,
      "recalled": 9126,
      "oral": 9127,
      "udes": 9128,
      "Gow": 9129,
      "faculty": 9130,
      "gments": 9131,
      "Says": 9132,
      "Regional": 9133,
      "bels": 9134,
      "cultiv": 9135,
      "gging": 9136,
      "Nan": 9137,
      "Uber": 9138,
      "voter": 9139,
      "Recently": 9140,
      "condemned": 9141,
      "elling": 9142,
      "rescued": 9143,
      "Prince": 9144,
      "interven": 9145,
      "abandon": 9146,
      "supre": 9147,
      "Engineering": 9148,
      "LE": 9149,
      "86": 9150,
      "quake": 9151,
      "colog": 9152,
      "touched": 9153,
      "Italian": 9154,
      "perpet": 9155,
      "irus": 9156,
      "Has": 9157,
      "deeply": 9158,
      "fallen": 9159,
      "smugg": 9160,
      "ificial": 9161,
      "CH": 9162,
      "narrative": 9163,
      "Malaysia": 9164,
      "Jai": 9165,
      "Snap": 9166,
      "uct": 9167,
      "ulla": 9168,
      "Rakesh": 9169,
      "1999": 9170,
      "1st": 9171,
      "Xiaomi": 9172,
      "icken": 9173,
      "advertising": 9174,
      "kilomet": 9175,
      "org": 9176,
      "desper": 9177,
      "Parrikar": 9178,
      "stronger": 9179,
      "proportion": 9180,
      "lob": 9181,
      "greatest": 9182,
      "Income": 9183,
      "irrigation": 9184,
      "clearance": 9185,
      "thrown": 9186,
      "blind": 9187,
      "Being": 9188,
      "inspector": 9189,
      "Raman": 9190,
      "clients": 9191,
      "lending": 9192,
      "impossible": 9193,
      "Padukone": 9194,
      "medicine": 9195,
      "pu": 9196,
      "speaks": 9197,
      "grass": 9198,
      "sacrif": 9199,
      "Nic": 9200,
      "Naz": 9201,
      "childhood": 9202,
      "Vinod": 9203,
      "Fernandes": 9204,
      "Land": 9205,
      "tune": 9206,
      "Jit": 9207,
      "THE": 9208,
      "itions": 9209,
      "jah": 9210,
      "....": 9211,
      "Motors": 9212,
      "tensions": 9213,
      "hes": 9214,
      "PU": 9215,
      "consen": 9216,
      "relating": 9217,
      "writers": 9218,
      "Professor": 9219,
      "popularity": 9220,
      "Rajan": 9221,
      "Gurgaon": 9222,
      "beating": 9223,
      "issions": 9224,
      "tan": 9225,
      "ende": 9226,
      "toward": 9227,
      "94": 9228,
      "iously": 9229,
      "entirely": 9230,
      "reward": 9231,
      "abol": 9232,
      "Sharad": 9233,
      "acknowled": 9234,
      "Kings": 9235,
      "litre": 9236,
      "aviation": 9237,
      "processing": 9238,
      "unknown": 9239,
      "Bho": 9240,
      "representative": 9241,
      "Get": 9242,
      "presentation": 9243,
      "Ghulam": 9244,
      "medicines": 9245,
      "satellite": 9246,
      "Brex": 9247,
      "evident": 9248,
      "Sonam": 9249,
      "Jer": 9250,
      "umble": 9251,
      "closing": 9252,
      "metal": 9253,
      "filling": 9254,
      "ashi": 9255,
      "calcul": 9256,
      "exclusive": 9257,
      "witnesses": 9258,
      "absolutely": 9259,
      "Hand": 9260,
      "Action": 9261,
      "amond": 9262,
      "compound": 9263,
      "folk": 9264,
      "consul": 9265,
      "TS": 9266,
      "stepped": 9267,
      "hosted": 9268,
      "iga": 9269,
      "airlines": 9270,
      "hin": 9271,
      "affid": 9272,
      "Tim": 9273,
      "abu": 9274,
      "Ta": 9275,
      "alla": 9276,
      "parent": 9277,
      "Ludhiana": 9278,
      "flav": 9279,
      "Desai": 9280,
      "eva": 9281,
      "LoC": 9282,
      "andum": 9283,
      "ultane": 9284,
      "DO": 9285,
      "Securities": 9286,
      "transparency": 9287,
      "tragedy": 9288,
      "lake": 9289,
      "Hotel": 9290,
      "Jin": 9291,
      "vacc": 9292,
      "corporation": 9293,
      "rallies": 9294,
      "rer": 9295,
      "Poll": 9296,
      "Hai": 9297,
      "PA": 9298,
      "underway": 9299,
      "breach": 9300,
      "Show": 9301,
      "stim": 9302,
      "Suz": 9303,
      "Mrs": 9304,
      "SRINAGAR": 9305,
      "84": 9306,
      "Major": 9307,
      "convicted": 9308,
      "licence": 9309,
      "irregular": 9310,
      "households": 9311,
      "contacted": 9312,
      "pread": 9313,
      "fears": 9314,
      "assy": 9315,
      "NSE": 9316,
      "Tripath": 9317,
      "bullet": 9318,
      "amongst": 9319,
      "sentiment": 9320,
      "Rashid": 9321,
      "shell": 9322,
      "unlike": 9323,
      "hani": 9324,
      "mosque": 9325,
      "owns": 9326,
      "Ranbir": 9327,
      "allotted": 9328,
      "sq": 9329,
      "attending": 9330,
      "judgement": 9331,
      "achment": 9332,
      "resigned": 9333,
      "Saif": 9334,
      "pushing": 9335,
      "merger": 9336,
      "functions": 9337,
      "courage": 9338,
      "authorised": 9339,
      "structures": 9340,
      "expression": 9341,
      "Sea": 9342,
      "diction": 9343,
      "appearing": 9344,
      "pursue": 9345,
      "situations": 9346,
      "producers": 9347,
      "Islands": 9348,
      "recognised": 9349,
      "gall": 9350,
      "legacy": 9351,
      "flex": 9352,
      "understood": 9353,
      "Bloomberg": 9354,
      "900": 9355,
      "contested": 9356,
      "rivers": 9357,
      "embr": 9358,
      "Sidhu": 9359,
      "Pratap": 9360,
      "mini": 9361,
      "BSF": 9362,
      "personality": 9363,
      "File": 9364,
      "aro": 9365,
      "fortnight": 9366,
      "locked": 9367,
      "Higher": 9368,
      "stating": 9369,
      "Through": 9370,
      "rivast": 9371,
      "Naveen": 9372,
      "cession": 9373,
      "apy": 9374,
      "Brexit": 9375,
      "bum": 9376,
      "Greater": 9377,
      "slightly": 9378,
      "DNA": 9379,
      "Whe": 9380,
      "follows": 9381,
      "Mukesh": 9382,
      "toilets": 9383,
      "ourselves": 9384,
      "Cons": 9385,
      "primarily": 9386,
      "Anti": 9387,
      "personally": 9388,
      "meets": 9389,
      "Christmas": 9390,
      "bagged": 9391,
      "killings": 9392,
      "legislative": 9393,
      "Prom": 9394,
      "forests": 9395,
      "achievements": 9396,
      "shopping": 9397,
      "murd": 9398,
      "Private": 9399,
      "Philip": 9400,
      "Housing": 9401,
      "mann": 9402,
      "studying": 9403,
      "enjoyed": 9404,
      "update": 9405,
      "lunch": 9406,
      "literature": 9407,
      "RTI": 9408,
      "vy": 9409,
      "lor": 9410,
      "dismiss": 9411,
      "launches": 9412,
      "hibit": 9413,
      "91": 9414,
      "reveal": 9415,
      "yar": 9416,
      "egg": 9417,
      "Malhotra": 9418,
      "87": 9419,
      "offence": 9420,
      "kitch": 9421,
      "evac": 9422,
      "economies": 9423,
      "organizations": 9424,
      "zo": 9425,
      "shelter": 9426,
      "rab": 9427,
      "accur": 9428,
      "writes": 9429,
      "Currently": 9430,
      "olf": 9431,
      "mega": 9432,
      "Ghaz": 9433,
      "Marath": 9434,
      "Rath": 9435,
      "Compan": 9436,
      "phenomen": 9437,
      "Inspector": 9438,
      "profits": 9439,
      "boat": 9440,
      "coverage": 9441,
      "Himal": 9442,
      "acceler": 9443,
      "guide": 9444,
      "youngsters": 9445,
      "Kaly": 9446,
      "OnePlus": 9447,
      "Cro": 9448,
      "reviewed": 9449,
      "ecution": 9450,
      "leak": 9451,
      "eda": 9452,
      "Chance": 9453,
      "encouraged": 9454,
      "remo": 9455,
      "thereby": 9456,
      "alias": 9457,
      "BB": 9458,
      "Represent": 9459,
      "itarian": 9460,
      "Dinesh": 9461,
      "Ever": 9462,
      "overwhel": 9463,
      "bold": 9464,
      "urved": 9465,
      "Town": 9466,
      "UL": 9467,
      "Political": 9468,
      "sor": 9469,
      "Bhushan": 9470,
      "representation": 9471,
      "threatening": 9472,
      "neut": 9473,
      "efficiency": 9474,
      "jections": 9475,
      "centuries": 9476,
      "Kareena": 9477,
      "itam": 9478,
      "shareholders": 9479,
      "MO": 9480,
      "icate": 9481,
      "poster": 9482,
      "angry": 9483,
      "assur": 9484,
      "suspension": 9485,
      "noticed": 9486,
      "spinner": 9487,
      "doors": 9488,
      "lyn": 9489,
      "guards": 9490,
      "onavirus": 9491,
      "Associ": 9492,
      "ministerial": 9493,
      "founded": 9494,
      "Miss": 9495,
      "Music": 9496,
      "farming": 9497,
      "BR": 9498,
      "Bish": 9499,
      "constantly": 9500,
      "mole": 9501,
      "Sciences": 9502,
      "amendment": 9503,
      "Insurance": 9504,
      "Family": 9505,
      "tribute": 9506,
      "sovereign": 9507,
      "empt": 9508,
      "Mod": 9509,
      "distress": 9510,
      "KK": 9511,
      "NL": 9512,
      "Aur": 9513,
      "portray": 9514,
      "discrimination": 9515,
      "Airways": 9516,
      "nov": 9517,
      "panch": 9518,
      "oting": 9519,
      "boundary": 9520,
      "seeds": 9521,
      "Revenue": 9522,
      "Wind": 9523,
      "wrest": 9524,
      "Jal": 9525,
      "backdrop": 9526,
      "fighter": 9527,
      "dinner": 9528,
      "Chris": 9529,
      "habad": 9530,
      "rack": 9531,
      "rics": 9532,
      "Yoga": 9533,
      "saved": 9534,
      "outr": 9535,
      "neighbours": 9536,
      "Sch": 9537,
      "ulous": 9538,
      "Nifty": 9539,
      "Nitin": 9540,
      "mentary": 9541,
      "syn": 9542,
      "stuff": 9543,
      "defend": 9544,
      "occasions": 9545,
      "execution": 9546,
      "vacant": 9547,
      "abor": 9548,
      "lihood": 9549,
      "asserted": 9550,
      "HDFC": 9551,
      "icking": 9552,
      "Chat": 9553,
      "spreading": 9554,
      "Chaudhary": 9555,
      "exciting": 9556,
      "upgrad": 9557,
      "politically": 9558,
      "hanging": 9559,
      "frust": 9560,
      "revenues": 9561,
      "radical": 9562,
      "Companies": 9563,
      "Hua": 9564,
      "boards": 9565,
      "criminals": 9566,
      "kinds": 9567,
      "criticised": 9568,
      "fu": 9569,
      "principle": 9570,
      "blow": 9571,
      "routes": 9572,
      "alleging": 9573,
      "taste": 9574,
      "ado": 9575,
      "crete": 9576,
      "possibly": 9577,
      "nutrition": 9578,
      "kit": 9579,
      "rehabilitation": 9580,
      "Desh": 9581,
      "producing": 9582,
      "Muzaffar": 9583,
      "diabetes": 9584,
      "isan": 9585,
      "festiv": 9586,
      "Rashtriya": 9587,
      "responded": 9588,
      "CN": 9589,
      "relationships": 9590,
      "Arch": 9591,
      "iveness": 9592,
      "Managing": 9593,
      "Madras": 9594,
      "12th": 9595,
      "ronics": 9596,
      "Hill": 9597,
      "reject": 9598,
      "Person": 9599,
      "coffee": 9600,
      "nice": 9601,
      "orm": 9602,
      "jet": 9603,
      "prosecution": 9604,
      "William": 9605,
      "agents": 9606,
      "packed": 9607,
      "Johar": 9608,
      "pens": 9609,
      "cater": 9610,
      "tab": 9611,
      "combat": 9612,
      "watched": 9613,
      "Video": 9614,
      "Was": 9615,
      "oath": 9616,
      "rein": 9617,
      "curb": 9618,
      "restricted": 9619,
      "Clinton": 9620,
      "principles": 9621,
      "Coal": 9622,
      "Manager": 9623,
      "Bandra": 9624,
      "Parliamentary": 9625,
      "weets": 9626,
      "96": 9627,
      "rear": 9628,
      "boss": 9629,
      "lessly": 9630,
      "Tir": 9631,
      "tiger": 9632,
      "graphic": 9633,
      "Varan": 9634,
      "starrer": 9635,
      "Elections": 9636,
      "din": 9637,
      "utter": 9638,
      "YouTube": 9639,
      "Dimapur": 9640,
      "Hall": 9641,
      "finger": 9642,
      "Anur": 9643,
      "thentic": 9644,
      "treas": 9645,
      "notices": 9646,
      "magn": 9647,
      "medals": 9648,
      "wildlife": 9649,
      "Sushma": 9650,
[...]
