{
  "version": "1.0",
  "truncation": null,
  "padding": null,
  "added_tokens": [
    {
      "id": 0,
      "content": "[UNK]",
      "single_word": false,
      "lstrip": false,
      "rstrip": false,
      "normalized": false,
      "special": true
    },
    {
      "id": 1,
      "content": "[CLS]",
      "single_word": false,
      "lstrip": false,
      "rstrip": false,
      "normalized": false,
      "special": true
    },
    {
      "id": 2,
      "content": "[SEP]",
      "single_word": false,
      "lstrip": false,
      "rstrip": false,
      "normalized": false,
      "special": true
    },
    {
      "id": 3,
      "content": "[PAD]",
      "single_word": false,
      "lstrip": false,
      "rstrip": false,
      "normalized": false,
      "special": true
    },
    {
      "id": 4,
      "content": "[MASK]",
      "single_word": false,
      "lstrip": false,
      "rstrip": false,
      "normalized": false,
      "special": true
    },
    {
      "id": 5,
      "content": "[PAR]",
      "single_word": false,
      "lstrip": false,
      "rstrip": false,
      "normalized": false,
      "special": true
    },
    {
      "id": 6,
      "content": "[TAB]",
      "single_word": false,
      "lstrip": false,
      "rstrip": false,
      "normalized": false,
      "special": true
    }
  ],
  "normalizer": null,
  "pre_tokenizer": {
    "type": "Whitespace"
  },
  "post_processor": null,
  "decoder": null,
  "model": {
    "type": "BPE",
    "dropout": null,
    "unk_token": "[UNK]",
    "continuing_subword_prefix": null,
    "end_of_word_suffix": null,
    "fuse_unk": false,
    "byte_fallback": false,
    "ignore_merges": false,
    "vocab": {
      "[UNK]": 0,
      "[CLS]": 1,
      "[SEP]": 2,
      "[PAD]": 3,
      "[MASK]": 4,
      "[PAR]": 5,
      "[TAB]": 6,
      "!": 7,
      "\"": 8,
      "#": 9,
      "$": 10,
      "%": 11,
      "&": 12,
      "'": 13,
      "(": 14,
      ")": 15,
      "*": 16,
      "+": 17,
      ",": 18,
      "-": 19,
      ".": 20,
      "/": 21,
      "0": 22,
      "1": 23,
      "2": 24,
      "3": 25,
      "4": 26,
      "5": 27,
      "6": 28,
      "7": 29,
      "8": 30,
      "9": 31,
      ":": 32,
      ";": 33,
      "<": 34,
      "=": 35,
      ">": 36,
      "?": 37,
      "@": 38,
      "A": 39,
      "B": 40,
      "C": 41,
      "D": 42,
      "E": 43,
      "F": 44,
      "G": 45,
      "H": 46,
      "I": 47,
      "J": 48,
      "K": 49,
      "L": 50,
      "M": 51,
      "N": 52,
      "O": 53,
      "P": 54,
      "Q": 55,
      "R": 56,
      "S": 57,
      "T": 58,
      "U": 59,
      "V": 60,
      "W": 61,
      "X": 62,
      "Y": 63,
      "Z": 64,
      "[": 65,
      "\\": 66,
      "]": 67,
      "^": 68,
      "_": 69,
      "`": 70,
      "a": 71,
      "b": 72,
      "c": 73,
      "d": 74,
      "e": 75,
      "f": 76,
      "g": 77,
      "h": 78,
      "i": 79,
      "j": 80,
      "k": 81,
      "l": 82,
      "m": 83,
      "n": 84,
      "o": 85,
      "p": 86,
      "q": 87,
      "r": 88,
      "s": 89,
      "t": 90,
      "u": 91,
      "v": 92,
      "w": 93,
      "x": 94,
      "y": 95,
      "z": 96,
      "{": 97,
      "|": 98,
      "}": 99,
      "~": 100,
      "": 101,
      "": 102,
      "": 103,
      "": 104,
      "": 105,
      "": 106,
      "": 107,
      "": 108,
      "": 109,
      "": 110,
      "": 111,
      "": 112,
      "": 113,
      "": 114,
      "": 115,
      "": 116,
      "": 117,
      "": 118,
      "": 119,
      "": 120,
      "": 121,
      "": 122,
      "": 123,
      "": 124,
      "": 125,
      "": 126,
      "": 127,
      "": 128,
      "": 129,
      "": 130,
      "": 131,
      "": 132,
      "¡": 133,
      "¢": 134,
      "£": 135,
      "¤": 136,
      "¥": 137,
      "¦": 138,
      "§": 139,
      "¨": 140,
      "©": 141,
      "ª": 142,
      "«": 143,
      "¬": 144,
      "­": 145,
      "®": 146,
      "¯": 147,
      "°": 148,
      "±": 149,
      "²": 150,
      "³": 151,
      "´": 152,
      "µ": 153,
      "¶": 154,
      "·": 155,
      "¸": 156,
      "¹": 157,
      "º": 158,
      "»": 159,
      "¼": 160,
      "½": 161,
      "¾": 162,
      "¿": 163,
      "À": 164,
      "Á": 165,
      "Â": 166,
      "Ã": 167,
      "Ä": 168,
      "Å": 169,
      "Ç": 170,
      "É": 171,
      "Ê": 172,
      "Í": 173,
      "Î": 174,
      "Ï": 175,
      "Ñ": 176,
      "Ò": 177,
      "Ó": 178,
      "Ô": 179,
      "Õ": 180,
      "Ö": 181,
      "×": 182,
      "Ø": 183,
      "Ú": 184,
      "Û": 185,
      "Ü": 186,
      "Ý": 187,
      "Þ": 188,
      "ß": 189,
      "à": 190,
      "á": 191,
      "â": 192,
      "ã": 193,
      "ä": 194,
      "å": 195,
      "æ": 196,
      "ç": 197,
      "è": 198,
      "é": 199,
      "ê": 200,
      "ë": 201,
      "ì": 202,
      "í": 203,
      "î": 204,
      "ï": 205,
      "ð": 206,
      "ñ": 207,
      "ò": 208,
      "ó": 209,
      "ô": 210,
      "õ": 211,
      "ö": 212,
      "÷": 213,
      "ø": 214,
      "ù": 215,
      "ú": 216,
      "û": 217,
      "ü": 218,
      "ý": 219,
      "þ": 220,
      "ÿ": 221,
      "Ā": 222,
      "ā": 223,
      "ă": 224,
      "ą": 225,
      "Ć": 226,
      "ć": 227,
      "ĉ": 228,
      "Č": 229,
      "č": 230,
      "Đ": 231,
      "đ": 232,
      "ē": 233,
      "ė": 234,
      "ę": 235,
      "ě": 236,
      "ğ": 237,
      "ĩ": 238,
      "Ī": 239,
      "ī": 240,
      "ĭ": 241,
      "į": 242,
      "İ": 243,
      "ı": 244,
      "ĵ": 245,
      "ĺ": 246,
      "ł": 247,
      "ń": 248,
      "ň": 249,
      "ŋ": 250,
      "Ō": 251,
      "ō": 252,
      "ő": 253,
      "œ": 254,
      "ř": 255,
      "Ś": 256,
      "ś": 257,
      "Ş": 258,
      "ş": 259,
      "Š": 260,
      "š": 261,
      "ť": 262,
      "ũ": 263,
      "Ū": 264,
      "ū": 265,
      "ŭ": 266,
      "ų": 267,
      "ź": 268,
      "Ż": 269,
      "Ž": 270,
      "ž": 271,
      "Ǝ": 272,
      "ƒ": 273,
      "ơ": 274,
      "ư": 275,
      "ƴ": 276,
      "ƿ": 277,
      "ș": 278,
      "ȼ": 279,
      "ɘ": 280,
      "ə": 281,
      "ɛ": 282,
      "ɢ": 283,
      "ɣ": 284,
      "ɧ": 285,
      "ɨ": 286,
      "ɪ": 287,
      "ɴ": 288,
      "ɿ": 289,
      "ʀ": 290,
      "ʋ": 291,
      "ʌ": 292,
      "ʍ": 293,
      "ʏ": 294,
      "ʙ": 295,
      "ʝ": 296,
      "ʟ": 297,
      "ʼ": 298,
      "ˆ": 299,
      "ˈ": 300,
      "˙": 301,
      "˚": 302,
      "˜": 303,
      "ˤ": 304,
      "́": 305,
      "̂": 306,
      "̄": 307,
      "̆": 308,
      "̇": 309,
      "̈": 310,
      "̊": 311,
      "̣": 312,
      "̧": 313,
      "̴": 314,
      "Α": 315,
      "Σ": 316,
      "Χ": 317,
      "Ω": 318,
      "ή": 319,
      "α": 320,
      "β": 321,
      "γ": 322,
      "ε": 323,
      "η": 324,
      "θ": 325,
      "ι": 326,
      "μ": 327,
      "ν": 328,
      "ο": 329,
      "π": 330,
      "ρ": 331,
      "ς": 332,
      "τ": 333,
      "ω": 334,
      "ύ": 335,
      "В": 336,
      "З": 337,
      "К": 338,
      "М": 339,
      "С": 340,
      "У": 341,
      "а": 342,
      "б": 343,
      "в": 344,
      "г": 345,
      "д": 346,
      "е": 347,
      "з": 348,
      "и": 349,
      "й": 350,
      "к": 351,
      "л": 352,
      "м": 353,
      "н": 354,
      "о": 355,
      "п": 356,
      "р": 357,
      "с": 358,
      "т": 359,
      "у": 360,
      "ц": 361,
      "ч": 362,
      "ш": 363,
      "щ": 364,
      "ы": 365,
      "ь": 366,
      "ю": 367,
      "я": 368,
      "ё": 369,
      "і": 370,
      "ў": 371,
      "ғ": 372,
      "Թ": 373,
      "Վ": 374,
      "Տ": 375,
      "֫": 376,
      "،": 377,
      "ا": 378,
      "ب": 379,
      "ح": 380,
      "د": 381,
      "ر": 382,
      "ش": 383,
      "ص": 384,
      "ض": 385,
      "ع": 386,
      "ـ": 387,
      "ق": 388,
      "م": 389,
      "ى": 390,
      "ِ": 391,
      "ٰ": 392,
      "ہ": 393,
      "۞": 394,
      "ं": 395,
      "अ": 396,
      "आ": 397,
      "इ": 398,
      "ई": 399,
      "क": 400,
      "ग": 401,
      "च": 402,
      "छ": 403,
      "ज": 404,
      "झ": 405,
      "ट": 406,
      "ठ": 407,
      "ड": 408,
      "ण": 409,
      "त": 410,
      "द": 411,
      "ध": 412,
      "न": 413,
      "प": 414,
      "ब": 415,
      "भ": 416,
      "म": 417,
      "य": 418,
      "र": 419,
      "ल": 420,
      "व": 421,
      "श": 422,
      "स": 423,
      "ह": 424,
      "़": 425,
      "ा": 426,
      "ि": 427,
      "ी": 428,
      "ु": 429,
      "ू": 430,
      "े": 431,
      "ै": 432,
      "ो": 433,
      "ौ": 434,
      "्": 435,
      "ज़": 436,
      "।": 437,
      "०": 438,
      "१": 439,
      "অ": 440,
      "ক": 441,
      "ট": 442,
      "ফ": 443,
      "ব": 444,
      "ভ": 445,
      "ষ": 446,
      "ি": 447,
      "ে": 448,
      "ਈ": 449,
      "ਭ": 450,
      "ਾ": 451,
      "੦": 452,
      "੧": 453,
      "੨": 454,
      "੩": 455,
      "੪": 456,
      "੫": 457,
      "੬": 458,
      "੭": 459,
      "੮": 460,
      "੯": 461,
      "૯": 462,
      "க": 463,
      "ஜ": 464,
      "ட": 465,
      "த": 466,
      "ய": 467,
      "ல": 468,
      "ா": 469,
      "ி": 470,
      "ு": 471,
      "ெ": 472,
      "ோ": 473,
      "்": 474,
      "ಂ": 475,
      "ಕ": 476,
      "ಘ": 477,
      "ತ": 478,
      "ನ": 479,
      "ವ": 480,
      "ಶ": 481,
      "ಸ": 482,
      "ಿ": 483,
      "ೇ": 484,
      "ძ": 485,
      "Ꮶ": 486,
      "ត": 487,
      "ផ": 488,
      "ុ": 489,
      "ំ": 490,
      "្": 491,
      "ᴀ": 492,
      "ᴄ": 493,
      "ᴅ": 494,
      "ᴇ": 495,
      "ᴏ": 496,
      "ᴚ": 497,
      "ᴛ": 498,
      "ᴜ": 499,
      "ᴠ": 500,
      "ᴡ": 501,
      "ᵢ": 502,
      "ᵤ": 503,
      "ᵥ": 504,
      "ḍ": 505,
      "ḥ": 506,
      "ḷ": 507,
      "ṁ": 508,
      "ṃ": 509,
      "ṅ": 510,
      "Ṇ": 511,
      "ṇ": 512,
      "ṛ": 513,
      "ṣ": 514,
      "Ṭ": 515,
      "ṭ": 516,
      "ọ": 517,
      "ổ": 518,
      "ộ": 519,
      "ữ": 520,
      "Ᾱ": 521,
      "​": 522,
      "‌": 523,
      "‍": 524,
      "‎": 525,
      "‏": 526,
      "‐": 527,
      "‑": 528,
      "‒": 529,
      "–": 530,
      "—": 531,
      "―": 532,
      "‖": 533,
      "‗": 534,
      "‘": 535,
      "’": 536,
      "‚": 537,
      "“": 538,
      "”": 539,
      "„": 540,
      "‟": 541,
      "†": 542,
      "•": 543,
      "‣": 544,
      "…": 545,
      "‪": 546,
      "‬": 547,
      "′": 548,
      "″": 549,
      "‹": 550,
      "›": 551,
      "‼": 552,
      "⁄": 553,
      "⁉": 554,
      "⁠": 555,
      "⁦": 556,
      "⁩": 557,
      "⁰": 558,
      "ₕ": 559,
      "ₛ": 560,
      "₤": 561,
      "€": 562,
      "₹": 563,
      "₽": 564,
      "₾": 565,
      "⃣": 566,
      "℃": 567,
      "℅": 568,
      "℉": 569,
      "ℒ": 570,
      "℘": 571,
      "™": 572,
      "⅓": 573,
      "→": 574,
      "↓": 575,
      "↔": 576,
      "↗": 577,
      "⇒": 578,
      "∆": 579,
      "−": 580,
      "√": 581,
      "≈": 582,
      "≠": 583,
      "≤": 584,
      "≥": 585,
      "⊥": 586,
      "⋊": 587,
      "⌚": 588,
      "⌛": 589,
      "⏰": 590,
      "⏱": 591,
      "⏲": 592,
      "⏺": 593,
      "ⓙ": 594,
      "ⓞ": 595,
      "─": 596,
      "█": 597,
      "■": 598,
      "▪": 599,
      "▶": 600,
      "►": 601,
      "●": 602,
      "◘": 603,
      "◼": 604,
      "☀": 605,
      "☁": 606,
      "☔": 607,
      "☕": 608,
      "☘": 609,
      "☝": 610,
      "☠": 611,
      "☪": 612,
      "☮": 613,
      "☹": 614,
      "☺": 615,
      "♀": 616,
      "♂": 617,
      "♏": 618,
      "♐": 619,
      "♑": 620,
      "♔": 621,
      "♛": 622,
      "♡": 623,
      "♥": 624,
      "♦": 625,
      "♬": 626,
      "♾": 627,
      "⚓": 628,
      "⚔": 629,
      "⚕": 630,
      "⚜": 631,
      "⚠": 632,
      "⚡": 633,
      "⚪": 634,
      "⚫": 635,
      "⚽": 636,
      "⛈": 637,
      "⛷": 638,
      "✅": 639,
      "✈": 640,
      "✊": 641,
      "✌": 642,
      "✍": 643,
      "✞": 644,
      "✧": 645,
      "✨": 646,
      "✰": 647,
      "❀": 648,
      "❁": 649,
      "❄": 650,
      "❗": 651,
      "❣": 652,
      "❤": 653,
      "➕": 654,
      "➡": 655,
      "➤": 656,
      "⦁": 657,
      "⧗": 658,
      "⬇": 659,
      "⭐": 660,
      "⭕": 661,
      "《": 662,
      "》": 663,
      "ツ": 664,
      "・": 665,
      "上": 666,
      "下": 667,
      "与": 668,
      "个": 669,
      "中": 670,
      "交": 671,
      "今": 672,
      "伟": 673,
      "作": 674,
      "信": 675,
      "個": 676,
      "元": 677,
      "內": 678,
      "内": 679,
      "凌": 680,
      "几": 681,
      "分": 682,
      "前": 683,
      "午": 684,
      "友": 685,
      "周": 686,
      "和": 687,
      "天": 688,
      "姜": 689,
      "孔": 690,
      "審": 691,
      "小": 692,
      "崇": 693,
      "年": 694,
      "幾": 695,
      "庆": 696,
      "式": 697,
      "息": 698,
      "换": 699,
      "据": 700,
      "效": 701,
      "数": 702,
      "日": 703,
      "早": 704,
      "时": 705,
      "明": 706,
      "昨": 707,
      "時": 708,
      "晚": 709,
      "晨": 710,
      "月": 711,
      "期": 712,
      "格": 713,
      "民": 714,
      "法": 715,
      "港": 716,
      "澤": 717,
      "知": 718,
      "示": 719,
      "秒": 720,
      "等": 721,
      "表": 722,
      "週": 723,
      "鐘": 724,
      "钟": 725,
      "间": 726,
      "雨": 727,
      "韵": 728,
      "香": 729,
      "黄": 730,
      "공": 731,
      "내": 732,
      "년": 733,
      "단": 734,
      "매": 735,
      "발": 736,
      "방": 737,
      "소": 738,
      "안": 739,
      "지": 740,
      "탄": 741,
      "푀": 742,
      "": 743,
      "": 744,
      "": 745,
      "": 746,
      "": 747,
      "": 748,
      "": 749,
      "": 750,
      "": 751,
      "": 752,
      "": 753,
      "": 754,
      "": 755,
      "": 756,
      "": 757,
      "": 758,
      "": 759,
      "": 760,
      "": 761,
      "": 762,
      "": 763,
      "": 764,
      "": 765,
      "": 766,
      "": 767,
      "": 768,
      "": 769,
      "": 770,
      "": 771,
      "": 772,
      "": 773,
      "": 774,
      "": 775,
      "": 776,
      "": 777,
      "": 778,
      "": 779,
      "": 780,
      "": 781,
      "": 782,
      "": 783,
      "": 784,
      "": 785,
      "": 786,
      "": 787,
      "": 788,
      "": 789,
      "": 790,
      "": 791,
      "": 792,
      "": 793,
      "": 794,
      "": 795,
      "": 796,
      "": 797,
      "": 798,
      "": 799,
      "": 800,
      "": 801,
      "": 802,
      "": 803,
      "": 804,
      "": 805,
      "": 806,
      "": 807,
      "": 808,
      "": 809,
      "": 810,
      "": 811,
      "": 812,
      "": 813,
      "": 814,
      "": 815,
      "": 816,
      "": 817,
      "": 818,
      "": 819,
      "": 820,
      "": 821,
      "": 822,
      "": 823,
      "": 824,
      "": 825,
      "": 826,
      "": 827,
      "": 828,
      "": 829,
      "": 830,
      "": 831,
      "": 832,
      "": 833,
      "": 834,
      "": 835,
      "": 836,
      "": 837,
      "": 838,
      "": 839,
      "": 840,
      "": 841,
      "": 842,
      "": 843,
      "": 844,
      "": 845,
      "": 846,
      "": 847,
      "": 848,
      "": 849,
      "": 850,
      "": 851,
      "": 852,
      "": 853,
      "": 854,
      "": 855,
      "": 856,
      "": 857,
      "": 858,
      "": 859,
      "": 860,
      "": 861,
      "": 862,
      "": 863,
      "": 864,
      "": 865,
      "": 866,
      "": 867,
      "": 868,
      "": 869,
      "": 870,
      "": 871,
      "": 872,
      "": 873,
      "": 874,
      "": 875,
      "": 876,
      "": 877,
      "": 878,
      "": 879,
      "": 880,
      "": 881,
      "": 882,
      "": 883,
      "": 884,
      "": 885,
      "": 886,
      "": 887,
      "": 888,
      "": 889,
      "": 890,
      "": 891,
      "": 892,
      "": 893,
      "": 894,
      "": 895,
      "": 896,
      "": 897,
      "": 898,
      "": 899,
      "": 900,
      "": 901,
      "": 902,
      "": 903,
      "": 904,
      "": 905,
      "": 906,
      "": 907,
      "": 908,
      "": 909,
      "": 910,
      "": 911,
      "": 912,
      "": 913,
      "": 914,
      "": 915,
      "": 916,
      "": 917,
      "": 918,
      "": 919,
      "": 920,
      "": 921,
      "": 922,
      "": 923,
      "": 924,
      "": 925,
      "": 926,
      "": 927,
      "": 928,
      "": 929,
      "": 930,
      "": 931,
      "": 932,
      "": 933,
      "": 934,
      "": 935,
      "": 936,
      "": 937,
      "": 938,
      "": 939,
      "": 940,
      "": 941,
      "": 942,
      "": 943,
      "": 944,
      "": 945,
      "": 946,
      "": 947,
      "": 948,
      "": 949,
      "": 950,
      "": 951,
      "": 952,
      "": 953,
      "": 954,
      "": 955,
      "": 956,
      "": 957,
      "": 958,
      "": 959,
      "": 960,
      "": 961,
      "": 962,
      "": 963,
      "": 964,
      "": 965,
      "": 966,
      "": 967,
      "": 968,
      "": 969,
      "": 970,
      "": 971,
      "": 972,
      "": 973,
      "": 974,
      "": 975,
      "": 976,
      "": 977,
      "": 978,
      "": 979,
      "": 980,
      "": 981,
      "": 982,
      "": 983,
      "": 984,
      "": 985,
      "": 986,
      "": 987,
      "": 988,
      "": 989,
      "": 990,
      "": 991,
      "": 992,
      "": 993,
      "": 994,
      "": 995,
      "": 996,
      "": 997,
      "": 998,
      "": 999,
      "": 1000,
      "": 1001,
      "": 1002,
      "": 1003,
      "": 1004,
      "": 1005,
      "": 1006,
      "": 1007,
      "": 1008,
      "": 1009,
      "": 1010,
      "": 1011,
      "": 1012,
      "": 1013,
      "": 1014,
      "": 1015,
      "": 1016,
      "": 1017,
      "": 1018,
      "": 1019,
      "": 1020,
      "": 1021,
      "": 1022,
      "": 1023,
      "": 1024,
      "": 1025,
      "": 1026,
      "": 1027,
      "": 1028,
      "": 1029,
      "": 1030,
      "": 1031,
      "": 1032,
      "": 1033,
      "": 1034,
      "": 1035,
      "": 1036,
      "": 1037,
      "": 1038,
      "": 1039,
      "": 1040,
      "": 1041,
      "": 1042,
      "": 1043,
      "": 1044,
      "": 1045,
      "": 1046,
      "": 1047,
      "": 1048,
      "": 1049,
      "": 1050,
      "": 1051,
      "": 1052,
      "": 1053,
      "": 1054,
      "": 1055,
      "": 1056,
      "": 1057,
      "": 1058,
      "": 1059,
      "": 1060,
      "": 1061,
      "": 1062,
      "": 1063,
      "": 1064,
      "": 1065,
      "": 1066,
      "": 1067,
      "": 1068,
      "": 1069,
      "": 1070,
      "": 1071,
      "": 1072,
      "": 1073,
      "": 1074,
      "": 1075,
      "": 1076,
      "": 1077,
      "": 1078,
      "": 1079,
      "": 1080,
      "": 1081,
      "": 1082,
      "": 1083,
      "": 1084,
      "": 1085,
      "": 1086,
      "": 1087,
      "": 1088,
      "": 1089,
      "": 1090,
      "": 1091,
      "": 1092,
      "": 1093,
      "": 1094,
      "": 1095,
      "": 1096,
      "": 1097,
      "": 1098,
      "": 1099,
      "": 1100,
      "": 1101,
      "": 1102,
      "": 1103,
      "": 1104,
      "": 1105,
      "": 1106,
      "": 1107,
      "蘿": 1108,
      "邏": 1109,
      "樂": 1110,
      "烙": 1111,
      "珞": 1112,
      "落": 1113,
      "酪": 1114,
      "欄": 1115,
      "爛": 1116,
      "蘭": 1117,
      "藍": 1118,
      "拉": 1119,
      "臘": 1120,
      "朗": 1121,
      "浪": 1122,
      "郎": 1123,
      "來": 1124,
      "冷": 1125,
      "勞": 1126,
      "擄": 1127,
      "路": 1128,
      "鹿": 1129,
      "論": 1130,
      "壟": 1131,
      "弄": 1132,
      "賂": 1133,
      "雷": 1134,
      "壘": 1135,
      "索": 1136,
      "殺": 1137,
      "拾": 1138,
      "梁": 1139,
      "女": 1140,
      "驪": 1141,
      "麗": 1142,
      "曆": 1143,
      "歷": 1144,
      "憐": 1145,
      "戀": 1146,
      "領": 1147,
      "類": 1148,
      "倫": 1149,
      "律": 1150,
      "率": 1151,
      "李": 1152,
      "裡": 1153,
      "笠": 1154,
      "刺": 1155,
      "ﬀ": 1156,
      "ﬁ": 1157,
      "ﬂ": 1158,
      "ﷺ": 1159,
      "ﷻ": 1160,
      "︎": 1161,
      "️": 1162,
      "﻿": 1163,
      "＆": 1164,
      "（": 1165,
      "）": 1166,
      "＋": 1167,
      "，": 1168,
      "－": 1169,
      "０": 1170,
      "１": 1171,
      "：": 1172,
      "Ｍ": 1173,
      "ａ": 1174,
      "ｄ": 1175,
      "ｎ": 1176,
      "ｒ": 1177,
      "ｙ": 1178,
      "￢": 1179,
      "￼": 1180,
      "�": 1181,
      "th": 1182,
      "in": 1183,
      "an": 1184,
      "er": 1185,
      "the": 1186,
      "on": 1187,
      "re": 1188,
      "at": 1189,
      "en": 1190,
      "ed": 1191,
      "st": 1192,
      "al": 1193,
      "ar": 1194,
      "or": 1195,
      "ing": 1196,
      "to": 1197,
      "of": 1198,
      "is": 1199,
      "and": 1200,
      "it": 1201,
      "as": 1202,
      "ou": 1203,
      "es": 1204,
      "ic": 1205,
      "ion": 1206,
      "le": 1207,
      "ent": 1208,
      "om": 1209,
      "he": 1210,
      "il": 1211,
      "ad": 1212,
      "id": 1213,
      "ve": 1214,
      "ac": 1215,
      "be": 1216,
      "se": 1217,
      "am": 1218,
      "ro": 1219,
      "for": 1220,
      "ay": 1221,
      "ch": 1222,
      "ol": 1223,
      "ur": 1224,
      "nd": 1225,
      "ver": 1226,
      "ly": 1227,
      "ir": 1228,
      "im": 1229,
      "wh": 1230,
      "ct": 1231,
      "ation": 1232,
      "ha": 1233,
      "de": 1234,
      "ce": 1235,
      "that": 1236,
      "ow": 1237,
      "ot": 1238,
      "The": 1239,
      "ag": 1240,
      "ig": 1241,
      "ter": 1242,
      "ment": 1243,
      "et": 1244,
      "ist": 1245,
      "ut": 1246,
      "ith": 1247,
      "res": 1248,
      "con": 1249,
      "ill": 1250,
      "un": 1251,
      "are": 1252,
      "ate": 1253,
      "ab": 1254,
      "with": 1255,
      "com": 1256,
      "ak": 1257,
      "20": 1258,
      "su": 1259,
      "sa": 1260,
      "op": 1261,
      "el": 1262,
      "ul": 1263,
      "ers": 1264,
      "ere": 1265,
      "ra": 1266,
      "was": 1267,
      "us": 1268,
      "pro": 1269,
      "fr": 1270,
      "our": 1271,
      "pe": 1272,
      "said": 1273,
      "li": 1274,
      "by": 1275,
      "lo": 1276,
      "ri": 1277,
      "has": 1278,
      "ld": 1279,
      "art": 1280,
      "ne": 1281,
      "over": 1282,
      "te": 1283,
      "so": 1284,
      "mo": 1285,
      "hi": 1286,
      "all": 1287,
      "ia": 1288,
      "from": 1289,
      "ain": 1290,
      "201": 1291,
      "ap": 1292,
      "out": 1293,
      "Ind": 1294,
      "um": 1295,
      "pl": 1296,
      "ity": 1297,
      "ex": 1298,
      "have": 1299,
      "di": 1300,
      "his": 1301,
      "not": 1302,
      "po": 1303,
      "ant": 1304,
      "sh": 1305,
      "we": 1306,
      "ess": 1307,
      "igh": 1308,
      "per": 1309,
      "will": 1310,
      "me": 1311,
      "one": 1312,
      "ort": 1313,
      "ies": 1314,
      "day": 1315,
      "ear": 1316,
      "ther": 1317,
      "up": 1318,
      "ive": 1319,
      "qu": 1320,
      "tr": 1321,
      "la": 1322,
      "ial": 1323,
      "ice": 1324,
      "ge": 1325,
      "act": 1326,
      "end": 1327,
      "ould": 1328,
      "ong": 1329,
      "fe": 1330,
      "od": 1331,
      "pr": 1332,
      "ust": 1333,
      "port": 1334,
      "part": 1335,
      "man": 1336,
      "ated": 1337,
      "oun": 1338,
      "ud": 1339,
      "ke": 1340,
      "wor": 1341,
      "had": 1342,
      "ich": 1343,
      "In": 1344,
      "India": 1345,
      "af": 1346,
      "pol": 1347,
      "gh": 1348,
      "ard": 1349,
      "fic": 1350,
      "ind": 1351,
      "this": 1352,
      "who": 1353,
      "iv": 1354,
      "und": 1355,
      "year": 1356,
      "ber": 1357,
      "ary": 1358,
      "which": 1359,
      "its": 1360,
      "also": 1361,
      "em": 1362,
      "their": 1363,
      "ome": 1364,
      "overn": 1365,
      "ction": 1366,
      "been": 1367,
      "ef": 1368,
      "ight": 1369,
      "ore": 1370,
      "ure": 1371,
      "age": 1372,
      "ress": 1373,
      "00": 1374,
      "ack": 1375,
      "inist": 1376,
      "cl": 1377,
      "but": 1378,
      "est": 1379,
      "ok": 1380,
      "were": 1381,
      "ian": 1382,
      "ish": 1383,
      "rou": 1384,
      "ast": 1385,
      "ence": 1386,
      "overnment": 1387,
      "ev": 1388,
      "ous": 1389,
      "au": 1390,
      "Ch": 1391,
      "du": 1392,
      "ep": 1393,
      "ime": 1394,
      "ance": 1395,
      "comp": 1396,
      "sp": 1397,
      "cre": 1398,
      "Th": 1399,
      "ide": 1400,
      "bo": 1401,
      "if": 1402,
      "ru": 1403,
      "do": 1404,
      "her": 1405,
      "har": 1406,
      "av": 1407,
      "cent": 1408,
      "ord": 1409,
      "form": 1410,
      "ine": 1411,
      "ash": 1412,
      "int": 1413,
      "go": 1414,
      "any": 1415,
      "ake": 1416,
      "can": 1417,
      "aj": 1418,
      "ition": 1419,
      "they": 1420,
      "wo": 1421,
      "ict": 1422,
      "after": 1423,
      "other": 1424,
      "ass": 1425,
      "ach": 1426,
      "ew": 1427,
      "coun": 1428,
      "ident": 1429,
      "dis": 1430,
      "bl": 1431,
      "ang": 1432,
      "ical": 1433,
      "now": 1434,
      "It": 1435,
      "ile": 1436,
      "co": 1437,
      "no": 1438,
      "work": 1439,
      "fer": 1440,
      "inister": 1441,
      "ame": 1442,
      "ople": 1443,
      "pre": 1444,
      ",”": 1445,
      "ail": 1446,
      "way": 1447,
      "ace": 1448,
      "would": 1449,
      "you": 1450,
      "vel": 1451,
      "mar": 1452,
      "able": 1453,
      "ank": 1454,
      "vi": 1455,
      "pos": 1456,
      "comm": 1457,
      "ase": 1458,
      "ign": 1459,
      "He": 1460,
      "ever": 1461,
      "ree": 1462,
      "ire": 1463,
      "old": 1464,
      "get": 1465,
      "about": 1466,
      "fir": 1467,
      "government": 1468,
      "St": 1469,
      "ult": 1470,
      "cr": 1471,
      "people": 1472,
      "ell": 1473,
      "state": 1474,
      "ans": 1475,
      "more": 1476,
      "ade": 1477,
      "under": 1478,
      "ck": 1479,
      "ound": 1480,
      "cial": 1481,
      "ai": 1482,
      "ci": 1483,
      "new": 1484,
      "Pr": 1485,
      "med": 1486,
      "ST": 1487,
      "again": 1488,
      "ser": 1489,
      "own": 1490,
      "two": 1491,
      "att": 1492,
      "pres": 1493,
      "De": 1494,
      "like": 1495,
      "add": 1496,
      "ational": 1497,
      "ctor": 1498,
      "mon": 1499,
      "inter": 1500,
      "cont": 1501,
      "time": 1502,
      "lead": 1503,
      "there": 1504,
      "them": 1505,
      "ho": 1506,
      "say": 1507,
      "ry": 1508,
      "br": 1509,
      "pp": 1510,
      "low": 1511,
      "gr": 1512,
      "spe": 1513,
      "reg": 1514,
      "mber": 1515,
      "offic": 1516,
      "Rs": 1517,
      "Mo": 1518,
      "ue": 1519,
      "ite": 1520,
      "sion": 1521,
      "vis": 1522,
      "some": 1523,
      "ick": 1524,
      "ally": 1525,
      "cted": 1526,
      "ath": 1527,
      "ll": 1528,
      "leg": 1529,
      "Indian": 1530,
      "when": 1531,
      "2019": 1532,
      "fore": 1533,
      "sc": 1534,
      "ater": 1535,
      "IST": 1536,
      "ities": 1537,
      "tra": 1538,
      "cur": 1539,
      "pt": 1540,
      "ren": 1541,
      "against": 1542,
      "je": 1543,
      "ise": 1544,
      "10": 1545,
      "ann": 1546,
      "We": 1547,
      "ele": 1548,
      "she": 1549,
      "19": 1550,
      "ble": 1551,
      "air": 1552,
      "Del": 1553,
      "si": 1554,
      "cro": 1555,
      ",\"": 1556,
      "him": 1557,
      "first": 1558,
      "uring": 1559,
      "fil": 1560,
      "Minister": 1561,
      "Delhi": 1562,
      "come": 1563,
      "mis": 1564,
      "cess": 1565,
      "fin": 1566,
      "my": 1567,
      "ubl": 1568,
      "ss": 1569,
      "ations": 1570,
      "than": 1571,
      "play": 1572,
      "og": 1573,
      "off": 1574,
      "ild": 1575,
      "enc": 1576,
      "into": 1577,
      "bet": 1578,
      "try": 1579,
      "last": 1580,
      "Sing": 1581,
      "while": 1582,
      "set": 1583,
      "iz": 1584,
      "ple": 1585,
      "..": 1586,
      "An": 1587,
      "han": 1588,
      "only": 1589,
      "ory": 1590,
      "dated": 1591,
      "police": 1592,
      "eng": 1593,
      "years": 1594,
      "ari": 1595,
      "urn": 1596,
      "rough": 1597,
      "itt": 1598,
      "esh": 1599,
      "mark": 1600,
      "Com": 1601,
      "Up": 1602,
      "BJ": 1603,
      "ough": 1604,
      "Singh": 1605,
      "being": 1606,
      "Un": 1607,
      "cord": 1608,
      "ph": 1609,
      "ourt": 1610,
      "row": 1611,
      "col": 1612,
      "ved": 1613,
      "New": 1614,
      "BJP": 1615,
      "used": 1616,
      "incl": 1617,
      "issu": 1618,
      "tak": 1619,
      "ions": 1620,
      "pers": 1621,
      "vest": 1622,
      "aw": 1623,
      "Cong": 1624,
      "ating": 1625,
      "back": 1626,
      "pur": 1627,
      "dec": 1628,
      "dist": 1629,
      "where": 1630,
      "mu": 1631,
      "ates": 1632,
      "ents": 1633,
      "ob": 1634,
      "Updated": 1635,
      "12": 1636,
      "cho": 1637,
      "mb": 1638,
      "most": 1639,
      "thing": 1640,
      "ek": 1641,
      "high": 1642,
      "ven": 1643,
      "even": 1644,
      "This": 1645,
      "ased": 1646,
      "report": 1647,
      "Congress": 1648,
      "ft": 1649,
      "read": 1650,
      "cer": 1651,
      "ah": 1652,
      "ital": 1653,
      "should": 1654,
      "red": 1655,
      "Mar": 1656,
      "ma": 1657,
      "led": 1658,
      "Ar": 1659,
      "stru": 1660,
      "tain": 1661,
      "ced": 1662,
      "ener": 1663,
      "person": 1664,
      "ful": 1665,
      "tri": 1666,
      "such": 1667,
      "ip": 1668,
      "As": 1669,
      "mat": 1670,
      "2018": 1671,
      "Wh": 1672,
      "min": 1673,
      "But": 1674,
      "velop": 1675,
      "ens": 1676,
      "main": 1677,
      "made": 1678,
      "amp": 1679,
      "str": 1680,
      "party": 1681,
      "tal": 1682,
      "three": 1683,
      "land": 1684,
      "hel": 1685,
      "oc": 1686,
      "ya": 1687,
      "fl": 1688,
      "ower": 1689,
      "cond": 1690,
      "mer": 1691,
      "official": 1692,
      "dire": 1693,
      "stud": 1694,
      "national": 1695,
      "No": 1696,
      "hip": 1697,
      "umb": 1698,
      "sel": 1699,
      "ving": 1700,
      "need": 1701,
      "film": 1702,
      "bu": 1703,
      "gan": 1704,
      "just": 1705,
      "hand": 1706,
      "test": 1707,
      "ts": 1708,
      "how": 1709,
      "during": 1710,
      "could": 1711,
      "stit": 1712,
      "ning": 1713,
      "cau": 1714,
      "rel": 1715,
      "amil": 1716,
      "Se": 1717,
      "ta": 1718,
      "vers": 1719,
      "war": 1720,
      "11": 1721,
      "invest": 1722,
      "cle": 1723,
      "these": 1724,
      "ink": 1725,
      "ject": 1726,
      "polit": 1727,
      "ask": 1728,
      "sur": 1729,
      "US": 1730,
      "crore": 1731,
      "ting": 1732,
      "country": 1733,
      "well": 1734,
      "meet": 1735,
      "istan": 1736,
      "15": 1737,
      "call": 1738,
      "month": 1739,
      "very": 1740,
      "take": 1741,
      "Raj": 1742,
      "point": 1743,
      "sha": 1744,
      "ual": 1745,
      "mir": 1746,
      "says": 1747,
      ".”": 1748,
      "grou": 1749,
      "includ": 1750,
      "),": 1751,
      "ative": 1752,
      "through": 1753,
      "ik": 1754,
      "000": 1755,
      "par": 1756,
      "des": 1757,
      "wom": 1758,
      "ward": 1759,
      "cap": 1760,
      "Jan": 1761,
      "start": 1762,
      "car": 1763,
      "ty": 1764,
      "ata": 1765,
      "turn": 1766,
      "cause": 1767,
      "State": 1768,
      "sub": 1769,
      "what": 1770,
      "ised": 1771,
      "ince": 1772,
      "prov": 1773,
      "mak": 1774,
      "head": 1775,
      "esday": 1776,
      "know": 1777,
      "many": 1778,
      "ug": 1779,
      "exp": 1780,
      "Pak": 1781,
      "reat": 1782,
      "ited": 1783,
      "put": 1784,
      "dif": 1785,
      "power": 1786,
      "long": 1787,
      "Kash": 1788,
      "show": 1789,
      "sy": 1790,
      "look": 1791,
      "pm": 1792,
      "Re": 1793,
      "ose": 1794,
      "chi": 1795,
      "rict": 1796,
      "down": 1797,
      "ments": 1798,
      "ond": 1799,
      "ange": 1800,
      "rest": 1801,
      "then": 1802,
      "ution": 1803,
      "case": 1804,
      "Government": 1805,
      "ices": 1806,
      "ublic": 1807,
      "Go": 1808,
      "Fr": 1809,
      "far": 1810,
      "ral": 1811,
      "ors": 1812,
      "ween": 1813,
      "char": 1814,
      "want": 1815,
      "develop": 1816,
      "Kashmir": 1817,
      "illion": 1818,
      "between": 1819,
      "make": 1820,
      "before": 1821,
      "produ": 1822,
      "every": 1823,
      "cal": 1824,
      "bus": 1825,
      "order": 1826,
      "world": 1827,
      "30": 1828,
      "Pakistan": 1829,
      "ular": 1830,
      "your": 1831,
      "ility": 1832,
      "did": 1833,
      "alth": 1834,
      "giv": 1835,
      "ces": 1836,
      "200": 1837,
      "fact": 1838,
      "here": 1839,
      "may": 1840,
      "team": 1841,
      "run": 1842,
      "help": 1843,
      "mand": 1844,
      "bal": 1845,
      "sure": 1846,
      "stand": 1847,
      "gu": 1848,
      "xt": 1849,
      "On": 1850,
      "serv": 1851,
      "Sh": 1852,
      "Man": 1853,
      "lim": 1854,
      "let": 1855,
      "Modi": 1856,
      "present": 1857,
      "election": 1858,
      "2017": 1859,
      "side": 1860,
      "lar": 1861,
      "rit": 1862,
      "sen": 1863,
      "ner": 1864,
      "And": 1865,
      "market": 1866,
      "pri": 1867,
      "ters": 1868,
      "PM": 1869,
      "chool": 1870,
      "umbai": 1871,
      "wal": 1872,
      "ana": 1873,
      "For": 1874,
      "iness": 1875,
      "fol": 1876,
      "There": 1877,
      "conom": 1878,
      "tar": 1879,
      "cording": 1880,
      "cor": 1881,
      "May": 1882,
      "district": 1883,
      "clo": 1884,
      "ied": 1885,
      "oper": 1886,
      "ness": 1887,
      "fo": 1888,
      "famil": 1889,
      "Chi": 1890,
      "post": 1891,
      "Ma": 1892,
      "che": 1893,
      "court": 1894,
      "four": 1895,
      "minister": 1896,
      "grow": 1897,
      "resident": 1898,
      "right": 1899,
      "Mumbai": 1900,
      "ious": 1901,
      "jo": 1902,
      "life": 1903,
      "Al": 1904,
      "18": 1905,
      "including": 1906,
      "less": 1907,
      "gest": 1908,
      "win": 1909,
      "law": 1910,
      "ished": 1911,
      "self": 1912,
      "val": 1913,
      "pect": 1914,
      "cut": 1915,
      "Par": 1916,
      "because": 1917,
      "Chin": 1918,
      "view": 1919,
      "How": 1920,
      "ub": 1921,
      "ism": 1922,
      "around": 1923,
      "kill": 1924,
      "ati": 1925,
      "ouse": 1926,
      "ush": 1927,
      "line": 1928,
      "sm": 1929,
      "good": 1930,
      "25": 1931,
      "Chief": 1932,
      "der": 1933,
      "mission": 1934,
      "14": 1935,
      "Af": 1936,
      ".\"": 1937,
      "ms": 1938,
      "chief": 1939,
      "por": 1940,
      "road": 1941,
      "olog": 1942,
      "ior": 1943,
      "sid": 1944,
      "Ro": 1945,
      "minist": 1946,
      "16": 1947,
      "Sha": 1948,
      "use": 1949,
      "child": 1950,
      "bank": 1951,
      "fac": 1952,
      "acc": 1953,
      "trans": 1954,
      "found": 1955,
      "Con": 1956,
      "added": 1957,
      "eb": 1958,
      "soci": 1959,
      "cas": 1960,
      "public": 1961,
      "icket": 1962,
      "quest": 1963,
      "hold": 1964,
      "They": 1965,
      "prom": 1966,
      "company": 1967,
      "meeting": 1968,
      "ani": 1969,
      "She": 1970,
      "organ": 1971,
      "Ad": 1972,
      "sing": 1973,
      "differ": 1974,
      "ason": 1975,
      "une": 1976,
      "17": 1977,
      "came": 1978,
      "told": 1979,
      "place": 1980,
      "mit": 1981,
      "oth": 1982,
      "sup": 1983,
      "vot": 1984,
      "akh": 1985,
      "13": 1986,
      "ga": 1987,
      "Cent": 1988,
      "Tr": 1989,
      "Pol": 1990,
      "umar": 1991,
      "ched": 1992,
      "resp": 1993,
      "week": 1994,
      "So": 1995,
      "leaders": 1996,
      "tem": 1997,
      "econom": 1998,
      "alleg": 1999,
      "num": 2000,
      "pass": 2001,
      "women": 2002,
      "app": 2003,
      "ten": 2004,
      "follow": 2005,
      "ale": 2006,
      "since": 2007,
      "ific": 2008,
      "loy": 2009,
      "Sep": 2010,
      "ody": 2011,
      "contin": 2012,
      "partment": 2013,
      "ency": 2014,
      "political": 2015,
      "ided": 2016,
      "book": 2017,
      "cla": 2018,
      "50": 2019,
      "thor": 2020,
      "incre": 2021,
      "ump": 2022,
      "taken": 2023,
      "Mon": 2024,
      "kar": 2025,
      "ared": 2026,
      "gener": 2027,
      "sol": 2028,
      "second": 2029,
      "AM": 2030,
      "big": 2031,
      "ged": 2032,
      "poll": 2033,
      "Aug": 2034,
      "ures": 2035,
      "2016": 2036,
      "top": 2037,
      "water": 2038,
      "those": 2039,
      "men": 2040,
      "project": 2041,
      "ural": 2042,
      "days": 2043,
      "open": 2044,
      "both": 2045,
      "students": 2046,
      "Jam": 2047,
      "ics": 2048,
      "cret": 2049,
      "Bh": 2050,
      "Feb": 2051,
      "vol": 2052,
      "same": 2053,
      "En": 2054,
      "rele": 2055,
      "ala": 2056,
      "much": 2057,
      "next": 2058,
      "...": 2059,
      "support": 2060,
      "peri": 2061,
      "fi": 2062,
      "ways": 2063,
      "pay": 2064,
      "number": 2065,
      "ross": 2066,
      "demand": 2067,
      "position": 2068,
      "Home": 2069,
      "Me": 2070,
      "cation": 2071,
      "ese": 2072,
      "too": 2073,
      "held": 2074,
      "import": 2075,
      "commun": 2076,
      "na": 2077,
      "als": 2078,
      "action": 2079,
      "ploy": 2080,
      "group": 2081,
      "cover": 2082,
      "Kumar": 2083,
      "chn": 2084,
      "vent": 2085,
      ").": 2086,
      "vari": 2087,
      "claim": 2088,
      "inform": 2089,
      "stem": 2090,
      "Ac": 2091,
      "ered": 2092,
      "level": 2093,
      "five": 2094,
      "city": 2095,
      "ising": 2096,
      "Apr": 2097,
      "curity": 2098,
      "fect": 2099,
      "Ex": 2100,
      "ted": 2101,
      "based": 2102,
      "got": 2103,
      "sign": 2104,
      "business": 2105,
      "ivers": 2106,
      "school": 2107,
      "adesh": 2108,
      "az": 2109,
      "ves": 2110,
      "ready": 2111,
      "outh": 2112,
      "today": 2113,
      "ror": 2114,
      "uk": 2115,
      "camp": 2116,
      "attack": 2117,
      "former": 2118,
      "ists": 2119,
      "near": 2120,
      "cept": 2121,
      "gram": 2122,
      "see": 2123,
      "happ": 2124,
      "cy": 2125,
      "mi": 2126,
      "fund": 2127,
      "real": 2128,
      "move": 2129,
      "sl": 2130,
      "family": 2131,
      "Wor": 2132,
      "agar": 2133,
      "iday": 2134,
      "indust": 2135,
      "ament": 2136,
      "asked": 2137,
      "clear": 2138,
      "home": 2139,
      "does": 2140,
      "tre": 2141,
      "press": 2142,
      "arch": 2143,
      "However": 2144,
      "ute": 2145,
      "ended": 2146,
      "recent": 2147,
      "few": 2148,
      "21": 2149,
      "If": 2150,
      "ajor": 2151,
      "coming": 2152,
      "issue": 2153,
      "ben": 2154,
      "Ram": 2155,
      "lakh": 2156,
      "president": 2157,
      "Tu": 2158,
      "given": 2159,
      "24": 2160,
      "vill": 2161,
      "urs": 2162,
      "ling": 2163,
      "plain": 2164,
      "hal": 2165,
      "leader": 2166,
      "ired": 2167,
      "rain": 2168,
      "remain": 2169,
      "National": 2170,
      "Of": 2171,
      "ilit": 2172,
      "son": 2173,
      "Sat": 2174,
      "different": 2175,
      "22": 2176,
      "among": 2177,
      "took": 2178,
      "though": 2179,
      "change": 2180,
      "due": 2181,
      "lier": 2182,
      "appe": 2183,
      "development": 2184,
      "partic": 2185,
      "colle": 2186,
      "ety": 2187,
      "atch": 2188,
      "curren": 2189,
      "going": 2190,
      "another": 2191,
      "vict": 2192,
      "Mus": 2193,
      "system": 2194,
      "To": 2195,
      "ie": 2196,
      "wit": 2197,
      "officials": 2198,
      "still": 2199,
      "bre": 2200,
      "ration": 2201,
      "imes": 2202,
      "ric": 2203,
      "tee": 2204,
      "mor": 2205,
      "Kar": 2206,
      "interest": 2207,
      "don": 2208,
      "across": 2209,
      "media": 2210,
      "laun": 2211,
      "itu": 2212,
      "China": 2213,
      "del": 2214,
      "sever": 2215,
      "major": 2216,
      "health": 2217,
      "body": 2218,
      "ats": 2219,
      "23": 2220,
      "ator": 2221,
      "decis": 2222,
      "Monday": 2223,
      "hile": 2224,
      "along": 2225,
      "rol": 2226,
      "Shar": 2227,
      "Court": 2228,
      "While": 2229,
      "process": 2230,
      "inc": 2231,
      "ants": 2232,
      "urther": 2233,
      "fa": 2234,
      "gar": 2235,
      "result": 2236,
      "ublished": 2237,
      "prof": 2238,
      "memb": 2239,
      "members": 2240,
      "uly": 2241,
      "million": 2242,
      "Friday": 2243,
      "At": 2244,
      "DA": 2245,
      "uary": 2246,
      "called": 2247,
      "Gand": 2248,
      "local": 2249,
      "Khan": 2250,
      "2015": 2251,
      "appro": 2252,
      "inst": 2253,
      "hu": 2254,
      "area": 2255,
      "announ": 2256,
      "2014": 2257,
      "cretary": 2258,
      "ature": 2259,
      "nor": 2260,
      "qual": 2261,
      "net": 2262,
      "sed": 2263,
      "author": 2264,
      "dri": 2265,
      "Prime": 2266,
      "spital": 2267,
      "ned": 2268,
      "care": 2269,
      "each": 2270,
      "alleged": 2271,
      "Bo": 2272,
      "Sab": 2273,
      "talk": 2274,
      "oney": 2275,
      "security": 2276,
      "met": 2277,
      "wa": 2278,
      "light": 2279,
      "hit": 2280,
      "think": 2281,
      "Wed": 2282,
      "ger": 2283,
      "tax": 2284,
      "edu": 2285,
      "Tuesday": 2286,
      "BI": 2287,
      "gy": 2288,
      "vir": 2289,
      "bar": 2290,
      "suc": 2291,
      "late": 2292,
      "polic": 2293,
      "Dece": 2294,
      "December": 2295,
      "January": 2296,
      "allow": 2297,
      "keep": 2298,
      "UP": 2299,
      "build": 2300,
      "social": 2301,
      "train": 2302,
      "house": 2303,
      "ology": 2304,
      "Police": 2305,
      "Pro": 2306,
      "struct": 2307,
      "protest": 2308,
      "President": 2309,
      "Le": 2310,
      "ours": 2311,
      "nesday": 2312,
      "months": 2313,
      "Wednesday": 2314,
      "ban": 2315,
      "ursday": 2316,
      "Thursday": 2317,
      "six": 2318,
      "March": 2319,
      "tail": 2320,
      "match": 2321,
      "techn": 2322,
      "ali": 2323,
      "exam": 2324,
      "requ": 2325,
      "Gandhi": 2326,
      "Part": 2327,
      "concer": 2328,
      "making": 2329,
      "pop": 2330,
      "World": 2331,
      "sum": 2332,
      "gre": 2333,
      "hum": 2334,
      "best": 2335,
      "list": 2336,
      "ination": 2337,
      "Gu": 2338,
      "26": 2339,
      "Inter": 2340,
      "unj": 2341,
      "arrest": 2342,
      "respon": 2343,
      "past": 2344,
      "rece": 2345,
      "Ab": 2346,
      "star": 2347,
      "ional": 2348,
      "ton": 2349,
      "seen": 2350,
      "employ": 2351,
      "ram": 2352,
      "compan": 2353,
      "sent": 2354,
      "sector": 2355,
      "Pradesh": 2356,
      "Sund": 2357,
      "visit": 2358,
      "sim": 2359,
      "children": 2360,
      "various": 2361,
      "blo": 2362,
      "ending": 2363,
      "without": 2364,
      "ham": 2365,
      "ified": 2366,
      "With": 2367,
      "growth": 2368,
      "senior": 2369,
      "28": 2370,
      "further": 2371,
      "ball": 2372,
      "andid": 2373,
      "eld": 2374,
      "wards": 2375,
      "Dr": 2376,
      "Co": 2377,
      "elections": 2378,
      "ird": 2379,
      "June": 2380,
      "activ": 2381,
      "semb": 2382,
      "irl": 2383,
      "den": 2384,
      "Cha": 2385,
      "viol": 2386,
      "ca": 2387,
      "Jammu": 2388,
      "ings": 2389,
      "Oc": 2390,
      "When": 2391,
      "aged": 2392,
      "July": 2393,
      "tember": 2394,
      "special": 2395,
      "September": 2396,
      "sembly": 2397,
      "27": 2398,
      "sto": 2399,
      "priv": 2400,
      "cost": 2401,
      "shi": 2402,
      "away": 2403,
      "terror": 2404,
      "glo": 2405,
      "reach": 2406,
      "proble": 2407,
      "fun": 2408,
      "dra": 2409,
      "After": 2410,
      "lot": 2411,
      "2020": 2412,
      "pan": 2413,
      "Te": 2414,
      "Su": 2415,
      "several": 2416,
      "tober": 2417,
      "Muslim": 2418,
      "program": 2419,
      "October": 2420,
      "bi": 2421,
      "comple": 2422,
      "trad": 2423,
      "April": 2424,
      "return": 2425,
      "pet": 2426,
      "ran": 2427,
      "beli": 2428,
      "started": 2429,
      "accused": 2430,
      "director": 2431,
      "plan": 2432,
      "candid": 2433,
      "statement": 2434,
      "money": 2435,
      "unjab": 2436,
      "According": 2437,
      "Chand": 2438,
      "ancial": 2439,
      "isation": 2440,
      "must": 2441,
      "Sunday": 2442,
      "deal": 2443,
      "find": 2444,
      "fort": 2445,
      "sible": 2446,
      "already": 2447,
      "Vi": 2448,
      "aren": 2449,
      "search": 2450,
      "Nove": 2451,
      "November": 2452,
      "comes": 2453,
      "offer": 2454,
      "ribut": 2455,
      "current": 2456,
      "sour": 2457,
      "Sabha": 2458,
      "give": 2459,
      "rul": 2460,
      "aid": 2461,
      "fri": 2462,
      "Bank": 2463,
      "Punjab": 2464,
      "August": 2465,
      "eve": 2466,
      "wr": 2467,
      "accoun": 2468,
      "Febru": 2469,
      "ines": 2470,
      "February": 2471,
      "bit": 2472,
      "decision": 2473,
      "working": 2474,
      "friend": 2475,
      "iversity": 2476,
      "Act": 2477,
      "posed": 2478,
      "abad": 2479,
      "Union": 2480,
      "left": 2481,
      "feel": 2482,
      "fail": 2483,
      "spo": 2484,
      "nal": 2485,
      "Commission": 2486,
      "others": 2487,
      "40": 2488,
      "ris": 2489,
      "29": 2490,
      "nam": 2491,
      "bas": 2492,
      "Published": 2493,
      "non": 2494,
      "taking": 2495,
      "better": 2496,
      "member": 2497,
      "night": 2498,
      "IC": 2499,
      "jud": 2500,
      "record": 2501,
      "gin": 2502,
      "les": 2503,
      "Satur": 2504,
      "commit": 2505,
      "Saturday": 2506,
      "become": 2507,
      "gl": 2508,
      "areas": 2509,
      "Jo": 2510,
      "ys": 2511,
      "soon": 2512,
      "cus": 2513,
      "itted": 2514,
      "decl": 2515,
      "using": 2516,
      "tion": 2517,
      "fall": 2518,
      "constit": 2519,
      "ports": 2520,
      "jay": 2521,
      "success": 2522,
      "aring": 2523,
      "rate": 2524,
      "ability": 2525,
      "later": 2526,
      "supp": 2527,
      "tries": 2528,
      "ground": 2529,
      "key": 2530,
      "milit": 2531,
      "ages": 2532,
      "won": 2533,
      "consid": 2534,
      "important": 2535,
      "Be": 2536,
      "role": 2537,
      "ref": 2538,
      "condu": 2539,
      "plac": 2540,
      "Shah": 2541,
      "plic": 2542,
      "cast": 2543,
      "companies": 2544,
      "hist": 2545,
      "San": 2546,
      "init": 2547,
      "adi": 2548,
      "final": 2549,
      "reported": 2550,
      "bro": 2551,
      "class": 2552,
      "Sen": 2553,
      "Res": 2554,
      "done": 2555,
      "vision": 2556,
      "issues": 2557,
      "death": 2558,
      "div": 2559,
      "hop": 2560,
      "large": 2561,
      "step": 2562,
      "Col": 2563,
      "quar": 2564,
      "sal": 2565,
      "chang": 2566,
      "cases": 2567,
      "ides": 2568,
      "SP": 2569,
      "regist": 2570,
      "office": 2571,
      "ived": 2572,
      "cu": 2573,
      "News": 2574,
      "agement": 2575,
      "avail": 2576,
      "que": 2577,
      "free": 2578,
      "round": 2579,
      "aff": 2580,
      "ined": 2581,
      "ife": 2582,
      "igation": 2583,
      "situ": 2584,
      "South": 2585,
      "incident": 2586,
      "ED": 2587,
      "face": 2588,
      "inj": 2589,
      "went": 2590,
      "dep": 2591,
      "IT": 2592,
      "ured": 2593,
      "idence": 2594,
      "whe": 2595,
      "acy": 2596,
      "product": 2597,
      "strong": 2598,
      "def": 2599,
      "mid": 2600,
      "farm": 2601,
      "Centre": 2602,
      "event": 2603,
      "youn": 2604,
      "policy": 2605,
      "pected": 2606,
      "girl": 2607,
      "”.": 2608,
      "Sam": 2609,
      "anti": 2610,
      "department": 2611,
      "countries": 2612,
      "sche": 2613,
      "All": 2614,
      "Mad": 2615,
      "Beng": 2616,
      "You": 2617,
      "within": 2618,
      "2013": 2619,
      "chall": 2620,
      "West": 2621,
      "ont": 2622,
      "nat": 2623,
      "Cor": 2624,
      "adv": 2625,
      "ley": 2626,
      "financial": 2627,
      "bed": 2628,
      "MP": 2629,
      "31": 2630,
      "reason": 2631,
      "job": 2632,
      "medi": 2633,
      "ka": 2634,
      "never": 2635,
      "hoto": 2636,
      "respect": 2637,
      "ateg": 2638,
      "One": 2639,
      "NS": 2640,
      "ury": 2641,
      "hospital": 2642,
      "effect": 2643,
      "earlier": 2644,
      "data": 2645,
      "food": 2646,
      "close": 2647,
      "hic": 2648,
      "ential": 2649,
      "ern": 2650,
      "mind": 2651,
      "wood": 2652,
      "cele": 2653,
      "tract": 2654,
      "Mal": 2655,
      "stre": 2656,
      "itional": 2657,
      "gra": 2658,
      "ession": 2659,
      "ext": 2660,
      "continu": 2661,
      "capital": 2662,
      "ey": 2663,
      "Trump": 2664,
      "hard": 2665,
      "expected": 2666,
      "Shi": 2667,
      "aign": 2668,
      "ference": 2669,
      "short": 2670,
      "discus": 2671,
      "ately": 2672,
      "bring": 2673,
      "ze": 2674,
      "address": 2675,
      "matter": 2676,
      "conne": 2677,
      "invol": 2678,
      "question": 2679,
      "ulation": 2680,
      "services": 2681,
      "ctions": 2682,
      "Mr": 2683,
      "always": 2684,
      "equ": 2685,
      "ulture": 2686,
      "What": 2687,
      "design": 2688,
      "rup": 2689,
      "ndra": 2690,
      "aking": 2691,
      "ago": 2692,
      "share": 2693,
      "seek": 2694,
      "celebr": 2695,
      "Ra": 2696,
      "according": 2697,
      "Sa": 2698,
      "sho": 2699,
      "uck": 2700,
      "Sharma": 2701,
      "imp": 2702,
      "oor": 2703,
      "known": 2704,
      "small": 2705,
      "TI": 2706,
      "complain": 2707,
      "great": 2708,
      "saying": 2709,
      "cust": 2710,
      "itten": 2711,
      "campaign": 2712,
      "Ak": 2713,
      "likely": 2714,
      "Party": 2715,
      "third": 2716,
      "cit": 2717,
      "killed": 2718,
      "crit": 2719,
      "stri": 2720,
      "meric": 2721,
      "Lt": 2722,
      "industry": 2723,
      "yet": 2724,
      "name": 2725,
      "total": 2726,
      "High": 2727,
      "eas": 2728,
      "100": 2729,
      "pecial": 2730,
      "international": 2731,
      "os": 2732,
      "towards": 2733,
      "Kap": 2734,
      "Air": 2735,
      "wn": 2736,
      "IP": 2737,
      "phone": 2738,
      "itive": 2739,
      "ually": 2740,
      "vehic": 2741,
      "erv": 2742,
      "half": 2743,
      "Bi": 2744,
      "deli": 2745,
      "ging": 2746,
      "Americ": 2747,
      "seem": 2748,
      "tour": 2749,
      "Bengal": 2750,
      "global": 2751,
      "least": 2752,
      "Dire": 2753,
      "impro": 2754,
      "vious": 2755,
      "officer": 2756,
      "foc": 2757,
      "announced": 2758,
      "pen": 2759,
      "states": 2760,
      "Sup": 2761,
      "appoint": 2762,
      "Nare": 2763,
      "king": 2764,
      "education": 2765,
      "slam": 2766,
      "dies": 2767,
      "uty": 2768,
      "certain": 2769,
      "IA": 2770,
      "Har": 2771,
      "AP": 2772,
      "fra": 2773,
      "board": 2774,
      "mus": 2775,
      "Ne": 2776,
      "Am": 2777,
      "till": 2778,
      "cour": 2779,
      "situation": 2780,
      "private": 2781,
      "That": 2782,
      "uture": 2783,
      "Ut": 2784,
      "stop": 2785,
      "condition": 2786,
      "billion": 2787,
      "Ko": 2788,
      "ensure": 2789,
      "village": 2790,
      "actor": 2791,
      "Narendra": 2792,
      "cing": 2793,
      "why": 2794,
      "information": 2795,
      "series": 2796,
      "liament": 2797,
      "field": 2798,
      "pal": 2799,
      "mad": 2800,
      "kes": 2801,
      "experi": 2802,
      "lect": 2803,
      "love": 2804,
      "legal": 2805,
      "uru": 2806,
      "ship": 2807,
      "Pe": 2808,
      "uro": 2809,
      "instit": 2810,
      "pose": 2811,
      "MC": 2812,
      "decided": 2813,
      "University": 2814,
      "Ah": 2815,
      "sk": 2816,
      "parties": 2817,
      "Lok": 2818,
      "fire": 2819,
      "lear": 2820,
      "human": 2821,
      "game": 2822,
      "woman": 2823,
      "mal": 2824,
      "conf": 2825,
      "term": 2826,
      "ized": 2827,
      "proper": 2828,
      "inal": 2829,
      "rin": 2830,
      "economic": 2831,
      "Pl": 2832,
      "having": 2833,
      "atic": 2834,
      "ought": 2835,
      "early": 2836,
      "Nor": 2837,
      "compet": 2838,
      "onment": 2839,
      "ped": 2840,
      "ung": 2841,
      "target": 2842,
      "room": 2843,
      "bility": 2844,
      "general": 2845,
      "Bar": 2846,
      "Cl": 2847,
      "redu": 2848,
      "band": 2849,
      "arrested": 2850,
      "flo": 2851,
      "Just": 2852,
      "times": 2853,
      "mot": 2854,
      "ission": 2855,
      "olly": 2856,
      "pped": 2857,
      "achi": 2858,
      "suf": 2859,
      "Mahar": 2860,
      "sci": 2861,
      "jar": 2862,
      "Pat": 2863,
      "provide": 2864,
      "Mu": 2865,
      "pite": 2866,
      "vide": 2867,
      "prote": 2868,
      "future": 2869,
      "Ltd": 2870,
      "ival": 2871,
      "ering": 2872,
      "Aust": 2873,
      "gether": 2874,
      "foreign": 2875,
      "lab": 2876,
      "Goa": 2877,
      "ily": 2878,
      "particip": 2879,
      "199": 2880,
      "administ": 2881,
      "By": 2882,
      "jour": 2883,
      "period": 2884,
      "ecut": 2885,
      "fight": 2886,
      "ti": 2887,
      "atter": 2888,
      "happen": 2889,
      "bir": 2890,
      "firm": 2891,
      "young": 2892,
      "ave": 2893,
      "hind": 2894,
      "things": 2895,
      "ron": 2896,
      "increase": 2897,
      "Mah": 2898,
      "ivil": 2899,
      "structure": 2900,
      "following": 2901,
      "direct": 2902,
      "sug": 2903,
      "gn": 2904,
      "infl": 2905,
      "rid": 2906,
      "cru": 2907,
      "community": 2908,
      "Director": 2909,
      "Bang": 2910,
      "front": 2911,
      "together": 2912,
      "ste": 2913,
      "space": 2914,
      "available": 2915,
      "force": 2916,
      "season": 2917,
      "imple": 2918,
      "aly": 2919,
      "Hind": 2920,
      "era": 2921,
      "mance": 2922,
      "formance": 2923,
      "however": 2924,
      "received": 2925,
      "anch": 2926,
      "roll": 2927,
      "sell": 2928,
      "complete": 2929,
      "express": 2930,
      "news": 2931,
      "35": 2932,
      "Department": 2933,
      "hours": 2934,
      "Rah": 2935,
      "research": 2936,
      "station": 2937,
      "ges": 2938,
      "ama": 2939,
      "cannot": 2940,
      "audi": 2941,
      "played": 2942,
      "My": 2943,
      "ying": 2944,
      "CC": 2945,
      "Is": 2946,
      "suggest": 2947,
      "price": 2948,
      "dro": 2949,
      "ilar": 2950,
      "Fin": 2951,
      "ried": 2952,
      "issued": 2953,
      "constru": 2954,
      "ives": 2955,
      "itor": 2956,
      "deb": 2957,
      "Minist": 2958,
      "ashtra": 2959,
      "elect": 2960,
      "Austral": 2961,
      "09": 2962,
      "TV": 2963,
      "lost": 2964,
      "IS": 2965,
      "service": 2966,
      "promot": 2967,
      "pot": 2968,
      "spot": 2969,
      "writ": 2970,
      "chair": 2971,
      "sex": 2972,
      "performance": 2973,
      "needs": 2974,
      "Ran": 2975,
      "threat": 2976,
      "getting": 2977,
      "hot": 2978,
      "once": 2979,
      "range": 2980,
      "udget": 2981,
      "ollywood": 2982,
      "implement": 2983,
      "augh": 2984,
      "launch": 2985,
      "mob": 2986,
      "CA": 2987,
      "tell": 2988,
      "ude": 2989,
      "70": 2990,
      "recently": 2991,
      "travel": 2992,
      "Islam": 2993,
      "father": 2994,
      "Uttar": 2995,
      "detail": 2996,
      "vo": 2997,
      "Son": 2998,
      "charge": 2999,
      "rought": 3000,
      "tou": 3001,
      "regard": 3002,
      "continue": 3003,
      "full": 3004,
      "seven": 3005,
      "Gener": 3006,
      "foot": 3007,
      "farmers": 3008,
      "AI": 3009,
      "reme": 3010,
      "mocr": 3011,
      "shop": 3012,
      "trade": 3013,
      "08": 3014,
      "gress": 3015,
      "Bhar": 3016,
      "consu": 3017,
      "\".": 3018,
      "CP": 3019,
      "higher": 3020,
      "story": 3021,
      "depend": 3022,
      "release": 3023,
      "ittle": 3024,
      "claimed": 3025,
      "ories": 3026,
      "aging": 3027,
      "bad": 3028,
      "function": 3029,
      "vironment": 3030,
      "victim": 3031,
      "control": 3032,
      "aster": 3033,
      "ster": 3034,
      "treat": 3035,
      "region": 3036,
      "unt": 3037,
      "cil": 3038,
      "possible": 3039,
      "ji": 3040,
      "Day": 3041,
      "Secretary": 3042,
      "ones": 3043,
      "benef": 3044,
      "Supreme": 3045,
      "host": 3046,
      "stay": 3047,
      "loss": 3048,
      "hy": 3049,
      "break": 3050,
      "60": 3051,
      "fair": 3052,
      "ilities": 3053,
      "SC": 3054,
      "meas": 3055,
      "whether": 3056,
      "ically": 3057,
      "doing": 3058,
      "weet": 3059,
      "spect": 3060,
      "programme": 3061,
      "--": 3062,
      "Sar": 3063,
      "emer": 3064,
      "stat": 3065,
      "spir": 3066,
      "initi": 3067,
      "forces": 3068,
      "seats": 3069,
      "portun": 3070,
      "Central": 3071,
      "dict": 3072,
      "points": 3073,
      "relations": 3074,
      "course": 3075,
      "quality": 3076,
      "mass": 3077,
      "youth": 3078,
      "United": 3079,
      "gain": 3080,
      "ler": 3081,
      "ither": 3082,
      "Sy": 3083,
      "ML": 3084,
      "pract": 3085,
      "counter": 3086,
      "Assembly": 3087,
      "sist": 3088,
      "site": 3089,
      "pati": 3090,
      "sociation": 3091,
      "reed": 3092,
      "committee": 3093,
      "ees": 3094,
      "account": 3095,
      "live": 3096,
      "ably": 3097,
      "Srin": 3098,
      "might": 3099,
      "ners": 3100,
      "opportun": 3101,
      "These": 3102,
      "relig": 3103,
      "scre": 3104,
      "CM": 3105,
      "bor": 3106,
      "Eng": 3107,
      "General": 3108,
      "alli": 3109,
      "io": 3110,
      "ague": 3111,
      "heart": 3112,
      "entire": 3113,
      "izens": 3114,
      "ender": 3115,
      "officers": 3116,
      "sty": 3117,
      "BS": 3118,
      "concern": 3119,
      "exper": 3120,
      "Sal": 3121,
      "represent": 3122,
      "ps": 3123,
      "mult": 3124,
      "Bha": 3125,
      "dou": 3126,
      "feat": 3127,
      "2012": 3128,
      "behind": 3129,
      "dr": 3130,
      "mes": 3131,
      "projects": 3132,
      "super": 3133,
      "photo": 3134,
      "tempt": 3135,
      "ost": 3136,
      "DP": 3137,
      "economy": 3138,
      "House": 3139,
      "hur": 3140,
      "something": 3141,
      "Cup": 3142,
      "fav": 3143,
      "amoun": 3144,
      "adding": 3145,
      "cricket": 3146,
      "polls": 3147,
      "technology": 3148,
      "little": 3149,
      "word": 3150,
      "ards": 3151,
      "ention": 3152,
      "study": 3153,
      "Coun": 3154,
      "45": 3155,
      "kind": 3156,
      "dev": 3157,
      "risk": 3158,
      "Maharashtra": 3159,
      "lack": 3160,
      "cou": 3161,
      "nation": 3162,
      "stic": 3163,
      "prices": 3164,
      "ja": 3165,
      "custom": 3166,
      "banks": 3167,
      "esides": 3168,
      "deep": 3169,
      "Ali": 3170,
      "wel": 3171,
      "workers": 3172,
      "encies": 3173,
      "begin": 3174,
      "ahead": 3175,
      "Dec": 3176,
      "released": 3177,
      "ney": 3178,
      "Gujar": 3179,
      "Rahul": 3180,
      "central": 3181,
      "personal": 3182,
      "gam": 3183,
      "poor": 3184,
      "paren": 3185,
      "looking": 3186,
      "understand": 3187,
      "gg": 3188,
      "aur": 3189,
      "International": 3190,
      "works": 3191,
      "launched": 3192,
      "expect": 3193,
      "building": 3194,
      "bow": 3195,
      "07": 3196,
      "pain": 3197,
      "teach": 3198,
      "dead": 3199,
      "mitted": 3200,
      "quarter": 3201,
      "abl": 3202,
      "ada": 3203,
      "ffic": 3204,
      "lt": 3205,
      "His": 3206,
      "log": 3207,
      "single": 3208,
      "AN": 3209,
      "watch": 3210,
      "screen": 3211,
      "outside": 3212,
      "applic": 3213,
      "mother": 3214,
      "investment": 3215,
      "Brit": 3216,
      "authorities": 3217,
      "management": 3218,
      "enn": 3219,
      "sources": 3220,
      "dom": 3221,
      "check": 3222,
      "Kapoor": 3223,
      "lit": 3224,
      "ences": 3225,
      "execut": 3226,
      "AT": 3227,
      "App": 3228,
      "PTI": 3229,
      "date": 3230,
      "san": 3231,
      "ries": 3232,
      "accept": 3233,
      "resol": 3234,
      "approach": 3235,
      "Not": 3236,
      "adu": 3237,
      "asing": 3238,
      "sil": 3239,
      "divid": 3240,
      "batt": 3241,
      "music": 3242,
      "Shiv": 3243,
      "create": 3244,
      "block": 3245,
      "Do": 3246,
      "aper": 3247,
      "plann": 3248,
      "almost": 3249,
      "brought": 3250,
      "secretary": 3251,
      "wife": 3252,
      "persons": 3253,
      "500": 3254,
      "witter": 3255,
      "mom": 3256,
      "really": 3257,
      "session": 3258,
      "schools": 3259,
      "Euro": 3260,
      "endra": 3261,
      "IM": 3262,
      "Cr": 3263,
      "video": 3264,
      "problem": 3265,
      "mess": 3266,
      "Nov": 3267,
      "enter": 3268,
      "dam": 3269,
      "ery": 3270,
      "AR": 3271,
      "pat": 3272,
      "trying": 3273,
      "previous": 3274,
      "Med": 3275,
      "Ash": 3276,
      "Des": 3277,
      "van": 3278,
      "players": 3279,
      "Even": 3280,
      "wan": 3281,
      "worth": 3282,
      "aut": 3283,
      "ret": 3284,
      "uss": 3285,
      "sec": 3286,
      "aim": 3287,
      "chan": 3288,
      "shot": 3289,
      "reports": 3290,
      "raised": 3291,
      "immedi": 3292,
      "aka": 3293,
      "ify": 3294,
      "lower": 3295,
      "corpor": 3296,
      "reng": 3297,
      "establ": 3298,
      "80": 3299,
      "leading": 3300,
      "society": 3301,
      "brand": 3302,
      "directed": 3303,
      "Gujarat": 3304,
      "dle": 3305,
      "exist": 3306,
      "Dal": 3307,
      "hon": 3308,
      "Ho": 3309,
      "funds": 3310,
      "overnor": 3311,
      "Jun": 3312,
      "01": 3313,
      "pecially": 3314,
      "especially": 3315,
      "acqu": 3316,
      "Ph": 3317,
      "particular": 3318,
      "opt": 3319,
      "focus": 3320,
      "registered": 3321,
      "DAT": 3322,
      "avy": 3323,
      "informed": 3324,
      "venue": 3325,
      "serious": 3326,
      "spokes": 3327,
      "06": 3328,
      "resh": 3329,
      "forward": 3330,
      "Dev": 3331,
      "scheme": 3332,
      "impact": 3333,
      "review": 3334,
      "omb": 3335,
      "cred": 3336,
      "occas": 3337,
      "dest": 3338,
      "plans": 3339,
      "streng": 3340,
      "phas": 3341,
      "tele": 3342,
      "rights": 3343,
      "administration": 3344,
      "05": 3345,
      "Develop": 3346,
      "Sri": 3347,
      "Ear": 3348,
      "oud": 3349,
      "rug": 3350,
      "ring": 3351,
      "iding": 3352,
      "crim": 3353,
      "Ass": 3354,
      "dig": 3355,
      "Srinagar": 3356,
      "wide": 3357,
      "films": 3358,
      "IN": 3359,
      "civil": 3360,
      "adav": 3361,
      "Or": 3362,
      "ification": 3363,
      "Ke": 3364,
      "oil": 3365,
      "Now": 3366,
      "gen": 3367,
      "online": 3368,
      "edd": 3369,
      "filed": 3370,
      "inci": 3371,
      "ively": 3372,
      "stock": 3373,
      "town": 3374,
      "aware": 3375,
      "often": 3376,
      "Ministry": 3377,
      "construction": 3378,
      "appear": 3379,
      "Pre": 3380,
      "perform": 3381,
      "candidates": 3382,
      "DATED": 3383,
      "results": 3384,
      "access": 3385,
      "mur": 3386,
      "hol": 3387,
      "intro": 3388,
      "vt": 3389,
      "agree": 3390,
      "CE": 3391,
      "Jul": 3392,
      "Pri": 3393,
      "ficult": 3394,
      "related": 3395,
      "favour": 3396,
      "ove": 3397,
      "wanted": 3398,
      "history": 3399,
      "maintain": 3400,
      "cir": 3401,
      "Hary": 3402,
      "Sun": 3403,
      "Im": 3404,
      "percent": 3405,
      "enough": 3406,
      "angu": 3407,
      "difficult": 3408,
      "Board": 3409,
      "attempt": 3410,
      "Sw": 3411,
      "bul": 3412,
      "fici": 3413,
      "link": 3414,
      "suffer": 3415,
      "engine": 3416,
      "operation": 3417,
      "Justice": 3418,
      "hous": 3419,
      "popular": 3420,
      "model": 3421,
      "gave": 3422,
      "Haryana": 3423,
      "experience": 3424,
      "ier": 3425,
      "North": 3426,
      "Test": 3427,
      "charac": 3428,
      "Yadav": 3429,
      "environment": 3430,
      "categ": 3431,
      "School": 3432,
      "cra": 3433,
      "huge": 3434,
      "investigation": 3435,
      "mun": 3436,
      "Parliament": 3437,
      "anka": 3438,
      "constitu": 3439,
      "contest": 3440,
      "violence": 3441,
      "sets": 3442,
      "tit": 3443,
      "Serv": 3444,
      "ties": 3445,
      "ored": 3446,
      "medical": 3447,
      "imum": 3448,
      "makes": 3449,
      "politics": 3450,
      "atory": 3451,
      "Off": 3452,
      "anwhile": 3453,
      "Bal": 3454,
      "arri": 3455,
      "regular": 3456,
      "signific": 3457,
      "Sur": 3458,
      "join": 3459,
      "challeng": 3460,
      "fest": 3461,
      "border": 3462,
      "utions": 3463,
      "multi": 3464,
      "ane": 3465,
      "Europe": 3466,
      "products": 3467,
      "gold": 3468,
      "Oct": 3469,
      "despite": 3470,
      "frastructure": 3471,
      "Tri": 3472,
      "cise": 3473,
      "rise": 3474,
      "fast": 3475,
      "pict": 3476,
      "wicket": 3477,
      "eight": 3478,
      "recover": 3479,
      "ply": 3480,
      "Development": 3481,
      "died": 3482,
      "vey": 3483,
      "introdu": 3484,
      "loc": 3485,
      "reve": 3486,
      "smart": 3487,
      "Some": 3488,
      "traffic": 3489,
      "itting": 3490,
      "mobile": 3491,
      "aries": 3492,
      "buy": 3493,
      "Russ": 3494,
      "03": 3495,
      "vote": 3496,
      "track": 3497,
      "daugh": 3498,
      "cri": 3499,
      "oft": 3500,
      "”,": 3501,
      "isl": 3502,
      "doctor": 3503,
      "separ": 3504,
      "Ja": 3505,
      "Bihar": 3506,
      "playing": 3507,
      "witness": 3508,
      "pressure": 3509,
      "amount": 3510,
      "Chinese": 3511,
      "Colle": 3512,
      "request": 3513,
      "Ker": 3514,
      "Pal": 3515,
      "37": 3516,
      "Cap": 3517,
      "roup": 3518,
      "carry": 3519,
      "sequ": 3520,
      "Commit": 3521,
      "forts": 3522,
      "efforts": 3523,
      "04": 3524,
      "petition": 3525,
      "moved": 3526,
      "Nag": 3527,
      "provided": 3528,
      "turned": 3529,
      "ufact": 3530,
      "ni": 3531,
      "morning": 3532,
      "Committee": 3533,
      "dar": 3534,
      "improve": 3535,
      "commer": 3536,
      "Au": 3537,
      "parts": 3538,
      "contribut": 3539,
      "02": 3540,
      "ax": 3541,
      "Army": 3542,
      "problems": 3543,
      "commission": 3544,
      "36": 3545,
      "markets": 3546,
      "II": 3547,
      "rish": 3548,
      "sched": 3549,
      "ministry": 3550,
      "saf": 3551,
      "ceed": 3552,
      "Australia": 3553,
      "failed": 3554,
      "training": 3555,
      "Hy": 3556,
      "similar": 3557,
      "individ": 3558,
      "movement": 3559,
      "People": 3560,
      "ikh": 3561,
      "abin": 3562,
      "Afr": 3563,
      "Group": 3564,
      "mp": 3565,
      "respond": 3566,
      "ication": 3567,
      "aste": 3568,
      "Bollywood": 3569,
      "ption": 3570,
      "include": 3571,
      "basis": 3572,
      "bur": 3573,
      "talks": 3574,
      "ensive": 3575,
      "icip": 3576,
      "wait": 3577,
      "regul": 3578,
      "va": 3579,
      "docu": 3580,
      "forms": 3581,
      "cross": 3582,
      "ization": 3583,
      "CBI": 3584,
      "strict": 3585,
      "fare": 3586,
      "Ag": 3587,
      "production": 3588,
      "saw": 3589,
      "hya": 3590,
      "imate": 3591,
      "speak": 3592,
      "hest": 3593,
      "consider": 3594,
      "draw": 3595,
      "FI": 3596,
      "selves": 3597,
      "reli": 3598,
      "lives": 3599,
      "Pand": 3600,
      "32": 3601,
      "giving": 3602,
      "fit": 3603,
      "SS": 3604,
      "ony": 3605,
      "Di": 3606,
      "utes": 3607,
      "common": 3608,
      "Mir": 3609,
      "vert": 3610,
      "gi": 3611,
      "whose": 3612,
      "identified": 3613,
      "involved": 3614,
      "arh": 3615,
      "Nar": 3616,
      "Don": 3617,
      "terms": 3618,
      "plant": 3619,
      "inder": 3620,
      "inv": 3621,
      "Also": 3622,
      "web": 3623,
      "nder": 3624,
      "fell": 3625,
      "ible": 3626,
      "tweet": 3627,
      "plat": 3628,
      "response": 3629,
      "fill": 3630,
      "occasion": 3631,
      "explo": 3632,
      "gun": 3633,
      "vie": 3634,
      "pick": 3635,
      "nel": 3636,
      "Tamil": 3637,
      "income": 3638,
      "parents": 3639,
      "2011": 3640,
      "Spe": 3641,
      "individual": 3642,
      "ruption": 3643,
      "ee": 3644,
      "aland": 3645,
      "scen": 3646,
      "34": 3647,
      "murder": 3648,
      "itation": 3649,
      "stage": 3650,
      "style": 3651,
      "adem": 3652,
      "apan": 3653,
      "latest": 3654,
      "necess": 3655,
      "American": 3656,
      "Ste": 3657,
      "affe": 3658,
      "States": 3659,
      "followed": 3660,
      "believe": 3661,
      "biggest": 3662,
      "shows": 3663,
      "chairman": 3664,
      "cities": 3665,
      "During": 3666,
      "tic": 3667,
      "bench": 3668,
      "military": 3669,
      "cam": 3670,
      "cell": 3671,
      "Offic": 3672,
      "paid": 3673,
      "award": 3674,
      "cogn": 3675,
      "conducted": 3676,
      "auto": 3677,
      "clean": 3678,
      "budget": 3679,
      "birth": 3680,
      "lies": 3681,
      "omestic": 3682,
      "sibility": 3683,
      "activities": 3684,
      "allowed": 3685,
      "Afric": 3686,
      "largest": 3687,
      "cash": 3688,
      "employees": 3689,
      "Meanwhile": 3690,
      "Corpor": 3691,
      "cop": 3692,
      "fig": 3693,
      "manufact": 3694,
      "minor": 3695,
      "Muslims": 3696,
      "injured": 3697,
      "fully": 3698,
      "langu": 3699,
      "places": 3700,
      "himself": 3701,
      "vehicles": 3702,
      "East": 3703,
      "FC": 3704,
      "pris": 3705,
      "48": 3706,
      "nu": 3707,
      "conduct": 3708,
      "jee": 3709,
      "nothing": 3710,
      "black": 3711,
      "consum": 3712,
      "bag": 3713,
      "song": 3714,
      "mag": 3715,
      "shoot": 3716,
      "jan": 3717,
      "abinet": 3718,
      "sought": 3719,
      "means": 3720,
      "treatment": 3721,
      "anger": 3722,
      "prep": 3723,
      "ultural": 3724,
      "gets": 3725,
      "hra": 3726,
      "shared": 3727,
      "UN": 3728,
      "rail": 3729,
      "assembly": 3730,
      "stitute": 3731,
      "citizens": 3732,
      "33": 3733,
      "ager": 3734,
      "ena": 3735,
      "Council": 3736,
      "Li": 3737,
      "uni": 3738,
      "ero": 3739,
      "dem": 3740,
      "allegedly": 3741,
      "Japan": 3742,
      "peace": 3743,
      "nearly": 3744,
      "rap": 3745,
      "AD": 3746,
      "coach": 3747,
      "candidate": 3748,
      "supply": 3749,
      "became": 3750,
      "opposition": 3751,
      "Far": 3752,
      "Op": 3753,
      "beat": 3754,
      "Reg": 3755,
      "55": 3756,
      "ked": 3757,
      "ues": 3758,
      "increased": 3759,
      "prevent": 3760,
      "aver": 3761,
      "significant": 3762,
      "susp": 3763,
      "groups": 3764,
      "ician": 3765,
      "km": 3766,
      "served": 3767,
      "Kol": 3768,
      "Iran": 3769,
      "infrastructure": 3770,
      "erve": 3771,
      "Kh": 3772,
      "Karnat": 3773,
      "drug": 3774,
      "gone": 3775,
      "ba": 3776,
      "deliver": 3777,
      "leadership": 3778,
      "investors": 3779,
      "shift": 3780,
      "itself": 3781,
      "credit": 3782,
      "47": 3783,
      "joint": 3784,
      "letter": 3785,
      "garh": 3786,
      "sens": 3787,
      "sales": 3788,
      "concerned": 3789,
      "Karnataka": 3790,
      "complet": 3791,
      "centre": 3792,
      "believ": 3793,
      "ferred": 3794,
      "anim": 3795,
      "student": 3796,
      "Hindu": 3797,
      "potential": 3798,
      "ghan": 3799,
      "Twitter": 3800,
      "ize": 3801,
      "details": 3802,
      "More": 3803,
      "RE": 3804,
      "comb": 3805,
      "Amit": 3806,
      "ech": 3807,
      "assist": 3808,
      "path": 3809,
      "charges": 3810,
      "couple": 3811,
      "mention": 3812,
      "sw": 3813,
      "pack": 3814,
      "eder": 3815,
      "aya": 3816,
      "Express": 3817,
      "moder": 3818,
      "ampions": 3819,
      "domestic": 3820,
      "orig": 3821,
      "joy": 3822,
      "Add": 3823,
      "Kerala": 3824,
      "daughter": 3825,
      "push": 3826,
      "Can": 3827,
      "hood": 3828,
      "Sid": 3829,
      "recomm": 3830,
      "movie": 3831,
      "moment": 3832,
      "England": 3833,
      "Our": 3834,
      "din": 3835,
      "population": 3836,
      "igarh": 3837,
      "advis": 3838,
      "created": 3839,
      "enge": 3840,
      "lection": 3841,
      "pa": 3842,
      "agency": 3843,
      "Muk": 3844,
      "bill": 3845,
      "avi": 3846,
      "democr": 3847,
      "text": 3848,
      "Governor": 3849,
      "upta": 3850,
      "38": 3851,
      "oo": 3852,
      "Edu": 3853,
      "ators": 3854,
      "seat": 3855,
      "organised": 3856,
      "Commissioner": 3857,
      "AAP": 3858,
      "scri": 3859,
      "legisl": 3860,
      "atives": 3861,
      "relationship": 3862,
      "kid": 3863,
      "aug": 3864,
      "rates": 3865,
      "value": 3866,
      "male": 3867,
      "wants": 3868,
      "began": 3869,
      "usion": 3870,
      "kept": 3871,
      "idea": 3872,
      "stated": 3873,
      "fel": 3874,
      "either": 3875,
      "bid": 3876,
      "Rep": 3877,
      "prime": 3878,
      "craft": 3879,
      "dre": 3880,
      "rist": 3881,
      "rote": 3882,
      "revenue": 3883,
      "Health": 3884,
      "mean": 3885,
      "jun": 3886,
      "written": 3887,
      "soft": 3888,
      "mater": 3889,
      "above": 3890,
      "slow": 3891,
      "39": 3892,
      "cris": 3893,
      "energy": 3894,
      "bound": 3895,
      "49": 3896,
      "flow": 3897,
      "drive": 3898,
      "seeking": 3899,
      "ilt": 3900,
      "measures": 3901,
      "Road": 3902,
      "tle": 3903,
      "Fore": 3904,
      "passed": 3905,
      "unit": 3906,
      "takes": 3907,
      "propos": 3908,
      "stu": 3909,
      "rank": 3910,
      "reveal": 3911,
      "affected": 3912,
      "Asia": 3913,
      "required": 3914,
      "forest": 3915,
      "wrote": 3916,
      "spread": 3917,
      "pul": 3918,
      "rial": 3919,
      "aving": 3920,
      "evening": 3921,
      "yal": 3922,
      "districts": 3923,
      "jit": 3924,
      "coal": 3925,
      "Moham": 3926,
      "happy": 3927,
      "contract": 3928,
      "career": 3929,
      "RBI": 3930,
      "staff": 3931,
      "seems": 3932,
      "\",": 3933,
      "distribut": 3934,
      "currently": 3935,
      "ulla": 3936,
      "ayat": 3937,
      "ondon": 3938,
      "hib": 3939,
      "learn": 3940,
      "Vijay": 3941,
      "da": 3942,
      "insur": 3943,
      "thought": 3944,
      "ami": 3945,
      "Wr": 3946,
      "Face": 3947,
      "living": 3948,
      "Dist": 3949,
      "aily": 3950,
      "inste": 3951,
      "Az": 3952,
      "nar": 3953,
      "hope": 3954,
      "ert": 3955,
      "defin": 3956,
      "hus": 3957,
      "progress": 3958,
      "ita": 3959,
      "minutes": 3960,
      "bel": 3961,
      "198": 3962,
      "demon": 3963,
      "RC": 3964,
      "growing": 3965,
      "leave": 3966,
      "culture": 3967,
      "nings": 3968,
      "ighest": 3969,
      "conference": 3970,
      "fresh": 3971,
      "inside": 3972,
      "profess": 3973,
      "Dep": 3974,
      "reached": 3975,
      "Afghan": 3976,
      "status": 3977,
      "safe": 3978,
      "nom": 3979,
      "Association": 3980,
      "subject": 3981,
      "istic": 3982,
      "PC": 3983,
      "explain": 3984,
      "india": 3985,
      "friends": 3986,
      "proposed": 3987,
      "uel": 3988,
      "ades": 3989,
      "delay": 3990,
      "College": 3991,
      "graph": 3992,
      "bour": 3993,
      "raise": 3994,
      "tried": 3995,
      "Earlier": 3996,
      "probe": 3997,
      "highest": 3998,
      "hai": 3999,
      "Kore": 4000,
      "2010": 4001,
      "complaint": 4002,
      "urban": 4003,
      "els": 4004,
      "ald": 4005,
      "ping": 4006,
      "stake": 4007,
      "mig": 4008,
      "fear": 4009,
      "bey": 4010,
      "placed": 4011,
      "Ge": 4012,
      "ons": 4013,
      "Val": 4014,
      "inno": 4015,
      "declared": 4016,
      "NG": 4017,
      "ease": 4018,
      "journal": 4019,
      "alliance": 4020,
      "surpr": 4021,
      "Sub": 4022,
      "illi": 4023,
      "’.": 4024,
      "squ": 4025,
      "boy": 4026,
      "ather": 4027,
      "independ": 4028,
      "wer": 4029,
      "jail": 4030,
      "British": 4031,
      "Written": 4032,
      "Pan": 4033,
      "executive": 4034,
      "Ahmed": 4035,
      "Finance": 4036,
      "box": 4037,
      "omet": 4038,
      "holding": 4039,
      "extre": 4040,
      "bri": 4041,
      "conditions": 4042,
      "Bra": 4043,
      "hor": 4044,
      "quite": 4045,
      "indi": 4046,
      "rules": 4047,
      "goal": 4048,
      "rural": 4049,
      "families": 4050,
      "themselves": 4051,
      "Institute": 4052,
      "opal": 4053,
      "46": 4054,
      "uled": 4055,
      "2009": 4056,
      "ruling": 4057,
      "strike": 4058,
      "shares": 4059,
      "upon": 4060,
      "roads": 4061,
      "formation": 4062,
      "increasing": 4063,
      "quot": 4064,
      "ara": 4065,
      "GST": 4066,
      "wrong": 4067,
      "stor": 4068,
      "justice": 4069,
      "stain": 4070,
      "opportunity": 4071,
      "ff": 4072,
      "Education": 4073,
      "Fo": 4074,
      "defence": 4075,
      "sense": 4076,
      "partners": 4077,
      "Bangl": 4078,
      "generation": 4079,
      "90": 4080,
      "ashion": 4081,
      "achieve": 4082,
      "heavy": 4083,
      "worked": 4084,
      "Bab": 4085,
      "neigh": 4086,
      "Lo": 4087,
      "42": 4088,
      "votes": 4089,
      "From": 4090,
      "sports": 4091,
      "base": 4092,
      "DM": 4093,
      "adha": 4094,
      "ordin": 4095,
      "inde": 4096,
      "character": 4097,
      "cul": 4098,
      "operations": 4099,
      "goes": 4100,
      "City": 4101,
      "Bill": 4102,
      "Tel": 4103,
      "note": 4104,
      "positive": 4105,
      "vention": 4106,
      "aran": 4107,
      "levels": 4108,
      "ina": 4109,
      "iscal": 4110,
      "ently": 4111,
      "ousand": 4112,
      "xed": 4113,
      "omen": 4114,
      "pil": 4115,
      "Abd": 4116,
      "Gupta": 4117,
      "Nagar": 4118,
      "ots": 4119,
      "announce": 4120,
      "example": 4121,
      "tro": 4122,
      "rather": 4123,
      "rally": 4124,
      "icipal": 4125,
      "appeal": 4126,
      "Lal": 4127,
      "personnel": 4128,
      "verse": 4129,
      "rad": 4130,
      "Ger": 4131,
      "instead": 4132,
      "Koh": 4133,
      "wind": 4134,
      "religious": 4135,
      "analy": 4136,
      "DC": 4137,
      "Indians": 4138,
      "kata": 4139,
      "Vir": 4140,
      "ource": 4141,
      "Joh": 4142,
      "hands": 4143,
      "finance": 4144,
      "Facebook": 4145,
      "hom": 4146,
      "strugg": 4147,
      "asthan": 4148,
      "Tata": 4149,
      "presence": 4150,
      "Amb": 4151,
      "concl": 4152,
      "load": 4153,
      "argu": 4154,
      "lock": 4155,
      "London": 4156,
      "Car": 4157,
      "Ka": 4158,
      "igence": 4159,
      "appointed": 4160,
      "za": 4161,
      "expressed": 4162,
      "Corporation": 4163,
      "source": 4164,
      "needed": 4165,
      "material": 4166,
      "whole": 4167,
      "named": 4168,
      "exer": 4169,
      "content": 4170,
      "husband": 4171,
      "remains": 4172,
      "44": 4173,
      "Meh": 4174,
      "annual": 4175,
      "weak": 4176,
      "Since": 4177,
      "passeng": 4178,
      "War": 4179,
      "festival": 4180,
      "profit": 4181,
      "ware": 4182,
      "influ": 4183,
      "capac": 4184,
      "nine": 4185,
      "iment": 4186,
      "’,": 4187,
      "ming": 4188,
      "flight": 4189,
      "weeks": 4190,
      "Rel": 4191,
      "ets": 4192,
      "fiscal": 4193,
      "changed": 4194,
      "Sm": 4195,
      "judge": 4196,
      "brid": 4197,
      "winning": 4198,
      "estim": 4199,
      "Rajasthan": 4200,
      "stitution": 4201,
      "average": 4202,
      "Rail": 4203,
      "AS": 4204,
      "Super": 4205,
      "Sena": 4206,
      "Chandigarh": 4207,
      "section": 4208,
      "card": 4209,
      "changes": 4210,
      "75": 4211,
      "ork": 4212,
      "assu": 4213,
      "reedom": 4214,
      "flood": 4215,
      "majority": 4216,
      "electric": 4217,
      "Pras": 4218,
      "critic": 4219,
      "eful": 4220,
      "ded": 4221,
      "Kal": 4222,
      "Today": 4223,
      "interview": 4224,
      "maker": 4225,
      "require": 4226,
      "units": 4227,
      "grant": 4228,
      "compared": 4229,
      "prim": 4230,
      "Kolkata": 4231,
      "usu": 4232,
      "Deep": 4233,
      "hearing": 4234,
      "version": 4235,
      "Odis": 4236,
      "Comp": 4237,
      "iger": 4238,
      "CEO": 4239,
      "blood": 4240,
      "connect": 4241,
      "ika": 4242,
      "transport": 4243,
      "lip": 4244,
      "hat": 4245,
      "skill": 4246,
      "gas": 4247,
      "challenge": 4248,
      "additional": 4249,
      "princi": 4250,
      "cific": 4251,
      "Hyder": 4252,
      "lap": 4253,
      "etc": 4254,
      "cha": 4255,
      "users": 4256,
      "ini": 4257,
      "attacks": 4258,
      "hour": 4259,
      "prior": 4260,
      "ogle": 4261,
      "CR": 4262,
      "steps": 4263,
      "anything": 4264,
      "AG": 4265,
      "sale": 4266,
      "cup": 4267,
      "Two": 4268,
      "vind": 4269,
      "teachers": 4270,
      "const": 4271,
      "stress": 4272,
      "standing": 4273,
      "Kohli": 4274,
      "corruption": 4275,
      "lines": 4276,
      "56": 4277,
      "closed": 4278,
      "crisis": 4279,
      "Mun": 4280,
      "quick": 4281,
      "safety": 4282,
      "Chair": 4283,
      "Tha": 4284,
      "aik": 4285,
      "running": 4286,
      "instru": 4287,
      "victory": 4288,
      "illegal": 4289,
      "actions": 4290,
      "EC": 4291,
      "ense": 4292,
      "Sim": 4293,
      "hab": 4294,
      "recogn": 4295,
      "Chenn": 4296,
      "Po": 4297,
      "Ban": 4298,
      "PS": 4299,
      "constituency": 4300,
      "opening": 4301,
      "Rao": 4302,
      "phys": 4303,
      "Pakistani": 4304,
      "speech": 4305,
      "preci": 4306,
      "Pune": 4307,
      "discussion": 4308,
      "continued": 4309,
      "questions": 4310,
      "showed": 4311,
      "Google": 4312,
      "competition": 4313,
      "until": 4314,
      "fish": 4315,
      "calls": 4316,
      "institutions": 4317,
      "Gur": 4318,
      "Christ": 4319,
      "God": 4320,
      "trend": 4321,
      "Pate": 4322,
      "deter": 4323,
      "trust": 4324,
      "daily": 4325,
      "establish": 4326,
      "marks": 4327,
      "lu": 4328,
      "Her": 4329,
      "tegr": 4330,
      "Odisha": 4331,
      "umbers": 4332,
      "Asian": 4333,
      "comment": 4334,
      "Comment": 4335,
      "lay": 4336,
      "Mic": 4337,
      "Indust": 4338,
      "mony": 4339,
      "alter": 4340,
      "Hospital": 4341,
      "Hyderabad": 4342,
      "Gr": 4343,
      "debt": 4344,
      "jobs": 4345,
      "Dis": 4346,
      "specific": 4347,
      "UK": 4348,
      "Pad": 4349,
      "Sports": 4350,
      "rich": 4351,
      "necessary": 4352,
      "itch": 4353,
      "District": 4354,
      "exercise": 4355,
      "agric": 4356,
      "DI": 4357,
      "Ay": 4358,
      "bab": 4359,
      "claims": 4360,
      "ira": 4361,
      "stream": 4362,
      "Chennai": 4363,
      "sustain": 4364,
      "Bengaluru": 4365,
      "facilities": 4366,
      "Ob": 4367,
      "avo": 4368,
      "speed": 4369,
      "Che": 4370,
      "forced": 4371,
      "ora": 4372,
      "58": 4373,
      "thr": 4374,
      "99": 4375,
      "army": 4376,
      "chance": 4377,
      "Mark": 4378,
      "accident": 4379,
      "ledge": 4380,
      "considered": 4381,
      "collection": 4382,
      "girls": 4383,
      "ema": 4384,
      "everyone": 4385,
      "indic": 4386,
      "Techn": 4387,
      "natural": 4388,
      "Africa": 4389,
      "ivity": 4390,
      "ki": 4391,
      "immediately": 4392,
      "protect": 4393,
      "message": 4394,
      "exchange": 4395,
      "residents": 4396,
      "undred": 4397,
      "57": 4398,
      "51": 4399,
      "thus": 4400,
      "Sci": 4401,
      "benefit": 4402,
      "normal": 4403,
      "Bangladesh": 4404,
      "numbers": 4405,
      "43": 4406,
      "Under": 4407,
      "Deputy": 4408,
      "teams": 4409,
      "posted": 4410,
      "earch": 4411,
      "gather": 4412,
      "NE": 4413,
      "capacity": 4414,
      "politician": 4415,
      "voice": 4416,
      "rule": 4417,
      "captain": 4418,
      "Bad": 4419,
      "easy": 4420,
      "Mand": 4421,
      "League": 4422,
      "depart": 4423,
      "Kam": 4424,
      "abs": 4425,
      "vehicle": 4426,
      "makers": 4427,
      "Though": 4428,
      "strate": 4429,
      "52": 4430,
      "Patel": 4431,
      "bat": 4432,
      "ju": 4433,
      "Met": 4434,
      "helped": 4435,
      "icide": 4436,
      "Bharat": 4437,
      "included": 4438,
      "joined": 4439,
      "associ": 4440,
      "patients": 4441,
      "grand": 4442,
      ",": 4443,
      "true": 4444,
      "object": 4445,
      "houses": 4446,
      "descri": 4447,
      "inaug": 4448,
      "notice": 4449,
      "Das": 4450,
      "commercial": 4451,
      "corporate": 4452,
      "opened": 4453,
      "contro": 4454,
      "MLA": 4455,
      "Assam": 4456,
      "Opposition": 4457,
      "SR": 4458,
      "glish": 4459,
      "pun": 4460,
      "platform": 4461,
      "providing": 4462,
      "John": 4463,
      "English": 4464,
      "college": 4465,
      "villages": 4466,
      "evidence": 4467,
      "sle": 4468,
      "brother": 4469,
      "Apple": 4470,
      "controvers": 4471,
      "encour": 4472,
      "battle": 4473,
      "install": 4474,
      "middle": 4475,
      "Besides": 4476,
      "mil": 4477,
      "rael": 4478,
      "carried": 4479,
      "built": 4480,
      "nath": 4481,
      "repor": 4482,
      "fine": 4483,
      "language": 4484,
      "chann": 4485,
      "happened": 4486,
      "Ur": 4487,
      "Israel": 4488,
      "purch": 4489,
      "everything": 4490,
      "green": 4491,
      "thousand": 4492,
      "awa": 4493,
      "41": 4494,
      "ape": 4495,
      "temple": 4496,
      "attention": 4497,
      "Per": 4498,
      "Prof": 4499,
      "smo": 4500,
      "ford": 4501,
      "pace": 4502,
      "thank": 4503,
      "touch": 4504,
      "Arun": 4505,
      "modern": 4506,
      "anda": 4507,
      "facing": 4508,
      "gment": 4509,
      "aman": 4510,
      "wish": 4511,
      "print": 4512,
      "fee": 4513,
      "Invest": 4514,
      "tourn": 4515,
      "tournament": 4516,
      "crime": 4517,
      "rape": 4518,
      "phones": 4519,
      "ott": 4520,
      "remained": 4521,
      "protests": 4522,
      "bing": 4523,
      "histor": 4524,
      "reasons": 4525,
      "completed": 4526,
      "pie": 4527,
      "west": 4528,
      "killing": 4529,
      "resign": 4530,
      "amb": 4531,
      "Last": 4532,
      "customers": 4533,
      "digital": 4534,
      "Jag": 4535,
      "planning": 4536,
      "freedom": 4537,
      "ington": 4538,
      "initial": 4539,
      "uries": 4540,
      "assets": 4541,
      "Krish": 4542,
      "2008": 4543,
      "faced": 4544,
      "wise": 4545,
      "scient": 4546,
      "Port": 4547,
      "voters": 4548,
      "developed": 4549,
      "setting": 4550,
      "repe": 4551,
      "active": 4552,
      "JD": 4553,
      "Ben": 4554,
      "tension": 4555,
      "white": 4556,
      "Him": 4557,
      "59": 4558,
      "broad": 4559,
      "jri": 4560,
      "fourth": 4561,
      "alone": 4562,
      "AC": 4563,
      "scheduled": 4564,
      "else": 4565,
      "paper": 4566,
      "educ": 4567,
      "bodies": 4568,
      "managed": 4569,
      "cum": 4570,
      "felt": 4571,
      "ministers": 4572,
      "raj": 4573,
      "employment": 4574,
      "York": 4575,
      "ureau": 4576,
      "retail": 4577,
      "loan": 4578,
      "events": 4579,
      "words": 4580,
      "cin": 4581,
      "ticket": 4582,
      "gency": 4583,
      "schemes": 4584,
      "khand": 4585,
      "demanded": 4586,
      "crow": 4587,
      "govern": 4588,
      "vice": 4589,
      "flag": 4590,
      "orders": 4591,
      "strateg": 4592,
      "doctors": 4593,
      "limited": 4594,
      "Hindi": 4595,
      "upcoming": 4596,
      "Kejri": 4597,
      "Every": 4598,
      "resolution": 4599,
      "relief": 4600,
      "actress": 4601,
      "Over": 4602,
      "54": 4603,
      "existing": 4604,
      "agreement": 4605,
      "riage": 4606,
      "MS": 4607,
      "ken": 4608,
      "double": 4609,
      "picture": 4610,
      "Many": 4611,
      "feature": 4612,
      "image": 4613,
      "Kejriwal": 4614,
      "suit": 4615,
      "harm": 4616,
      "belong": 4617,
      "Jhar": 4618,
      "memor": 4619,
      "visited": 4620,
      "examination": 4621,
      "agencies": 4622,
      "mach": 4623,
      "table": 4624,
      "mint": 4625,
      "ix": 4626,
      "labour": 4627,
      "lied": 4628,
      "spec": 4629,
      "anth": 4630,
      "phy": 4631,
      "Research": 4632,
      "committed": 4633,
      "property": 4634,
      "Russia": 4635,
      "quir": 4636,
      "Prasad": 4637,
      "Jay": 4638,
      "enjoy": 4639,
      "dol": 4640,
      "liqu": 4641,
      "Arab": 4642,
      "fle": 4643,
      "itude": 4644,
      "Pa": 4645,
      "responsible": 4646,
      "integr": 4647,
      "decades": 4648,
      "Nadu": 4649,
      "53": 4650,
      "looks": 4651,
      "reduce": 4652,
      "recorded": 4653,
      "View": 4654,
      "rum": 4655,
      "traditional": 4656,
      "fans": 4657,
      "quarters": 4658,
      "Janata": 4659,
      "miss": 4660,
      "mist": 4661,
      "shall": 4662,
      "alore": 4663,
      "highlight": 4664,
      "surv": 4665,
      "Bus": 4666,
      "offered": 4667,
      "dream": 4668,
      "cere": 4669,
      "Here": 4670,
      "ources": 4671,
      "Both": 4672,
      "walk": 4673,
      "stood": 4674,
      "boost": 4675,
      "lic": 4676,
      "native": 4677,
      "Net": 4678,
      "thern": 4679,
      "attract": 4680,
      "someone": 4681,
      "keeping": 4682,
      "usive": 4683,
      "margin": 4684,
      "investig": 4685,
      "proposal": 4686,
      "extra": 4687,
      "sound": 4688,
      "Madhya": 4689,
      "industrial": 4690,
      "BC": 4691,
      "vac": 4692,
      "minute": 4693,
      "nuclear": 4694,
      "solid": 4695,
      "duty": 4696,
      "option": 4697,
      "Public": 4698,
      "ples": 4699,
      "restrict": 4700,
      "fan": 4701,
      "display": 4702,
      "attend": 4703,
      "Cricket": 4704,
      "loans": 4705,
      "Mot": 4706,
      "revealed": 4707,
      "headed": 4708,
      "lawy": 4709,
      "audience": 4710,
      "uters": 4711,
      "lin": 4712,
      "disput": 4713,
      "fashion": 4714,
      "Author": 4715,
      "domin": 4716,
      "names": 4717,
      "beyond": 4718,
      "regarding": 4719,
      "rival": 4720,
      "Constitution": 4721,
      "Rai": 4722,
      "labor": 4723,
      "airport": 4724,
      "Dha": 4725,
      "neg": 4726,
      "Tal": 4727,
      "Most": 4728,
      "river": 4729,
      "missing": 4730,
      "Why": 4731,
      "player": 4732,
      "website": 4733,
      "particularly": 4734,
      "extreme": 4735,
      "Wash": 4736,
      "burn": 4737,
      "DE": 4738,
      "updated": 4739,
      "Cont": 4740,
      "Econom": 4741,
      "Gre": 4742,
      "books": 4743,
      "successful": 4744,
      "category": 4745,
      "Sanjay": 4746,
      "max": 4747,
      "300": 4748,
      "reporters": 4749,
      "thi": 4750,
      "urged": 4751,
      "club": 4752,
      "spirit": 4753,
      "HI": 4754,
      "pray": 4755,
      "instance": 4756,
      "affair": 4757,
      "weight": 4758,
      "pping": 4759,
      "rising": 4760,
      "European": 4761,
      "hundred": 4762,
      "century": 4763,
      "sou": 4764,
      "drink": 4765,
      "uses": 4766,
      "criminal": 4767,
      "throw": 4768,
      "Donald": 4769,
      "rative": 4770,
      "serve": 4771,
      "Ti": 4772,
      "drop": 4773,
      "lift": 4774,
      "actually": 4775,
      "jected": 4776,
      "amid": 4777,
      "Fir": 4778,
      "sold": 4779,
      "confidence": 4780,
      "finally": 4781,
      "ension": 4782,
      "Pur": 4783,
      "besides": 4784,
      "partner": 4785,
      "laws": 4786,
      "terrorism": 4787,
      "effort": 4788,
      "assa": 4789,
      "iff": 4790,
      "phase": 4791,
      "panel": 4792,
      "Women": 4793,
      "manner": 4794,
      "dram": 4795,
      "oing": 4796,
      "judic": 4797,
      "stone": 4798,
      "suicide": 4799,
      "pair": 4800,
      "rs": 4801,
      "ker": 4802,
      "agers": 4803,
      "holders": 4804,
      "core": 4805,
      "stag": 4806,
      "spent": 4807,
      "spokesperson": 4808,
      "Def": 4809,
      "aud": 4810,
      "subsid": 4811,
      "discuss": 4812,
      "Washington": 4813,
      "accounts": 4814,
      "born": 4815,
      "oj": 4816,
      "appointment": 4817,
      "victims": 4818,
      "Mish": 4819,
      "ule": 4820,
      "fam": 4821,
      "recommend": 4822,
      "debut": 4823,
      "benefits": 4824,
      "Another": 4825,
      "nature": 4826,
      "elected": 4827,
      "responsibility": 4828,
      "sea": 4829,
      "moving": 4830,
      "strategy": 4831,
      "rev": 4832,
      "temper": 4833,
      "experts": 4834,
      "Bag": 4835,
      "dance": 4836,
      "Chairman": 4837,
      "Afghanistan": 4838,
      "independent": 4839,
      "Akh": 4840,
      "apart": 4841,
      "camera": 4842,
      "shar": 4843,
      "application": 4844,
      "looked": 4845,
      "attended": 4846,
      "rush": 4847,
      "demands": 4848,
      "BSE": 4849,
      "aji": 4850,
      "haps": 4851,
      "contact": 4852,
      "title": 4853,
      "submitted": 4854,
      "Dar": 4855,
      "premi": 4856,
      "formed": 4857,
      "network": 4858,
      "Jharkhand": 4859,
      "concerns": 4860,
      "inion": 4861,
      "ened": 4862,
      "guest": 4863,
      "impress": 4864,
      "unch": 4865,
      "door": 4866,
      "massive": 4867,
      "practice": 4868,
      "Div": 4869,
      "fortun": 4870,
      "fly": 4871,
      "ullah": 4872,
      "task": 4873,
      "science": 4874,
      "separate": 4875,
      "implementation": 4876,
      "tly": 4877,
      "lad": 4878,
      "militants": 4879,
      "AL": 4880,
      "offers": 4881,
      "panch": 4882,
      "emot": 4883,
      "ances": 4884,
      "connection": 4885,
      "Power": 4886,
      "ukh": 4887,
      "spoke": 4888,
      "Ze": 4889,
      "iving": 4890,
      "gives": 4891,
      "deput": 4892,
      "kg": 4893,
      "location": 4894,
      "Nit": 4895,
      "ula": 4896,
      "command": 4897,
      "Em": 4898,
      "collect": 4899,
      "prepared": 4900,
      "ght": 4901,
      "survey": 4902,
      "lal": 4903,
      "depos": 4904,
      "ises": 4905,
      "comfort": 4906,
      "stra": 4907,
      "ayan": 4908,
      "effective": 4909,
      "bond": 4910,
      "strength": 4911,
      "hatt": 4912,
      "selling": 4913,
      "shut": 4914,
      "pir": 4915,
      "regional": 4916,
      "firms": 4917,
      "AF": 4918,
      "Yog": 4919,
      "creating": 4920,
      "talent": 4921,
      "sat": 4922,
      "dial": 4923,
      "Gang": 4924,
      "south": 4925,
      "expand": 4926,
      "games": 4927,
      "ening": 4928,
      "rat": 4929,
      "Amar": 4930,
      "Salman": 4931,
      "Panch": 4932,
      "covered": 4933,
      "Ver": 4934,
      "dress": 4935,
      "conven": 4936,
      "multiple": 4937,
      "journey": 4938,
      "Vik": 4939,
      "prob": 4940,
      "located": 4941,
      "wall": 4942,
      "Ed": 4943,
      "except": 4944,
      "lands": 4945,
      "comed": 4946,
      "eye": 4947,
      "Sin": 4948,
      "rench": 4949,
      "gent": 4950,
      "iance": 4951,
      "ium": 4952,
      "contain": 4953,
      "insurance": 4954,
      "ongoing": 4955,
      "allegations": 4956,
      "bann": 4957,
      "wond": 4958,
      "deploy": 4959,
      "liter": 4960,
      "Photo": 4961,
      "longer": 4962,
      "lymp": 4963,
      "197": 4964,
      "Mishra": 4965,
      "scored": 4966,
      "approved": 4967,
      "waste": 4968,
      "ogue": 4969,
      "atre": 4970,
      "respectively": 4971,
      "decide": 4972,
      "marriage": 4973,
      "venture": 4974,
      "features": 4975,
      "balance": 4976,
      "ume": 4977,
      "proceed": 4978,
      "plea": 4979,
      "arm": 4980,
      "wire": 4981,
      "Qu": 4982,
      "matches": 4983,
      "cert": 4984,
      "ankar": 4985,
      "valu": 4986,
      "talking": 4987,
      "acting": 4988,
      "eddy": 4989,
      "Vid": 4990,
      "holds": 4991,
      "remember": 4992,
      "awareness": 4993,
      "Olymp": 4994,
      "angana": 4995,
      "gri": 4996,
      "FIR": 4997,
      "inaugur": 4998,
      "sport": 4999,
      "gang": 5000,
      "proval": 5001,
      "astic": 5002,
      "gree": 5003,
      "stead": 5004,
      "PF": 5005,
      "Fil": 5006,
      "bail": 5007,
      "complex": 5008,
      "Dav": 5009,
      "inent": 5010,
      "agreed": 5011,
      "rog": 5012,
      "plom": 5013,
      "organisation": 5014,
      "basic": 5015,
      "scale": 5016,
      "constitution": 5017,
      "academ": 5018,
      "purpose": 5019,
      "tor": 5020,
      "consult": 5021,
      "lected": 5022,
      "signed": 5023,
      "rose": 5024,
      "yan": 5025,
      "ancell": 5026,
      "adium": 5027,
      "Champions": 5028,
      "Ve": 5029,
      "apur": 5030,
      "Ahmad": 5031,
      "Services": 5032,
      "tough": 5033,
      "RI": 5034,
      "Ba": 5035,
      "Band": 5036,
      "NC": 5037,
      "Stud": 5038,
      "organis": 5039,
      "inflation": 5040,
      "costs": 5041,
      "arrange": 5042,
      "Security": 5043,
      "Special": 5044,
      "rob": 5045,
      "flict": 5046,
      "approval": 5047,
      "convict": 5048,
      "missed": 5049,
      "owners": 5050,
      "religion": 5051,
      "Ter": 5052,
      "QU": 5053,
      "asking": 5054,
      "thers": 5055,
      "Guru": 5056,
      "Bas": 5057,
      "Mem": 5058,
      "pon": 5059,
      "tradition": 5060,
      "appeared": 5061,
      "Gul": 5062,
      "published": 5063,
      "payment": 5064,
      "Park": 5065,
      "offering": 5066,
      "save": 5067,
      "Affair": 5068,
      "Affairs": 5069,
      "Nir": 5070,
      "policies": 5071,
      "equity": 5072,
      "cancer": 5073,
      "knowledge": 5074,
      "Hum": 5075,
      "arian": 5076,
      "prepar": 5077,
      "fuel": 5078,
      "lok": 5079,
      "below": 5080,
      "Medical": 5081,
      "monitor": 5082,
      "avoid": 5083,
      "lod": 5084,
      "parliament": 5085,
      "continues": 5086,
      "anyone": 5087,
      "GB": 5088,
      "includes": 5089,
      "firmed": 5090,
      "sexual": 5091,
      "regime": 5092,
      "grad": 5093,
      "damage": 5094,
      "edding": 5095,
      "Service": 5096,
      "inch": 5097,
      "Bharati": 5098,
      "ars": 5099,
      "heard": 5100,
      "colleg": 5101,
      "tw": 5102,
      "overall": 5103,
      "wear": 5104,
      "neighbour": 5105,
      "atra": 5106,
      "rock": 5107,
      "First": 5108,
      "innov": 5109,
      "Business": 5110,
      "shock": 5111,
      "Jai": 5112,
      "completely": 5113,
      "size": 5114,
      "ida": 5115,
      "mod": 5116,
      "ray": 5117,
      "dollar": 5118,
      "resources": 5119,
      "unique": 5120,
      "intell": 5121,
      "addition": 5122,
      "rang": 5123,
      "critical": 5124,
      "Paris": 5125,
      "gaon": 5126,
      "Islamic": 5127,
      "Cabinet": 5128,
      "65": 5129,
      "rupe": 5130,
      "writing": 5131,
      "Roy": 5132,
      "Feder": 5133,
      "visions": 5134,
      "consist": 5135,
      "assess": 5136,
      "Source": 5137,
      "mut": 5138,
      "capt": 5139,
      "tempor": 5140,
      "Mas": 5141,
      "choice": 5142,
      "goti": 5143,
      "reality": 5144,
      "debate": 5145,
      "disease": 5146,
      "voc": 5147,
      "introduced": 5148,
      "documents": 5149,
      "guid": 5150,
      "trial": 5151,
      "danger": 5152,
      "iya": 5153,
      "trou": 5154,
      "wing": 5155,
      "iss": 5156,
      "tty": 5157,
      "residence": 5158,
      "affect": 5159,
      "produced": 5160,
      "ER": 5161,
      "Priy": 5162,
      "zen": 5163,
      "kh": 5164,
      "America": 5165,
      "driver": 5166,
      "ester": 5167,
      "Bomb": 5168,
      "Capital": 5169,
      "Democr": 5170,
      "football": 5171,
      "Officer": 5172,
      "founder": 5173,
      "Gam": 5174,
      "mentioned": 5175,
      "ites": 5176,
      "ny": 5177,
      "speaking": 5178,
      "eth": 5179,
      "Zealand": 5180,
      "dog": 5181,
      "initiative": 5182,
      "(@": 5183,
      "confirmed": 5184,
      "weap": 5185,
      "maximum": 5186,
      "ient": 5187,
      "Krishna": 5188,
      "dy": 5189,
      "concept": 5190,
      "shown": 5191,
      "Sikh": 5192,
      "Valley": 5193,
      "hang": 5194,
      "learning": 5195,
      "mic": 5196,
      "north": 5197,
      "enced": 5198,
      "hero": 5199,
      "zon": 5200,
      "rant": 5201,
      "isgarh": 5202,
      "Saudi": 5203,
      "Red": 5204,
      "400": 5205,
      "wickets": 5206,
      "Class": 5207,
      "ns": 5208,
      "handed": 5209,
      "colour": 5210,
      "east": 5211,
      "ficient": 5212,
      "Korea": 5213,
      "uth": 5214,
      "caused": 5215,
      "caste": 5216,
      "endent": 5217,
      "ucknow": 5218,
      "opinion": 5219,
      "cultural": 5220,
      "spokesman": 5221,
      "tained": 5222,
      "programmes": 5223,
      "protection": 5224,
      "Andhra": 5225,
      "refer": 5226,
      "pollution": 5227,
      "excl": 5228,
      "sides": 5229,
      "owned": 5230,
      "nagar": 5231,
      "Na": 5232,
      "clash": 5233,
      "bra": 5234,
      "Phone": 5235,
      "essential": 5236,
      "university": 5237,
      "Mor": 5238,
      "edge": 5239,
      "importance": 5240,
      "defeat": 5241,
      "El": 5242,
      "zz": 5243,
      "democracy": 5244,
      "association": 5245,
      "produce": 5246,
      "ordered": 5247,
      "inspe": 5248,
      "Neh": 5249,
      "advert": 5250,
      "meant": 5251,
      "Right": 5252,
      "respective": 5253,
      "Trans": 5254,
      "score": 5255,
      "beaut": 5256,
      "negoti": 5257,
      "refused": 5258,
      "oring": 5259,
      "Govt": 5260,
      "deleg": 5261,
      "presented": 5262,
      "perfect": 5263,
      "Glo": 5264,
      "brief": 5265,
      "kur": 5266,
      "Rajya": 5267,
      "degree": 5268,
      "solution": 5269,
      "defe": 5270,
      "female": 5271,
      "ancy": 5272,
      "Former": 5273,
      "famous": 5274,
      "Company": 5275,
      "quiry": 5276,
      "entry": 5277,
      "starting": 5278,
      "aircraft": 5279,
      "Sand": 5280,
      "thousands": 5281,
      "becoming": 5282,
      "floor": 5283,
      "iter": 5284,
      "Shri": 5285,
      "trig": 5286,
      "evol": 5287,
      "French": 5288,
      "Sou": 5289,
      "iful": 5290,
      "count": 5291,
      "Chhatt": 5292,
      "planned": 5293,
      "Cit": 5294,
      "diplom": 5295,
      "Var": 5296,
      "rect": 5297,
      "ternal": 5298,
      "wedding": 5299,
      "elector": 5300,
      "incidents": 5301,
      "Sum": 5302,
      "directly": 5303,
      "activity": 5304,
      "Char": 5305,
      "answer": 5306,
      "guard": 5307,
      "stories": 5308,
      "admitted": 5309,
      "akash": 5310,
      "moun": 5311,
      "ov": 5312,
      "crowd": 5313,
      "tweeted": 5314,
      "ceremony": 5315,
      "ope": 5316,
      "noted": 5317,
      "settle": 5318,
      "challenges": 5319,
      "goods": 5320,
      "railway": 5321,
      "sort": 5322,
      "Speaking": 5323,
      "decade": 5324,
      "ICC": 5325,
      "predict": 5326,
      "minimum": 5327,
      "cars": 5328,
      "manufacturing": 5329,
      "carrying": 5330,
      "writer": 5331,
      "rains": 5332,
      "Section": 5333,
      "penal": 5334,
      "ON": 5335,
      "RSS": 5336,
      "Vish": 5337,
      "fif": 5338,
      "HC": 5339,
      "Ud": 5340,
      "stations": 5341,
      "colleges": 5342,
      "acher": 5343,
      "indra": 5344,
      "eper": 5345,
      "ela": 5346,
      "raising": 5347,
      "conflict": 5348,
      "file": 5349,
      "beginning": 5350,
      "rupt": 5351,
      "Chhattisgarh": 5352,
      "opportunities": 5353,
      "ensation": 5354,
      "rating": 5355,
      "Open": 5356,
      "shooting": 5357,
      "doub": 5358,
      "document": 5359,
      "aker": 5360,
      "CCI": 5361,
      "caught": 5362,
      "Ven": 5363,
      "beha": 5364,
      "Big": 5365,
      "Anand": 5366,
      "ugh": 5367,
      "Jait": 5368,
      "consumer": 5369,
      "GP": 5370,
      "Bombay": 5371,
      "Maha": 5372,
      "whom": 5373,
      "Kul": 5374,
      "rolled": 5375,
      "temperature": 5376,
      "analyst": 5377,
      "anna": 5378,
      "ological": 5379,
      "fighting": 5380,
      "Chandra": 5381,
      "stars": 5382,
      "Tour": 5383,
      "ij": 5384,
      "orters": 5385,
      "aspect": 5386,
      "announcement": 5387,
      "shan": 5388,
      "appreci": 5389,
      "edition": 5390,
      "secut": 5391,
      "bomb": 5392,
      "leaving": 5393,
      "immediate": 5394,
      "scam": 5395,
      "denied": 5396,
      "wealth": 5397,
      "uter": 5398,
      "banking": 5399,
      "simple": 5400,
      "iled": 5401,
      "apers": 5402,
      "mental": 5403,
      "Paw": 5404,
      "Force": 5405,
      "assured": 5406,
      "MLAs": 5407,
      "race": 5408,
      "pic": 5409,
      "passengers": 5410,
      "spend": 5411,
      "IPL": 5412,
      "soldi": 5413,
      "reserv": 5414,
      "direction": 5415,
      "ticle": 5416,
      "elines": 5417,
      "ull": 5418,
      "bringing": 5419,
      "Despite": 5420,
      "tack": 5421,
      "promote": 5422,
      "Bangalore": 5423,
      "transfer": 5424,
      "Then": 5425,
      "gap": 5426,
      "Article": 5427,
      "bridge": 5428,
      "iture": 5429,
      "Tra": 5430,
      "Jaitley": 5431,
      "Syri": 5432,
      "nav": 5433,
      "discussed": 5434,
      "Inc": 5435,
      "Mohammad": 5436,
      "item": 5437,
      "rout": 5438,
      "ends": 5439,
      "sus": 5440,
      "RO": 5441,
      "celebrate": 5442,
      "sight": 5443,
      "sitting": 5444,
      "advant": 5445,
      "iced": 5446,
      "powerful": 5447,
      "via": 5448,
      "IJ": 5449,
      "original": 5450,
      "skills": 5451,
      "Election": 5452,
      "operating": 5453,
      "esterday": 5454,
      "occup": 5455,
      "Rash": 5456,
      "prison": 5457,
      "actors": 5458,
      "investments": 5459,
      "stopped": 5460,
      "suggested": 5461,
      "Other": 5462,
      "seed": 5463,
      "anc": 5464,
      "France": 5465,
      "nut": 5466,
      "Bu": 5467,
      "extended": 5468,
      "akhand": 5469,
      "urch": 5470,
      "returned": 5471,
      "CS": 5472,
      "plays": 5473,
      "PNS": 5474,
      "chol": 5475,
      "spin": 5476,
      "weather": 5477,
      "centres": 5478,
      "physical": 5479,
      "xy": 5480,
      "institution": 5481,
      "umn": 5482,
      "Organ": 5483,
      "cited": 5484,
      "Management": 5485,
      "ison": 5486,
      "assault": 5487,
      "Gold": 5488,
      "sn": 5489,
      "delivery": 5490,
      "arily": 5491,
      "crack": 5492,
      "Republic": 5493,
      "demanding": 5494,
      "medic": 5495,
      "hibition": 5496,
      "Lanka": 5497,
      "Ama": 5498,
      "uted": 5499,
      "tran": 5500,
      "uded": 5501,
      "Authority": 5502,
      "fat": 5503,
      "thod": 5504,
      "established": 5505,
      "estimated": 5506,
      "teen": 5507,
      "Budget": 5508,
      "Read": 5509,
      "stagram": 5510,
      "Instagram": 5511,
      "crucial": 5512,
      "Bud": 5513,
      "professional": 5514,
      "Senior": 5515,
      "raid": 5516,
      "Nep": 5517,
      "store": 5518,
      "witnessed": 5519,
      "healthy": 5520,
      "recru": 5521,
      "T20": 5522,
      "appropri": 5523,
      "cel": 5524,
      "ua": 5525,
      "married": 5526,
      "achiev": 5527,
      "blast": 5528,
      "Priyanka": 5529,
      "deputy": 5530,
      "severe": 5531,
      "ilater": 5532,
      "ilateral": 5533,
      "recovered": 5534,
      "erjee": 5535,
      "Sinha": 5536,
      "sib": 5537,
      "Tur": 5538,
      "endment": 5539,
      "prove": 5540,
      "achal": 5541,
      "eyes": 5542,
      "Uttarakhand": 5543,
      "enda": 5544,
      "television": 5545,
      "Times": 5546,
      "Bhatt": 5547,
      "ME": 5548,
      "Anil": 5549,
      "wara": 5550,
      "terrorist": 5551,
      "definite": 5552,
      "wild": 5553,
      "hotel": 5554,
      "facility": 5555,
      "cycle": 5556,
      "ield": 5557,
      "IANS": 5558,
      "pointed": 5559,
      "tel": 5560,
      "asi": 5561,
      "Ser": 5562,
      "liance": 5563,
      "Real": 5564,
      "Bharatiya": 5565,
      "injuries": 5566,
      "bear": 5567,
      "Kan": 5568,
      "armed": 5569,
      "options": 5570,
      "encounter": 5571,
      "Reddy": 5572,
      "meetings": 5573,
      "tech": 5574,
      "artic": 5575,
      "citing": 5576,
      "typ": 5577,
      "interests": 5578,
      "advantage": 5579,
      "receive": 5580,
      "terrorists": 5581,
      "fru": 5582,
      "accom": 5583,
      "DMK": 5584,
      "ometimes": 5585,
      "observed": 5586,
      "tribal": 5587,
      "Lad": 5588,
      "suffered": 5589,
      "calling": 5590,
      "abh": 5591,
      "park": 5592,
      "communication": 5593,
      "Star": 5594,
      "bha": 5595,
      "ogra": 5596,
      "ahu": 5597,
      "failure": 5598,
      "currency": 5599,
      "bon": 5600,
      "Jain": 5601,
      "kil": 5602,
      "charged": 5603,
      "pending": 5604,
      "HE": 5605,
      "lose": 5606,
      "consumers": 5607,
      "developing": 5608,
      "Economic": 5609,
      "iy": 5610,
      "bled": 5611,
      "adequ": 5612,
      "faith": 5613,
      "restaur": 5614,
      "tourism": 5615,
      "promise": 5616,
      "aves": 5617,
      "frame": 5618,
      "jump": 5619,
      "artist": 5620,
      "agriculture": 5621,
      "Br": 5622,
      "struggle": 5623,
      "mining": 5624,
      "Mang": 5625,
      "hir": 5626,
      "departments": 5627,
      "innings": 5628,
      "anced": 5629,
      "FA": 5630,
      "NA": 5631,
      "promised": 5632,
      "qui": 5633,
      "relev": 5634,
      "ww": 5635,
      "Bhopal": 5636,
      "Nav": 5637,
      "Games": 5638,
      "behavi": 5639,
      "highly": 5640,
      "Ml": 5641,
      "NDA": 5642,
      "reduced": 5643,
      "ronic": 5644,
      "managing": 5645,
      "adds": 5646,
      "reportedly": 5647,
      "Ashok": 5648,
      "earth": 5649,
      "partnership": 5650,
      "honour": 5651,
      "manager": 5652,
      "verdict": 5653,
      "motor": 5654,
      "difference": 5655,
      "prene": 5656,
      "liber": 5657,
      "interesting": 5658,
      "greater": 5659,
      "cue": 5660,
      "sung": 5661,
      "theatre": 5662,
      "advoc": 5663,
      "sectors": 5664,
      "Bhag": 5665,
      "sections": 5666,
      "Technology": 5667,
      "%.": 5668,
      "NT": 5669,
      "ila": 5670,
      "Sush": 5671,
      "scene": 5672,
      "welfare": 5673,
      "Gan": 5674,
      "draft": 5675,
      "beautiful": 5676,
      "catch": 5677,
      "systems": 5678,
      "oda": 5679,
      "wid": 5680,
      "mostly": 5681,
      "affairs": 5682,
      "Nehru": 5683,
      "Mur": 5684,
      "newsp": 5685,
      "cook": 5686,
      "Min": 5687,
      "isition": 5688,
      "decisions": 5689,
      "waiting": 5690,
      "ode": 5691,
      "willing": 5692,
      "150": 5693,
      "Reliance": 5694,
      "Sol": 5695,
      "provisions": 5696,
      "Ir": 5697,
      "clearly": 5698,
      "subst": 5699,
      "authority": 5700,
      "believed": 5701,
      "Foreign": 5702,
      "sites": 5703,
      "Commun": 5704,
      "sharing": 5705,
      "route": 5706,
      "politicians": 5707,
      "admission": 5708,
      "Municipal": 5709,
      "CPI": 5710,
      "Administ": 5711,
      "Found": 5712,
      "opted": 5713,
      "division": 5714,
      "Banerjee": 5715,
      "intelligence": 5716,
      "climate": 5717,
      "repeated": 5718,
      "compr": 5719,
      "Kashmiri": 5720,
      "trail": 5721,
      "mechan": 5722,
      "Ang": 5723,
      "polling": 5724,
      "afford": 5725,
      "associated": 5726,
      "kids": 5727,
      "changing": 5728,
      "iti": 5729,
      "larger": 5730,
      "Law": 5731,
      "type": 5732,
      "entertain": 5733,
      "bowl": 5734,
      "Cur": 5735,
      "posing": 5736,
      "Reserve": 5737,
      "icated": 5738,
      "Virat": 5739,
      "SE": 5740,
      "occur": 5741,
      "Vice": 5742,
      "ili": 5743,
      "veget": 5744,
      "Club": 5745,
      "perhaps": 5746,
      "agon": 5747,
      "Bach": 5748,
      "Chow": 5749,
      "khar": 5750,
      "satis": 5751,
      "hear": 5752,
      "noon": 5753,
      "Aam": 5754,
      "insp": 5755,
      "favourite": 5756,
      "wari": 5757,
      "harass": 5758,
      "Mer": 5759,
      "hospitals": 5760,
      "goals": 5761,
      "RA": 5762,
      "Arvind": 5763,
      "technical": 5764,
      "iPhone": 5765,
      "Rohit": 5766,
      "Bl": 5767,
      "page": 5768,
      "ador": 5769,
      "Amazon": 5770,
      "TO": 5771,
      "influence": 5772,
      "NP": 5773,
      "reply": 5774,
      "Baj": 5775,
      "Obama": 5776,
      "Defence": 5777,
      "trading": 5778,
      "Adity": 5779,
      "electricity": 5780,
      "becomes": 5781,
      "bene": 5782,
      "communal": 5783,
      "identity": 5784,
      "primary": 5785,
      "cli": 5786,
      "attacked": 5787,
      "Vin": 5788,
      "mov": 5789,
      "ops": 5790,
      "internal": 5791,
      "laugh": 5792,
      "yesterday": 5793,
      "flu": 5794,
      "agenda": 5795,
      "Dut": 5796,
      "origin": 5797,
      "cabinet": 5798,
      "wonder": 5799,
      "permission": 5800,
      "vast": 5801,
      "Australian": 5802,
      "rav": 5803,
      "feels": 5804,
      "Russian": 5805,
      "understanding": 5806,
      "figure": 5807,
      "dialogue": 5808,
      "submit": 5809,
      "collabor": 5810,
      "therefore": 5811,
      "ians": 5812,
      "gradu": 5813,
      "Film": 5814,
      "Ravi": 5815,
      "probably": 5816,
      "governance": 5817,
      "hair": 5818,
      "HO": 5819,
      "summer": 5820,
      "strengthen": 5821,
      "master": 5822,
      "comments": 5823,
      "Metro": 5824,
      "2007": 5825,
      "addressing": 5826,
      "fake": 5827,
      "spending": 5828,
      "entered": 5829,
      "amed": 5830,
      "boys": 5831,
      "feed": 5832,
      "storm": 5833,
      "equip": 5834,
      "tur": 5835,
      "Head": 5836,
      "expert": 5837,
      "pursu": 5838,
      "remaining": 5839,
      "berg": 5840,
      "Tax": 5841,
      "Once": 5842,
      "photograph": 5843,
      "sem": 5844,
      "univers": 5845,
      "league": 5846,
      "yr": 5847,
      "trip": 5848,
      "temporary": 5849,
      "brain": 5850,
      "',": 5851,
      "shops": 5852,
      "entre": 5853,
      "portion": 5854,
      "Similar": 5855,
      "skin": 5856,
      "condem": 5857,
      "segment": 5858,
      "Bhat": 5859,
      "Fund": 5860,
      "views": 5861,
      "helps": 5862,
      "imag": 5863,
      "commissioner": 5864,
      "iversary": 5865,
      "apply": 5866,
      "clar": 5867,
      "Bre": 5868,
      "ancing": 5869,
      "matters": 5870,
      "apore": 5871,
      "secret": 5872,
      "chain": 5873,
      "gender": 5874,
      "homes": 5875,
      "activists": 5876,
      "Their": 5877,
      "atever": 5878,
      "rated": 5879,
      "wadi": 5880,
      "Apart": 5881,
      "Control": 5882,
      "67": 5883,
      "Say": 5884,
      "welcome": 5885,
      "Sto": 5886,
      "GDP": 5887,
      "Prakash": 5888,
      "branch": 5889,
      "die": 5890,
      "Mi": 5891,
      "notes": 5892,
      "sud": 5893,
      "driving": 5894,
      "odd": 5895,
      "ulate": 5896,
      "frequ": 5897,
      "mere": 5898,
      "Post": 5899,
      "Bel": 5900,
      "laid": 5901,
      "strategic": 5902,
      "corner": 5903,
      "fault": 5904,
      "Child": 5905,
      "Chop": 5906,
      "stands": 5907,
      "Ira": 5908,
      "arya": 5909,
      "pictures": 5910,
      "appropriate": 5911,
      "feet": 5912,
      "sleep": 5913,
      "NB": 5914,
      "losing": 5915,
      "NCP": 5916,
      "truck": 5917,
      "script": 5918,
      "Mc": 5919,
      "organisations": 5920,
      "ruled": 5921,
      "revol": 5922,
      "Sir": 5923,
      "sam": 5924,
      "Nepal": 5925,
      "jew": 5926,
      "iny": 5927,
      "smartphone": 5928,
      "granted": 5929,
      "cooperation": 5930,
      "destro": 5931,
      "resist": 5932,
      "worst": 5933,
      "limit": 5934,
      "Raw": 5935,
      "Indep": 5936,
      "fraud": 5937,
      "panchayat": 5938,
      "Lucknow": 5939,
      "sac": 5940,
      "equal": 5941,
      "cards": 5942,
      "fixed": 5943,
      "aspir": 5944,
      "ologies": 5945,
      "monsoon": 5946,
      "coalition": 5947,
      "anta": 5948,
      "Among": 5949,
      "Art": 5950,
      "%,": 5951,
      "Nath": 5952,
      "disci": 5953,
      "operate": 5954,
      "territ": 5955,
      "uddin": 5956,
      "Report": 5957,
      "ID": 5958,
      "distribution": 5959,
      "thinking": 5960,
      "Global": 5961,
      "rif": 5962,
      "complaints": 5963,
      "profession": 5964,
      "Mam": 5965,
      "Rajiv": 5966,
      "creation": 5967,
      "Mag": 5968,
      "pool": 5969,
      "hun": 5970,
      "wat": 5971,
      "statements": 5972,
      "Gen": 5973,
      "filled": 5974,
      "ision": 5975,
      "honi": 5976,
      "delegation": 5977,
      "businesses": 5978,
      "usually": 5979,
      "Let": 5980,
      "Pul": 5981,
      "surprise": 5982,
      "reservation": 5983,
      "Jud": 5984,
      "showing": 5985,
      "antly": 5986,
      "manage": 5987,
      "academic": 5988,
      "saving": 5989,
      "Market": 5990,
      "coast": 5991,
      "method": 5992,
      "piece": 5993,
      "facilit": 5994,
      "sain": 5995,
      "communities": 5996,
      "linked": 5997,
      "kick": 5998,
      "rejected": 5999,
      "alys": 6000,
      "arrived": 6001,
      "nes": 6002,
      "tt": 6003,
      "broke": 6004,
      "standard": 6005,
      "norms": 6006,
      "serving": 6007,
      "nic": 6008,
      "suspended": 6009,
      "Second": 6010,
      "King": 6011,
      "RS": 6012,
      "eed": 6013,
      "fal": 6014,
      "UT": 6015,
      "ficit": 6016,
      "eswar": 6017,
      "HD": 6018,
      "compensation": 6019,
      "igil": 6020,
      "acted": 6021,
      "researchers": 6022,
      "estate": 6023,
      "internet": 6024,
      "extremely": 6025,
      "anniversary": 6026,
      "union": 6027,
      "Mid": 6028,
      "tim": 6029,
      "ength": 6030,
      "rom": 6031,
      "rare": 6032,
      "CO": 6033,
      "Office": 6034,
      "Telangana": 6035,
      "Dhoni": 6036,
      "icon": 6037,
      "hill": 6038,
      "Fol": 6039,
      "negative": 6040,
      "unal": 6041,
      "Iraq": 6042,
      "Engine": 6043,
      "designed": 6044,
      "hav": 6045,
      "finish": 6046,
      "Swar": 6047,
      "eer": 6048,
      "folio": 6049,
      "Food": 6050,
      "ario": 6051,
      "66": 6052,
      "Ha": 6053,
      "cycl": 6054,
      "sess": 6055,
      "Sc": 6056,
      "loom": 6057,
      "Conference": 6058,
      "supporters": 6059,
      "batter": 6060,
      "dece": 6061,
      "dish": 6062,
      "swe": 6063,
      "atar": 6064,
      "Out": 6065,
      "birthday": 6066,
      "JK": 6067,
      "ashed": 6068,
      "tha": 6069,
      "truth": 6070,
      "La": 6071,
      "BSP": 6072,
      "sco": 6073,
      "stick": 6074,
      "Kish": 6075,
      "sugar": 6076,
      "funding": 6077,
      "individuals": 6078,
      "convers": 6079,
      "aceful": 6080,
      "servation": 6081,
      "Samaj": 6082,
      "Sonia": 6083,
      "provides": 6084,
      "grade": 6085,
      "Social": 6086,
      "Singapore": 6087,
      "nations": 6088,
      "Karan": 6089,
      "figures": 6090,
      "drawn": 6091,
      "arms": 6092,
      "veter": 6093,
      "lodged": 6094,
      "listed": 6095,
      "dropped": 6096,
      "IL": 6097,
      "index": 6098,
      "deficit": 6099,
      "plus": 6100,
      "equipment": 6101,
      "confident": 6102,
      "villagers": 6103,
      "treated": 6104,
      "BCCI": 6105,
      "decline": 6106,
      "sar": 6107,
      "Academ": 6108,
      "Those": 6109,
      "Three": 6110,
      "conversation": 6111,
      "Ajay": 6112,
      "campus": 6113,
      "Germany": 6114,
      "Kir": 6115,
      "ublish": 6116,
      "Je": 6117,
      "simply": 6118,
      "housing": 6119,
      "Railway": 6120,
      "believes": 6121,
      "inary": 6122,
      "izing": 6123,
      "custody": 6124,
      "channel": 6125,
      "Chopra": 6126,
      "squad": 6127,
      "records": 6128,
      "Team": 6129,
      "ivic": 6130,
      "Rag": 6131,
      "reforms": 6132,
      "drugs": 6133,
      "Bachchan": 6134,
      "alternative": 6135,
      "Malik": 6136,
      "returns": 6137,
      "iling": 6138,
      "behaviour": 6139,
      "ift": 6140,
      "Princi": 6141,
      "manent": 6142,
      "easily": 6143,
      "transp": 6144,
      "Life": 6145,
      "entreprene": 6146,
      "hike": 6147,
      "hundreds": 6148,
      "items": 6149,
      "[…": 6150,
      "roid": 6151,
      "[…]": 6152,
      "imposed": 6153,
      "ijing": 6154,
      "Although": 6155,
      "USD": 6156,
      "principal": 6157,
      "gate": 6158,
      "exact": 6159,
      "David": 6160,
      "replace": 6161,
      "uge": 6162,
      "Beijing": 6163,
      "joining": 6164,
      "assistance": 6165,
      "arti": 6166,
      "schol": 6167,
      "consumption": 6168,
      "aza": 6169,
      "sensitive": 6170,
      "Malay": 6171,
      "cow": 6172,
      "Science": 6173,
      "itage": 6174,
      "drama": 6175,
      "grat": 6176,
      "bats": 6177,
      "straight": 6178,
      "dhar": 6179,
      "proced": 6180,
      "Such": 6181,
      "accepted": 6182,
      "64": 6183,
      "Vas": 6184,
      "PDP": 6185,
      "rent": 6186,
      "emphas": 6187,
      "stret": 6188,
      "GM": 6189,
      "relevant": 6190,
      "abilities": 6191,
      "Dig": 6192,
      "wearing": 6193,
      "virt": 6194,
      "teacher": 6195,
      "Dil": 6196,
      "cancell": 6197,
      "sudden": 6198,
      "feeling": 6199,
      "iar": 6200,
      "demonstr": 6201,
      "medium": 6202,
      "Bir": 6203,
      "etary": 6204,
      "implemented": 6205,
      "registration": 6206,
      "western": 6207,
      "maintained": 6208,
      "White": 6209,
      "suffering": 6210,
      "psy": 6211,
      "'.": 6212,
      "Britain": 6213,
      "plastic": 6214,
      "cinema": 6215,
      "doubt": 6216,
      "amy": 6217,
      "involve": 6218,
      "acquisition": 6219,
      "putting": 6220,
      "sister": 6221,
      "exit": 6222,
      "Wel": 6223,
      "zone": 6224,
      "described": 6225,
      "celebrated": 6226,
      "UPA": 6227,
      "correct": 6228,
      "faces": 6229,
      "pilgr": 6230,
      "ky": 6231,
      "certific": 6232,
      "deaths": 6233,
      "Ap": 6234,
      "eline": 6235,
      "portfolio": 6236,
      "elder": 6237,
      "fifth": 6238,
      "DS": 6239,
      "bot": 6240,
      "meaning": 6241,
      "IIT": 6242,
      "Rak": 6243,
      "choose": 6244,
      "andal": 6245,
      "Reuters": 6246,
      "Sad": 6247,
      "warned": 6248,
      "semi": 6249,
      "adequate": 6250,
      "Rav": 6251,
      "hurt": 6252,
      "alysis": 6253,
      "Sud": 6254,
      "Abdul": 6255,
      "Thakur": 6256,
      "grees": 6257,
      "degrees": 6258,
      "owner": 6259,
      "sque": 6260,
      "steel": 6261,
      "mbol": 6262,
      "lawyer": 6263,
      "hall": 6264,
      "Hus": 6265,
      "Elect": 6266,
      "injury": 6267,
      "ception": 6268,
      "cold": 6269,
      "allot": 6270,
      "Pay": 6271,
      "priority": 6272,
      "haz": 6273,
      "icy": 6274,
      "mohan": 6275,
      "aimed": 6276,
      "length": 6277,
      "losses": 6278,
      "jection": 6279,
      "column": 6280,
      "blue": 6281,
      "movies": 6282,
      "ras": 6283,
      "Sang": 6284,
      "aggress": 6285,
      "Hot": 6286,
      "Civil": 6287,
      "soldiers": 6288,
      "Dhar": 6289,
      "supported": 6290,
      "busy": 6291,
      "dete": 6292,
      "appa": 6293,
      "68": 6294,
      "tea": 6295,
      "HT": 6296,
      "false": 6297,
      "Year": 6298,
      "ec": 6299,
      "Sp": 6300,
      "prompt": 6301,
      "heads": 6302,
      "write": 6303,
      "Abdullah": 6304,
      "Principal": 6305,
      "dozen": 6306,
      "crimin": 6307,
      "acker": 6308,
      "Follow": 6309,
      "suspect": 6310,
      "purchase": 6311,
      "mode": 6312,
      "auction": 6313,
      "novel": 6314,
      "dark": 6315,
      "visiting": 6316,
      "trouble": 6317,
      "addressed": 6318,
      "hary": 6319,
      "mical": 6320,
      "user": 6321,
      "omi": 6322,
      "Mohan": 6323,
      "Sach": 6324,
      "conv": 6325,
      "champ": 6326,
      "ET": 6327,
      "Its": 6328,
      "summit": 6329,
      "ES": 6330,
      "friendly": 6331,
      "electoral": 6332,
      "Sector": 6333,
      "Kath": 6334,
      "software": 6335,
      "bureau": 6336,
      "formal": 6337,
      "zil": 6338,
      "gathering": 6339,
      "devices": 6340,
      "enditure": 6341,
      "hopes": 6342,
      "EV": 6343,
      "Shankar": 6344,
      "declined": 6345,
      "PG": 6346,
      "Aksh": 6347,
      "studies": 6348,
      "iah": 6349,
      "Ki": 6350,
      "abroad": 6351,
      "Human": 6352,
      "Internet": 6353,
      "eat": 6354,
      "ingly": 6355,
      "imately": 6356,
      "filing": 6357,
      "Sunil": 6358,
      "NEW": 6359,
      "emergency": 6360,
      "Students": 6361,
      "relative": 6362,
      "remark": 6363,
      "tribut": 6364,
      "tourists": 6365,
      "champions": 6366,
      "fix": 6367,
      "knew": 6368,
      "akes": 6369,
      "ables": 6370,
      "notification": 6371,
      "selected": 6372,
      "seized": 6373,
      "requested": 6374,
      "discipl": 6375,
      "foundation": 6376,
      "Cel": 6377,
      "Plus": 6378,
      "reser": 6379,
      "plants": 6380,
      "milk": 6381,
      "spl": 6382,
      "garwal": 6383,
      "Path": 6384,
      "recruit": 6385,
      "FY": 6386,
      "establishment": 6387,
      "Will": 6388,
      "Av": 6389,
      "tank": 6390,
      "patient": 6391,
      "absence": 6392,
      "fron": 6393,
      "courts": 6394,
      "oured": 6395,
      "Mao": 6396,
      "empower": 6397,
      "marketing": 6398,
      "Only": 6399,
      "removed": 6400,
      "newly": 6401,
      "rescue": 6402,
      "Ranchi": 6403,
      "MPs": 6404,
      "device": 6405,
      "ico": 6406,
      "trained": 6407,
      "factors": 6408,
      "premium": 6409,
      "premis": 6410,
      "amental": 6411,
      "premises": 6412,
      "tight": 6413,
      "Gar": 6414,
      "Mani": 6415,
      "appears": 6416,
      "wake": 6417,
      "paying": 6418,
      "distance": 6419,
      "definitely": 6420,
      "schedule": 6421,
      "weapons": 6422,
      "certainly": 6423,
      "ires": 6424,
      "ola": 6425,
      "Yu": 6426,
      "fant": 6427,
      "apped": 6428,
      "Similarly": 6429,
      "tally": 6430,
      "NH": 6431,
      "civic": 6432,
      "educational": 6433,
      "aidu": 6434,
      "dispute": 6435,
      "inquiry": 6436,
      "determin": 6437,
      "reflect": 6438,
      "apex": 6439,
      "judicial": 6440,
      "professor": 6441,
      "Fest": 6442,
      "remarks": 6443,
      "shr": 6444,
      "peaceful": 6445,
      "invited": 6446,
      "picked": 6447,
      "representatives": 6448,
      "sanction": 6449,
      "municipal": 6450,
      "promotion": 6451,
      "iculture": 6452,
      "commitment": 6453,
      "feder": 6454,
      "commerce": 6455,
      "Samsung": 6456,
      "driven": 6457,
      "figh": 6458,
      "69": 6459,
      "performed": 6460,
      "baby": 6461,
      "consequ": 6462,
      "FB": 6463,
      "measure": 6464,
      "constitutional": 6465,
      "organized": 6466,
      "largely": 6467,
      "otic": 6468,
      "locals": 6469,
      "Consu": 6470,
      "considering": 6471,
      "cher": 6472,
      "street": 6473,
      "questioned": 6474,
      "wheel": 6475,
      "Western": 6476,
      "participants": 6477,
      "learnt": 6478,
      "AFP": 6479,
      "govt": 6480,
      "Verma": 6481,
      "ding": 6482,
      "Speaker": 6483,
      "protesters": 6484,
      "imal": 6485,
      "secure": 6486,
      "Ahmedabad": 6487,
      "util": 6488,
      "silver": 6489,
      "icate": 6490,
      "exem": 6491,
      "guidelines": 6492,
      "600": 6493,
      "Press": 6494,
      "mart": 6495,
      "usual": 6496,
      "Joshi": 6497,
      "fold": 6498,
      "collap": 6499,
      "orge": 6500,
      "although": 6501,
      "handle": 6502,
      "factor": 6503,
      "insu": 6504,
      "emerged": 6505,
      "inated": 6506,
      "pel": 6507,
      "athi": 6508,
      "expans": 6509,
      "eshwar": 6510,
      "NGO": 6511,
      "mas": 6512,
      "tool": 6513,
      "Kur": 6514,
      "Men": 6515,
      "resort": 6516,
      "bigger": 6517,
      "Naidu": 6518,
      "booked": 6519,
      "apparen": 6520,
      "Bla": 6521,
      "telecom": 6522,
      "initiated": 6523,
      "songs": 6524,
      "approached": 6525,
      "engineering": 6526,
      "backed": 6527,
      "abled": 6528,
      "Information": 6529,
      "operative": 6530,
      "toll": 6531,
      "promises": 6532,
      "cular": 6533,
      "quoted": 6534,
      "ava": 6535,
      "offices": 6536,
      "pura": 6537,
      "ideas": 6538,
      "tariff": 6539,
      "2000": 6540,
      "Forest": 6541,
      "disaster": 6542,
      "expenditure": 6543,
      "symp": 6544,
      "icke": 6545,
      "buses": 6546,
      "Android": 6547,
      "permanent": 6548,
      "sphere": 6549,
      "shel": 6550,
      "Sil": 6551,
      "participate": 6552,
      "opposed": 6553,
      "ko": 6554,
      "reading": 6555,
      "applications": 6556,
      "latter": 6557,
      "Ele": 6558,
      "trees": 6559,
      "emerging": 6560,
      "62": 6561,
      "micro": 6562,
      "crop": 6563,
      "rend": 6564,
      "prepare": 6565,
      "una": 6566,
      "Haz": 6567,
      "sett": 6568,
      "animals": 6569,
      "voting": 6570,
      "extend": 6571,
      "rushed": 6572,
      "OS": 6573,
      "patter": 6574,
      "minority": 6575,
      "Polit": 6576,
      "symbol": 6577,
      "iary": 6578,
      "Premi": 6579,
      "cry": 6580,
      "heav": 6581,
      "code": 6582,
      "proud": 6583,
      "Willi": 6584,
      "enable": 6585,
      "Foundation": 6586,
      "deployed": 6587,
      "destroy": 6588,
      "intendent": 6589,
      "circum": 6590,
      "logical": 6591,
      "resolve": 6592,
      "cad": 6593,
      "Citizens": 6594,
      "headquarters": 6595,
      "Dhan": 6596,
      "roles": 6597,
      "proved": 6598,
      "Steel": 6599,
      "transparen": 6600,
      "Ju": 6601,
      "radi": 6602,
      "throughout": 6603,
      "Muham": 6604,
      "Mil": 6605,
      "fication": 6606,
      "clim": 6607,
      "dia": 6608,
      "possibility": 6609,
      "obvious": 6610,
      "wai": 6611,
      "Academy": 6612,
      "moral": 6613,
      "troops": 6614,
      "controversy": 6615,
      "Pawar": 6616,
      "Prad": 6617,
      "afternoon": 6618,
      "surround": 6619,
      "ader": 6620,
      "EU": 6621,
      "Democratic": 6622,
      "phen": 6623,
      "awarded": 6624,
      "Soci": 6625,
      "winner": 6626,
      "selection": 6627,
      "iron": 6628,
      "twice": 6629,
      "Ber": 6630,
      "stressed": 6631,
      "weekend": 6632,
      "penalty": 6633,
      "lie": 6634,
      "shifted": 6635,
      "Panchayat": 6636,
      "Wal": 6637,
      "collected": 6638,
      "Hol": 6639,
      "Brazil": 6640,
      "shed": 6641,
      "provision": 6642,
      "Further": 6643,
      "abuse": 6644,
      "Arjun": 6645,
      "recovery": 6646,
      "Akhil": 6647,
      "council": 6648,
      "quickly": 6649,
      "fti": 6650,
      "rainfall": 6651,
      "trains": 6652,
      "istrate": 6653,
      "Yes": 6654,
      "aksh": 6655,
      "sius": 6656,
      "SA": 6657,
      "motiv": 6658,
      "tender": 6659,
      "scr": 6660,
      "Trust": 6661,
      "Akshay": 6662,
      "buying": 6663,
      "batsman": 6664,
      "Lim": 6665,
      "papers": 6666,
      "DEL": 6667,
      "Dur": 6668,
      "Brah": 6669,
      "reference": 6670,
      "journalist": 6671,
      "elements": 6672,
      "fundamental": 6673,
      "Din": 6674,
      "MB": 6675,
      "Kab": 6676,
      "cricke": 6677,
      "Good": 6678,
      "oul": 6679,
      "wash": 6680,
      "firing": 6681,
      "Roh": 6682,
      "classes": 6683,
      "dates": 6684,
      "singer": 6685,
      "characters": 6686,
      "exhibition": 6687,
      "2006": 6688,
      "happening": 6689,
      "Prab": 6690,
      "absol": 6691,
      "OC": 6692,
      "expansion": 6693,
      "renew": 6694,
      "challenging": 6695,
      "Tar": 6696,
      "destination": 6697,
      "map": 6698,
      "Address": 6699,
      "adhaar": 6700,
      "Work": 6701,
      "functioning": 6702,
      "William": 6703,
      "cure": 6704,
      "prises": 6705,
      "Badal": 6706,
      "tells": 6707,
      "borrow": 6708,
      "streets": 6709,
      "threatened": 6710,
      "industries": 6711,
      "asks": 6712,
      "PP": 6713,
      "Mufti": 6714,
      "cool": 6715,
      "export": 6716,
      "compar": 6717,
      "uti": 6718,
      "improvement": 6719,
      "sometimes": 6720,
      "prospect": 6721,
      "rupee": 6722,
      "Bur": 6723,
      "Maj": 6724,
      "Tele": 6725,
      "vail": 6726,
      "Enter": 6727,
      "elig": 6728,
      "OR": 6729,
      "resent": 6730,
      "Pandey": 6731,
      "solar": 6732,
      "helping": 6733,
      "Devi": 6734,
      "Indo": 6735,
      "77": 6736,
      "profile": 6737,
      "keen": 6738,
      "appearance": 6739,
      "Water": 6740,
      "stocks": 6741,
      "tom": 6742,
      "overty": 6743,
      "focused": 6744,
      "Additional": 6745,
      "standards": 6746,
      "retired": 6747,
      "Championship": 6748,
      "duo": 6749,
      "extent": 6750,
      "sharp": 6751,
      "Mission": 6752,
      "Aadhaar": 6753,
      "models": 6754,
      "happens": 6755,
      "gal": 6756,
      "accord": 6757,
      "email": 6758,
      "conspir": 6759,
      "CAA": 6760,
      "Nagaland": 6761,
      "Bagh": 6762,
      "DELHI": 6763,
      "tomor": 6764,
      "exports": 6765,
      "tomorrow": 6766,
      "Mukher": 6767,
      "skip": 6768,
      "hub": 6769,
      "keeper": 6770,
      "tonnes": 6771,
      "balls": 6772,
      "Indira": 6773,
      "arrangements": 6774,
      "practices": 6775,
      "infe": 6776,
      "lux": 6777,
      "thanks": 6778,
      "atio": 6779,
      "Are": 6780,
      "winter": 6781,
      "Play": 6782,
      "engaged": 6783,
      "Like": 6784,
      "struck": 6785,
      "none": 6786,
      "detailed": 6787,
      "ibility": 6788,
      "intervention": 6789,
      "beaten": 6790,
      "Naga": 6791,
      "criticism": 6792,
      "erson": 6793,
      "buildings": 6794,
      "Grand": 6795,
      "veer": 6796,
      "knows": 6797,
      "deceased": 6798,
      ".": 6799,
      "atest": 6800,
      "payments": 6801,
      "targeted": 6802,
      "Raja": 6803,
      "Muhammad": 6804,
      "HR": 6805,
      "comprising": 6806,
      ".,": 6807,
      "thes": 6808,
      "800": 6809,
      "rolling": 6810,
      "fields": 6811,
      "eep": 6812,
      "divers": 6813,
      "deals": 6814,
      "Ale": 6815,
      "watching": 6816,
      "prominent": 6817,
      "customer": 6818,
      "Rana": 6819,
      "percentage": 6820,
      "ambar": 6821,
      "batting": 6822,
      "wali": 6823,
      "finding": 6824,
      "yield": 6825,
      "asser": 6826,
      "mechanism": 6827,
      "mainly": 6828,
      "Has": 6829,
      "Thacker": 6830,
      "MM": 6831,
      "itect": 6832,
      "Corp": 6833,
      "heat": 6834,
      "Dub": 6835,
      "Ms": 6836,
      "forecast": 6837,
      "gains": 6838,
      "Pet": 6839,
      "punish": 6840,
      "TC": 6841,
      "inspired": 6842,
      "ins": 6843,
      "violation": 6844,
      "Sain": 6845,
      "Angel": 6846,
      "Tech": 6847,
      "identify": 6848,
      "IG": 6849,
      "performing": 6850,
      "forth": 6851,
      "diesel": 6852,
      "poet": 6853,
      "brands": 6854,
      "alert": 6855,
      "transferred": 6856,
      "grounds": 6857,
      "scenario": 6858,
      "participated": 6859,
      "stretch": 6860,
      "explained": 6861,
      "Kot": 6862,
      "constituencies": 6863,
      "liquor": 6864,
      "Vis": 6865,
      "concluded": 6866,
      "liquid": 6867,
      "connected": 6868,
      "antic": 6869,
      "curities": 6870,
      "banned": 6871,
      "recommended": 6872,
      "contribution": 6873,
      "Celsius": 6874,
      "advance": 6875,
      "bac": 6876,
      "Financial": 6877,
      "experiment": 6878,
      "isode": 6879,
      "proceedings": 6880,
      "Agr": 6881,
      "achieved": 6882,
      "mm": 6883,
      "payee": 6884,
      "Mohammed": 6885,
      "Mart": 6886,
      "Official": 6887,
      "teaching": 6888,
      "cours": 6889,
      "conver": 6890,
      "valid": 6891,
      "85": 6892,
      "AB": 6893,
      "loved": 6894,
      "democratic": 6895,
      "bureaucr": 6896,
      "Watch": 6897,
      "Deh": 6898,
      "properties": 6899,
      "Black": 6900,
      "referred": 6901,
      "activist": 6902,
      "Stadium": 6903,
      "Ri": 6904,
      "lam": 6905,
      "valley": 6906,
      "historic": 6907,
      "Tali": 6908,
      "Following": 6909,
      "ODI": 6910,
      "bilateral": 6911,
      "wala": 6912,
      "hik": 6913,
      "gery": 6914,
      "Who": 6915,
      "falling": 6916,
      "resignation": 6917,
      "hence": 6918,
      "UR": 6919,
      "prop": 6920,
      "irt": 6921,
      "devot": 6922,
      "scious": 6923,
      "Award": 6924,
      "Noida": 6925,
      "Gh": 6926,
      "champion": 6927,
      "habit": 6928,
      "Thackeray": 6929,
      "neither": 6930,
      "Premier": 6931,
      "healthcare": 6932,
      "2004": 6933,
      "Blair": 6934,
      "Syria": 6935,
      "MW": 6936,
      "alle": 6937,
      "absolute": 6938,
      "Ris": 6939,
      "medal": 6940,
      "German": 6941,
      "izen": 6942,
      "Sever": 6943,
      "oked": 6944,
      "Code": 6945,
      "mood": 6946,
      "courses": 6947,
      "mem": 6948,
      "allowing": 6949,
      "Mehta": 6950,
      "package": 6951,
      "receiving": 6952,
      "encourage": 6953,
      "Vaj": 6954,
      "onym": 6955,
      "Yet": 6956,
      "improved": 6957,
      "toile": 6958,
      "preced": 6959,
      "leads": 6960,
      "enh": 6961,
      "starts": 6962,
      "250": 6963,
      "etisation": 6964,
      "CB": 6965,
      "naik": 6966,
      "agitation": 6967,
      "drinking": 6968,
      "seeks": 6969,
      "myself": 6970,
      "grew": 6971,
      "nan": 6972,
      "//": 6973,
      "computer": 6974,
      "Mamata": 6975,
      "radun": 6976,
      "bird": 6977,
      "Micro": 6978,
      "select": 6979,
      "abi": 6980,
      "fired": 6981,
      "allows": 6982,
      "preparation": 6983,
      "auty": 6984,
      "enders": 6985,
      "Any": 6986,
      "rig": 6987,
      "remove": 6988,
      "nearby": 6989,
      "delivered": 6990,
      "Ret": 6991,
      "bowling": 6992,
      "retire": 6993,
      "Lu": 6994,
      "Commer": 6995,
      "vul": 6996,
      "discussions": 6997,
      "Later": 6998,
      "cket": 6999,
      "Shr": 7000,
      "Islamabad": 7001,
      "Jet": 7002,
      "Cal": 7003,
      "earnings": 7004,
      "vised": 7005,
      "lav": 7006,
      "twitter": 7007,
      "passion": 7008,
      "artists": 7009,
      "Green": 7010,
      "tribute": 7011,
      "rown": 7012,
      "ino": 7013,
      "Raf": 7014,
      "About": 7015,
      "airline": 7016,
      "attitude": 7017,
      "Himachal": 7018,
      "grown": 7019,
      "stable": 7020,
      "JN": 7021,
      "Mirror": 7022,
      "string": 7023,
      "transactions": 7024,
      "Japanese": 7025,
      "Fort": 7026,
      "Hindust": 7027,
      "claiming": 7028,
      "producer": 7029,
      "ses": 7030,
      "72": 7031,
      "orter": 7032,
      "Paul": 7033,
      "comfortable": 7034,
      "chemical": 7035,
      "mill": 7036,
      "hari": 7037,
      "monitoring": 7038,
      "BMC": 7039,
      "brings": 7040,
      "Mukherjee": 7041,
      "context": 7042,
      "yo": 7043,
      "participation": 7044,
      "Naw": 7045,
      "judges": 7046,
      "unable": 7047,
      "seeing": 7048,
      "MU": 7049,
      "luck": 7050,
      "DR": 7051,
      "interested": 7052,
      "conscious": 7053,
      "sole": 7054,
      "Execut": 7055,
      "mix": 7056,
      "Hindus": 7057,
      "Gho": 7058,
      "legend": 7059,
      "Executive": 7060,
      "visitors": 7061,
      "causing": 7062,
      "Festival": 7063,
      "secular": 7064,
      "arden": 7065,
      "Dhawan": 7066,
      "rac": 7067,
      "rapid": 7068,
      "hensive": 7069,
      "ridor": 7070,
      "expectations": 7071,
      "llite": 7072,
      "enhance": 7073,
      "atellite": 7074,
      "lor": 7075,
      "Moh": 7076,
      "Industries": 7077,
      "dry": 7078,
      "dismissed": 7079,
      "dedicated": 7080,
      "taxes": 7081,
      "inspir": 7082,
      "channels": 7083,
      "nap": 7084,
      "seriously": 7085,
      "SU": 7086,
      "Tom": 7087,
      "ona": 7088,
      "rebel": 7089,
      "indu": 7090,
      "ene": 7091,
      "eventually": 7092,
      "Taliban": 7093,
      "Du": 7094,
      "bell": 7095,
      "iven": 7096,
      "eco": 7097,
      "prevail": 7098,
      "Teh": 7099,
      "?”": 7100,
      "whatever": 7101,
      "uban": 7102,
      "environmental": 7103,
      "Bureau": 7104,
      "Dehradun": 7105,
      "march": 7106,
      "inaugurated": 7107,
      "Administration": 7108,
      "adopted": 7109,
      "supporting": 7110,
      "cleared": 7111,
      "Lord": 7112,
      "parking": 7113,
      "plication": 7114,
      "initiatives": 7115,
      "ernand": 7116,
      "Well": 7117,
      "haven": 7118,
      "animal": 7119,
      "advocate": 7120,
      "Bef": 7121,
      "herself": 7122,
      "hone": 7123,
      "parliamentary": 7124,
      "Bro": 7125,
      "Pu": 7126,
      "2005": 7127,
      "construct": 7128,
      "Four": 7129,
      "younger": 7130,
      "diet": 7131,
      "Station": 7132,
      "Rat": 7133,
      ");": 7134,
      "attach": 7135,
      "regions": 7136,
      "Str": 7137,
      "dio": 7138,
      "370": 7139,
      "Chid": 7140,
      "tests": 7141,
      "insist": 7142,
      "mail": 7143,
      "ially": 7144,
      "factory": 7145,
      "chances": 7146,
      "proof": 7147,
      "ulated": 7148,
      "colon": 7149,
      "andon": 7150,
      "alaxy": 7151,
      "analysis": 7152,
      "pitch": 7153,
      "episode": 7154,
      "poverty": 7155,
      "values": 7156,
      "apt": 7157,
      "finished": 7158,
      "Rawat": 7159,
      "circumst": 7160,
      "unfortun": 7161,
      "Saf": 7162,
      "succeed": 7163,
      "assistant": 7164,
      "acle": 7165,
      "63": 7166,
      "Aad": 7167,
      "petrol": 7168,
      "ugu": 7169,
      "sweet": 7170,
      "prefer": 7171,
      "urb": 7172,
      "Nitish": 7173,
      "assador": 7174,
      "Moreover": 7175,
      "glass": 7176,
      "rants": 7177,
      "seemed": 7178,
      "Nat": 7179,
      "fing": 7180,
      "Stu": 7181,
      "operational": 7182,
      "hash": 7183,
      "Tan": 7184,
      "familiar": 7185,
      "Indies": 7186,
      "mel": 7187,
      "ordinary": 7188,
      "Hong": 7189,
      "Tiger": 7190,
      "excell": 7191,
      "Project": 7192,
      "constructed": 7193,
      "governor": 7194,
      "iri": 7195,
      "volun": 7196,
      "leaves": 7197,
      "Stand": 7198,
      "passing": 7199,
      "suppose": 7200,
      "Ministers": 7201,
      "Swaraj": 7202,
      "Best": 7203,
      "wama": 7204,
      "migration": 7205,
      "theast": 7206,
      "Stre": 7207,
      "Hur": 7208,
      "deliber": 7209,
      "bought": 7210,
      "Several": 7211,
      "audit": 7212,
      "Before": 7213,
      "damaged": 7214,
      "crude": 7215,
      "Your": 7216,
      "earned": 7217,
      "Instead": 7218,
      "NRC": 7219,
      "faction": 7220,
      "Actor": 7221,
      "riot": 7222,
      "bes": 7223,
      "forcement": 7224,
      "yam": 7225,
      "spotted": 7226,
      "involving": 7227,
      "Lab": 7228,
      "ander": 7229,
      "defeated": 7230,
      "otherwise": 7231,
      "Pulwama": 7232,
      "kha": 7233,
      "Youth": 7234,
      "cape": 7235,
      "Chandr": 7236,
      "titled": 7237,
      "61": 7238,
      "pregn": 7239,
      "stall": 7240,
      "attempts": 7241,
      "pension": 7242,
      "nock": 7243,
      "effects": 7244,
      "traders": 7245,
      "shad": 7246,
      "Interest": 7247,
      "Arabia": 7248,
      "TE": 7249,
      "jewell": 7250,
      "smaller": 7251,
      "tend": 7252,
      "militant": 7253,
      "travelling": 7254,
      "bling": 7255,
      "background": 7256,
      "Sharif": 7257,
      "warm": 7258,
      "CRPF": 7259,
      "Ty": 7260,
      "ye": 7261,
      "yat": 7262,
      "Deepika": 7263,
      "Kong": 7264,
      "cult": 7265,
      "pull": 7266,
      "bright": 7267,
      "Palest": 7268,
      "posite": 7269,
      "Dubai": 7270,
      "Front": 7271,
      "heritage": 7272,
      "shape": 7273,
      "bunal": 7274,
      "jur": 7275,
      "crimes": 7276,
      "strongly": 7277,
      "Kha": 7278,
      "Fernand": 7279,
      "subsequ": 7280,
      "diseas": 7281,
      "diseases": 7282,
      "Tem": 7283,
      "jam": 7284,
      "withdraw": 7285,
      "input": 7286,
      "videos": 7287,
      "newspaper": 7288,
      "ratio": 7289,
      "credi": 7290,
      "Da": 7291,
      "Ramesh": 7292,
      "nab": 7293,
      "Kat": 7294,
      "var": 7295,
      "tenure": 7296,
      "passenger": 7297,
      "tree": 7298,
      "eras": 7299,
      "Advis": 7300,
      "controversial": 7301,
      "taining": 7302,
      "Ray": 7303,
      "Manmohan": 7304,
      "painting": 7305,
      "excess": 7306,
      "ounce": 7307,
      "tie": 7308,
      "lax": 7309,
      "dangerous": 7310,
      "directors": 7311,
      "exclusive": 7312,
      "yog": 7313,
      "bers": 7314,
      "Sheikh": 7315,
      "advanced": 7316,
      "sad": 7317,
      "alco": 7318,
      "mutual": 7319,
      "prize": 7320,
      "turning": 7321,
      "ilty": 7322,
      "Plan": 7323,
      "termin": 7324,
      "itate": 7325,
      "tu": 7326,
      "Amendment": 7327,
      "cat": 7328,
      "gained": 7329,
      "camps": 7330,
      "ambaram": 7331,
      "refuge": 7332,
      "anonym": 7333,
      "awards": 7334,
      "innovation": 7335,
      "register": 7336,
      "MA": 7337,
      "Si": 7338,
      "suspe": 7339,
      "Mahat": 7340,
      "storage": 7341,
      "suspected": 7342,
      "Bet": 7343,
      "Amr": 7344,
      "compre": 7345,
      "asset": 7346,
      "nur": 7347,
      "indul": 7348,
      "holiday": 7349,
      "settlement": 7350,
      "rein": 7351,
      "ez": 7352,
      "ensuring": 7353,
      "scientists": 7354,
      "Faroo": 7355,
      "Bor": 7356,
      "yot": 7357,
      "Narayan": 7358,
      "smooth": 7359,
      "Vajpayee": 7360,
      "Top": 7361,
      "counsel": 7362,
      "initially": 7363,
      "Rukh": 7364,
      "wani": 7365,
      "window": 7366,
      "SBI": 7367,
      "successfully": 7368,
      "aspects": 7369,
      "Pvt": 7370,
      "Adv": 7371,
      "cuts": 7372,
      ".’": 7373,
      "trillion": 7374,
      "Nations": 7375,
      "TA": 7376,
      "mort": 7377,
      "Chidambaram": 7378,
      "eating": 7379,
      "elim": 7380,
      "Patil": 7381,
      "reaching": 7382,
      "acknow": 7383,
      "Chaud": 7384,
      "phil": 7385,
      "objective": 7386,
      "QUF": 7387,
      "ensu": 7388,
      "guaran": 7389,
      "Book": 7390,
      "Patnaik": 7391,
      "tag": 7392,
      "nergy": 7393,
      "emotional": 7394,
      "rage": 7395,
      "hek": 7396,
      "rice": 7397,
      "icing": 7398,
      "xit": 7399,
      "guilty": 7400,
      "Transport": 7401,
      "accompan": 7402,
      "til": 7403,
      "leak": 7404,
      "knock": 7405,
      "burden": 7406,
      "Environment": 7407,
      "installed": 7408,
      "Main": 7409,
      "ool": 7410,
      "2002": 7411,
      "improving": 7412,
      "zero": 7413,
      "universities": 7414,
      "vulner": 7415,
      "Ek": 7416,
      "giant": 7417,
      "Canada": 7418,
      "peak": 7419,
      "seal": 7420,
      "solutions": 7421,
      "quant": 7422,
      "celebrations": 7423,
      "upper": 7424,
      "plane": 7425,
      "Airport": 7426,
      "Assist": 7427,
      "Tro": 7428,
      "height": 7429,
      "kumar": 7430,
      "begins": 7431,
      "Smith": 7432,
      "ima": 7433,
      "rator": 7434,
      "Jaipur": 7435,
      "bullet": 7436,
      "gross": 7437,
      "apping": 7438,
      "metro": 7439,
      "directions": 7440,
      "PD": 7441,
      "700": 7442,
      "recommendations": 7443,
      "Mano": 7444,
      "Bhuban": 7445,
      "cameras": 7446,
      "competitive": 7447,
      "aims": 7448,
      "subscri": 7449,
      "quit": 7450,
      "administrative": 7451,
      "substant": 7452,
      "Syed": 7453,
      "Gad": 7454,
      "nag": 7455,
      "owing": 7456,
      "cloud": 7457,
      "fellow": 7458,
      "onom": 7459,
      "trick": 7460,
      "poses": 7461,
      "breaking": 7462,
      "rub": 7463,
      "pretty": 7464,
      "advised": 7465,
      "greg": 7466,
      "adult": 7467,
      "grab": 7468,
      "95": 7469,
      "rah": 7470,
      "breath": 7471,
      "Chak": 7472,
      "recruitment": 7473,
      "architect": 7474,
      "Khal": 7475,
      "fitness": 7476,
      "telling": 7477,
      "ique": 7478,
      "intention": 7479,
      "Whats": 7480,
      "WhatsApp": 7481,
      "belief": 7482,
      "Jav": 7483,
      "Lef": 7484,
      "connectivity": 7485,
      "lived": 7486,
      "atmo": 7487,
      "Nand": 7488,
      "78": 7489,
      "Sensex": 7490,
      "manife": 7491,
      "rd": 7492,
      "reform": 7493,
      "Bharti": 7494,
      "IMS": 7495,
      "benefici": 7496,
      "raw": 7497,
      "habilit": 7498,
      "restaurant": 7499,
      "Media": 7500,
      "residential": 7501,
      "sufficient": 7502,
      "collaboration": 7503,
      "Left": 7504,
      "contribute": 7505,
      "ideal": 7506,
      "Oper": 7507,
      "Bay": 7508,
      "editor": 7509,
      "scar": 7510,
      "pilgrim": 7511,
      "possib": 7512,
      "returning": 7513,
      "shortage": 7514,
      "hardly": 7515,
      "showcase": 7516,
      "older": 7517,
      "sper": 7518,
      "beauty": 7519,
      "facts": 7520,
      "evi": 7521,
      "Info": 7522,
      "highway": 7523,
      "enthus": 7524,
      "Jas": 7525,
      "closure": 7526,
      "Korean": 7527,
      "Pradhan": 7528,
      "shell": 7529,
      "reven": 7530,
      "veteran": 7531,
      "Kaur": 7532,
      "flat": 7533,
      "witch": 7534,
      "assessment": 7535,
      "eval": 7536,
      "drivers": 7537,
      "confirm": 7538,
      "Imran": 7539,
      "err": 7540,
      "sheet": 7541,
      "yourself": 7542,
      "intens": 7543,
      "conspiracy": 7544,
      "allocation": 7545,
      "embar": 7546,
      "fet": 7547,
      "Camp": 7548,
      "anchise": 7549,
      "Limited": 7550,
      "Fi": 7551,
      "skipper": 7552,
      "workshop": 7553,
      "outfit": 7554,
      "unve": 7555,
      "Command": 7556,
      "belonging": 7557,
      "Sik": 7558,
      "Where": 7559,
      "violent": 7560,
      "circumstances": 7561,
      "dign": 7562,
      "Tourism": 7563,
      "snow": 7564,
      "deadline": 7565,
      "surface": 7566,
      "Society": 7567,
      "fought": 7568,
      "lated": 7569,
      "worry": 7570,
      "tenance": 7571,
      "ously": 7572,
      "correspond": 7573,
      "harassment": 7574,
      "Railways": 7575,
      "Jio": 7576,
      "theme": 7577,
      "interaction": 7578,
      "Sebi": 7579,
      "Profess": 7580,
      "accompanied": 7581,
      "chant": 7582,
      "Dalit": 7583,
      "Farooq": 7584,
      "Sangh": 7585,
      "Nay": 7586,
      "farmer": 7587,
      "seas": 7588,
      "overseas": 7589,
      "Kamal": 7590,
      "platforms": 7591,
      "orial": 7592,
      "African": 7593,
      "worse": 7594,
      "Ham": 7595,
      "Hussain": 7596,
      "attle": 7597,
      "fruit": 7598,
      "expo": 7599,
      "battery": 7600,
      "Sachin": 7601,
      "migrants": 7602,
      "hael": 7603,
      "dealing": 7604,
      "forget": 7605,
      "reduction": 7606,
      "rew": 7607,
      "acts": 7608,
      "Galaxy": 7609,
      "Amarinder": 7610,
      "aga": 7611,
      "discover": 7612,
      "HA": 7613,
      "ifying": 7614,
      "Vikas": 7615,
      "pump": 7616,
      "sanctions": 7617,
      "thrill": 7618,
      "promoting": 7619,
      "Naik": 7620,
      "Olympic": 7621,
      "fab": 7622,
      "deposit": 7623,
      "CAB": 7624,
      "demol": 7625,
      "monthly": 7626,
      "moves": 7627,
      "consolid": 7628,
      "Trin": 7629,
      "franchise": 7630,
      "satellite": 7631,
      "warning": 7632,
      "caution": 7633,
      "luxury": 7634,
      "casual": 7635,
      "manufactur": 7636,
      "pled": 7637,
      "plot": 7638,
      "Kim": 7639,
      "phe": 7640,
      "Israeli": 7641,
      "Gaur": 7642,
      "Talking": 7643,
      "tourist": 7644,
      "Common": 7645,
      "Welfare": 7646,
      "onda": 7647,
      "scholar": 7648,
      "sari": 7649,
      "Akhilesh": 7650,
      "journalists": 7651,
      "uresh": 7652,
      "Puri": 7653,
      "Nas": 7654,
      "flights": 7655,
      "Manohar": 7656,
      "involvement": 7657,
      "memory": 7658,
      "designer": 7659,
      "boob": 7660,
      "Regist": 7661,
      "Bhubaneswar": 7662,
      "Que": 7663,
      "routine": 7664,
      "dut": 7665,
      "Hollywood": 7666,
      "VP": 7667,
      "Hindustan": 7668,
      "Alla": 7669,
      "aught": 7670,
      "Sind": 7671,
      "akshi": 7672,
      "oman": 7673,
      "71": 7674,
      "Manoj": 7675,
      "desire": 7676,
      "iction": 7677,
      "expensive": 7678,
      "broken": 7679,
      "Malays": 7680,
      "locations": 7681,
      "eligible": 7682,
      "regulator": 7683,
      "Produ": 7684,
      "demonetisation": 7685,
      "mine": 7686,
      "differences": 7687,
      "consideration": 7688,
      "uncertain": 7689,
      "tip": 7690,
      "marked": 7691,
      "icious": 7692,
      "Agarwal": 7693,
      "Pac": 7694,
      "Max": 7695,
      "struction": 7696,
      "Khar": 7697,
      "signs": 7698,
      "Mul": 7699,
      "wave": 7700,
      "quer": 7701,
      "risks": 7702,
      "positions": 7703,
      "viral": 7704,
      "unless": 7705,
      "sky": 7706,
      "categories": 7707,
      "agricultural": 7708,
      "DL": 7709,
      "ambit": 7710,
      "detained": 7711,
      "pleas": 7712,
      "sustained": 7713,
      "iting": 7714,
      "fisher": 7715,
      "bert": 7716,
      "blame": 7717,
      "alive": 7718,
      "mountain": 7719,
      "Suresh": 7720,
      "cadre": 7721,
      "JI": 7722,
      "acquired": 7723,
      "estimates": 7724,
      "Khur": 7725,
      "oration": 7726,
      "analysts": 7727,
      "crash": 7728,
      "Sukh": 7729,
      "tun": 7730,
      "generate": 7731,
      "vital": 7732,
      "machine": 7733,
      "Deepak": 7734,
      "settled": 7735,
      "Urban": 7736,
      "Mahatma": 7737,
      "revolution": 7738,
      "oles": 7739,
      "jack": 7740,
      "availability": 7741,
      "IB": 7742,
      "Mac": 7743,
      "tiger": 7744,
      "det": 7745,
      "neighbouring": 7746,
      "apps": 7747,
      "god": 7748,
      "offee": 7749,
      "arrive": 7750,
      "Rights": 7751,
      "clearance": 7752,
      "Chou": 7753,
      "Kapil": 7754,
      "Fad": 7755,
      "1990": 7756,
      "pora": 7757,
      "Samajwadi": 7758,
      "Mat": 7759,
      "precedent": 7760,
      "Asked": 7761,
      "Auto": 7762,
      "article": 7763,
      "agno": 7764,
      "Prat": 7765,
      "bally": 7766,
      "regulatory": 7767,
      "Hill": 7768,
      "entrepreneurs": 7769,
      "secution": 7770,
      "mosque": 7771,
      "Poll": 7772,
      "suggests": 7773,
      "Amitabh": 7774,
      "Investigation": 7775,
      "eties": 7776,
      "Mehboob": 7777,
      "ghal": 7778,
      "Put": 7779,
      "buyers": 7780,
      "Mahindra": 7781,
      "atmosphere": 7782,
      "Ayod": 7783,
      "hishek": 7784,
      "bust": 7785,
      "resulted": 7786,
      "Motor": 7787,
      "lawyers": 7788,
      "slog": 7789,
      "slogans": 7790,
      "operators": 7791,
      "Ku": 7792,
      "combination": 7793,
      "investigating": 7794,
      "Ayodhya": 7795,
      "employee": 7796,
      "effici": 7797,
      "Aj": 7798,
      "indeed": 7799,
      "delayed": 7800,
      "bare": 7801,
      "Mis": 7802,
      "Budd": 7803,
      "98": 7804,
      "ood": 7805,
      "screening": 7806,
      "completion": 7807,
      "sessions": 7808,
      "Omar": 7809,
      "stig": 7810,
      "Rajesh": 7811,
      "rigation": 7812,
      "requires": 7813,
      "HS": 7814,
      "Michael": 7815,
      "bonds": 7816,
      "targets": 7817,
      "cyber": 7818,
      "eastern": 7819,
      "griev": 7820,
      "begun": 7821,
      "judgment": 7822,
      "courage": 7823,
      "smen": 7824,
      "strikes": 7825,
      "aming": 7826,
      "illa": 7827,
      "garb": 7828,
      "pu": 7829,
      "magaz": 7830,
      "depress": 7831,
      "termed": 7832,
      "sustainable": 7833,
      "exams": 7834,
      "lets": 7835,
      "messages": 7836,
      "tickets": 7837,
      "lease": 7838,
      "pulled": 7839,
      "welcomed": 7840,
      "extension": 7841,
      "virus": 7842,
      "allies": 7843,
      "Urdu": 7844,
      "Tok": 7845,
      "reput": 7846,
      "Diwali": 7847,
      "booth": 7848,
      "turns": 7849,
      "categor": 7850,
      "Azad": 7851,
      "taste": 7852,
      "clin": 7853,
      "creative": 7854,
      "cession": 7855,
      "previously": 7856,
      "wound": 7857,
      "MT": 7858,
      "MlA": 7859,
      "ride": 7860,
      "advice": 7861,
      "lon": 7862,
      "minds": 7863,
      "vigil": 7864,
      "scoring": 7865,
      "restrictions": 7866,
      "Er": 7867,
      "images": 7868,
      "oppon": 7869,
      "Stat": 7870,
      "Abhishek": 7871,
      "cean": 7872,
      "imports": 7873,
      "uation": 7874,
      "province": 7875,
      "variety": 7876,
      "easier": 7877,
      "Tiwari": 7878,
      "graduate": 7879,
      "PO": 7880,
      "Foot": 7881,
      "exactly": 7882,
      "asw": 7883,
      "Dh": 7884,
      "amaz": 7885,
      "explore": 7886,
      "opener": 7887,
      "institute": 7888,
      "mates": 7889,
      "concent": 7890,
      "Mel": 7891,
      "dim": 7892,
      "SAD": 7893,
      "Pandit": 7894,
      "Having": 7895,
      "ellow": 7896,
      "Kann": 7897,
      "salary": 7898,
      "Cam": 7899,
      "finals": 7900,
      "Kas": 7901,
      "Olympics": 7902,
      "Ni": 7903,
      "thetic": 7904,
      "effectively": 7905,
      "pushed": 7906,
      "Pra": 7907,
      "rep": 7908,
      "citizen": 7909,
      "Patna": 7910,
      "Jawa": 7911,
      "chosen": 7912,
      "pac": 7913,
      "Agra": 7914,
      "Energy": 7915,
      "riots": 7916,
      "soul": 7917,
      "ANI": 7918,
      "Time": 7919,
      "dump": 7920,
      "cutting": 7921,
      "Sho": 7922,
      "square": 7923,
      "pert": 7924,
      "rance": 7925,
      "Ref": 7926,
      "lowest": 7927,
      "nod": 7928,
      "hect": 7929,
      "itra": 7930,
      "Assistant": 7931,
      "Mint": 7932,
      "bowlers": 7933,
      "divided": 7934,
      "answ": 7935,
      "Bhavan": 7936,
      "escape": 7937,
      "ramp": 7938,
      "possession": 7939,
      "vate": 7940,
      "presidential": 7941,
      "edi": 7942,
      "acre": 7943,
      "endence": 7944,
      "Leg": 7945,
      "mote": 7946,
      "cops": 7947,
      "enhan": 7948,
      "appre": 7949,
      "Exchange": 7950,
      "floods": 7951,
      "pilgrims": 7952,
      "territory": 7953,
      "Bri": 7954,
      "Because": 7955,
      "relatives": 7956,
      "scientific": 7957,
      "colours": 7958,
      "incent": 7959,
      "ulam": 7960,
      "sentence": 7961,
      "Blue": 7962,
      "IAS": 7963,
      "heed": 7964,
      "requirements": 7965,
      "74": 7966,
      "introduce": 7967,
      "Independence": 7968,
      "exposure": 7969,
      "eta": 7970,
      "remote": 7971,
      "fled": 7972,
      "publish": 7973,
      "isol": 7974,
      "mini": 7975,
      "Directorate": 7976,
      "kan": 7977,
      "experienced": 7978,
      "rifice": 7979,
      "Kum": 7980,
      "stability": 7981,
      "clothes": 7982,
      "Gopal": 7983,
      "earn": 7984,
      "investor": 7985,
      "matic": 7986,
      "Chowk": 7987,
      "Hari": 7988,
      "occurred": 7989,
      "System": 7990,
      "external": 7991,
      "nia": 7992,
      "angle": 7993,
      "Street": 7994,
      "George": 7995,
      "mandate": 7996,
      "Agriculture": 7997,
      "convey": 7998,
      "exc": 7999,
      "increasingly": 8000,
      "Yogi": 8001,
      "navis": 8002,
      "unity": 8003,
      "TMC": 8004,
      "scope": 8005,
      "parsed": 8006,
      "drew": 8007,
      "Yoj": 8008,
      "conducting": 8009,
      "pip": 8010,
      "kin": 8011,
      "surge": 8012,
      "numer": 8013,
      "pective": 8014,
      "Jose": 8015,
      "rier": 8016,
      "Staff": 8017,
      "Manish": 8018,
      "Punjabi": 8019,
      "Fadnavis": 8020,
      "Pen": 8021,
      "88": 8022,
      "closely": 8023,
      "Prote": 8024,
      "hail": 8025,
      "inspector": 8026,
      "anath": 8027,
      "maintenance": 8028,
      "employed": 8029,
      "cancelled": 8030,
      "Christian": 8031,
      "AGE": 8032,
      "root": 8033,
      "Thom": 8034,
      "realise": 8035,
      "photos": 8036,
      "aram": 8037,
      "repair": 8038,
      "stakeholders": 8039,
      "highlighted": 8040,
      "Varun": 8041,
      "encing": 8042,
      "James": 8043,
      "Around": 8044,
      "constituted": 8045,
      "73": 8046,
      "Nad": 8047,
      "Joint": 8048,
      "copy": 8049,
      "inct": 8050,
      "shaw": 8051,
      "ttp": 8052,
      "oli": 8053,
      "wah": 8054,
      "crew": 8055,
      "?\"": 8056,
      "sacrifice": 8057,
      "unlikely": 8058,
      "stayed": 8059,
      "narrow": 8060,
      "Boss": 8061,
      "HP": 8062,
      "actual": 8063,
      "hara": 8064,
      "chose": 8065,
      ",’": 8066,
      "supre": 8067,
      "findings": 8068,
      "qualified": 8069,
      "secutive": 8070,
      "consecutive": 8071,
      "Commerce": 8072,
      "120": 8073,
      "http": 8074,
      "whereas": 8075,
      "equally": 8076,
      "intel": 8077,
      "udhi": 8078,
      "realised": 8079,
      "organization": 8080,
      "Policy": 8081,
      "itha": 8082,
      "stal": 8083,
      "arrival": 8084,
      "Shetty": 8085,
      "genu": 8086,
      "gear": 8087,
      "replaced": 8088,
      "Andaman": 8089,
      "Judge": 8090,
      "toler": 8091,
      "forming": 8092,
      "Rajnath": 8093,
      "entertainment": 8094,
      "hibit": 8095,
      "mandatory": 8096,
      "jid": 8097,
      "southern": 8098,
      "format": 8099,
      "Middle": 8100,
      "click": 8101,
      "surve": 8102,
      "jewellery": 8103,
      "controlled": 8104,
      "contra": 8105,
      "://": 8106,
      "Rang": 8107,
      "assign": 8108,
      "soil": 8109,
      "representation": 8110,
      "challenged": 8111,
      "Crime": 8112,
      "staged": 8113,
      "expression": 8114,
      "benchmark": 8115,
      "Dam": 8116,
      "Program": 8117,
      "blocks": 8118,
      "Therefore": 8119,
      "dil": 8120,
      "anning": 8121,
      "spr": 8122,
      "Pran": 8123,
      "drawal": 8124,
      "stores": 8125,
      "aq": 8126,
      "secured": 8127,
      "kart": 8128,
      "2003": 8129,
      "punishment": 8130,
      "chand": 8131,
      "petitioner": 8132,
      "duties": 8133,
      "yer": 8134,
      "talked": 8135,
      "diction": 8136,
      "enses": 8137,
      "comprehensive": 8138,
      "ito": 8139,
      "opposite": 8140,
      "DF": 8141,
      "furn": 8142,
      "Recent": 8143,
      "reci": 8144,
      "bike": 8145,
      "vy": 8146,
      "Ann": 8147,
      "corridor": 8148,
      "stadium": 8149,
      "phant": 8150,
      "Ganga": 8151,
      "alcohol": 8152,
      "semin": 8153,
      "withdrawal": 8154,
      "legislation": 8155,
      "ioneer": 8156,
      "Ru": 8157,
      "aside": 8158,
      "tum": 8159,
      "Mehbooba": 8160,
      "rescu": 8161,
      "beach": 8162,
      "Jack": 8163,
      "trailer": 8164,
      "congrat": 8165,
      "dominated": 8166,
      "Sche": 8167,
      "reducing": 8168,
      "surgery": 8169,
      "liberal": 8170,
      "Rain": 8171,
      "spectrum": 8172,
      "Organisation": 8173,
      "imm": 8174,
      "GS": 8175,
      "compon": 8176,
      "Sah": 8177,
      "narrative": 8178,
      "machines": 8179,
      "engagement": 8180,
      "significantly": 8181,
      "facilitate": 8182,
      "perspective": 8183,
      "brothers": 8184,
      "ote": 8185,
      "pilot": 8186,
      "sun": 8187,
      "ura": 8188,
      "innocent": 8189,
      "lifestyle": 8190,
      "endul": 8191,
      "Make": 8192,
      "Week": 8193,
      "genuine": 8194,
      "agues": 8195,
      "colleagues": 8196,
      "intellect": 8197,
      "wage": 8198,
      "electronic": 8199,
      "independence": 8200,
      "Bigg": 8201,
      "Alex": 8202,
      "Price": 8203,
      "ulty": 8204,
      "Advani": 8205,
      "Love": 8206,
      "policemen": 8207,
      "itsar": 8208,
      "thy": 8209,
      "silence": 8210,
      "stro": 8211,
      "Oil": 8212,
      "flows": 8213,
      "nomination": 8214,
      "JNU": 8215,
      "Poon": 8216,
      "monetary": 8217,
      "visible": 8218,
      "legally": 8219,
      "Church": 8220,
      "Federation": 8221,
      "inian": 8222,
      "diagno": 8223,
      "mixed": 8224,
      "procure": 8225,
      "backward": 8226,
      "Amritsar": 8227,
      "mala": 8228,
      "outcome": 8229,
      "BJD": 8230,
      "Xi": 8231,
      "reaction": 8232,
      "Shahid": 8233,
      "languages": 8234,
      "CCTV": 8235,
      "Microsoft": 8236,
      "Ajit": 8237,
      "eral": 8238,
      "79": 8239,
      "breach": 8240,
      "Republican": 8241,
      "kal": 8242,
      "uhan": 8243,
      "Ashwin": 8244,
      "quota": 8245,
      "totally": 8246,
      "loaded": 8247,
      "anci": 8248,
      "):": 8249,
      "Anti": 8250,
      "argued": 8251,
      "volunte": 8252,
      "burning": 8253,
      "dur": 8254,
      "faster": 8255,
      "stab": 8256,
      "scores": 8257,
      "closer": 8258,
      "citizenship": 8259,
      "quake": 8260,
      "sending": 8261,
      "Earth": 8262,
      "gathered": 8263,
      "species": 8264,
      "Dem": 8265,
      "provid": 8266,
      "Indones": 8267,
      "resolved": 8268,
      "testing": 8269,
      "Trinam": 8270,
      "mile": 8271,
      "Rural": 8272,
      "Sea": 8273,
      "kari": 8274,
      "surprising": 8275,
      "amend": 8276,
      "exposed": 8277,
      "comedy": 8278,
      "vend": 8279,
      "riti": 8280,
      "voted": 8281,
      "Trade": 8282,
      "motion": 8283,
      "Aditya": 8284,
      "endulkar": 8285,
      "flying": 8286,
      "output": 8287,
      "anonymity": 8288,
      "recognition": 8289,
      "Tendulkar": 8290,
      "presentation": 8291,
      "privile": 8292,
      "udhiana": 8293,
      "anmar": 8294,
      "regularly": 8295,
      "2001": 8296,
      "winners": 8297,
      "opter": 8298,
      "bags": 8299,
      "chip": 8300,
      "falls": 8301,
      "Airtel": 8302,
      "Anant": 8303,
      "tested": 8304,
      "condemn": 8305,
      "andi": 8306,
      "threats": 8307,
      "organiz": 8308,
      "ipped": 8309,
      "pond": 8310,
      "urance": 8311,
      "iden": 8312,
      "worker": 8313,
      "folk": 8314,
      "ixel": 8315,
      "Hence": 8316,
      "curb": 8317,
      "regulations": 8318,
      "Myanmar": 8319,
      "IPC": 8320,
      "Arora": 8321,
      "tied": 8322,
      "failing": 8323,
      "rehabilit": 8324,
      "RJD": 8325,
      "zy": 8326,
      "EE": 8327,
      "Train": 8328,
      "XI": 8329,
      "smartphones": 8330,
      "Mahesh": 8331,
      "charging": 8332,
      "generated": 8333,
      "Note": 8334,
      "finds": 8335,
      "distributed": 8336,
      "Mex": 8337,
      "batch": 8338,
      "meat": 8339,
      "prayers": 8340,
      "listen": 8341,
      "retirement": 8342,
      "prescri": 8343,
      "spoken": 8344,
      "minorities": 8345,
      "rick": 8346,
      "otal": 8347,
      "awati": 8348,
      "dent": 8349,
      "historical": 8350,
      "yoga": 8351,
      "Mayawati": 8352,
      "spiritual": 8353,
      "Taking": 8354,
      "blamed": 8355,
      "nis": 8356,
      "defend": 8357,
      "Nawaz": 8358,
      "parent": 8359,
      "framework": 8360,
      "materials": 8361,
      "Hurri": 8362,
      "76": 8363,
      "Jha": 8364,
      "bly": 8365,
      "hani": 8366,
      "infection": 8367,
      "Iranian": 8368,
      "Gaut": 8369,
      "Ambani": 8370,
      "revised": 8371,
      "cott": 8372,
      "Ghosh": 8373,
      "fied": 8374,
      "aja": 8375,
      "capable": 8376,
      "inda": 8377,
      "guide": 8378,
      "commod": 8379,
      "widely": 8380,
      "Citizenship": 8381,
      "junior": 8382,
      "orient": 8383,
      "resulting": 8384,
      "www": 8385,
      "confront": 8386,
      "spell": 8387,
      "ariat": 8388,
      "heavily": 8389,
      "READ": 8390,
      "wi": 8391,
      "proportion": 8392,
      "excited": 8393,
      "Ranveer": 8394,
      "technologies": 8395,
      "separat": 8396,
      "Hon": 8397,
      "Palestinian": 8398,
      "solve": 8399,
      "Tai": 8400,
      "Cali": 8401,
      "osop": 8402,
      "Navy": 8403,
      "crops": 8404,
      "walked": 8405,
      "optim": 8406,
      "garbage": 8407,
      "visits": 8408,
      "hate": 8409,
      "argument": 8410,
      "UA": 8411,
      "visa": 8412,
      "gro": 8413,
      "compliance": 8414,
      "Khanna": 8415,
      "radio": 8416,
      "Flip": 8417,
      "trends": 8418,
      "filmmaker": 8419,
      "VC": 8420,
      "entering": 8421,
      "icopter": 8422,
      "ograph": 8423,
      "ulous": 8424,
      "Hurriyat": 8425,
      "utal": 8426,
      "isha": 8427,
      "neck": 8428,
      "adjust": 8429,
      "clock": 8430,
      "Desk": 8431,
      "mouth": 8432,
      "icken": 8433,
      "mega": 8434,
      "certificate": 8435,
      "pit": 8436,
      "hotels": 8437,
      "ordination": 8438,
      "bless": 8439,
      "Shuk": 8440,
      "Industrial": 8441,
      "experiences": 8442,
      "Trophy": 8443,
      "gypt": 8444,
      "uous": 8445,
      "hosts": 8446,
      "Hr": 8447,
      "explains": 8448,
      "Kashmiris": 8449,
      "Sahib": 8450,
      "Abhi": 8451,
      "rivals": 8452,
      "Turkey": 8453,
      "Dan": 8454,
      "Choud": 8455,
      "conveni": 8456,
      "combined": 8457,
      "Jawahar": 8458,
      "USA": 8459,
      "pocket": 8460,
      "speaker": 8461,
      "Ladakh": 8462,
      "alal": 8463,
      "minded": 8464,
      "causes": 8465,
      "Ranjan": 8466,
      "rition": 8467,
      "preparing": 8468,
      "globally": 8469,
      "continuing": 8470,
      "guests": 8471,
      "maintaining": 8472,
      "Dim": 8473,
      "saffron": 8474,
      "gil": 8475,
      "traction": 8476,
      "istics": 8477,
      "ifty": 8478,
      "Alliance": 8479,
      "Pacific": 8480,
      "lan": 8481,
      "autonom": 8482,
      "Masjid": 8483,
      "ayam": 8484,
      "croach": 8485,
      "split": 8486,
      "Rs1": 8487,
      "limits": 8488,
      "Emer": 8489,
      "Manipur": 8490,
      "Employ": 8491,
      "cells": 8492,
      "Children": 8493,
      "Live": 8494,
      "discipline": 8495,
      "diversity": 8496,
      "tosh": 8497,
      "moon": 8498,
      "Till": 8499,
      "affordable": 8500,
      "diplomatic": 8501,
      "diabet": 8502,
      "Math": 8503,
      "batsmen": 8504,
      "demonstration": 8505,
      "Shop": 8506,
      "judgement": 8507,
      "acres": 8508,
      "Space": 8509,
      "mense": 8510,
      "attribut": 8511,
      "Temple": 8512,
      "Nam": 8513,
      "conservation": 8514,
      "stuck": 8515,
      "counts": 8516,
      "royal": 8517,
      "discovered": 8518,
      "obl": 8519,
      "Five": 8520,
      "liest": 8521,
      "pad": 8522,
      "Vad": 8523,
      "brutal": 8524,
      "Thus": 8525,
      "kti": 8526,
      "invested": 8527,
      "82": 8528,
      "ING": 8529,
      "Egypt": 8530,
      "Qual": 8531,
      "MI": 8532,
      "immense": 8533,
      "broadcast": 8534,
      "existence": 8535,
      "Gautam": 8536,
      "Alia": 8537,
      "bio": 8538,
      "OP": 8539,
      "tap": 8540,
      "struggling": 8541,
      "hopeful": 8542,
      "slowdown": 8543,
      "hack": 8544,
      "sab": 8545,
      "ND": 8546,
      "Om": 8547,
      "impressive": 8548,
      "disp": 8549,
      "loyal": 8550,
      "addy": 8551,
      "commence": 8552,
      "bowler": 8553,
      "uri": 8554,
      "powered": 8555,
      "merger": 8556,
      "aggressive": 8557,
      "oking": 8558,
      "household": 8559,
      "letters": 8560,
      "Football": 8561,
      "surrounding": 8562,
      "Cham": 8563,
      "Italy": 8564,
      "expenses": 8565,
      "worldwide": 8566,
      "raf": 8567,
      "Gl": 8568,
      "Royal": 8569,
      "Vill": 8570,
      "invite": 8571,
      "sixth": 8572,
      "Trinamool": 8573,
      "consequences": 8574,
      "negotiations": 8575,
      "trigger": 8576,
      "uki": 8577,
      "violations": 8578,
      "DGP": 8579,
      "undertaken": 8580,
      "handling": 8581,
      "requirement": 8582,
      "church": 8583,
      "Sard": 8584,
      "uniform": 8585,
      "ittal": 8586,
      "IF": 8587,
      "behalf": 8588,
      "coordin": 8589,
      "enger": 8590,
      "Ital": 8591,
      "advertise": 8592,
      "Us": 8593,
      "sys": 8594,
      "encroach": 8595,
      "Som": 8596,
      "applied": 8597,
      "federal": 8598,
      "iation": 8599,
      "NIA": 8600,
      "AGAR": 8601,
      "etic": 8602,
      "Vol": 8603,
      "stun": 8604,
      "lean": 8605,
      "Loc": 8606,
      "psych": 8607,
      "Vive": 8608,
      "therap": 8609,
      "araman": 8610,
      "expl": 8611,
      "jeet": 8612,
      "pieces": 8613,
      "combat": 8614,
      "determined": 8615,
      "efficient": 8616,
      "approx": 8617,
      "Dutt": 8618,
      "represented": 8619,
      "PAN": 8620,
      "consultation": 8621,
      "repeatedly": 8622,
      "traged": 8623,
      "pill": 8624,
      "Xia": 8625,
      "Wi": 8626,
      "yn": 8627,
      "brilli": 8628,
      "usal": 8629,
      "constant": 8630,
      "sees": 8631,
      "priced": 8632,
      "Yatra": 8633,
      "resistance": 8634,
      "weigh": 8635,
      "Awards": 8636,
      "tam": 8637,
      "lash": 8638,
      "arts": 8639,
      "Captain": 8640,
      "suggestions": 8641,
      "martyr": 8642,
      "Shukla": 8643,
      "reveals": 8644,
      "lots": 8645,
      "Inspe": 8646,
      "legislators": 8647,
      "civilian": 8648,
      "DG": 8649,
      "Hel": 8650,
      "Fire": 8651,
      "moments": 8652,
      "itchen": 8653,
      "deposits": 8654,
      "violate": 8655,
      "Pant": 8656,
      "metres": 8657,
      "beneficiaries": 8658,
      "fees": 8659,
      "Old": 8660,
      "interim": 8661,
      "AIA": 8662,
      "summon": 8663,
      "Back": 8664,
      "shore": 8665,
      "Madrid": 8666,
      "Americans": 8667,
      "celebration": 8668,
      "Sher": 8669,
      "dh": 8670,
      "concert": 8671,
      "LA": 8672,
      "signal": 8673,
      "Jour": 8674,
      "Agency": 8675,
      "pattern": 8676,
      "pride": 8677,
      "hane": 8678,
      "bum": 8679,
      "Muz": 8680,
      "muse": 8681,
      "Sith": 8682,
      "continent": 8683,
      "Raje": 8684,
      "wad": 8685,
      "questioning": 8686,
      "Maruti": 8687,
      "Superintendent": 8688,
      "Bah": 8689,
      "privacy": 8690,
      "Tube": 8691,
      "Each": 8692,
      "idi": 8693,
      "hish": 8694,
      "perception": 8695,
      "compete": 8696,
      "Investment": 8697,
      "Baba": 8698,
      "intense": 8699,
      "Highway": 8700,
      "protesting": 8701,
      "Bloom": 8702,
      "Ved": 8703,
      "Johnson": 8704,
      "apparently": 8705,
      "guarantee": 8706,
      "Thank": 8707,
      "ranked": 8708,
      "warrant": 8709,
      "vulnerable": 8710,
      "Telugu": 8711,
      "sanctioned": 8712,
      "bills": 8713,
      "adm": 8714,
      "fate": 8715,
      "adverse": 8716,
      "preet": 8717,
      "viation": 8718,
      "Goyal": 8719,
      "Soon": 8720,
      "dust": 8721,
      "contributed": 8722,
      "Given": 8723,
      "Line": 8724,
      "decre": 8725,
      "Abu": 8726,
      "elephant": 8727,
      "chester": 8728,
      "iring": 8729,
      "missile": 8730,
      "volume": 8731,
      "GA": 8732,
      "wenty": 8733,
      "Flipkart": 8734,
      "enem": 8735,
      "contesting": 8736,
      "crossed": 8737,
      "utter": 8738,
      "outstanding": 8739,
      "amazing": 8740,
      "yard": 8741,
      "Manager": 8742,
      "mainstream": 8743,
      "tackle": 8744,
      "hoping": 8745,
      "vation": 8746,
      "Vikram": 8747,
      "Industry": 8748,
      "chat": 8749,
      "mant": 8750,
      "wherein": 8751,
      "voy": 8752,
      "referring": 8753,
      "hana": 8754,
      "roleum": 8755,
      "Infosys": 8756,
      "Nik": 8757,
      "walking": 8758,
      "Raipur": 8759,
      "truly": 8760,
      "Akali": 8761,
      "File": 8762,
      "Famil": 8763,
      "types": 8764,
      "inate": 8765,
      "cater": 8766,
      "Rajan": 8767,
      "bottom": 8768,
      "forcing": 8769,
      "Jew": 8770,
      "targeting": 8771,
      "professionals": 8772,
      "philosop": 8773,
      "transaction": 8774,
      "pure": 8775,
      "civilians": 8776,
      "engineer": 8777,
      "Sitharaman": 8778,
      "generally": 8779,
      "witnesses": 8780,
      "Jat": 8781,
      "fornia": 8782,
      "reserved": 8783,
      "myster": 8784,
      "alongside": 8785,
      "links": 8786,
      "MD": 8787,
      "rupees": 8788,
      "Chouhan": 8789,
      "Protection": 8790,
      "Hai": 8791,
      "MG": 8792,
      "tact": 8793,
      "Italian": 8794,
      "cricketer": 8795,
      "intent": 8796,
      "raped": 8797,
      "followers": 8798,
      "northern": 8799,
      "Han": 8800,
      "retain": 8801,
      "fighter": 8802,
      "default": 8803,
      "mac": 8804,
      "norm": 8805,
      "quiet": 8806,
      "shrine": 8807,
      "pher": 8808,
      "PA": 8809,
      "affar": 8810,
      "brace": 8811,
      "AIADMK": 8812,
      "California": 8813,
      "Spain": 8814,
      "jaw": 8815,
      "unprecedent": 8816,
      "institutional": 8817,
      "unprecedented": 8818,
      "Jon": 8819,
      "digit": 8820,
      "IV": 8821,
      "Sched": 8822,
      "Pass": 8823,
      "lying": 8824,
      "portray": 8825,
      "dynam": 8826,
      "Mill": 8827,
      "bin": 8828,
      "lights": 8829,
      "ancient": 8830,
      "Franc": 8831,
      "Curren": 8832,
      "escal": 8833,
      "Mess": 8834,
      "prestig": 8835,
      "sey": 8836,
      "scandal": 8837,
      "Professor": 8838,
      "mate": 8839,
      "proposals": 8840,
      "WD": 8841,
      "merit": 8842,
      "das": 8843,
      "anywhere": 8844,
      "magazine": 8845,
      "worried": 8846,
      "Adityanath": 8847,
      "athlet": 8848,
      "sav": 8849,
      "hima": 8850,
      "meal": 8851,
      "Rich": 8852,
      "Tej": 8853,
      "statue": 8854,
      "Nave": 8855,
      "interpre": 8856,
      "Aadmi": 8857,
      "prosper": 8858,
      "Rama": 8859,
      "classic": 8860,
      "taught": 8861,
      "ato": 8862,
      "lady": 8863,
      "Mangal": 8864,
      "ranging": 8865,
      "rot": 8866,
      "10th": 8867,
      "indicated": 8868,
      "contemporary": 8869,
      "savings": 8870,
      "atta": 8871,
      "elled": 8872,
      "Tru": 8873,
      "tennis": 8874,
      "Manchester": 8875,
      "Happ": 8876,
      "anj": 8877,
      "Get": 8878,
      "Ken": 8879,
      "vegetables": 8880,
      "appreciated": 8881,
      "Kon": 8882,
      "conclusion": 8883,
      "JP": 8884,
      "Scheme": 8885,
      "affil": 8886,
      "83": 8887,
      "bott": 8888,
      "cot": 8889,
      "gered": 8890,
      "External": 8891,
      "drawing": 8892,
      "triggered": 8893,
      "Bengali": 8894,
      "shots": 8895,
      "prise": 8896,
      "Yojana": 8897,
      "Prince": 8898,
      "helicopter": 8899,
      "intellectual": 8900,
      "Inspector": 8901,
      "89": 8902,
      "unk": 8903,
      "hoc": 8904,
      "Ambed": 8905,
      "Bho": 8906,
      "ori": 8907,
      "Cy": 8908,
      "anya": 8909,
      "scenes": 8910,
      "ecution": 8911,
      "momentum": 8912,
      "engage": 8913,
      "scrut": 8914,
      "Kare": 8915,
      "participating": 8916,
      "rooms": 8917,
      "contrast": 8918,
      "visual": 8919,
      "hitting": 8920,
      "twin": 8921,
      "blow": 8922,
      "staying": 8923,
      "1980": 8924,
      "Six": 8925,
      "iser": 8926,
      "chap": 8927,
      "rational": 8928,
      "roots": 8929,
      "Web": 8930,
      "accidents": 8931,
      "unfortunate": 8932,
      "fli": 8933,
      "interact": 8934,
      "Ambedkar": 8935,
      "Smart": 8936,
      "Saj": 8937,
      "inf": 8938,
      "lined": 8939,
      "capture": 8940,
      "Ron": 8941,
      "counting": 8942,
      "Youn": 8943,
      "procedure": 8944,
      "investing": 8945,
      "holder": 8946,
      "complained": 8947,
      "Mob": 8948,
      "IR": 8949,
      "Taj": 8950,
      "abandon": 8951,
      "boat": 8952,
      "holy": 8953,
      "NO": 8954,
      "sters": 8955,
      "evolution": 8956,
      "whel": 8957,
      "Aamir": 8958,
      "suddenly": 8959,
      "andum": 8960,
      "scape": 8961,
      "launching": 8962,
      "ambitious": 8963,
      "relatively": 8964,
      "roof": 8965,
      "Indore": 8966,
      "blind": 8967,
      "innovative": 8968,
      "stones": 8969,
      "subjects": 8970,
      "Hu": 8971,
      "Intell": 8972,
      "gift": 8973,
      "propag": 8974,
      "Bhut": 8975,
      "nobody": 8976,
      "surprised": 8977,
      "merely": 8978,
      "ston": 8979,
      "anx": 8980,
      "Mant": 8981,
      "hectare": 8982,
      "Intelligence": 8983,
      "Akhtar": 8984,
      "Vide": 8985,
      "eign": 8986,
      "Action": 8987,
      "Interestingly": 8988,
      "Reven": 8989,
      "drag": 8990,
      "reiter": 8991,
      "Sandeep": 8992,
      "overeign": 8993,
      "instructions": 8994,
      "honest": 8995,
      "cuit": 8996,
      "wishes": 8997,
      "lake": 8998,
      "ridge": 8999,
      "clashes": 9000,
      "Francis": 9001,
      "haul": 9002,
      "agi": 9003,
      "subsidy": 9004,
      "destroyed": 9005,
      "lending": 9006,
      "faculty": 9007,
      "sensor": 9008,
      "Recently": 9009,
      "rey": 9010,
      "blocked": 9011,
      "ometre": 9012,
      "tainment": 9013,
      "Bhus": 9014,
      "Regional": 9015,
      "execution": 9016,
      "happiness": 9017,
      "shelter": 9018,
      "attached": 9019,
      "Hal": 9020,
      "Ren": 9021,
      "juris": 9022,
      "cultiv": 9023,
      "voter": 9024,
      "tracks": 9025,
      "pursue": 9026,
      "Uber": 9027,
      "cers": 9028,
      "speculation": 9029,
      "devotees": 9030,
      "Bis": 9031,
      "Collector": 9032,
      "beating": 9033,
      "Jin": 9034,
      "recalled": 9035,
      "irts": 9036,
      "2nd": 9037,
      "Snap": 9038,
      "onav": 9039,
      "heading": 9040,
      "Division": 9041,
      "rikar": 9042,
      "bold": 9043,
      "Engineering": 9044,
      "Sans": 9045,
      "Paduk": 9046,
      "Gow": 9047,
      "filling": 9048,
      "irrigation": 9049,
      "distress": 9050,
      "oter": 9051,
      "lob": 9052,
      "tune": 9053,
      "olf": 9054,
      "appreh": 9055,
      "Malaysia": 9056,
      "dinner": 9057,
      "Rashid": 9058,
      "medicine": 9059,
      "condemned": 9060,
      "rescued": 9061,
      "Kart": 9062,
      "ourselves": 9063,
      "Income": 9064,
      "advertising": 9065,
      "perpet": 9066,
      "kilometre": 9067,
      "emission": 9068,
      "Xiaomi": 9069,
      "bron": 9070,
      "hotra": 9071,
      "grass": 9072,
      "stating": 9073,
      "touched": 9074,
      "Insur": 9075,
      "ificial": 9076,
      "interven": 9077,
      "Gurgaon": 9078,
      "Rakesh": 9079,
      "ensured": 9080,
      "sons": 9081,
      "collapse": 9082,
      "Lah": 9083,
      "Video": 9084,
      "island": 9085,
      "86": 9086,
      "metal": 9087,
      "deeply": 9088,
      "motive": 9089,
      "fallen": 9090,
      "clients": 9091,
      "Thir": 9092,
      "desper": 9093,
      "towns": 9094,
      "rogation": 9095,
      "stronger": 9096,
      "Padukone": 9097,
      "lag": 9098,
      "impossible": 9099,
      "earning": 9100,
      "NSE": 9101,
      "1999": 9102,
      "1st": 9103,
      "celer": 9104,
      "Parrikar": 9105,
      "processing": 9106,
      "stepped": 9107,
      "childhood": 9108,
      "valuable": 9109,
      "Being": 9110,
      "greatest": 9111,
      "lunch": 9112,
      "thrown": 9113,
      "Raman": 9114,
      "iga": 9115,
      "itam": 9116,
      "Fernandes": 9117,
      "litre": 9118,
      "atha": 9119,
      "Vinod": 9120,
      "principle": 9121,
      "flav": 9122,
      "consen": 9123,
      "BE": 9124,
      "Girl": 9125,
      "Land": 9126,
      "tab": 9127,
      "Sharad": 9128,
      "Ludhiana": 9129,
      "rer": 9130,
      "idav": 9131,
      "unlike": 9132,
      "....": 9133,
      "popularity": 9134,
      "properly": 9135,
      "wine": 9136,
      "reward": 9137,
      "promising": 9138,
      "sor": 9139,
      "representative": 9140,
      "amond": 9141,
      "relating": 9142,
      "Major": 9143,
      "entirely": 9144,
      "onso": 9145,
      "dad": 9146,
      "Desai": 9147,
      "aviation": 9148,
      "Kings": 9149,
      "Programme": 9150,
      "toward": 9151,
      "94": 9152,
      "unknown": 9153,
      "communic": 9154,
      "vas": 9155,
      "SRIN": 9156,
      "Ghulam": 9157,
      "yes": 9158,
      "medicines": 9159,
      "Nic": 9160,
      "ousing": 9161,
      "SK": 9162,
      "airlines": 9163,
      "Political": 9164,
      "stance": 9165,
      "compound": 9166,
      "hosted": 9167,
      "irregular": 9168,
      "evident": 9169,
      "iqu": 9170,
      "render": 9171,
      "ox": 9172,
      "inner": 9173,
      "arious": 9174,
      "SRINAGAR": 9175,
      "Gir": 9176,
      "yar": 9177,
      "affidav": 9178,
      "Jer": 9179,
      "tragedy": 9180,
      "Naz": 9181,
      "THE": 9182,
      "suspension": 9183,
      "commander": 9184,
      "absolutely": 9185,
      "LoC": 9186,
      "declare": 9187,
      "convenience": 9188,
      "igen": 9189,
      "licence": 9190,
      "nice": 9191,
      "contacted": 9192,
      "Hotel": 9193,
      "Bloomberg": 9194,
      "Sonam": 9195,
      "Securities": 9196,
      "Motors": 9197,
      "corporation": 9198,
      "greet": 9199,
      "transparency": 9200,
      "rallies": 9201,
      "prosecut": 9202,
      "recognised": 9203,
      "households": 9204,
      "triya": 9205,
      "inspection": 9206,
      "Rani": 9207,
      "Ranbir": 9208,
      "convicted": 9209,
      "underway": 9210,
      "sentiment": 9211,
      "starrer": 9212,
      "Revenue": 9213,
      "Mrs": 9214,
      "jok": 9215,
      "ende": 9216,
      "Call": 9217,
      "itary": 9218,
      "LE": 9219,
      "Town": 9220,
      "crimination": 9221,
      "IPO": 9222,
      "Phil": 9223,
      "84": 9224,
      "dip": 9225,
      "fears": 9226,
      "structures": 9227,
      "flex": 9228,
      "Private": 9229,
      "qualification": 9230,
      "isan": 9231,
      "situations": 9232,
      "formula": 9233,
      "Hem": 9234,
      "DNA": 9235,
      "pushing": 9236,
      "amongst": 9237,
      "Pratap": 9238,
      "Tripath": 9239,
      "Sidhu": 9240,
      "producers": 9241,
      "Saif": 9242,
      "Yoga": 9243,
      "literature": 9244,
      "irus": 9245,
      "authorised": 9246,
      "allotted": 9247,
      "coin": 9248,
      "attending": 9249,
      "BSF": 9250,
      "uma": 9251,
      "stroke": 9252,
      "gence": 9253,
      "RTI": 9254,
      "Ul": 9255,
      "resigned": 9256,
      "orate": 9257,
      "BO": 9258,
      "orn": 9259,
      "legacy": 9260,
      "shopping": 9261,
      "DO": 9262,
      "shout": 9263,
      "pour": 9264,
      "Take": 9265,
      "vacc": 9266,
      "Islands": 9267,
      "contested": 9268,
      "Brexit": 9269,
      "meets": 9270,
      "understood": 9271,
      "personality": 9272,
      "Dab": 9273,
      "prosecution": 9274,
      "Prem": 9275,
      "Clint": 9276,
      "egg": 9277,
      "fortnight": 9278,
      "Christmas": 9279,
      "900": 9280,
      "YouTube": 9281,
      "Leader": 9282,
      "Naveen": 9283,
      "lement": 9284,
      "ightly": 9285,
      "Mukesh": 9286,
      "convent": 9287,
      "slightly": 9288,
      "flash": 9289,
      "Higher": 9290,
      "rian": 9291,
      "primarily": 9292,
      "toilets": 9293,
      "Through": 9294,
      "Malhotra": 9295,
      "Greater": 9296,
      "rack": 9297,
      "anticip": 9298,
      "servative": 9299,
      "writers": 9300,
      "Whe": 9301,
      "ultane": 9302,
      "follows": 9303,
      "Himal": 9304,
      "BB": 9305,
      "killings": 9306,
      "Suz": 9307,
      "alias": 9308,
      "forests": 9309,
      "personally": 9310,
      "slum": 9311,
      "Represent": 9312,
      "update": 9313,
      "utral": 9314,
      "bagged": 9315,
      "legislative": 9316,
      "gall": 9317,
      "achievements": 9318,
      "inspiration": 9319,
      "kitchen": 9320,
      "assy": 9321,
      "Housing": 9322,
      "calm": 9323,
      "studying": 9324,
      "enjoyed": 9325,
      "Stock": 9326,
      "hostel": 9327,
      "Goan": 9328,
      "launches": 9329,
      "Currently": 9330,
      "economies": 9331,
      "adopt": 9332,
      "organizations": 9333,
      "sive": 9334,
      "Great": 9335,
      "functions": 9336,
      "Ish": 9337,
      "coverage": 9338,
      "offence": 9339,
      "writes": 9340,
      "91": 9341,
      "Ghaz": 9342,
      "eria": 9343,
      "orious": 9344,
      "Bhushan": 9345,
      "accur": 9346,
      "Mak": 9347,
      "87": 9348,
      "Chris": 9349,
      "ining": 9350,
      "admit": 9351,
      "acceler": 9352,
      "Compan": 9353,
      "dogs": 9354,
      "phenomen": 9355,
      "yap": 9356,
      "discrimination": 9357,
      "thereby": 9358,
      "backdrop": 9359,
      "posting": 9360,
      "hanging": 9361,
      "onavirus": 9362,
      "cretar": 9363,
      "evac": 9364,
      "youngsters": 9365,
      "OnePlus": 9366,
      "pread": 9367,
      "Show": 9368,
      "poster": 9369,
      "Padma": 9370,
      "endous": 9371,
      "kat": 9372,
      "itarian": 9373,
      "laughter": 9374,
      "Kaly": 9375,
      "ivas": 9376,
      "reviewed": 9377,
      "efficiency": 9378,
      "Engineer": 9379,
      "zer": 9380,
      "profits": 9381,
      "carbon": 9382,
      "encouraged": 9383,
      "Dinesh": 9384,
      "patri": 9385,
      "shadow": 9386,
      "ica": 9387,
      "Varan": 9388,
      "threatening": 9389,
      "Village": 9390,
      "praise": 9391,
      "adapt": 9392,
      "centuries": 9393,
      "coffee": 9394,
      "jurisdiction": 9395,
      "urved": 9396,
      "angry": 9397,
      "installation": 9398,
      "PU": 9399,
      "overwhel": 9400,
      "shareholders": 9401,
      "Kareena": 9402,
      "Hua": 9403,
      "eva": 9404,
      "III": 9405,
      "Cro": 9406,
      "CH": 9407,
      "farming": 9408,
      "org": 9409,
      "orous": 9410,
      "spinner": 9411,
      "detention": 9412,
      "mole": 9413,
      "museum": 9414,
      "dub": 9415,
      "hali": 9416,
      "Sciences": 9417,
      "manifesto": 9418,
      "Family": 9419,
      "pin": 9420,
      "Prom": 9421,
      "motorcycle": 9422,
      "assurance": 9423,
      "drought": 9424,
      "noticed": 9425,
      "Nan": 9426,
      "bull": 9427,
      "ministerial": 9428,
      "Insurance": 9429,
      "Survey": 9430,
      "wrest": 9431,
      "boundary": 9432,
      "Secret": 9433,
      "RP": 9434,
      "sovereign": 9435,
      "wra": 9436,
      "amendment": 9437,
      "constantly": 9438,
      "cles": 9439,
      "syn": 9440,
      "producing": 9441,
      "Vo": 9442,
      "radical": 9443,
      "sect": 9444,
      "Center": 9445,
      "politically": 9446,
      "Consumer": 9447,
      "deserve": 9448,
      "Airways": 9449,
      "Nis": 9450,
      "comparison": 9451,
      "lyn": 9452,
      "neighb": 9453,
      "Ach": 9454,
      "Ever": 9455,
      "Martin": 9456,
      "burg": 9457,
      "stuff": 9458,
      "chef": 9459,
      "fas": 9460,
      "Muzaffar": 9461,
      "packed": 9462,
      "frequent": 9463,
      "Bish": 9464,
      "neighbours": 9465,
      "saved": 9466,
      "locked": 9467,
      "Nitin": 9468,
      "ologist": 9469,
      "Nifty": 9470,
      "occasions": 9471,
      "bronze": 9472,
      "Tir": 9473,
      "exciting": 9474,
      "vacant": 9475,
      "HDFC": 9476,
      "jet": 9477,
      "spreading": 9478,
      "upgrad": 9479,
      "coll": 9480,
      "crossing": 9481,
      "Fashion": 9482,
      "lihood": 9483,
      "revenues": 9484,
      "Johar": 9485,
      "Chaudhary": 9486,
      "possibly": 9487,
      "diabetes": 9488,
      "Sai": 9489,
      "Clinton": 9490,
      "Bandra": 9491,
      "drain": 9492,
      "uting": 9493,
      "footage": 9494,
      "Corporate": 9495,
      "rehabilitation": 9496,
      "estimate": 9497,
      "Desh": 9498,
      "routes": 9499,
      "asserted": 9500,
      "moderate": 9501,
      "Companies": 9502,
      "rab": 9503,
      "criminals": 9504,
      "Rashtriya": 9505,
      "align": 9506,
      "Peter": 9507,
      "rear": 9508,
      "frust": 9509,
      "criticised": 9510,
      "alleging": 9511,
      "relationships": 9512,
      "Person": 9513,
      "Madras": 9514,
      "Managing": 9515,
      "founded": 9516,
      "agents": 9517,
      "responded": 9518,
      "Hall": 9519,
      "finger": 9520,
      "corrupt": 9521,
      "empt": 9522,
      "boycott": 9523,
      "Journal": 9524,
      "grave": 9525,
      "Traffic": 9526,
      "Ganesh": 9527,
      "Gram": 9528,
      "ronics": 9529,
      "forum": 9530,
      "12th": 9531,
      "Coal": 9532,
      "invent": 9533,
      "reject": 9534,
      "congratulate": 9535,
      "boss": 9536,
      "survive": 9537,
      "Date": 9538,
      "Van": 9539,
      "nutrition": 9540,
      "Rath": 9541,
      "collector": 9542,
      "Ayush": 9543,
      "restricted": 9544,
      "watched": 9545,
      "Sushma": 9546,
      "habad": 9547,
      "Entertainment": 9548,
      "excellent": 9549,
      "oath": 9550,
      "Varanasi": 9551,
      "Dimapur": 9552,
      "delight": 9553,
      "resource": 9554,
      "acquire": 9555,
      "wildlife": 9556,
      "Los": 9557,
      "principles": 9558,
      "KK": 9559,
      "Jama": 9560,
      "Hand": 9561,
      "Wild": 9562,
      "Parliamentary": 9563,
      "neutral": 9564,
      "headline": 9565,
      "FS": 9566,
      "AK": 9567,
      "LT": 9568,
      "Yash": 9569,
      "Thomas": 9570,
      "magn": 9571,
      "acceptable": 9572,
      "Warner": 9573,
      "Was": 9574,
      "96": 9575,
      "elab": 9576,
      "notices": 9577,
      "Tibet": 9578,
      "lever": 9579,
      "treas": 9580,
      "Elections": 9581,
      "medals": 9582,
      "Ras": 9583,
      "celona": 9584,
      "tall": 9585,
      "ambassador": 9586,
      "Barcelona": 9587,
      "idol": 9588,
      "blog": 9589,
      "thening": 9590,
      "reporting": 9591,
      "strengthening": 9592,
      "dual": 9593,
      "judiciary": 9594,
      "iconic": 9595,
      "fur": 9596,
      "birds": 9597,
      "moval": 9598,
      "ignored": 9599,
      "Free": 9600,
      "transition": 9601,
      "coastal": 9602,
      "Indonesia": 9603,
      "dreams": 9604,
      "photographs": 9605,
      "Vict": 9606,
      "Meet": 9607,
      "brilliant": 9608,
      "Tim": 9609,
      "mous": 9610,
      "81": 9611,
      "contr": 9612,
[...]
