{
  "version": "1.0",
  "truncation": null,
  "padding": null,
  "added_tokens": [
    {
      "id": 0,
      "content": "[UNK]",
      "single_word": false,
      "lstrip": false,
      "rstrip": false,
      "normalized": false,
      "special": true
    },
    {
      "id": 1,
      "content": "[CLS]",
      "single_word": false,
      "lstrip": false,
      "rstrip": false,
      "normalized": false,
      "special": true
    },
    {
      "id": 2,
      "content": "[SEP]",
      "single_word": false,
      "lstrip": false,
      "rstrip": false,
      "normalized": false,
      "special": true
    },
    {
      "id": 3,
      "content": "[PAD]",
      "single_word": false,
      "lstrip": false,
      "rstrip": false,
      "normalized": false,
      "special": true
    },
    {
      "id": 4,
      "content": "[MASK]",
      "single_word": false,
      "lstrip": false,
      "rstrip": false,
      "normalized": false,
      "special": true
    },
    {
      "id": 5,
      "content": "[PAR]",
      "single_word": false,
      "lstrip": false,
      "rstrip": false,
      "normalized": false,
      "special": true
    },
    {
      "id": 6,
      "content": "[TAB]",
      "single_word": false,
      "lstrip": false,
      "rstrip": false,
      "normalized": false,
      "special": true
    }
  ],
  "normalizer": null,
  "pre_tokenizer": {
    "type": "Whitespace"
  },
  "post_processor": null,
  "decoder": null,
  "model": {
    "type": "BPE",
    "dropout": null,
    "unk_token": "[UNK]",
    "continuing_subword_prefix": null,
    "end_of_word_suffix": null,
    "fuse_unk": false,
    "byte_fallback": false,
    "ignore_merges": false,
    "vocab": {
      "[UNK]": 0,
      "[CLS]": 1,
      "[SEP]": 2,
      "[PAD]": 3,
      "[MASK]": 4,
      "[PAR]": 5,
      "[TAB]": 6,
      "\u0001": 7,
      "\u0003": 8,
      "\u0004": 9,
      "\u0012": 10,
      "\u0013": 11,
      "\u001b": 12,
      "\u001e": 13,
      "!": 14,
      "\"": 15,
      "#": 16,
      "$": 17,
      "%": 18,
      "&": 19,
      "'": 20,
      "(": 21,
      ")": 22,
      "*": 23,
      "+": 24,
      ",": 25,
      "-": 26,
      ".": 27,
      "/": 28,
      "0": 29,
      "1": 30,
      "2": 31,
      "3": 32,
      "4": 33,
      "5": 34,
      "6": 35,
      "7": 36,
      "8": 37,
      "9": 38,
      ":": 39,
      ";": 40,
      "<": 41,
      "=": 42,
      ">": 43,
      "?": 44,
      "@": 45,
      "A": 46,
      "B": 47,
      "C": 48,
      "D": 49,
      "E": 50,
      "F": 51,
      "G": 52,
      "H": 53,
      "I": 54,
      "J": 55,
      "K": 56,
      "L": 57,
      "M": 58,
      "N": 59,
      "O": 60,
      "P": 61,
      "Q": 62,
      "R": 63,
      "S": 64,
      "T": 65,
      "U": 66,
      "V": 67,
      "W": 68,
      "X": 69,
      "Y": 70,
      "Z": 71,
      "[": 72,
      "\\": 73,
      "]": 74,
      "^": 75,
      "_": 76,
      "`": 77,
      "a": 78,
      "b": 79,
      "c": 80,
      "d": 81,
      "e": 82,
      "f": 83,
      "g": 84,
      "h": 85,
      "i": 86,
      "j": 87,
      "k": 88,
      "l": 89,
      "m": 90,
      "n": 91,
      "o": 92,
      "p": 93,
      "q": 94,
      "r": 95,
      "s": 96,
      "t": 97,
      "u": 98,
      "v": 99,
      "w": 100,
      "x": 101,
      "y": 102,
      "z": 103,
      "{": 104,
      "|": 105,
      "}": 106,
      "~": 107,
      "": 108,
      "": 109,
      "": 110,
      "": 111,
      "": 112,
      "": 113,
      "": 114,
      "": 115,
      "": 116,
      "": 117,
      "": 118,
      "": 119,
      "": 120,
      "": 121,
      "": 122,
      "": 123,
      "": 124,
      "": 125,
      "": 126,
      "": 127,
      "": 128,
      "": 129,
      "": 130,
      "": 131,
      "": 132,
      "": 133,
      "": 134,
      "": 135,
      "": 136,
      "": 137,
      "¡": 138,
      "¢": 139,
      "£": 140,
      "¤": 141,
      "¥": 142,
      "¦": 143,
      "§": 144,
      "¨": 145,
      "©": 146,
      "ª": 147,
      "«": 148,
      "¬": 149,
      "­": 150,
      "®": 151,
      "¯": 152,
      "°": 153,
      "±": 154,
      "²": 155,
      "³": 156,
      "´": 157,
      "µ": 158,
      "¶": 159,
      "·": 160,
      "¸": 161,
      "¹": 162,
      "º": 163,
      "»": 164,
      "¼": 165,
      "½": 166,
      "¾": 167,
      "¿": 168,
      "À": 169,
      "Á": 170,
      "Â": 171,
      "Ä": 172,
      "Å": 173,
      "Æ": 174,
      "Ç": 175,
      "È": 176,
      "É": 177,
      "Ê": 178,
      "Ë": 179,
      "Ì": 180,
      "Í": 181,
      "Ï": 182,
      "Ð": 183,
      "Ñ": 184,
      "Ó": 185,
      "Ô": 186,
      "Ö": 187,
      "×": 188,
      "Ø": 189,
      "Ù": 190,
      "Ú": 191,
      "Û": 192,
      "Ü": 193,
      "Þ": 194,
      "ß": 195,
      "à": 196,
      "á": 197,
      "â": 198,
      "ã": 199,
      "ä": 200,
      "å": 201,
      "æ": 202,
      "ç": 203,
      "è": 204,
      "é": 205,
      "ê": 206,
      "ë": 207,
      "ì": 208,
      "í": 209,
      "î": 210,
      "ï": 211,
      "ð": 212,
      "ñ": 213,
      "ò": 214,
      "ó": 215,
      "ô": 216,
      "õ": 217,
      "ö": 218,
      "÷": 219,
      "ø": 220,
      "ù": 221,
      "ú": 222,
      "û": 223,
      "ü": 224,
      "ý": 225,
      "ā": 226,
      "ă": 227,
      "ą": 228,
      "ć": 229,
      "Č": 230,
      "č": 231,
      "ď": 232,
      "Đ": 233,
      "đ": 234,
      "ē": 235,
      "ė": 236,
      "ę": 237,
      "ě": 238,
      "ğ": 239,
      "ġ": 240,
      "ħ": 241,
      "ĩ": 242,
      "ī": 243,
      "ĭ": 244,
      "į": 245,
      "İ": 246,
      "ı": 247,
      "ķ": 248,
      "ĸ": 249,
      "Ĺ": 250,
      "ł": 251,
      "ń": 252,
      "ň": 253,
      "Ŋ": 254,
      "ŋ": 255,
      "Ō": 256,
      "ō": 257,
      "Ő": 258,
      "ő": 259,
      "Œ": 260,
      "œ": 261,
      "ř": 262,
      "Ś": 263,
      "ś": 264,
      "Ş": 265,
      "ş": 266,
      "Š": 267,
      "š": 268,
      "ţ": 269,
      "ũ": 270,
      "ū": 271,
      "ŭ": 272,
      "ů": 273,
      "ű": 274,
      "ų": 275,
      "Ÿ": 276,
      "ź": 277,
      "Ż": 278,
      "ż": 279,
      "Ž": 280,
      "ž": 281,
      "ƀ": 282,
      "Ƒ": 283,
      "ƒ": 284,
      "ơ": 285,
      "ư": 286,
      "Ʋ": 287,
      "ƴ": 288,
      "ǎ": 289,
      "ǐ": 290,
      "ǒ": 291,
      "ǔ": 292,
      "ǣ": 293,
      "ǫ": 294,
      "ș": 295,
      "ț": 296,
      "ɐ": 297,
      "ɑ": 298,
      "ɒ": 299,
      "ɔ": 300,
      "ɕ": 301,
      "ɖ": 302,
      "ɘ": 303,
      "ə": 304,
      "ɛ": 305,
      "ɡ": 306,
      "ɨ": 307,
      "ɪ": 308,
      "ɻ": 309,
      "ɾ": 310,
      "ʁ": 311,
      "ʃ": 312,
      "ʊ": 313,
      "ʌ": 314,
      "ʒ": 315,
      "ʲ": 316,
      "ʹ": 317,
      "ʻ": 318,
      "ˆ": 319,
      "ˈ": 320,
      "ˌ": 321,
      "ː": 322,
      "˗": 323,
      "˙": 324,
      "˚": 325,
      "˜": 326,
      "˟": 327,
      "ˠ": 328,
      "́": 329,
      "̃": 330,
      "̄": 331,
      "̊": 332,
      "̍": 333,
      "̪": 334,
      "̴": 335,
      "΄": 336,
      "Έ": 337,
      "Ό": 338,
      "Α": 339,
      "Β": 340,
      "Γ": 341,
      "Δ": 342,
      "Ε": 343,
      "Η": 344,
      "Θ": 345,
      "Ι": 346,
      "Κ": 347,
      "Λ": 348,
      "Μ": 349,
      "Ν": 350,
      "Ο": 351,
      "Π": 352,
      "Ρ": 353,
      "Σ": 354,
      "Τ": 355,
      "Υ": 356,
      "Φ": 357,
      "Χ": 358,
      "Ω": 359,
      "ά": 360,
      "έ": 361,
      "ή": 362,
      "ί": 363,
      "α": 364,
      "β": 365,
      "γ": 366,
      "δ": 367,
      "ε": 368,
      "ζ": 369,
      "η": 370,
      "θ": 371,
      "ι": 372,
      "κ": 373,
      "λ": 374,
      "μ": 375,
      "ν": 376,
      "ξ": 377,
      "ο": 378,
      "π": 379,
      "ρ": 380,
      "ς": 381,
      "σ": 382,
      "τ": 383,
      "υ": 384,
      "φ": 385,
      "χ": 386,
      "ψ": 387,
      "ω": 388,
      "ό": 389,
      "ύ": 390,
      "ώ": 391,
      "Є": 392,
      "І": 393,
      "А": 394,
      "Б": 395,
      "В": 396,
      "Г": 397,
      "Д": 398,
      "Е": 399,
      "Ж": 400,
      "З": 401,
      "И": 402,
      "Й": 403,
      "К": 404,
      "Л": 405,
      "М": 406,
      "Н": 407,
      "О": 408,
      "П": 409,
      "Р": 410,
      "С": 411,
      "Т": 412,
      "У": 413,
      "Ф": 414,
      "Х": 415,
      "Ц": 416,
      "Ч": 417,
      "Ш": 418,
      "Щ": 419,
      "Ъ": 420,
      "Ы": 421,
      "Ь": 422,
      "Э": 423,
      "Ю": 424,
      "Я": 425,
      "а": 426,
      "б": 427,
      "в": 428,
      "г": 429,
      "д": 430,
      "е": 431,
      "ж": 432,
      "з": 433,
      "и": 434,
      "й": 435,
      "к": 436,
      "л": 437,
      "м": 438,
      "н": 439,
      "о": 440,
      "п": 441,
      "р": 442,
      "с": 443,
      "т": 444,
      "у": 445,
      "ф": 446,
      "х": 447,
      "ц": 448,
      "ч": 449,
      "ш": 450,
      "щ": 451,
      "ъ": 452,
      "ы": 453,
      "ь": 454,
      "э": 455,
      "ю": 456,
      "я": 457,
      "ё": 458,
      "є": 459,
      "і": 460,
      "ї": 461,
      "ј": 462,
      "ѝ": 463,
      "Җ": 464,
      "Қ": 465,
      "қ": 466,
      "ҡ": 467,
      "ҷ": 468,
      "ә": 469,
      "ӣ": 470,
      "Ԑ": 471,
      "ԑ": 472,
      "Հ": 473,
      "՚": 474,
      "ա": 475,
      "ե": 476,
      "յ": 477,
      "ն": 478,
      "ր": 479,
      "ְ": 480,
      "ִ": 481,
      "ַ": 482,
      "ָ": 483,
      "ֹ": 484,
      "ּ": 485,
      "ֿ": 486,
      "א": 487,
      "ב": 488,
      "ד": 489,
      "ה": 490,
      "ו": 491,
      "ז": 492,
      "ח": 493,
      "ט": 494,
      "י": 495,
      "ך": 496,
      "כ": 497,
      "ל": 498,
      "ם": 499,
      "מ": 500,
      "ן": 501,
      "נ": 502,
      "ס": 503,
      "ע": 504,
      "ף": 505,
      "פ": 506,
      "ץ": 507,
      "צ": 508,
      "ק": 509,
      "ר": 510,
      "ש": 511,
      "ת": 512,
      "،": 513,
      "؟": 514,
      "آ": 515,
      "أ": 516,
      "إ": 517,
      "ئ": 518,
      "ا": 519,
      "ب": 520,
      "ة": 521,
      "ت": 522,
      "ث": 523,
      "ج": 524,
      "ح": 525,
      "خ": 526,
      "د": 527,
      "ذ": 528,
      "ر": 529,
      "ز": 530,
      "س": 531,
      "ش": 532,
      "ص": 533,
      "ض": 534,
      "ط": 535,
      "ظ": 536,
      "ع": 537,
      "غ": 538,
      "ف": 539,
      "ق": 540,
      "ك": 541,
      "ل": 542,
      "م": 543,
      "ن": 544,
      "ه": 545,
      "و": 546,
      "ى": 547,
      "ي": 548,
      "ً": 549,
      "َ": 550,
      "ُ": 551,
      "ِ": 552,
      "ّ": 553,
      "ْ": 554,
      "ٹ": 555,
      "پ": 556,
      "چ": 557,
      "ڈ": 558,
      "ڌ": 559,
      "ښ": 560,
      "ک": 561,
      "گ": 562,
      "ھ": 563,
      "ہ": 564,
      "ی": 565,
      "މ": 566,
      "ލ": 567,
      "ާ": 568,
      "ެ": 569,
      "ँ": 570,
      "ं": 571,
      "ः": 572,
      "अ": 573,
      "आ": 574,
      "इ": 575,
      "ई": 576,
      "उ": 577,
      "ऍ": 578,
      "ए": 579,
      "ओ": 580,
      "औ": 581,
      "क": 582,
      "ख": 583,
      "ग": 584,
      "घ": 585,
      "च": 586,
      "छ": 587,
      "ज": 588,
      "ञ": 589,
      "ट": 590,
      "ठ": 591,
      "ड": 592,
      "ढ": 593,
      "ण": 594,
      "त": 595,
      "थ": 596,
      "द": 597,
      "ध": 598,
      "न": 599,
      "प": 600,
      "फ": 601,
      "ब": 602,
      "भ": 603,
      "म": 604,
      "य": 605,
      "र": 606,
      "ल": 607,
      "ळ": 608,
      "व": 609,
      "श": 610,
      "ष": 611,
      "स": 612,
      "ह": 613,
      "़": 614,
      "ऽ": 615,
      "ा": 616,
      "ि": 617,
      "ी": 618,
      "ु": 619,
      "ू": 620,
      "ृ": 621,
      "ॅ": 622,
      "ॆ": 623,
      "े": 624,
      "ै": 625,
      "ॉ": 626,
      "ॊ": 627,
      "ो": 628,
      "ौ": 629,
      "्": 630,
      "ॐ": 631,
      "ज़": 632,
      "ड़": 633,
      "।": 634,
      "॥": 635,
      "०": 636,
      "१": 637,
      "॰": 638,
      "ং": 639,
      "অ": 640,
      "ঊ": 641,
      "ঙ": 642,
      "ড": 643,
      "ত": 644,
      "প": 645,
      "ব": 646,
      "ম": 647,
      "র": 648,
      "ল": 649,
      "শ": 650,
      "স": 651,
      "হ": 652,
      "়": 653,
      "া": 654,
      "ি": 655,
      "ী": 656,
      "ু": 657,
      "্": 658,
      "য়": 659,
      "ৡ": 660,
      "১": 661,
      "ৰ": 662,
      "ਂ": 663,
      "ਕ": 664,
      "ਖ": 665,
      "ਗ": 666,
      "ਜ": 667,
      "ਥ": 668,
      "ਦ": 669,
      "ਨ": 670,
      "ਪ": 671,
      "ਬ": 672,
      "ਮ": 673,
      "ਰ": 674,
      "ਲ": 675,
      "ਸ਼": 676,
      "ਸ": 677,
      "ਹ": 678,
      "਼": 679,
      "ਾ": 680,
      "ਿ": 681,
      "ੀ": 682,
      "ੁ": 683,
      "ੂ": 684,
      "ੇ": 685,
      "੍": 686,
      "ੰ": 687,
      "ੱ": 688,
      "ગ": 689,
      "જ": 690,
      "ત": 691,
      "ર": 692,
      "ા": 693,
      "ી": 694,
      "ુ": 695,
      "அ": 696,
      "ஆ": 697,
      "இ": 698,
      "உ": 699,
      "ஊ": 700,
      "எ": 701,
      "ஏ": 702,
      "ஐ": 703,
      "ஒ": 704,
      "ஓ": 705,
      "க": 706,
      "ங": 707,
      "ச": 708,
      "ஜ": 709,
      "ஞ": 710,
      "ட": 711,
      "ண": 712,
      "த": 713,
      "ந": 714,
      "ன": 715,
      "ப": 716,
      "ம": 717,
      "ய": 718,
      "ர": 719,
      "ற": 720,
      "ல": 721,
      "ள": 722,
      "ழ": 723,
      "வ": 724,
      "ஷ": 725,
      "ஸ": 726,
      "ஹ": 727,
      "ா": 728,
      "ி": 729,
      "ீ": 730,
      "ு": 731,
      "ூ": 732,
      "ெ": 733,
      "ே": 734,
      "ை": 735,
      "ொ": 736,
      "ோ": 737,
      "்": 738,
      "ௐ": 739,
      "௫": 740,
      "௵": 741,
      "௸": 742,
      "௹": 743,
      "௺": 744,
      "ఁ": 745,
      "ం": 746,
      "ః": 747,
      "ఄ": 748,
      "అ": 749,
      "ఆ": 750,
      "ఇ": 751,
      "ఈ": 752,
      "ఉ": 753,
      "ఊ": 754,
      "ఋ": 755,
      "ఌ": 756,
      "఍": 757,
      "ఎ": 758,
      "ఏ": 759,
      "ఐ": 760,
      "఑": 761,
      "ఒ": 762,
      "ఓ": 763,
      "ఔ": 764,
      "క": 765,
      "ఖ": 766,
      "గ": 767,
      "ఘ": 768,
      "ఙ": 769,
      "చ": 770,
      "ఛ": 771,
      "జ": 772,
      "ఝ": 773,
      "ఞ": 774,
      "ట": 775,
      "ఠ": 776,
      "డ": 777,
      "ఢ": 778,
      "ణ": 779,
      "త": 780,
      "థ": 781,
      "ద": 782,
      "ధ": 783,
      "న": 784,
      "఩": 785,
      "ప": 786,
      "ఫ": 787,
      "బ": 788,
      "భ": 789,
      "మ": 790,
      "య": 791,
      "ర": 792,
      "ఱ": 793,
      "ల": 794,
      "ళ": 795,
      "ఴ": 796,
      "వ": 797,
      "శ": 798,
      "ష": 799,
      "స": 800,
      "హ": 801,
      "ఽ": 802,
      "ా": 803,
      "ి": 804,
      "ీ": 805,
      "ు": 806,
      "ూ": 807,
      "ృ": 808,
      "ౄ": 809,
      "ె": 810,
      "ే": 811,
      "ై": 812,
      "ొ": 813,
      "ో": 814,
      "ౌ": 815,
      "్": 816,
      "౎": 817,
      "ౖ": 818,
      "ౘ": 819,
      "ౙ": 820,
      "౛": 821,
      "ౠ": 822,
      "ౡ": 823,
      "ౢ": 824,
      "౦": 825,
      "౧": 826,
      "౨": 827,
      "౩": 828,
      "౪": 829,
      "౫": 830,
      "౬": 831,
      "౭": 832,
      "౮": 833,
      "౯": 834,
      "౹": 835,
      "౼": 836,
      "౽": 837,
      "౾": 838,
      "ಂ": 839,
      "ಅ": 840,
      "ಆ": 841,
      "ಇ": 842,
      "ಉ": 843,
      "ಎ": 844,
      "ಒ": 845,
      "ಓ": 846,
      "ಕ": 847,
      "ಗ": 848,
      "ಚ": 849,
      "ಜ": 850,
      "ಟ": 851,
      "ಡ": 852,
      "ಣ": 853,
      "ತ": 854,
      "ಥ": 855,
      "ದ": 856,
      "ಧ": 857,
      "ನ": 858,
      "ಪ": 859,
      "ಫ": 860,
      "ಬ": 861,
      "ಭ": 862,
      "ಮ": 863,
      "ಯ": 864,
      "ರ": 865,
      "ಲ": 866,
      "ಳ": 867,
      "ವ": 868,
      "ಶ": 869,
      "ಷ": 870,
      "ಸ": 871,
      "ಹ": 872,
      "ಾ": 873,
      "ಿ": 874,
      "ೀ": 875,
      "ು": 876,
      "ೂ": 877,
      "ೃ": 878,
      "ೆ": 879,
      "ೇ": 880,
      "ೊ": 881,
      "ೋ": 882,
      "ೌ": 883,
      "್": 884,
      "ೞ": 885,
      "೦": 886,
      "೧": 887,
      "೨": 888,
      "೩": 889,
      "೪": 890,
      "೫": 891,
      "೯": 892,
      "ം": 893,
      "അ": 894,
      "ഇ": 895,
      "ഉ": 896,
      "എ": 897,
      "ഏ": 898,
      "ഒ": 899,
      "ക": 900,
      "ഗ": 901,
      "ങ": 902,
      "ച": 903,
      "ജ": 904,
      "ഞ": 905,
      "ട": 906,
      "ണ": 907,
      "ത": 908,
      "ദ": 909,
      "ന": 910,
      "പ": 911,
      "ബ": 912,
      "ഭ": 913,
      "മ": 914,
      "യ": 915,
      "ര": 916,
      "റ": 917,
      "ല": 918,
      "ള": 919,
      "ഴ": 920,
      "വ": 921,
      "ഷ": 922,
      "സ": 923,
      "ാ": 924,
      "ി": 925,
      "ീ": 926,
      "ു": 927,
      "ൂ": 928,
      "െ": 929,
      "േ": 930,
      "ോ": 931,
      "്": 932,
      "ൗ": 933,
      "ൠ": 934,
      "ൽ": 935,
      "ൾ": 936,
      "ං": 937,
      "ඇ": 938,
      "ඊ": 939,
      "ඌ": 940,
      "ඏ": 941,
      "ඐ": 942,
      "ච": 943,
      "ජ": 944,
      "ට": 945,
      "ඩ": 946,
      "ණ": 947,
      "ධ": 948,
      "ප": 949,
      "බ": 950,
      "ර": 951,
      "ල": 952,
      "ව": 953,
      "ෂ": 954,
      "ස": 955,
      "හ": 956,
      "ෆ": 957,
      "්": 958,
      "ි": 959,
      "ී": 960,
      "ේ": 961,
      "ก": 962,
      "ข": 963,
      "ค": 964,
      "ง": 965,
      "จ": 966,
      "ฉ": 967,
      "ช": 968,
      "ซ": 969,
      "ญ": 970,
      "ฎ": 971,
      "ฏ": 972,
      "ฐ": 973,
      "ฒ": 974,
      "ณ": 975,
      "ด": 976,
      "ต": 977,
      "ถ": 978,
      "ท": 979,
      "ธ": 980,
      "น": 981,
      "บ": 982,
      "ป": 983,
      "ผ": 984,
      "ฝ": 985,
      "พ": 986,
      "ฟ": 987,
      "ภ": 988,
      "ม": 989,
      "ย": 990,
      "ร": 991,
      "ฤ": 992,
      "ล": 993,
      "ว": 994,
      "ศ": 995,
      "ษ": 996,
      "ส": 997,
      "ห": 998,
      "ฬ": 999,
      "อ": 1000,
      "ฮ": 1001,
      "ะ": 1002,
      "ั": 1003,
      "า": 1004,
      "ำ": 1005,
      "ิ": 1006,
      "ี": 1007,
      "ึ": 1008,
      "ื": 1009,
      "ุ": 1010,
      "ู": 1011,
      "เ": 1012,
      "แ": 1013,
      "โ": 1014,
      "ใ": 1015,
      "ไ": 1016,
      "็": 1017,
      "่": 1018,
      "้": 1019,
      "์": 1020,
      "ກ": 1021,
      "ຂ": 1022,
      "ຄ": 1023,
      "ງ": 1024,
      "ຈ": 1025,
      "ຊ": 1026,
      "ຍ": 1027,
      "ດ": 1028,
      "ຕ": 1029,
      "ຖ": 1030,
      "ທ": 1031,
      "ນ": 1032,
      "ບ": 1033,
      "ປ": 1034,
      "ຜ": 1035,
      "ພ": 1036,
      "ມ": 1037,
      "ຢ": 1038,
      "ຣ": 1039,
      "ລ": 1040,
      "ວ": 1041,
      "ສ": 1042,
      "ຫ": 1043,
      "ອ": 1044,
      "ຮ": 1045,
      "ະ": 1046,
      "ັ": 1047,
      "າ": 1048,
      "ຳ": 1049,
      "ິ": 1050,
      "ີ": 1051,
      "ຶ": 1052,
      "ື": 1053,
      "ຸ": 1054,
      "ູ": 1055,
      "ົ": 1056,
      "ຼ": 1057,
      "ຽ": 1058,
      "ເ": 1059,
      "ແ": 1060,
      "ໂ": 1061,
      "ໃ": 1062,
      "ໄ": 1063,
      "ໆ": 1064,
      "່": 1065,
      "້": 1066,
      "ໍ": 1067,
      "ໜ": 1068,
      "ໝ": 1069,
      "་": 1070,
      "ཀ": 1071,
      "ག": 1072,
      "ང": 1073,
      "པ": 1074,
      "ཙ": 1075,
      "ཡ": 1076,
      "ར": 1077,
      "ས": 1078,
      "ུ": 1079,
      "ོ": 1080,
      "ླ": 1081,
      "က": 1082,
      "ခ": 1083,
      "င": 1084,
      "စ": 1085,
      "ဆ": 1086,
      "ဉ": 1087,
      "ည": 1088,
      "တ": 1089,
      "ထ": 1090,
      "န": 1091,
      "ပ": 1092,
      "ဖ": 1093,
      "ဗ": 1094,
      "မ": 1095,
      "ယ": 1096,
      "ရ": 1097,
      "လ": 1098,
      "ဝ": 1099,
      "သ": 1100,
      "ဟ": 1101,
      "အ": 1102,
      "ါ": 1103,
      "ာ": 1104,
      "ိ": 1105,
      "ီ": 1106,
      "ု": 1107,
      "ူ": 1108,
      "ေ": 1109,
      "ဲ": 1110,
      "ံ": 1111,
      "့": 1112,
      "း": 1113,
      "္": 1114,
      "်": 1115,
      "ျ": 1116,
      "ြ": 1117,
      "ွ": 1118,
      "၊": 1119,
      "။": 1120,
      "၍": 1121,
      "၏": 1122,
      "ၚ": 1123,
      "ၤ": 1124,
      "ၻ": 1125,
      "ა": 1126,
      "თ": 1127,
      "ი": 1128,
      "ლ": 1129,
      "ნ": 1130,
      "ო": 1131,
      "რ": 1132,
      "უ": 1133,
      "ქ": 1134,
      "ማ": 1135,
      "ር": 1136,
      "ኛ": 1137,
      "አ": 1138,
      "ᚁ": 1139,
      "ᚂ": 1140,
      "ᚃ": 1141,
      "ᚄ": 1142,
      "ᚅ": 1143,
      "ᚆ": 1144,
      "ᚇ": 1145,
      "ᚈ": 1146,
      "ᚉ": 1147,
      "ᚊ": 1148,
      "ᚋ": 1149,
      "ᚌ": 1150,
      "ᚍ": 1151,
      "ᚎ": 1152,
      "ᚏ": 1153,
      "ᚐ": 1154,
      "ᚑ": 1155,
      "ᚒ": 1156,
      "ᚓ": 1157,
      "ᚔ": 1158,
      "ᚕ": 1159,
      "ᚖ": 1160,
      "ᚗ": 1161,
      "ᚘ": 1162,
      "ᚙ": 1163,
      "ᚚ": 1164,
      "᚛": 1165,
      "᚜": 1166,
      "ខ": 1167,
      "ឃ": 1168,
      "ឈ": 1169,
      "ណ": 1170,
      "ត": 1171,
      "ថ": 1172,
      "ភ": 1173,
      "ម": 1174,
      "រ": 1175,
      "ល": 1176,
      "ស": 1177,
      "ា": 1178,
      "ែ": 1179,
      "ៃ": 1180,
      "្": 1181,
      "᠔": 1182,
      "ᠶ": 1183,
      "ᡮ": 1184,
      "ᢡ": 1185,
      "ᴼ": 1186,
      "ᶟ": 1187,
      "ḍ": 1188,
      "ḥ": 1189,
      "ḷ": 1190,
      "Ḻ": 1191,
      "ṁ": 1192,
      "ṃ": 1193,
      "ṅ": 1194,
      "ṇ": 1195,
      "ṛ": 1196,
      "ṟ": 1197,
      "Ṣ": 1198,
      "ṣ": 1199,
      "ṭ": 1200,
      "ạ": 1201,
      "ả": 1202,
      "ầ": 1203,
      "ắ": 1204,
      "ẽ": 1205,
      "ế": 1206,
      "ề": 1207,
      "ể": 1208,
      "ễ": 1209,
      "ệ": 1210,
      "ỉ": 1211,
      "ị": 1212,
      "ộ": 1213,
      "ớ": 1214,
      "ờ": 1215,
      "ỡ": 1216,
      "ợ": 1217,
      "ụ": 1218,
      "ủ": 1219,
      "ứ": 1220,
      "ừ": 1221,
      "ử": 1222,
      "ữ": 1223,
      "ἀ": 1224,
      "ἄ": 1225,
      "Ἀ": 1226,
      "ἔ": 1227,
      "Ἵ": 1228,
      "ῖ": 1229,
      "ῳ": 1230,
      "​": 1231,
      "‌": 1232,
      "‍": 1233,
      "‎": 1234,
      "‏": 1235,
      "‑": 1236,
      "‒": 1237,
      "–": 1238,
      "—": 1239,
      "‘": 1240,
      "’": 1241,
      "‛": 1242,
      "“": 1243,
      "”": 1244,
      "„": 1245,
      "†": 1246,
      "‡": 1247,
      "•": 1248,
      "‣": 1249,
      "…": 1250,
      "‧": 1251,
      "‪": 1252,
      "‫": 1253,
      "‬": 1254,
      "‰": 1255,
      "′": 1256,
      "″": 1257,
      "‹": 1258,
      "›": 1259,
      "※": 1260,
      "‼": 1261,
      "⁄": 1262,
      "⁠": 1263,
      "⁪": 1264,
      "⁬": 1265,
      "⁭": 1266,
      "⁮": 1267,
      "⁰": 1268,
      "⁹": 1269,
      "₀": 1270,
      "₁": 1271,
      "₂": 1272,
      "₃": 1273,
      "₄": 1274,
      "₅": 1275,
      "₆": 1276,
      "₉": 1277,
      "ₒ": 1278,
      "€": 1279,
      "₹": 1280,
      "℃": 1281,
      "ℓ": 1282,
      "№": 1283,
      "℗": 1284,
      "℞": 1285,
      "™": 1286,
      "⅓": 1287,
      "⅛": 1288,
      "⅜": 1289,
      "⅝": 1290,
      "ↄ": 1291,
      "←": 1292,
      "↑": 1293,
      "→": 1294,
      "↓": 1295,
      "↔": 1296,
      "↕": 1297,
      "↗": 1298,
      "⇉": 1299,
      "⇌": 1300,
      "⇐": 1301,
      "⇒": 1302,
      "⇔": 1303,
      "⇛": 1304,
      "⇧": 1305,
      "⇨": 1306,
      "∀": 1307,
      "∂": 1308,
      "∇": 1309,
      "∉": 1310,
      "∑": 1311,
      "−": 1312,
      "∗": 1313,
      "∙": 1314,
      "√": 1315,
      "∞": 1316,
      "∠": 1317,
      "∩": 1318,
      "∫": 1319,
      "∴": 1320,
      "∼": 1321,
      "≈": 1322,
      "≡": 1323,
      "≤": 1324,
      "≥": 1325,
      "≪": 1326,
      "≫": 1327,
      "≽": 1328,
      "⊂": 1329,
      "⊃": 1330,
      "⊕": 1331,
      "⊗": 1332,
      "⊞": 1333,
      "⊹": 1334,
      "⋆": 1335,
      "⋯": 1336,
      "⌚": 1337,
      "⍟": 1338,
      "⏩": 1339,
      "⏳": 1340,
      "①": 1341,
      "②": 1342,
      "④": 1343,
      "⒚": 1344,
      "─": 1345,
      "■": 1346,
      "□": 1347,
      "▪": 1348,
      "▬": 1349,
      "▶": 1350,
      "►": 1351,
      "▻": 1352,
      "▼": 1353,
      "▾": 1354,
      "◀": 1355,
      "◆": 1356,
      "◊": 1357,
      "◌": 1358,
      "●": 1359,
      "◘": 1360,
      "◦": 1361,
      "◼": 1362,
      "☀": 1363,
      "☂": 1364,
      "★": 1365,
      "☆": 1366,
      "☊": 1367,
      "☋": 1368,
      "☏": 1369,
      "☑": 1370,
      "☕": 1371,
      "☘": 1372,
      "☛": 1373,
      "☜": 1374,
      "☝": 1375,
      "☞": 1376,
      "☺": 1377,
      "♃": 1378,
      "♄": 1379,
      "♅": 1380,
      "♆": 1381,
      "♇": 1382,
      "♑": 1383,
      "♓": 1384,
      "♠": 1385,
      "♣": 1386,
      "♥": 1387,
      "♦": 1388,
      "♪": 1389,
      "♫": 1390,
      "♬": 1391,
      "♭": 1392,
      "♯": 1393,
      "⚕": 1394,
      "⚙": 1395,
      "⚜": 1396,
      "⚝": 1397,
      "⚠": 1398,
      "⛏": 1399,
      "✈": 1400,
      "✉": 1401,
      "✊": 1402,
      "✍": 1403,
      "✓": 1404,
      "✔": 1405,
      "✦": 1406,
      "✨": 1407,
      "✩": 1408,
      "✪": 1409,
      "✱": 1410,
      "✳": 1411,
      "✶": 1412,
      "✷": 1413,
      "✸": 1414,
      "✹": 1415,
      "✺": 1416,
      "✼": 1417,
      "❂": 1418,
      "❉": 1419,
      "❊": 1420,
      "❋": 1421,
      "❓": 1422,
      "❝": 1423,
      "❞": 1424,
      "❤": 1425,
      "➖": 1426,
      "➡": 1427,
      "➤": 1428,
      "➥": 1429,
      "➦": 1430,
      "➧": 1431,
      "➪": 1432,
      "⤏": 1433,
      "⦁": 1434,
      "⦿": 1435,
      "⬛": 1436,
      "⭕": 1437,
      "、": 1438,
      "。": 1439,
      "々": 1440,
      "《": 1441,
      "》": 1442,
      "「": 1443,
      "」": 1444,
      "『": 1445,
      "』": 1446,
      "【": 1447,
      "】": 1448,
      "あ": 1449,
      "い": 1450,
      "う": 1451,
      "え": 1452,
      "お": 1453,
      "か": 1454,
      "が": 1455,
      "き": 1456,
      "く": 1457,
      "ぐ": 1458,
      "け": 1459,
      "げ": 1460,
      "こ": 1461,
      "ご": 1462,
      "さ": 1463,
      "ざ": 1464,
      "し": 1465,
      "じ": 1466,
      "す": 1467,
      "ず": 1468,
      "せ": 1469,
      "ぜ": 1470,
      "そ": 1471,
      "た": 1472,
      "だ": 1473,
      "ち": 1474,
      "っ": 1475,
      "つ": 1476,
      "づ": 1477,
      "て": 1478,
      "で": 1479,
      "と": 1480,
      "ど": 1481,
      "な": 1482,
      "に": 1483,
      "ぬ": 1484,
      "ね": 1485,
      "の": 1486,
      "は": 1487,
      "ば": 1488,
      "ぱ": 1489,
      "ひ": 1490,
      "び": 1491,
      "ふ": 1492,
      "べ": 1493,
      "ほ": 1494,
      "ま": 1495,
      "み": 1496,
      "む": 1497,
      "め": 1498,
      "も": 1499,
      "ゃ": 1500,
      "や": 1501,
      "ゅ": 1502,
      "よ": 1503,
      "ら": 1504,
      "り": 1505,
      "る": 1506,
      "れ": 1507,
      "ろ": 1508,
      "わ": 1509,
      "を": 1510,
      "ん": 1511,
      "ァ": 1512,
      "ア": 1513,
      "ィ": 1514,
      "イ": 1515,
      "ウ": 1516,
      "ェ": 1517,
      "エ": 1518,
      "オ": 1519,
      "カ": 1520,
      "ガ": 1521,
      "キ": 1522,
      "ク": 1523,
      "グ": 1524,
      "ケ": 1525,
      "コ": 1526,
      "ゴ": 1527,
      "サ": 1528,
      "ザ": 1529,
      "シ": 1530,
      "ジ": 1531,
      "ス": 1532,
      "ズ": 1533,
      "セ": 1534,
      "ソ": 1535,
      "タ": 1536,
      "ダ": 1537,
      "チ": 1538,
      "ッ": 1539,
      "ツ": 1540,
      "テ": 1541,
      "デ": 1542,
      "ト": 1543,
      "ド": 1544,
      "ナ": 1545,
      "ニ": 1546,
      "ネ": 1547,
      "ハ": 1548,
      "バ": 1549,
      "パ": 1550,
      "ヒ": 1551,
      "ビ": 1552,
      "ピ": 1553,
      "フ": 1554,
      "ブ": 1555,
      "プ": 1556,
      "ヘ": 1557,
      "ベ": 1558,
      "ペ": 1559,
      "ボ": 1560,
      "ポ": 1561,
      "マ": 1562,
      "ミ": 1563,
      "ム": 1564,
      "メ": 1565,
      "モ": 1566,
      "ャ": 1567,
      "ヤ": 1568,
      "ュ": 1569,
      "ョ": 1570,
      "ラ": 1571,
      "リ": 1572,
      "ル": 1573,
      "レ": 1574,
      "ロ": 1575,
      "ワ": 1576,
      "ン": 1577,
      "ヶ": 1578,
      "・": 1579,
      "ー": 1580,
      "㎡": 1581,
      "䥫": 1582,
      "一": 1583,
      "七": 1584,
      "万": 1585,
      "丈": 1586,
      "三": 1587,
      "上": 1588,
      "下": 1589,
      "不": 1590,
      "与": 1591,
      "专": 1592,
      "且": 1593,
      "世": 1594,
      "业": 1595,
      "东": 1596,
      "丝": 1597,
      "両": 1598,
      "丢": 1599,
      "两": 1600,
      "严": 1601,
      "並": 1602,
      "个": 1603,
      "中": 1604,
      "临": 1605,
      "为": 1606,
      "主": 1607,
      "丽": 1608,
      "举": 1609,
      "乃": 1610,
      "久": 1611,
      "么": 1612,
      "之": 1613,
      "乐": 1614,
      "乘": 1615,
      "也": 1616,
      "习": 1617,
      "乡": 1618,
      "书": 1619,
      "乱": 1620,
      "乳": 1621,
      "了": 1622,
      "予": 1623,
      "争": 1624,
      "事": 1625,
      "二": 1626,
      "于": 1627,
      "互": 1628,
      "五": 1629,
      "井": 1630,
      "些": 1631,
      "亞": 1632,
      "亡": 1633,
      "交": 1634,
      "亥": 1635,
      "亦": 1636,
      "产": 1637,
      "享": 1638,
      "京": 1639,
      "亮": 1640,
      "亲": 1641,
      "人": 1642,
      "亿": 1643,
      "什": 1644,
      "今": 1645,
      "介": 1646,
      "仍": 1647,
      "从": 1648,
      "仔": 1649,
      "仕": 1650,
      "他": 1651,
      "付": 1652,
      "仙": 1653,
      "代": 1654,
      "令": 1655,
      "以": 1656,
      "仪": 1657,
      "们": 1658,
      "件": 1659,
      "价": 1660,
      "任": 1661,
      "份": 1662,
      "仿": 1663,
      "企": 1664,
      "伊": 1665,
      "伏": 1666,
      "休": 1667,
      "众": 1668,
      "会": 1669,
      "伝": 1670,
      "传": 1671,
      "伦": 1672,
      "伴": 1673,
      "但": 1674,
      "位": 1675,
      "低": 1676,
      "住": 1677,
      "体": 1678,
      "何": 1679,
      "余": 1680,
      "佛": 1681,
      "作": 1682,
      "你": 1683,
      "佳": 1684,
      "使": 1685,
      "例": 1686,
      "供": 1687,
      "依": 1688,
      "価": 1689,
      "侦": 1690,
      "便": 1691,
      "係": 1692,
      "俗": 1693,
      "保": 1694,
      "信": 1695,
      "修": 1696,
      "個": 1697,
      "倍": 1698,
      "們": 1699,
      "倒": 1700,
      "候": 1701,
      "值": 1702,
      "做": 1703,
      "停": 1704,
      "健": 1705,
      "側": 1706,
      "偵": 1707,
      "偽": 1708,
      "備": 1709,
      "催": 1710,
      "傭": 1711,
      "僅": 1712,
      "像": 1713,
      "僕": 1714,
      "價": 1715,
      "儘": 1716,
      "優": 1717,
      "儿": 1718,
      "允": 1719,
      "元": 1720,
      "充": 1721,
      "先": 1722,
      "光": 1723,
      "克": 1724,
      "児": 1725,
      "党": 1726,
      "入": 1727,
      "內": 1728,
      "全": 1729,
      "八": 1730,
      "公": 1731,
      "六": 1732,
      "共": 1733,
      "关": 1734,
      "兴": 1735,
      "兵": 1736,
      "其": 1737,
      "具": 1738,
      "典": 1739,
      "养": 1740,
      "兼": 1741,
      "内": 1742,
      "円": 1743,
      "册": 1744,
      "再": 1745,
      "军": 1746,
      "农": 1747,
      "冯": 1748,
      "决": 1749,
      "况": 1750,
      "冷": 1751,
      "准": 1752,
      "减": 1753,
      "凝": 1754,
      "几": 1755,
      "凤": 1756,
      "出": 1757,
      "击": 1758,
      "分": 1759,
      "切": 1760,
      "刊": 1761,
      "划": 1762,
      "列": 1763,
      "刘": 1764,
      "创": 1765,
      "初": 1766,
      "判": 1767,
      "利": 1768,
      "别": 1769,
      "到": 1770,
      "制": 1771,
      "刷": 1772,
      "券": 1773,
      "前": 1774,
      "剑": 1775,
      "剖": 1776,
      "剤": 1777,
      "剩": 1778,
      "副": 1779,
      "創": 1780,
      "力": 1781,
      "办": 1782,
      "功": 1783,
      "加": 1784,
      "务": 1785,
      "动": 1786,
      "助": 1787,
      "努": 1788,
      "劫": 1789,
      "劳": 1790,
      "動": 1791,
      "務": 1792,
      "募": 1793,
      "勢": 1794,
      "勤": 1795,
      "包": 1796,
      "化": 1797,
      "北": 1798,
      "匣": 1799,
      "匯": 1800,
      "匹": 1801,
      "区": 1802,
      "医": 1803,
      "十": 1804,
      "千": 1805,
      "升": 1806,
      "午": 1807,
      "半": 1808,
      "华": 1809,
      "协": 1810,
      "卐": 1811,
      "单": 1812,
      "卖": 1813,
      "南": 1814,
      "単": 1815,
      "博": 1816,
      "卡": 1817,
      "卫": 1818,
      "印": 1819,
      "危": 1820,
      "即": 1821,
      "卷": 1822,
      "厂": 1823,
      "厅": 1824,
      "历": 1825,
      "压": 1826,
      "厚": 1827,
      "原": 1828,
      "去": 1829,
      "参": 1830,
      "又": 1831,
      "及": 1832,
      "友": 1833,
      "双": 1834,
      "反": 1835,
      "发": 1836,
      "取": 1837,
      "受": 1838,
      "变": 1839,
      "口": 1840,
      "古": 1841,
      "句": 1842,
      "另": 1843,
      "只": 1844,
      "召": 1845,
      "可": 1846,
      "台": 1847,
      "右": 1848,
      "号": 1849,
      "司": 1850,
      "各": 1851,
      "合": 1852,
      "吉": 1853,
      "同": 1854,
      "名": 1855,
      "后": 1856,
      "向": 1857,
      "吧": 1858,
      "含": 1859,
      "听": 1860,
      "吸": 1861,
      "呂": 1862,
      "告": 1863,
      "员": 1864,
      "呢": 1865,
      "周": 1866,
      "味": 1867,
      "命": 1868,
      "和": 1869,
      "咨": 1870,
      "品": 1871,
      "哈": 1872,
      "員": 1873,
      "哪": 1874,
      "售": 1875,
      "唯": 1876,
      "商": 1877,
      "問": 1878,
      "善": 1879,
      "喎": 1880,
      "喜": 1881,
      "單": 1882,
      "喷": 1883,
      "器": 1884,
      "四": 1885,
      "回": 1886,
      "囟": 1887,
      "因": 1888,
      "团": 1889,
      "园": 1890,
      "围": 1891,
      "固": 1892,
      "国": 1893,
      "國": 1894,
      "土": 1895,
      "圥": 1896,
      "圧": 1897,
      "在": 1898,
      "圭": 1899,
      "地": 1900,
      "圹": 1901,
      "场": 1902,
      "址": 1903,
      "坂": 1904,
      "均": 1905,
      "坊": 1906,
      "坏": 1907,
      "坐": 1908,
      "块": 1909,
      "坚": 1910,
      "坠": 1911,
      "坤": 1912,
      "垄": 1913,
      "型": 1914,
      "城": 1915,
      "培": 1916,
      "基": 1917,
      "埼": 1918,
      "堂": 1919,
      "堆": 1920,
      "報": 1921,
      "場": 1922,
      "塑": 1923,
      "塞": 1924,
      "填": 1925,
      "境": 1926,
      "墙": 1927,
      "壇": 1928,
      "士": 1929,
      "壮": 1930,
      "声": 1931,
      "壳": 1932,
      "处": 1933,
      "备": 1934,
      "変": 1935,
      "复": 1936,
      "夏": 1937,
      "夕": 1938,
      "外": 1939,
      "多": 1940,
      "夜": 1941,
      "够": 1942,
      "大": 1943,
      "天": 1944,
      "太": 1945,
      "夫": 1946,
      "夭": 1947,
      "央": 1948,
      "头": 1949,
      "夹": 1950,
      "夺": 1951,
      "奇": 1952,
      "奈": 1953,
      "契": 1954,
      "套": 1955,
      "女": 1956,
      "奴": 1957,
      "她": 1958,
      "好": 1959,
      "如": 1960,
      "妇": 1961,
      "妙": 1962,
      "姉": 1963,
      "始": 1964,
      "委": 1965,
      "姨": 1966,
      "姻": 1967,
      "姿": 1968,
      "威": 1969,
      "娘": 1970,
      "娜": 1971,
      "娱": 1972,
      "婚": 1973,
      "婴": 1974,
      "媒": 1975,
      "媛": 1976,
      "嫂": 1977,
      "子": 1978,
      "孔": 1979,
      "字": 1980,
      "存": 1981,
      "季": 1982,
      "学": 1983,
      "宁": 1984,
      "它": 1985,
      "安": 1986,
      "完": 1987,
      "宏": 1988,
      "官": 1989,
      "定": 1990,
      "宝": 1991,
      "实": 1992,
      "宠": 1993,
      "审": 1994,
      "客": 1995,
      "宣": 1996,
      "室": 1997,
      "宫": 1998,
      "宮": 1999,
      "害": 2000,
      "家": 2001,
      "容": 2002,
      "宿": 2003,
      "寄": 2004,
      "密": 2005,
      "富": 2006,
      "寡": 2007,
      "寥": 2008,
      "實": 2009,
      "寫": 2010,
      "寶": 2011,
      "对": 2012,
      "寺": 2013,
      "寻": 2014,
      "导": 2015,
      "対": 2016,
      "寿": 2017,
      "封": 2018,
      "将": 2019,
      "將": 2020,
      "對": 2021,
      "導": 2022,
      "小": 2023,
      "少": 2024,
      "尔": 2025,
      "尘": 2026,
      "尚": 2027,
      "就": 2028,
      "尻": 2029,
      "尾": 2030,
      "局": 2031,
      "层": 2032,
      "居": 2033,
      "屋": 2034,
      "展": 2035,
      "属": 2036,
      "層": 2037,
      "山": 2038,
      "屺": 2039,
      "岛": 2040,
      "岡": 2041,
      "岣": 2042,
      "岩": 2043,
      "峰": 2044,
      "島": 2045,
      "嵐": 2046,
      "嶺": 2047,
      "川": 2048,
      "州": 2049,
      "巣": 2050,
      "工": 2051,
      "巧": 2052,
      "巨": 2053,
      "差": 2054,
      "己": 2055,
      "已": 2056,
      "巴": 2057,
      "巷": 2058,
      "市": 2059,
      "布": 2060,
      "师": 2061,
      "希": 2062,
      "帝": 2063,
      "带": 2064,
      "師": 2065,
      "席": 2066,
      "帮": 2067,
      "帯": 2068,
      "帳": 2069,
      "常": 2070,
      "幕": 2071,
      "幢": 2072,
      "幣": 2073,
      "幫": 2074,
      "干": 2075,
      "平": 2076,
      "年": 2077,
      "并": 2078,
      "幸": 2079,
      "幹": 2080,
      "幼": 2081,
      "幾": 2082,
      "广": 2083,
      "広": 2084,
      "庄": 2085,
      "庆": 2086,
      "床": 2087,
      "序": 2088,
      "库": 2089,
      "应": 2090,
      "底": 2091,
      "店": 2092,
      "府": 2093,
      "庠": 2094,
      "度": 2095,
      "座": 2096,
      "庵": 2097,
      "廓": 2098,
      "廣": 2099,
      "延": 2100,
      "廷": 2101,
      "建": 2102,
      "开": 2103,
      "弁": 2104,
      "异": 2105,
      "式": 2106,
      "弓": 2107,
      "引": 2108,
      "张": 2109,
      "弯": 2110,
      "張": 2111,
      "强": 2112,
      "归": 2113,
      "当": 2114,
      "形": 2115,
      "彩": 2116,
      "彭": 2117,
      "影": 2118,
      "彻": 2119,
      "往": 2120,
      "待": 2121,
      "很": 2122,
      "律": 2123,
      "後": 2124,
      "徒": 2125,
      "得": 2126,
      "微": 2127,
      "德": 2128,
      "心": 2129,
      "必": 2130,
      "志": 2131,
      "忘": 2132,
      "忙": 2133,
      "応": 2134,
      "快": 2135,
      "念": 2136,
      "态": 2137,
      "思": 2138,
      "性": 2139,
      "怪": 2140,
      "总": 2141,
      "恋": 2142,
      "恒": 2143,
      "恕": 2144,
      "恩": 2145,
      "息": 2146,
      "恵": 2147,
      "恶": 2148,
      "悠": 2149,
      "患": 2150,
      "您": 2151,
      "悪": 2152,
      "情": 2153,
      "惠": 2154,
      "想": 2155,
      "惶": 2156,
      "意": 2157,
      "愛": 2158,
      "感": 2159,
      "愿": 2160,
      "慈": 2161,
      "態": 2162,
      "慧": 2163,
      "應": 2164,
      "戀": 2165,
      "戈": 2166,
      "戏": 2167,
      "成": 2168,
      "我": 2169,
      "或": 2170,
      "战": 2171,
      "戦": 2172,
      "戴": 2173,
      "户": 2174,
      "戸": 2175,
      "房": 2176,
      "所": 2177,
      "扇": 2178,
      "手": 2179,
      "才": 2180,
      "打": 2181,
      "托": 2182,
      "扣": 2183,
      "执": 2184,
      "扩": 2185,
      "扬": 2186,
      "扭": 2187,
      "扮": 2188,
      "扶": 2189,
      "批": 2190,
      "找": 2191,
      "承": 2192,
      "技": 2193,
      "把": 2194,
      "投": 2195,
      "抗": 2196,
      "択": 2197,
      "护": 2198,
      "报": 2199,
      "抵": 2200,
      "押": 2201,
      "抽": 2202,
      "担": 2203,
      "拉": 2204,
      "拍": 2205,
      "拘": 2206,
      "招": 2207,
      "择": 2208,
      "拿": 2209,
      "持": 2210,
      "指": 2211,
      "按": 2212,
      "挚": 2213,
      "振": 2214,
      "捐": 2215,
      "据": 2216,
      "掀": 2217,
      "掌": 2218,
      "排": 2219,
      "掛": 2220,
      "掠": 2221,
      "採": 2222,
      "探": 2223,
      "接": 2224,
      "控": 2225,
      "推": 2226,
      "提": 2227,
      "換": 2228,
      "援": 2229,
      "損": 2230,
      "搜": 2231,
      "携": 2232,
      "摄": 2233,
      "撇": 2234,
      "撕": 2235,
      "播": 2236,
      "撮": 2237,
      "擇": 2238,
      "操": 2239,
      "支": 2240,
      "收": 2241,
      "改": 2242,
      "攻": 2243,
      "政": 2244,
      "故": 2245,
      "效": 2246,
      "教": 2247,
      "数": 2248,
      "整": 2249,
      "文": 2250,
      "斗": 2251,
      "料": 2252,
      "断": 2253,
      "新": 2254,
      "方": 2255,
      "於": 2256,
      "旅": 2257,
      "旋": 2258,
      "族": 2259,
      "旗": 2260,
      "无": 2261,
      "既": 2262,
      "日": 2263,
      "旧": 2264,
      "旨": 2265,
      "早": 2266,
      "时": 2267,
      "昇": 2268,
      "昌": 2269,
      "明": 2270,
      "易": 2271,
      "春": 2272,
      "是": 2273,
      "显": 2274,
      "時": 2275,
      "晚": 2276,
      "普": 2277,
      "景": 2278,
      "智": 2279,
      "曲": 2280,
      "更": 2281,
      "曾": 2282,
      "替": 2283,
      "最": 2284,
      "會": 2285,
      "月": 2286,
      "有": 2287,
      "服": 2288,
      "望": 2289,
      "朝": 2290,
      "期": 2291,
      "木": 2292,
      "未": 2293,
      "本": 2294,
      "术": 2295,
      "机": 2296,
      "杂": 2297,
      "权": 2298,
      "杆": 2299,
      "杉": 2300,
      "材": 2301,
      "村": 2302,
      "杜": 2303,
      "束": 2304,
      "条": 2305,
      "来": 2306,
      "杨": 2307,
      "杭": 2308,
      "杯": 2309,
      "杰": 2310,
      "東": 2311,
      "松": 2312,
      "板": 2313,
      "极": 2314,
      "构": 2315,
      "析": 2316,
      "林": 2317,
      "果": 2318,
      "枣": 2319,
      "枪": 2320,
      "枭": 2321,
      "架": 2322,
      "柄": 2323,
      "某": 2324,
      "柜": 2325,
      "查": 2326,
      "柴": 2327,
      "査": 2328,
      "标": 2329,
      "栓": 2330,
      "栗": 2331,
      "校": 2332,
      "株": 2333,
      "样": 2334,
      "根": 2335,
      "格": 2336,
      "案": 2337,
      "桌": 2338,
      "桜": 2339,
      "桶": 2340,
      "梦": 2341,
      "梯": 2342,
      "械": 2343,
      "梳": 2344,
      "检": 2345,
      "業": 2346,
      "極": 2347,
      "楹": 2348,
      "楼": 2349,
      "楽": 2350,
      "概": 2351,
      "様": 2352,
      "槻": 2353,
      "樂": 2354,
      "模": 2355,
      "樣": 2356,
      "横": 2357,
      "橋": 2358,
      "機": 2359,
      "橹": 2360,
      "次": 2361,
      "欢": 2362,
      "欧": 2363,
      "款": 2364,
      "歌": 2365,
      "歡": 2366,
      "止": 2367,
      "正": 2368,
      "此": 2369,
      "步": 2370,
      "武": 2371,
      "歧": 2372,
      "歩": 2373,
      "死": 2374,
      "殇": 2375,
      "残": 2376,
      "段": 2377,
      "殿": 2378,
      "母": 2379,
      "每": 2380,
      "毓": 2381,
      "比": 2382,
      "毛": 2383,
      "民": 2384,
      "气": 2385,
      "気": 2386,
      "氣": 2387,
      "氧": 2388,
      "氨": 2389,
      "水": 2390,
      "永": 2391,
      "求": 2392,
      "汉": 2393,
      "江": 2394,
      "汪": 2395,
      "決": 2396,
      "汽": 2397,
      "沂": 2398,
      "沟": 2399,
      "没": 2400,
      "沢": 2401,
      "河": 2402,
      "油": 2403,
      "治": 2404,
      "沼": 2405,
      "法": 2406,
      "波": 2407,
      "注": 2408,
      "泰": 2409,
      "泻": 2410,
      "泽": 2411,
      "洁": 2412,
      "洗": 2413,
      "津": 2414,
      "洲": 2415,
      "活": 2416,
      "派": 2417,
      "流": 2418,
      "测": 2419,
      "济": 2420,
      "浏": 2421,
      "浓": 2422,
      "浙": 2423,
      "浦": 2424,
      "浮": 2425,
      "海": 2426,
      "浸": 2427,
      "消": 2428,
      "涡": 2429,
      "涤": 2430,
      "润": 2431,
      "液": 2432,
      "淄": 2433,
      "淅": 2434,
      "淑": 2435,
      "深": 2436,
      "淼": 2437,
      "清": 2438,
      "済": 2439,
      "減": 2440,
      "港": 2441,
      "游": 2442,
      "湖": 2443,
      "源": 2444,
      "準": 2445,
      "滑": 2446,
      "滚": 2447,
      "滨": 2448,
      "滿": 2449,
      "漂": 2450,
      "漏": 2451,
      "演": 2452,
      "漢": 2453,
      "漫": 2454,
      "潍": 2455,
      "潔": 2456,
      "潮": 2457,
      "澜": 2458,
      "激": 2459,
      "瀛": 2460,
      "瀞": 2461,
      "瀬": 2462,
      "灣": 2463,
      "火": 2464,
      "灯": 2465,
      "灵": 2466,
      "点": 2467,
      "為": 2468,
      "烟": 2469,
      "烫": 2470,
      "热": 2471,
      "烷": 2472,
      "無": 2473,
      "焦": 2474,
      "焱": 2475,
      "然": 2476,
      "煤": 2477,
      "照": 2478,
      "熊": 2479,
      "熙": 2480,
      "熟": 2481,
      "爆": 2482,
      "爱": 2483,
      "父": 2484,
      "片": 2485,
      "版": 2486,
      "物": 2487,
      "特": 2488,
      "犀": 2489,
      "状": 2490,
      "犹": 2491,
      "狂": 2492,
      "狭": 2493,
      "猫": 2494,
      "献": 2495,
      "獨": 2496,
      "獲": 2497,
      "玉": 2498,
      "王": 2499,
      "玩": 2500,
      "环": 2501,
      "现": 2502,
      "玻": 2503,
      "球": 2504,
      "理": 2505,
      "琳": 2506,
      "璃": 2507,
      "瓦": 2508,
      "甕": 2509,
      "甘": 2510,
      "甚": 2511,
      "生": 2512,
      "產": 2513,
      "用": 2514,
      "田": 2515,
      "由": 2516,
      "甲": 2517,
      "申": 2518,
      "电": 2519,
      "男": 2520,
      "町": 2521,
      "画": 2522,
      "界": 2523,
      "留": 2524,
      "略": 2525,
      "番": 2526,
      "畴": 2527,
      "當": 2528,
      "疆": 2529,
      "疏": 2530,
      "疾": 2531,
      "痛": 2532,
      "痩": 2533,
      "癖": 2534,
      "発": 2535,
      "登": 2536,
      "發": 2537,
      "白": 2538,
      "百": 2539,
      "的": 2540,
      "皆": 2541,
      "皇": 2542,
      "皮": 2543,
      "益": 2544,
      "监": 2545,
      "盒": 2546,
      "盟": 2547,
      "目": 2548,
      "直": 2549,
      "相": 2550,
      "省": 2551,
      "看": 2552,
      "真": 2553,
      "眠": 2554,
      "眼": 2555,
      "着": 2556,
      "睐": 2557,
      "督": 2558,
      "知": 2559,
      "矩": 2560,
      "石": 2561,
      "矿": 2562,
      "码": 2563,
      "破": 2564,
      "硝": 2565,
      "确": 2566,
      "碎": 2567,
      "碑": 2568,
      "碰": 2569,
      "確": 2570,
      "磁": 2571,
      "礁": 2572,
      "礎": 2573,
      "示": 2574,
      "礼": 2575,
      "社": 2576,
      "祝": 2577,
      "神": 2578,
      "票": 2579,
      "禁": 2580,
      "福": 2581,
      "禾": 2582,
      "私": 2583,
      "秋": 2584,
      "种": 2585,
      "科": 2586,
      "秘": 2587,
      "租": 2588,
      "秦": 2589,
      "秩": 2590,
      "积": 2591,
      "称": 2592,
      "移": 2593,
      "程": 2594,
      "種": 2595,
      "稳": 2596,
      "穸": 2597,
      "穹": 2598,
      "空": 2599,
      "突": 2600,
      "窝": 2601,
      "窨": 2602,
      "立": 2603,
      "站": 2604,
      "竞": 2605,
      "章": 2606,
      "童": 2607,
      "端": 2608,
      "笑": 2609,
      "笔": 2610,
      "第": 2611,
      "等": 2612,
      "筋": 2613,
      "筑": 2614,
      "筒": 2615,
      "答": 2616,
      "策": 2617,
      "签": 2618,
      "简": 2619,
      "算": 2620,
      "管": 2621,
      "箱": 2622,
      "節": 2623,
      "範": 2624,
      "篇": 2625,
      "篠": 2626,
      "簡": 2627,
      "簽": 2628,
      "米": 2629,
      "类": 2630,
      "粉": 2631,
      "粗": 2632,
      "粤": 2633,
      "粹": 2634,
      "精": 2635,
      "糖": 2636,
      "系": 2637,
      "約": 2638,
      "納": 2639,
      "素": 2640,
      "紫": 2641,
      "細": 2642,
      "紹": 2643,
      "組": 2644,
      "経": 2645,
      "結": 2646,
      "絡": 2647,
      "給": 2648,
      "絵": 2649,
      "続": 2650,
      "網": 2651,
      "総": 2652,
      "緑": 2653,
      "線": 2654,
      "繁": 2655,
      "繋": 2656,
      "織": 2657,
      "繳": 2658,
      "繼": 2659,
      "續": 2660,
      "红": 2661,
      "约": 2662,
      "级": 2663,
      "纪": 2664,
      "纯": 2665,
      "纱": 2666,
      "纳": 2667,
      "纵": 2668,
      "纸": 2669,
      "线": 2670,
      "组": 2671,
      "细": 2672,
      "织": 2673,
      "终": 2674,
      "经": 2675,
      "结": 2676,
      "绕": 2677,
      "绘": 2678,
      "给": 2679,
      "络": 2680,
      "绞": 2681,
      "统": 2682,
      "继": 2683,
      "维": 2684,
      "综": 2685,
      "缀": 2686,
      "网": 2687,
      "置": 2688,
      "署": 2689,
      "美": 2690,
      "群": 2691,
      "義": 2692,
      "羽": 2693,
      "翻": 2694,
      "老": 2695,
      "考": 2696,
      "者": 2697,
      "而": 2698,
      "耧": 2699,
      "聊": 2700,
      "职": 2701,
      "联": 2702,
      "聘": 2703,
      "聚": 2704,
      "職": 2705,
      "肃": 2706,
      "肉": 2707,
      "肖": 2708,
      "肚": 2709,
      "肩": 2710,
      "育": 2711,
      "背": 2712,
      "胶": 2713,
      "胸": 2714,
      "能": 2715,
      "脑": 2716,
      "脚": 2717,
      "脸": 2718,
      "腕": 2719,
      "腰": 2720,
      "膜": 2721,
      "臃": 2722,
      "自": 2723,
      "至": 2724,
      "臼": 2725,
      "舆": 2726,
      "與": 2727,
      "舞": 2728,
      "航": 2729,
      "般": 2730,
      "舸": 2731,
      "艦": 2732,
      "良": 2733,
      "色": 2734,
      "艺": 2735,
      "节": 2736,
      "芝": 2737,
      "花": 2738,
      "芳": 2739,
      "苏": 2740,
      "若": 2741,
      "英": 2742,
      "范": 2743,
      "茶": 2744,
      "草": 2745,
      "荐": 2746,
      "荛": 2747,
      "荷": 2748,
      "莞": 2749,
      "莲": 2750,
      "获": 2751,
      "菏": 2752,
      "菖": 2753,
      "菜": 2754,
      "菱": 2755,
      "菲": 2756,
      "萍": 2757,
      "营": 2758,
      "萬": 2759,
      "落": 2760,
      "葛": 2761,
      "蒙": 2762,
      "蒲": 2763,
      "蓉": 2764,
      "蓝": 2765,
      "蓮": 2766,
      "蕨": 2767,
      "薬": 2768,
      "藉": 2769,
      "藍": 2770,
      "藏": 2771,
      "藕": 2772,
      "處": 2773,
      "虹": 2774,
      "蜂": 2775,
      "融": 2776,
      "螺": 2777,
      "蟲": 2778,
      "行": 2779,
      "街": 2780,
      "衣": 2781,
      "表": 2782,
      "衬": 2783,
      "衰": 2784,
      "袂": 2785,
      "袋": 2786,
      "被": 2787,
      "装": 2788,
      "裝": 2789,
      "裥": 2790,
      "裱": 2791,
      "裸": 2792,
      "製": 2793,
      "西": 2794,
      "要": 2795,
      "見": 2796,
      "視": 2797,
      "覺": 2798,
      "见": 2799,
      "观": 2800,
      "规": 2801,
      "览": 2802,
      "角": 2803,
      "解": 2804,
      "触": 2805,
      "言": 2806,
      "訂": 2807,
      "計": 2808,
      "記": 2809,
      "訳": 2810,
      "訴": 2811,
      "証": 2812,
      "評": 2813,
      "話": 2814,
      "該": 2815,
      "詳": 2816,
      "誌": 2817,
      "認": 2818,
      "誕": 2819,
      "語": 2820,
      "說": 2821,
      "読": 2822,
      "調": 2823,
      "談": 2824,
      "請": 2825,
      "諺": 2826,
      "謝": 2827,
      "證": 2828,
      "識": 2829,
      "警": 2830,
      "議": 2831,
      "變": 2832,
      "讓": 2833,
      "计": 2834,
      "订": 2835,
      "认": 2836,
      "让": 2837,
      "训": 2838,
      "议": 2839,
      "记": 2840,
      "讲": 2841,
      "许": 2842,
      "论": 2843,
      "设": 2844,
      "访": 2845,
      "证": 2846,
      "评": 2847,
      "识": 2848,
      "词": 2849,
      "试": 2850,
      "诗": 2851,
      "诚": 2852,
      "话": 2853,
      "诞": 2854,
      "询": 2855,
      "语": 2856,
      "说": 2857,
      "请": 2858,
      "读": 2859,
      "课": 2860,
      "谋": 2861,
      "谓": 2862,
      "谢": 2863,
      "谴": 2864,
      "谷": 2865,
      "象": 2866,
      "負": 2867,
      "貨": 2868,
      "販": 2869,
      "責": 2870,
      "貴": 2871,
      "貶": 2872,
      "費": 2873,
      "資": 2874,
      "賜": 2875,
      "賞": 2876,
      "購": 2877,
      "负": 2878,
      "财": 2879,
      "责": 2880,
      "货": 2881,
      "质": 2882,
      "贫": 2883,
      "购": 2884,
      "贯": 2885,
      "贴": 2886,
      "贵": 2887,
      "贷": 2888,
      "贸": 2889,
      "费": 2890,
      "赁": 2891,
      "资": 2892,
      "赛": 2893,
      "赠": 2894,
      "赤": 2895,
      "赴": 2896,
      "起": 2897,
      "超": 2898,
      "越": 2899,
      "趣": 2900,
      "足": 2901,
      "跨": 2902,
      "路": 2903,
      "蹈": 2904,
      "身": 2905,
      "車": 2906,
      "転": 2907,
      "輪": 2908,
      "轉": 2909,
      "车": 2910,
      "轨": 2911,
      "转": 2912,
      "轮": 2913,
      "轴": 2914,
      "轻": 2915,
      "载": 2916,
      "辅": 2917,
      "输": 2918,
      "辛": 2919,
      "辨": 2920,
      "辭": 2921,
      "辺": 2922,
      "辽": 2923,
      "达": 2924,
      "过": 2925,
      "迎": 2926,
      "运": 2927,
      "近": 2928,
      "还": 2929,
      "这": 2930,
      "进": 2931,
      "远": 2932,
      "连": 2933,
      "迷": 2934,
      "追": 2935,
      "退": 2936,
      "送": 2937,
      "选": 2938,
      "這": 2939,
      "通": 2940,
      "速": 2941,
      "造": 2942,
      "連": 2943,
      "週": 2944,
      "進": 2945,
      "遇": 2946,
      "運": 2947,
      "過": 2948,
      "道": 2949,
      "達": 2950,
      "違": 2951,
      "遣": 2952,
      "遭": 2953,
      "選": 2954,
      "邀": 2955,
      "還": 2956,
      "邓": 2957,
      "那": 2958,
      "邪": 2959,
      "郎": 2960,
      "郡": 2961,
      "部": 2962,
      "郷": 2963,
      "都": 2964,
      "配": 2965,
      "酒": 2966,
      "酸": 2967,
      "醪": 2968,
      "采": 2969,
      "里": 2970,
      "重": 2971,
      "野": 2972,
      "量": 2973,
      "金": 2974,
      "針": 2975,
      "錄": 2976,
      "錯": 2977,
      "録": 2978,
      "鍛": 2979,
      "钉": 2980,
      "钓": 2981,
      "钗": 2982,
      "钟": 2983,
      "钠": 2984,
      "钮": 2985,
      "铁": 2986,
      "银": 2987,
      "铺": 2988,
      "链": 2989,
      "销": 2990,
      "锂": 2991,
      "锋": 2992,
      "锥": 2993,
      "镇": 2994,
      "長": 2995,
      "长": 2996,
      "門": 2997,
      "開": 2998,
      "間": 2999,
      "関": 3000,
      "關": 3001,
      "门": 3002,
      "闭": 3003,
      "问": 3004,
      "间": 3005,
      "闻": 3006,
      "阋": 3007,
      "阜": 3008,
      "队": 3009,
      "防": 3010,
      "阳": 3011,
      "阻": 3012,
      "阿": 3013,
      "附": 3014,
      "际": 3015,
      "陆": 3016,
      "陈": 3017,
      "降": 3018,
      "限": 3019,
      "陕": 3020,
      "院": 3021,
      "除": 3022,
      "险": 3023,
      "陰": 3024,
      "陲": 3025,
      "陵": 3026,
      "険": 3027,
      "陽": 3028,
      "階": 3029,
      "隔": 3030,
      "障": 3031,
      "隨": 3032,
      "隻": 3033,
      "难": 3034,
      "雄": 3035,
      "集": 3036,
      "雇": 3037,
      "雕": 3038,
      "難": 3039,
      "零": 3040,
      "雷": 3041,
      "電": 3042,
      "雾": 3043,
      "需": 3044,
      "震": 3045,
      "霉": 3046,
      "霊": 3047,
      "霞": 3048,
      "露": 3049,
      "霸": 3050,
      "靈": 3051,
      "青": 3052,
      "非": 3053,
      "靡": 3054,
      "面": 3055,
      "革": 3056,
      "鞋": 3057,
      "韧": 3058,
      "音": 3059,
      "須": 3060,
      "頭": 3061,
      "頼": 3062,
      "題": 3063,
      "額": 3064,
      "願": 3065,
      "页": 3066,
      "项": 3067,
      "须": 3068,
      "领": 3069,
      "颇": 3070,
      "题": 3071,
      "風": 3072,
      "风": 3073,
      "飘": 3074,
      "飞": 3075,
      "食": 3076,
      "飯": 3077,
      "飲": 3078,
      "飾": 3079,
      "館": 3080,
      "首": 3081,
      "香": 3082,
      "馬": 3083,
      "駒": 3084,
      "駿": 3085,
      "騎": 3086,
      "験": 3087,
      "马": 3088,
      "驱": 3089,
      "验": 3090,
      "骑": 3091,
      "骷": 3092,
      "體": 3093,
      "高": 3094,
      "魔": 3095,
      "鯉": 3096,
      "鯖": 3097,
      "鱼": 3098,
      "鳩": 3099,
      "鴻": 3100,
      "鶴": 3101,
      "鷲": 3102,
      "鸟": 3103,
      "鸽": 3104,
      "鹏": 3105,
      "鹿": 3106,
      "黃": 3107,
      "黄": 3108,
      "黑": 3109,
      "鼓": 3110,
      "齊": 3111,
      "齿": 3112,
      "龋": 3113,
      "龙": 3114,
      "가": 3115,
      "개": 3116,
      "경": 3117,
      "계": 3118,
      "고": 3119,
      "공": 3120,
      "국": 3121,
      "그": 3122,
      "기": 3123,
      "꼭": 3124,
      "는": 3125,
      "능": 3126,
      "니": 3127,
      "다": 3128,
      "단": 3129,
      "닫": 3130,
      "더": 3131,
      "도": 3132,
      "동": 3133,
      "될": 3134,
      "라": 3135,
      "로": 3136,
      "를": 3137,
      "면": 3138,
      "보": 3139,
      "부": 3140,
      "브": 3141,
      "사": 3142,
      "서": 3143,
      "세": 3144,
      "소": 3145,
      "속": 3146,
      "수": 3147,
      "습": 3148,
      "시": 3149,
      "아": 3150,
      "어": 3151,
      "없": 3152,
      "에": 3153,
      "요": 3154,
      "용": 3155,
      "우": 3156,
      "웃": 3157,
      "유": 3158,
      "으": 3159,
      "을": 3160,
      "음": 3161,
      "의": 3162,
      "이": 3163,
      "인": 3164,
      "있": 3165,
      "자": 3166,
      "장": 3167,
      "저": 3168,
      "접": 3169,
      "정": 3170,
      "주": 3171,
      "지": 3172,
      "출": 3173,
      "터": 3174,
      "필": 3175,
      "하": 3176,
      "학": 3177,
      "한": 3178,
      "할": 3179,
      "해": 3180,
      "": 3181,
      "": 3182,
      "": 3183,
      "": 3184,
      "": 3185,
      "": 3186,
      "": 3187,
      "": 3188,
      "": 3189,
      "": 3190,
      "": 3191,
      "": 3192,
      "": 3193,
      "": 3194,
      "": 3195,
      "": 3196,
      "": 3197,
      "": 3198,
      "": 3199,
      "": 3200,
      "": 3201,
      "": 3202,
      "": 3203,
      "": 3204,
      "": 3205,
      "": 3206,
      "": 3207,
      "": 3208,
      "": 3209,
      "": 3210,
      "": 3211,
      "": 3212,
      "": 3213,
      "": 3214,
      "": 3215,
      "": 3216,
      "": 3217,
      "": 3218,
      "": 3219,
      "": 3220,
      "": 3221,
      "": 3222,
      "": 3223,
      "": 3224,
      "": 3225,
      "": 3226,
      "": 3227,
      "": 3228,
      "": 3229,
      "": 3230,
      "": 3231,
      "": 3232,
      "": 3233,
      "": 3234,
      "": 3235,
      "": 3236,
      "": 3237,
      "": 3238,
      "": 3239,
      "": 3240,
      "": 3241,
      "": 3242,
      "": 3243,
      "": 3244,
      "": 3245,
      "": 3246,
      "": 3247,
      "": 3248,
      "": 3249,
      "": 3250,
      "": 3251,
      "": 3252,
      "": 3253,
      "": 3254,
      "": 3255,
      "": 3256,
      "": 3257,
      "": 3258,
      "": 3259,
      "": 3260,
      "": 3261,
      "": 3262,
      "": 3263,
      "": 3264,
      "": 3265,
      "": 3266,
      "": 3267,
      "": 3268,
      "": 3269,
      "": 3270,
      "樂": 3271,
      "藍": 3272,
      "勞": 3273,
      "櫓": 3274,
      "殺": 3275,
      "廬": 3276,
      "︎": 3277,
      "️": 3278,
      "︰": 3279,
      "﻿": 3280,
      "！": 3281,
      "（": 3282,
      "）": 3283,
      "，": 3284,
      "－": 3285,
      "／": 3286,
      "０": 3287,
      "１": 3288,
      "２": 3289,
      "３": 3290,
      "４": 3291,
      "５": 3292,
      "６": 3293,
      "７": 3294,
      "８": 3295,
      "９": 3296,
      "：": 3297,
      "；": 3298,
      "？": 3299,
      "￼": 3300,
      "�": 3301,
      "𐌰": 3302,
      "𐌱": 3303,
      "𐌲": 3304,
      "𐌳": 3305,
      "𐌴": 3306,
      "𐌵": 3307,
      "𐌶": 3308,
      "𐌷": 3309,
      "𐌸": 3310,
      "𐌹": 3311,
      "𐌺": 3312,
      "𐌻": 3313,
      "𐌼": 3314,
      "𐌽": 3315,
      "𐌾": 3316,
      "𐌿": 3317,
      "𐍀": 3318,
      "𐍁": 3319,
      "𐍂": 3320,
      "𐍃": 3321,
      "𐍄": 3322,
      "𐍅": 3323,
      "𐍆": 3324,
      "𐍇": 3325,
      "𐍈": 3326,
      "𐍉": 3327,
      "𐍊": 3328,
      "🇧": 3329,
      "🇮": 3330,
      "🇳": 3331,
      "🇴": 3332,
      "🇸": 3333,
      "🇺": 3334,
      "🌏": 3335,
      "🌟": 3336,
      "🌷": 3337,
      "🌸": 3338,
      "🌹": 3339,
      "🌺": 3340,
      "🌻": 3341,
      "🌾": 3342,
      "🌿": 3343,
      "🍀": 3344,
      "🍏": 3345,
      "🍑": 3346,
      "🍒": 3347,
      "🎂": 3348,
      "🎈": 3349,
      "🎒": 3350,
      "🎥": 3351,
      "🏡": 3352,
      "🏹": 3353,
      "🏻": 3354,
      "🏿": 3355,
      "🐍": 3356,
      "🐒": 3357,
      "🐓": 3358,
      "🐔": 3359,
      "👀": 3360,
      "👆": 3361,
      "👇": 3362,
      "👉": 3363,
      "👌": 3364,
      "👍": 3365,
      "👏": 3366,
      "👐": 3367,
      "👗": 3368,
      "👚": 3369,
      "👛": 3370,
      "👜": 3371,
      "👞": 3372,
      "👟": 3373,
      "👫": 3374,
      "💍": 3375,
      "💎": 3376,
      "💐": 3377,
      "💕": 3378,
      "💖": 3379,
      "💣": 3380,
      "💥": 3381,
      "💦": 3382,
      "💪": 3383,
      "💫": 3384,
      "💰": 3385,
      "💲": 3386,
      "💼": 3387,
      "📖": 3388,
      "📣": 3389,
      "📱": 3390,
      "📲": 3391,
      "📷": 3392,
      "🔊": 3393,
      "🔎": 3394,
      "🔚": 3395,
      "🔥": 3396,
      "🔱": 3397,
      "🔹": 3398,
      "🔺": 3399,
      "🕉": 3400,
      "🗡": 3401,
      "😀": 3402,
      "😁": 3403,
      "😂": 3404,
      "😃": 3405,
      "😆": 3406,
      "😇": 3407,
      "😈": 3408,
      "😉": 3409,
      "😊": 3410,
      "😍": 3411,
      "😎": 3412,
      "😔": 3413,
      "😘": 3414,
      "😛": 3415,
      "😝": 3416,
      "😟": 3417,
      "😠": 3418,
      "😡": 3419,
      "😢": 3420,
      "😦": 3421,
      "😱": 3422,
      "🙁": 3423,
      "🙂": 3424,
      "🙌": 3425,
      "🙏": 3426,
      "🚀": 3427,
      "🛎": 3428,
      "🤔": 3429,
      "🤗": 3430,
      "🤘": 3431,
      "🤝": 3432,
      "🤤": 3433,
      "🥇": 3434,
      "🥒": 3435,
      "ని": 3436,
      "ర్": 3437,
      "్ర": 3438,
      "న్": 3439,
      "స్": 3440,
      "ార": 3441,
      "లు": 3442,
      "ంద": 3443,
      "లో": 3444,
      "కు": 3445,
      "క్": 3446,
      "రి": 3447,
      "ంచ": 3448,
      "్య": 3449,
      "గా": 3450,
      "ను": 3451,
      "ల్": 3452,
      "ట్": 3453,
      "న్న": 3454,
      "ప్ర": 3455,
      "ంది": 3456,
      "వి": 3457,
      "ాల": 3458,
      "ారు": 3459,
      "తు": 3460,
      "మా": 3461,
      "డు": 3462,
      "కి": 3463,
      "చే": 3464,
      "టి": 3465,
      "డి": 3466,
      "కా": 3467,
      "సి": 3468,
      "రు": 3469,
      "త్": 3470,
      "తి": 3471,
      "ప్": 3472,
      "యి": 3473,
      "లి": 3474,
      "ంత": 3475,
      "ంట": 3476,
      "వా": 3477,
      "రా": 3478,
      "పు": 3479,
      "ది": 3480,
      "నా": 3481,
      "చి": 3482,
      "పా": 3483,
      "ద్": 3484,
      "నే": 3485,
      "ంగా": 3486,
      "డా": 3487,
      "కో": 3488,
      "గు": 3489,
      "లా": 3490,
      "యు": 3491,
      "ంచి": 3492,
      "సు": 3493,
      "సం": 3494,
      "లే": 3495,
      "ము": 3496,
      "తో": 3497,
      "చ్": 3498,
      "డ్": 3499,
      "టు": 3500,
      "ంలో": 3501,
      "పి": 3502,
      "మరి": 3503,
      "దు": 3504,
      "స్తు": 3505,
      "యా": 3506,
      "గి": 3507,
      "దా": 3508,
      "న్ని": 3509,
      "ష్": 3510,
      "మీ": 3511,
      "మి": 3512,
      "కొ": 3513,
      "మరియు": 3514,
      "పో": 3515,
      "్యా": 3516,
      "సా": 3517,
      "మె": 3518,
      "స్త": 3519,
      "గ్": 3520,
      "నికి": 3521,
      "క్క": 3522,
      "ఒక": 3523,
      "వే": 3524,
      "పె": 3525,
      "త్ర": 3526,
      "వు": 3527,
      "క్ష": 3528,
      "ండ": 3529,
      "ందు": 3530,
      "టీ": 3531,
      "రో": 3532,
      "తె": 3533,
      "నీ": 3534,
      "ధి": 3535,
      "కే": 3536,
      "మ్": 3537,
      "బా": 3538,
      "కూ": 3539,
      "చె": 3540,
      "న్నా": 3541,
      "వె": 3542,
      "వార": 3543,
      "న్నారు": 3544,
      "ళ్": 3545,
      "తీ": 3546,
      "తా": 3547,
      "దే": 3548,
      "ండి": 3549,
      "స్థ": 3550,
      "ప్ప": 3551,
      "క్ర": 3552,
      "చు": 3553,
      "పై": 3554,
      "రె": 3555,
      "శా": 3556,
      "యం": 3557,
      "వచ్": 3558,
      "తే": 3559,
      "లను": 3560,
      "భా": 3561,
      "ప్పు": 3562,
      "ల్లో": 3563,
      "రం": 3564,
      "ైన": 3565,
      "మే": 3566,
      "సీ": 3567,
      "ర్‌": 3568,
      "డం": 3569,
      "వం": 3570,
      "ంగ్": 3571,
      "పరి": 3572,
      "చేయ": 3573,
      "టా": 3574,
      "నిర్": 3575,
      "గ్ర": 3576,
      "జా": 3577,
      "న్‌": 3578,
      "ట్ర": 3579,
      "యో": 3580,
      "హి": 3581,
      "లకు": 3582,
      "ల్ల": 3583,
      "తం": 3584,
      "ంతో": 3585,
      "బ్": 3586,
      "స్‌": 3587,
      "కూడా": 3588,
      "వ్య": 3589,
      "ొక్క": 3590,
      "వీ": 3591,
      "ంటే": 3592,
      "ంటు": 3593,
      "వర": 3594,
      "జీ": 3595,
      "ద్ద": 3596,
      "నం": 3597,
      "సె": 3598,
      "ారం": 3599,
      "ారి": 3600,
      "పీ": 3601,
      "జి": 3602,
      "హా": 3603,
      "బు": 3604,
      "యొక్క": 3605,
      "వర్": 3606,
      "లీ": 3607,
      "ట్ట": 3608,
      "ాలి": 3609,
      "రీ": 3610,
      "డానికి": 3611,
      "ంచారు": 3612,
      "దీ": 3613,
      "శ్": 3614,
      "ర్య": 3615,
      "సమ": 3616,
      "జు": 3617,
      "చేసి": 3618,
      "ంచిన": 3619,
      "తన": 3620,
      "ధా": 3621,
      "పే": 3622,
      "చూ": 3623,
      "మొ": 3624,
      "రే": 3625,
      "కె": 3626,
      "సిని": 3627,
      "ట్టు": 3628,
      "కీ": 3629,
      "మో": 3630,
      "వ్": 3631,
      "ప్రా": 3632,
      "త్త": 3633,
      "రూ": 3634,
      "ట్లు": 3635,
      "ట్టి": 3636,
      "సే": 3637,
      "నె": 3638,
      "త్య": 3639,
      "ాలా": 3640,
      "మైన": 3641,
      "అవ": 3642,
      "మీరు": 3643,
      "భి": 3644,
      "కోసం": 3645,
      "పూ": 3646,
      "జ్": 3647,
      "మార్": 3648,
      "ఇది": 3649,
      "సినిమా": 3650,
      "సుకు": 3651,
      "శి": 3652,
      "ధ్య": 3653,
      "బి": 3654,
      "అయి": 3655,
      "మూ": 3656,
      "పొ": 3657,
      "ంచు": 3658,
      "ఉన్న": 3659,
      "ర్థ": 3660,
      "ప్పుడు": 3661,
      "ౖన": 3662,
      "ందుకు": 3663,
      "ాయి": 3664,
      "ఉంది": 3665,
      "ంద్ర": 3666,
      "ాలను": 3667,
      "వారి": 3668,
      "అను": 3669,
      "వై": 3670,
      "చాలా": 3671,
      "స్తుంది": 3672,
      "్రి": 3673,
      "ల్‌": 3674,
      "ంటి": 3675,
      "క్కు": 3676,
      "ట్‌": 3677,
      "అని": 3678,
      "ంచే": 3679,
      "రణ": 3680,
      "ారణ": 3681,
      "కలి": 3682,
      "తెలి": 3683,
      "టర్": 3684,
      "ాలు": 3685,
      "న్నాయి": 3686,
      "భు": 3687,
      "తుంది": 3688,
      "శ్ర": 3689,
      "ఉండ": 3690,
      "ష్ట": 3691,
      "20": 3692,
      "తర": 3693,
      "బం": 3694,
      "లేదు": 3695,
      "పార్": 3696,
      "వచ్చు": 3697,
      "ాలని": 3698,
      "ఎం": 3699,
      "విష": 3700,
      "కాల": 3701,
      "చిత్ర": 3702,
      "ధిక": 3703,
      "ఖ్య": 3704,
      "ద్య": 3705,
      "ండా": 3706,
      "లె": 3707,
      "లేదా": 3708,
      "కం": 3709,
      "ప్రతి": 3710,
      "స్తున్న": 3711,
      "నుంచి": 3712,
      "కానీ": 3713,
      "ఫ్": 3714,
      "డీ": 3715,
      "ర్తి": 3716,
      "మైన": 3717,
      "కోవ": 3718,
      "వ్యా": 3719,
      "యన": 3720,
      "తెలు": 3721,
      "రిగి": 3722,
      "ంట్": 3723,
      "య్య": 3724,
      "వాత": 3725,
      "శారు": 3726,
      "దేశ": 3727,
      "ండ్": 3728,
      "రుగు": 3729,
      "టె": 3730,
      "గో": 3731,
      "ందని": 3732,
      "వల": 3733,
      "అనే": 3734,
      "షన్": 3735,
      "దర్": 3736,
      "మని": 3737,
      "రోజు": 3738,
      "పాటు": 3739,
      "ఉంటు": 3740,
      "ప్పటి": 3741,
      "సూ": 3742,
      "ఉప": 3743,
      "ఆర్": 3744,
      "నుండి": 3745,
      "గం": 3746,
      "డే": 3747,
      "ులు": 3748,
      "క్తి": 3749,
      "వారు": 3750,
      "సమా": 3751,
      "గొ": 3752,
      "రాజ": 3753,
      "భార": 3754,
      "కుండా": 3755,
      "గే": 3756,
      "అధిక": 3757,
      "ష్ట్ర": 3758,
      "ండు": 3759,
      "అత": 3760,
      "మ్మ": 3761,
      "ద్ధ": 3762,
      "యూ": 3763,
      "మాత్ర": 3764,
      "ప్రభు": 3765,
      "బీ": 3766,
      "జె": 3767,
      "త్స": 3768,
      "మంత": 3769,
      "ారా": 3770,
      "ల్లి": 3771,
      "యంలో": 3772,
      "లతో": 3773,
      "ఆయన": 3774,
      "ప్రభుత్": 3775,
      "ళ్ళ": 3776,
      "తోంది": 3777,
      "చ్చి": 3778,
      "రాష్ట్ర": 3779,
      "అయితే": 3780,
      "స్తా": 3781,
      "పార్టీ": 3782,
      "షి": 3783,
      "క్రి": 3784,
      "తున్న": 3785,
      "కర్": 3786,
      "అంత": 3787,
      "స్ట": 3788,
      "కార్": 3789,
      "స్థా": 3790,
      "ంచింది": 3791,
      "అభి": 3792,
      "కల": 3793,
      "మంది": 3794,
      "అది": 3795,
      "చేసిన": 3796,
      "క్కువ": 3797,
      "వరి": 3798,
      "పని": 3799,
      "చేశారు": 3800,
      "చెప్ప": 3801,
      "సిన": 3802,
      "మొద": 3803,
      "ఉంటుంది": 3804,
      "వారా": 3805,
      "నాలు": 3806,
      "బో": 3807,
      "ళ్ల": 3808,
      "తులు": 3809,
      "ృష్": 3810,
      "శం": 3811,
      "చ్చ": 3812,
      "ణా": 3813,
      "ంచా": 3814,
      "ట్ల": 3815,
      "వచ్చి": 3816,
      "అవస": 3817,
      "డ్డి": 3818,
      "కాం": 3819,
      "ద్వారా": 3820,
      "ఉపయో": 3821,
      "లక్ష": 3822,
      "ఆమె": 3823,
      "కార్య": 3824,
      "ముఖ్య": 3825,
      "వంటి": 3826,
      "కలిగి": 3827,
      "ంచడానికి": 3828,
      "బె": 3829,
      "ఫి": 3830,
      "అన్ని": 3831,
      "్రా": 3832,
      "్యూ": 3833,
      "సంద": 3834,
      "సో": 3835,
      "గురి": 3836,
      "మంత్రి": 3837,
      "ణి": 3838,
      "విజ": 3839,
      "రెండు": 3840,
      "నో": 3841,
      "కరి": 3842,
      "త్తి": 3843,
      "వారం": 3844,
      "అందు": 3845,
      "మం": 3846,
      "ల్లా": 3847,
      "బడి": 3848,
      "సర్": 3849,
      "ారని": 3850,
      "ప్రక": 3851,
      "స్తున్నారు": 3852,
      "కులు": 3853,
      "కొన్ని": 3854,
      "స్ప": 3855,
      "తూ": 3856,
      "ంటూ": 3857,
      "తమ": 3858,
      "తంగా": 3859,
      "స్థి": 3860,
      "అం": 3861,
      "కాదు": 3862,
      "పోయి": 3863,
      "విధ": 3864,
      "న్స్": 3865,
      "దర్శ": 3866,
      "ఎలా": 3867,
      "ఫో": 3868,
      "హీ": 3869,
      "లోని": 3870,
      "పెద్ద": 3871,
      "ఎన్ని": 3872,
      "స్తే": 3873,
      "దాని": 3874,
      "తర్": 3875,
      "స్తారు": 3876,
      "ప్పి": 3877,
      "అలా": 3878,
      "కర": 3879,
      "టో": 3880,
      "క్‌": 3881,
      "లంగా": 3882,
      "ంపు": 3883,
      "జే": 3884,
      "ర్లు": 3885,
      "లలో": 3886,
      "00": 3887,
      "పడి": 3888,
      "వహి": 3889,
      "ముందు": 3890,
      "ప్రత్య": 3891,
      "హై": 3892,
      "లం": 3893,
      "వరకు": 3894,
      "ట్లా": 3895,
      "వ్యవ": 3896,
      "తీసుకు": 3897,
      "డంతో": 3898,
      "నూ": 3899,
      "సాధ": 3900,
      "వృ": 3901,
      "గ్రా": 3902,
      "క్కడ": 3903,
      "దని": 3904,
      "తొ": 3905,
      "లై": 3906,
      "త్రి": 3907,
      "న్నాడు": 3908,
      "మన": 3909,
      "రై": 3910,
      "తరు": 3911,
      "గత": 3912,
      "శ్రీ": 3913,
      "ణం": 3914,
      "అంద": 3915,
      "తలు": 3916,
      "బాబు": 3917,
      "ద్ర": 3918,
      "ప్రజ": 3919,
      "ఏర్": 3920,
      "చర్": 3921,
      "నిపి": 3922,
      "తర్వాత": 3923,
      "భ్య": 3924,
      "గురించి": 3925,
      "19": 3926,
      "ఎస్": 3927,
      "స్తూ": 3928,
      "టం": 3929,
      "ప్రారం": 3930,
      "మధ్య": 3931,
      "సరి": 3932,
      "మంచి": 3933,
      "ఉన్నాయి": 3934,
      "ాలకు": 3935,
      "జరిగి": 3936,
      "సై": 3937,
      "పం": 3938,
      "ంచడం": 3939,
      "ప్రధా": 3940,
      "ఉపయోగి": 3941,
      "కేంద్ర": 3942,
      "వ్వ": 3943,
      "మరో": 3944,
      "పూర్తి": 3945,
      "చా": 3946,
      "మాట్లా": 3947,
      "సంబం": 3948,
      "ంబ": 3949,
      "త్తు": 3950,
      "బ్యా": 3951,
      "క్షి": 3952,
      "మై": 3953,
      "రెడ్డి": 3954,
      "జన": 3955,
      "సందర్": 3956,
      "కొత్త": 3957,
      "కంగా": 3958,
      "ప్రే": 3959,
      "స్య": 3960,
      "కారణ": 3961,
      "మర్": 3962,
      "అంది": 3963,
      "సారి": 3964,
      "వాటి": 3965,
      "పోలీ": 3966,
      "కంటే": 3967,
      "కపో": 3968,
      "డె": 3969,
      "ంచుకు": 3970,
      "పడు": 3971,
      "ప్రత్యే": 3972,
      "ప్రాంత": 3973,
      "టన": 3974,
      "ఉంట": 3975,
      "స్తోంది": 3976,
      "తీసు": 3977,
      "చిన్న": 3978,
      "చేసుకు": 3979,
      "సాధారణ": 3980,
      "ళ్లు": 3981,
      "బాద్": 3982,
      "లోకి": 3983,
      "నియ": 3984,
      "ఇప్పటి": 3985,
      "మాత్రమే": 3986,
      "స్ట్": 3987,
      "ధు": 3988,
      "హీరో": 3989,
      "కలు": 3990,
      "చేసే": 3991,
      "ఇం": 3992,
      "హు": 3993,
      "జిల్లా": 3994,
      "చంద్ర": 3995,
      "పారు": 3996,
      "జీవి": 3997,
      "యే": 3998,
      "సులు": 3999,
      "హె": 4000,
      "నిర్వహి": 4001,
      "ఖా": 4002,
      "నగ": 4003,
      "‌లో": 4004,
      "ఎక్కువ": 4005,
      "హ్": 4006,
      "బ్బ": 4007,
      "వార్": 4008,
      "పర్": 4009,
      "అవసరం": 4010,
      "తెలంగా": 4011,
      "ద్ధి": 4012,
      "ందే": 4013,
      "షా": 4014,
      "ందిన": 4015,
      "ప్రభుత్వం": 4016,
      "మీద": 4017,
      "క్స్": 4018,
      "భూ": 4019,
      "కల్": 4020,
      "అవకా": 4021,
      "హో": 4022,
      "సంస్థ": 4023,
      "ృష్టి": 4024,
      "్యం": 4025,
      "నిర్మా": 4026,
      "దల": 4027,
      "కనిపి": 4028,
      "ఇప్పుడు": 4029,
      "శు": 4030,
      "దో": 4031,
      "పిల్ల": 4032,
      "దం": 4033,
      "తెలంగాణ": 4034,
      "క్రమ": 4035,
      "వంత": 4036,
      "201": 4037,
      "బ్ర": 4038,
      "ఉత్": 4039,
      "డ్డ": 4040,
      "నిర్ణ": 4041,
      "పేరు": 4042,
      "గ్రె": 4043,
      "ఇతర": 4044,
      "కోర్": 4045,
      "నెల": 4046,
      "నేను": 4047,
      "సర": 4048,
      "ళ్లి": 4049,
      "పాల్": 4050,
      "రాలు": 4051,
      "సమయంలో": 4052,
      "ారులు": 4053,
      "ైనా": 4054,
      "క్కి": 4055,
      "స్వా": 4056,
      "వ్యక్తి": 4057,
      "ఆరో": 4058,
      "వద్ద": 4059,
      "కాంగ్రె": 4060,
      "అన": 4061,
      "కరణ": 4062,
      "పరిస్థి": 4063,
      "ర్థి": 4064,
      "అవు": 4065,
      "స్టా": 4066,
      "గె": 4067,
      "మొదటి": 4068,
      "సంవ": 4069,
      "నటి": 4070,
      "అనేక": 4071,
      "చారం": 4072,
      "కథ": 4073,
      "యత్": 4074,
      "పడ": 4075,
      "తెలుగు": 4076,
      "పంచ": 4077,
      "ంగ్‌": 4078,
      "ఫీ": 4079,
      "ద్యా": 4080,
      "సంవత్స": 4081,
      "నాయ": 4082,
      "ంగ": 4083,
      "తున్నారు": 4084,
      "ప్రధాన": 4085,
      "విడు": 4086,
      "గ్గ": 4087,
      "తల": 4088,
      "ఫా": 4089,
      "పాత్ర": 4090,
      "ప్రత్యేక": 4091,
      "సమస్య": 4092,
      "నలు": 4093,
      "హం": 4094,
      "టే": 4095,
      "కాలు": 4096,
      "ఇలా": 4097,
      "తెలిపారు": 4098,
      "ఉద్య": 4099,
      "సహా": 4100,
      "య్": 4101,
      "భాగ": 4102,
      "యాలు": 4103,
      "తీయ": 4104,
      "అత్య": 4105,
      "గీ": 4106,
      "పాల": 4107,
      "ర్కొ": 4108,
      "శాఖ": 4109,
      "టానికి": 4110,
      "జో": 4111,
      "న్ను": 4112,
      "వ్ర": 4113,
      "ప్రస్తు": 4114,
      "దూ": 4115,
      "10": 4116,
      "మొత్": 4117,
      "హైద": 4118,
      "చిత్రం": 4119,
      "త్‌": 4120,
      "మహి": 4121,
      "దీని": 4122,
      "చూడ": 4123,
      "మహ": 4124,
      "ంధ": 4125,
      "ఉంటే": 4126,
      "ఎస్‌": 4127,
      "ర్చు": 4128,
      "నియో": 4129,
      "చెందిన": 4130,
      "యని": 4131,
      "శీ": 4132,
      "విద్యా": 4133,
      "తరువాత": 4134,
      "సందర్భ": 4135,
      "అదే": 4136,
      "ఆర్‌": 4137,
      "ఆధ": 4138,
      "ల్లు": 4139,
      "అన్నారు": 4140,
      "మాన": 4141,
      "పథ": 4142,
      "తయ": 4143,
      "ప్రభా": 4144,
      "స్టు": 4145,
      "రాబాద్": 4146,
      "ష్టం": 4147,
      "వృద్ధి": 4148,
      "మరింత": 4149,
      "పూర్": 4150,
      "అతను": 4151,
      "నని": 4152,
      "గల": 4153,
      "మహిళ": 4154,
      "ఇక": 4155,
      "కుడు": 4156,
      "తుల": 4157,
      "వ్యక్": 4158,
      "చర్య": 4159,
      "చేసింది": 4160,
      "పెట్ట": 4161,
      "ప్రయత్": 4162,
      "క్షణ": 4163,
      "ందో": 4164,
      "అమ": 4165,
      "ద్దు": 4166,
      "వ‌": 4167,
      "జర్": 4168,
      "ళి": 4169,
      "తీవ్ర": 4170,
      "స్థాయి": 4171,
      "దన": 4172,
      "రుకు": 4173,
      "రాల": 4174,
      "ఉత్త": 4175,
      "ారీ": 4176,
      "బట్టి": 4177,
      "జగ": 4178,
      "రావ": 4179,
      "ంచండి": 4180,
      "శాల": 4181,
      "లుగా": 4182,
      "కను": 4183,
      "స్ట్ర": 4184,
      "పర": 4185,
      "విషయం": 4186,
      "ఇవ్వ": 4187,
      "హైదరాబాద్": 4188,
      "సంబంధి": 4189,
      "మాత్రం": 4190,
      "గిన": 4191,
      "డ్‌": 4192,
      "వల్ల": 4193,
      "నేత": 4194,
      "మూడు": 4195,
      "కావ": 4196,
      "కృ": 4197,
      "ప్రపంచ": 4198,
      "స్త్ర": 4199,
      "ఫె": 4200,
      "కుల": 4201,
      "ంచాడు": 4202,
      "ుల": 4203,
      "ఉత్ప": 4204,
      "అన్న": 4205,
      "ప్రమా": 4206,
      "ట్టుకు": 4207,
      "వచ్చిన": 4208,
      "జరుగు": 4209,
      "కళ": 4210,
      "ంలోని": 4211,
      "ఏర్పాటు": 4212,
      "సహ": 4213,
      "కుటు": 4214,
      "రాజకీ": 4215,
      "ఎదు": 4216,
      "మారు": 4217,
      "విడుదల": 4218,
      "రెండ": 4219,
      "సాధి": 4220,
      "చంద్రబాబు": 4221,
      "ముఖ": 4222,
      "బయ": 4223,
      "పలు": 4224,
      "వులు": 4225,
      "ణ్": 4226,
      "తగ్": 4227,
      "టై": 4228,
      "డియా": 4229,
      "ఒక్క": 4230,
      "మొత్తం": 4231,
      "క‌": 4232,
      "భారీ": 4233,
      "ప్రారంభ": 4234,
      "చెప్పారు": 4235,
      "ణాలు": 4236,
      "బడు": 4237,
      "వన్": 4238,
      "చేస్తున్న": 4239,
      "యన్": 4240,
      "తారు": 4241,
      "స్వ": 4242,
      "ంటారు": 4243,
      "గుర్తి": 4244,
      "అధ్య": 4245,
      "గంట": 4246,
      "సిద్ధ": 4247,
      "స్తున్నా": 4248,
      "యాన్ని": 4249,
      "అర్": 4250,
      "విశ్": 4251,
      "తక్కువ": 4252,
      "జం": 4253,
      "ుడు": 4254,
      "ల్లీ": 4255,
      "ట్టిన": 4256,
      "మ్మె": 4257,
      "ల్స్": 4258,
      "ంటర్": 4259,
      "అలాగే": 4260,
      "షన్‌": 4261,
      "చేసు": 4262,
      "లేదని": 4263,
      "తాయి": 4264,
      "దారు": 4265,
      "జూ": 4266,
      "నిక": 4267,
      "సౌ": 4268,
      "ందా": 4269,
      "గురు": 4270,
      "కొన": 4271,
      "స్తాయి": 4272,
      "ప్రి": 4273,
      "త్మ": 4274,
      "టింగ్": 4275,
      "తాజా": 4276,
      "కృష్": 4277,
      "చో": 4278,
      "వరు": 4279,
      "మ్యా": 4280,
      "శాలు": 4281,
      "రంగ": 4282,
      "చేశా": 4283,
      "కేవల": 4284,
      "పేర్కొ": 4285,
      "కేవలం": 4286,
      "డ్ర": 4287,
      "యువ": 4288,
      "చికి": 4289,
      "అభివృద్ధి": 4290,
      "ల్సి": 4291,
      "వన": 4292,
      "న్యా": 4293,
      "తప్ప": 4294,
      "లేని": 4295,
      "జరిగిన": 4296,
      "క్రీ": 4297,
      "య్యా": 4298,
      "గానే": 4299,
      "అవకాశం": 4300,
      "నీటి": 4301,
      "దీంతో": 4302,
      "ఆలో": 4303,
      "మాట్లాడు": 4304,
      "అంటే": 4305,
      "భావి": 4306,
      "ప్రశ్": 4307,
      "కొని": 4308,
      "ధం": 4309,
      "కోర్టు": 4310,
      "ఉంటాయి": 4311,
      "సుల": 4312,
      "ఉద్యో": 4313,
      "క్టర్": 4314,
      "చ్చు": 4315,
      "అమె": 4316,
      "నర్": 4317,
      "ప్రస్తుతం": 4318,
      "సభ్య": 4319,
      "లేకుండా": 4320,
      "తెలిసి": 4321,
      "కారు": 4322,
      "జ్ఞ": 4323,
      "శాతం": 4324,
      "మ్‌": 4325,
      "ప్‌": 4326,
      "మతి": 4327,
      "వివిధ": 4328,
      "ఏమి": 4329,
      "డియో": 4330,
      "సూచి": 4331,
      "గతి": 4332,
      "త్వ": 4333,
      "పట్ట": 4334,
      "కెట్": 4335,
      "ంచాలని": 4336,
      "15": 4337,
      "మారి": 4338,
      "సంఘ": 4339,
      "చేయడానికి": 4340,
      "మీడియా": 4341,
      "ప్రభుత్వ": 4342,
      "సభ": 4343,
      "వచ్చే": 4344,
      "వాటిని": 4345,
      "గర్": 4346,
      "ఇచ్చి": 4347,
      "ఎంపి": 4348,
      "న్యూ": 4349,
      "చీ": 4350,
      "కాంగ్రెస్": 4351,
      "బర్": 4352,
      "మెంట్": 4353,
      "కాబట్టి": 4354,
      "చికిత్స": 4355,
      "ఫలి": 4356,
      "సొ": 4357,
      "వారికి": 4358,
      "కలిసి": 4359,
      "తాను": 4360,
      "లోనే": 4361,
      "పద": 4362,
      "లపై": 4363,
      "స్టే": 4364,
      "ప్రకటి": 4365,
      "ప‌": 4366,
      "గ్య": 4367,
      "ప్పుడ": 4368,
      "మండ": 4369,
      "మాట": 4370,
      "ంచవచ్చు": 4371,
      "ంటా": 4372,
      "ధర": 4373,
      "ారె": 4374,
      "టువంటి": 4375,
      "న్నీ": 4376,
      "మృ": 4377,
      "జన్": 4378,
      "ంత్ర": 4379,
      "ంచుకో": 4380,
      "రావు": 4381,
      "చన": 4382,
      "వైపు": 4383,
      "పరీ": 4384,
      "బాల": 4385,
      "చెప్పి": 4386,
      "సమావే": 4387,
      "తెర": 4388,
      "గుర్": 4389,
      "మేము": 4390,
      "రొ": 4391,
      "ఎంత": 4392,
      "ఇక్కడ": 4393,
      "డై": 4394,
      "వై": 4395,
      "బాగా": 4396,
      "అమెరి": 4397,
      "ప్పటికీ": 4398,
      "ాలతో": 4399,
      "ప్రయో": 4400,
      "డుగు": 4401,
      "జ్‌": 4402,
      "వో": 4403,
      "విద్య": 4404,
      "పై": 4405,
      "ఎమ్మె": 4406,
      "ర్థం": 4407,
      "ల్య": 4408,
      "జర": 4409,
      "జేపీ": 4410,
      "ఎన్నిక": 4411,
      "డ్డు": 4412,
      "కొనసా": 4413,
      "పోలీసులు": 4414,
      "పదా": 4415,
      "సమీ": 4416,
      "మ‌": 4417,
      "విజయ": 4418,
      "ల్ని": 4419,
      "ఎన్": 4420,
      "ప్లా": 4421,
      "క్యా": 4422,
      "బడింది": 4423,
      "వెంట": 4424,
      "ాలలో": 4425,
      "బీజేపీ": 4426,
      "కేసు": 4427,
      "నిర్మి": 4428,
      "ప్రారంభి": 4429,
      "ఆధార": 4430,
      "జాతీయ": 4431,
      "తల్లి": 4432,
      "స్సు": 4433,
      "ట్స్": 4434,
      "లువ": 4435,
      "పోటీ": 4436,
      "రంగు": 4437,
      "జరి": 4438,
      "డికి": 4439,
      "వ్యవస్థ": 4440,
      "గాలు": 4441,
      "12": 4442,
      "భారత": 4443,
      "చేయడం": 4444,
      "అతని": 4445,
      "ళ్ళు": 4446,
      "ఇంటి": 4447,
      "లేకపో": 4448,
      "ర్మ": 4449,
      "వాహ": 4450,
      "కోవడం": 4451,
      "ఉండే": 4452,
      "ంచాలి": 4453,
      "నంద": 4454,
      "దగ్గ": 4455,
      "బే": 4456,
      "వినియో": 4457,
      "కృష్ణ": 4458,
      "అభ్య": 4459,
      "బల": 4460,
      "పాల్గొ": 4461,
      "కార": 4462,
      "అత్యంత": 4463,
      "డో": 4464,
      "ట్రా": 4465,
      "హరి": 4466,
      "చేయవచ్చు": 4467,
      "వస్తు": 4468,
      "టీడీ": 4469,
      "అంటూ": 4470,
      "చెబు": 4471,
      "తగ్గి": 4472,
      "అస": 4473,
      "దేశం": 4474,
      "త్వం": 4475,
      "కొంత": 4476,
      "అయిన": 4477,
      "రాజకీయ": 4478,
      "అతి": 4479,
      "సన": 4480,
      "ఇప్పటికే": 4481,
      "మాను": 4482,
      "నివా": 4483,
      "ఎందు": 4484,
      "కున్న": 4485,
      "ంటున్నారు": 4486,
      "పోయింది": 4487,
      "ముఖ్యమంత్రి": 4488,
      "న్య": 4489,
      "చేస్తుంది": 4490,
      "తిరిగి": 4491,
      "ఆస": 4492,
      "విధా": 4493,
      "ప్రజలు": 4494,
      "పక్ష": 4495,
      "లూ": 4496,
      "ద్ది": 4497,
      "తెలుసు": 4498,
      "రంగా": 4499,
      "ఢి": 4500,
      "కొను": 4501,
      "ంచేందుకు": 4502,
      "విధంగా": 4503,
      "తను": 4504,
      "పరిస్థితి": 4505,
      "ంక": 4506,
      "శే": 4507,
      "తెలియ": 4508,
      "పొంద": 4509,
      "బాటు": 4510,
      "ంతా": 4511,
      "వలన": 4512,
      "దొ": 4513,
      "దృ": 4514,
      "ట్టా": 4515,
      "ఢిల్లీ": 4516,
      "సమాచారం": 4517,
      "నంలో": 4518,
      "‌కు": 4519,
      "సృష్టి": 4520,
      "రకు": 4521,
      "ఉండాలి": 4522,
      "బ్యాం": 4523,
      "బయట": 4524,
      "ల్సిన": 4525,
      "ర్యా": 4526,
      "ఒకటి": 4527,
      "స్టి": 4528,
      "హార": 4529,
      "అద్": 4530,
      "వెళ్లి": 4531,
      "కౌ": 4532,
      "దృష్టి": 4533,
      "వేల": 4534,
      "మిక": 4535,
      "మ్ము": 4536,
      "జెక్": 4537,
      "ఫోన్": 4538,
      "ఆర్థి": 4539,
      "ఉన్నా": 4540,
      "లక్": 4541,
      "వాస్త": 4542,
      "తొలి": 4543,
      "శో": 4544,
      "డిగా": 4545,
      "కాలం": 4546,
      "ఎన్నికల": 4547,
      "పొంది": 4548,
      "సీపీ": 4549,
      "నిజ": 4550,
      "సీఎం": 4551,
      "దర్శి": 4552,
      "చూపి": 4553,
      "దె": 4554,
      "టీడీపీ": 4555,
      "క్రియ": 4556,
      "నున్న": 4557,
      "మాట్లాడుతూ": 4558,
      "ంటున్న": 4559,
      "అధికారులు": 4560,
      "దాపు": 4561,
      "కమి": 4562,
      "ఏపీ": 4563,
      "అవసర": 4564,
      "బ్బు": 4565,
      "ఫ్ర": 4566,
      "సందర్భంగా": 4567,
      "దేశ్": 4568,
      "షే": 4569,
      "ధన": 4570,
      "శరీ": 4571,
      "క్షన్": 4572,
      "కారం": 4573,
      "శక్తి": 4574,
      "సంఖ్య": 4575,
      "అప్పుడు": 4576,
      "30": 4577,
      "త‌": 4578,
      "నిమి": 4579,
      "ల్యే": 4580,
      "తొల": 4581,
      "తున్నాయి": 4582,
      "్యంలో": 4583,
      "సమయం": 4584,
      "50": 4585,
      "దాదాపు": 4586,
      "టీఆర్": 4587,
      "కాని": 4588,
      "చెల్లి": 4589,
      "ఆఫ్": 4590,
      "ఇద్ద": 4591,
      "ంధ్ర": 4592,
      "పెరుగు": 4593,
      "గోలు": 4594,
      "ఎమ్మెల్యే": 4595,
      "కాకుండా": 4596,
      "ప్రకారం": 4597,
      "వేది": 4598,
      "200": 4599,
      "సార్లు": 4600,
      "పుణ": 4601,
      "బడ్": 4602,
      "కంపె": 4603,
      "లేక": 4604,
      "ఆసక్తి": 4605,
      "స్టార్": 4606,
      "వచ్చ": 4607,
      "ఇంకా": 4608,
      "ారో": 4609,
      "ాన్ని": 4610,
      "ప్రజా": 4611,
      "చ్‌": 4612,
      "వాడ": 4613,
      "కంపెనీ": 4614,
      "ఉత్పత్తి": 4615,
      "తొలగి": 4616,
      "నల్": 4617,
      "గారు": 4618,
      "రూపా": 4619,
      "కార్డు": 4620,
      "18": 4621,
      "ఉద": 4622,
      "ండ్ర": 4623,
      "ప్రో": 4624,
      "మవు": 4625,
      "జై": 4626,
      "అక్కడ": 4627,
      "తయారు": 4628,
      "విమర్": 4629,
      "పున": 4630,
      "తున్నా": 4631,
      "ఆర్థిక": 4632,
      "త్వర": 4633,
      "బొ": 4634,
      "ంతరం": 4635,
      "వచ్చింది": 4636,
      "వాల": 4637,
      "ంట్‌": 4638,
      "),": 4639,
      "జగన్": 4640,
      "వెళ్ళ": 4641,
      "అధ్యక్ష": 4642,
      "క్త": 4643,
      "డాది": 4644,
      "నేపథ": 4645,
      "నాకు": 4646,
      "వడం": 4647,
      "రువు": 4648,
      "కోట్ల": 4649,
      "కేసీ": 4650,
      "పాఠ": 4651,
      "తిరే": 4652,
      "తిని": 4653,
      "ఎందుకంటే": 4654,
      "గుర్తు": 4655,
      "విస్త": 4656,
      "నాన్ని": 4657,
      "లక": 4658,
      "ఛా": 4659,
      "ప్రాజెక్": 4660,
      "విషయంలో": 4661,
      "తెలిసిందే": 4662,
      "చేస్తున్నారు": 4663,
      "సింది": 4664,
      "షణ": 4665,
      "పను": 4666,
      "అద్భు": 4667,
      "న‌": 4668,
      "అయ్య": 4669,
      "అమెరికా": 4670,
      "ప్రయత్ని": 4671,
      "వెళ్": 4672,
      "in": 4673,
      "ాల్లో": 4674,
      "అవి": 4675,
      "వేయ": 4676,
      "వరణ": 4677,
      "కొనుగోలు": 4678,
      "గౌ": 4679,
      "అదన": 4680,
      "తిక": 4681,
      "ఫై": 4682,
      "వ్యతిరే": 4683,
      "అనుమతి": 4684,
      "పాట": 4685,
      "పట్టి": 4686,
      "చిన": 4687,
      "గొప్ప": 4688,
      "ంప": 4689,
      "క్లి": 4690,
      "తిలో": 4691,
      "ానికి": 4692,
      "ండియా": 4693,
      "ండ్‌": 4694,
      "ఎంపిక": 4695,
      "పోయిన": 4696,
      "పడ్డ": 4697,
      "బడుతుంది": 4698,
      "ఇటీ": 4699,
      "వెల్ల": 4700,
      "వెంటనే": 4701,
      "ఉన్నారు": 4702,
      "కోవాలి": 4703,
      "వది": 4704,
      "బడ": 4705,
      "క్రమంలో": 4706,
      "సిం": 4707,
      "పరీక్ష": 4708,
      "అక్క": 4709,
      "ప్ర‌": 4710,
      "సాం": 4711,
      "మ్మా": 4712,
      "యిన్": 4713,
      "విచ": 4714,
      "చరి": 4715,
      "రంలో": 4716,
      "నమో": 4717,
      "పార": 4718,
      "అల": 4719,
      "వివా": 4720,
      "ఉదా": 4721,
      "కాలంలో": 4722,
      "టర్‌": 4723,
      "పూర్తిగా": 4724,
      "త్యా": 4725,
      "నిర్ణయి": 4726,
      "మాజీ": 4727,
      "యుడు": 4728,
      "వ్యాప్": 4729,
      "యంగా": 4730,
      "హరణ": 4731,
      "భం": 4732,
      "చేస్తా": 4733,
      "ఆట": 4734,
      "నిలి": 4735,
      "దేశంలో": 4736,
      "చ్చారు": 4737,
      "11": 4738,
      "చేయాలని": 4739,
      "పాడు": 4740,
      "ప్రీ": 4741,
      "రికి": 4742,
      "కార్యక్ర": 4743,
      "రాజు": 4744,
      "ముగి": 4745,
      "అంతే": 4746,
      "వయ": 4747,
      "నిజా": 4748,
      "ర్పు": 4749,
      "వాడు": 4750,
      "పెట్టి": 4751,
      "ప్రదేశ్": 4752,
      "పవన్": 4753,
      "సాయ": 4754,
      "దర్శక": 4755,
      "కారణంగా": 4756,
      "గాయ": 4757,
      "వుడ్": 4758,
      "కూడ": 4759,
      "బహు": 4760,
      "న్సి": 4761,
      "ఇదే": 4762,
      "ప్పుడూ": 4763,
      "విలువ": 4764,
      "ంతి": 4765,
      "చివరి": 4766,
      "ఎందుకు": 4767,
      "గిలి": 4768,
      "ఇంత": 4769,
      "సాధారణంగా": 4770,
      "రామ": 4771,
      "వైద్య": 4772,
      "అమలు": 4773,
      "అధి": 4774,
      "దశ": 4775,
      "మార": 4776,
      "పోర్": 4777,
      "కింద": 4778,
      "వ్యక్తం": 4779,
      "పరిష్": 4780,
      "గ్రీ": 4781,
      "స‌": 4782,
      "ష్‌": 4783,
      "నొ": 4784,
      "అమ్మ": 4785,
      "ప్రయా": 4786,
      "ఆల": 4787,
      "బడిన": 4788,
      "ప్రేక్ష": 4789,
      "కుటుంబ": 4790,
      "భర్": 4791,
      "మార్పు": 4792,
      "తాజాగా": 4793,
      "దర": 4794,
      "రియ": 4795,
      "అంతర్": 4796,
      "మాలు": 4797,
      "ప్రొ": 4798,
      "స్తున్నాయి": 4799,
      "ఏడాది": 4800,
      "ై": 4801,
      "పరుగు": 4802,
      "ప్రముఖ": 4803,
      "పోయా": 4804,
      "ప్రేమ": 4805,
      "సాధ్య": 4806,
      "నేపథ్యంలో": 4807,
      "గూ": 4808,
      "ప్రవే": 4809,
      "ఆది": 4810,
      "ఇంటర్": 4811,
      "ఉదాహరణ": 4812,
      "పర్య": 4813,
      "నాలుగు": 4814,
      "వ్వు": 4815,
      "చట్ట": 4816,
      "దారి": 4817,
      "జీవిత": 4818,
      "సంబంధించిన": 4819,
      "సేవ": 4820,
      "ఉందని": 4821,
      "కింగ్": 4822,
      "న్లు": 4823,
      "తమైన": 4824,
      "అడుగు": 4825,
      "సహాయ": 4826,
      "పెట్టు": 4827,
      "బ్బంది": 4828,
      "అంచ": 4829,
      "ఇన్": 4830,
      "సెం": 4831,
      "చ్చే": 4832,
      "పడుతుంది": 4833,
      "అర్థం": 4834,
      "వీటి": 4835,
      "ధులు": 4836,
      "బై": 4837,
      "హారం": 4838,
      "కొంద": 4839,
      "గ్రామ": 4840,
      "మద్ద": 4841,
      "తమి": 4842,
      "అందుకు": 4843,
      "అధికార": 4844,
      "శ్రమ": 4845,
      "బాధ్య": 4846,
      "చర్యలు": 4847,
      "భాగంగా": 4848,
      "ఫ్యా": 4849,
      "వెల్లడి": 4850,
      "చెప్": 4851,
      "రూప": 4852,
      "కవర్": 4853,
      "జ్ఞా": 4854,
      "విద్యార్థ": 4855,
      "వివరి": 4856,
      "వీడియో": 4857,
      "ప్రక్రియ": 4858,
      "నై": 4859,
      "నాల": 4860,
      "ఫు": 4861,
      "ఖర్చు": 4862,
      "కోవడానికి": 4863,
      "యూని": 4864,
      "వాలు": 4865,
      "రాత్రి": 4866,
      "కాగా": 4867,
      "సినిమాలో": 4868,
      "డబ్బు": 4869,
      "చై": 4870,
      "ఎన్నికల్లో": 4871,
      "ంటుంది": 4872,
      "మరణ": 4873,
      "నంగా": 4874,
      "దేశా": 4875,
      "కాలే": 4876,
      "సొంత": 4877,
      "పోరా": 4878,
      "ధ్యా": 4879,
      "జరిగింది": 4880,
      "ప్యా": 4881,
      "నాటి": 4882,
      "రోజుల": 4883,
      "మీకు": 4884,
      "కాల్": 4885,
      "ముద్ర": 4886,
      "లిం": 4887,
      "దులు": 4888,
      "ఆంధ్ర": 4889,
      "ణు": 4890,
      "యింట్": 4891,
      "్‌": 4892,
      "యర్": 4893,
      "భాగం": 4894,
      "మ్యూ": 4895,
      "తుందని": 4896,
      "పక్క": 4897,
      "రక్షణ": 4898,
      "బూ": 4899,
      "నిర": 4900,
      "పాలు": 4901,
      "కరమైన": 4902,
      "కల్పి": 4903,
      "కొద్ది": 4904,
      "ఎంతో": 4905,
      "సింగ్": 4906,
      "ముఖ్యంగా": 4907,
      "14": 4908,
      "మహా": 4909,
      "చరిత్ర": 4910,
      "ందోళ": 4911,
      "గులు": 4912,
      "డని": 4913,
      "చేయాలి": 4914,
      "స్‌లో": 4915,
      "స్టర్": 4916,
      "ూరు": 4917,
      "ఎక్కువగా": 4918,
      "ప్లే": 4919,
      "నిల": 4920,
      "కుమార్": 4921,
      "కోల్": 4922,
      "థి": 4923,
      "డిన": 4924,
      "జట్టు": 4925,
      "స్వామి": 4926,
      "మహే": 4927,
      "కన్": 4928,
      "మాట్లాడ": 4929,
      "చర్చ": 4930,
      "దగ్గర": 4931,
      "స్వీ": 4932,
      "పోయ": 4933,
      "గణ": 4934,
      "ఇచ్చిన": 4935,
      "వానికి": 4936,
      "భద్ర": 4937,
      "అనుకు": 4938,
      "ఇందు": 4939,
      "‌ర్": 4940,
      "బ్లీ": 4941,
      "16": 4942,
      "టెక్": 4943,
      "పాటి": 4944,
      "పంపి": 4945,
      "బుల్": 4946,
      "పద్ధ": 4947,
      "an": 4948,
      "ఆరోగ్య": 4949,
      "అందుకే": 4950,
      "షూ": 4951,
      "దేశి": 4952,
      "25": 4953,
      "టల్": 4954,
      "వెంక": 4955,
      "ఎలాంటి": 4956,
      "రూపొంది": 4957,
      "కారణం": 4958,
      "రక": 4959,
      "తరలి": 4960,
      "కోవాలని": 4961,
      "అనుభ": 4962,
      "పెరిగి": 4963,
      "దాన్ని": 4964,
      "వాన్ని": 4965,
      "ఒకే": 4966,
      "రవి": 4967,
      "తగిన": 4968,
      "నుంది": 4969,
      "రష": 4970,
      "నుక": 4971,
      "మాని": 4972,
      "త్మక": 4973,
      "డిని": 4974,
      "ముందుకు": 4975,
      "వేదిక": 4976,
      "సామ": 4977,
      "షం": 4978,
      "లక్షల": 4979,
      "రియా": 4980,
      "మందు": 4981,
      "ఆందోళ": 4982,
      "తరచు": 4983,
      "గమని": 4984,
      "అభిమాను": 4985,
      "ీవుడ్": 4986,
      "కుటుం": 4987,
      "స్పష్ట": 4988,
      "సామా": 4989,
      "న్యాయ": 4990,
      "ట్టే": 4991,
      "గాల": 4992,
      "అభిప్రా": 4993,
      "లాంటి": 4994,
      "కనీ": 4995,
      "ఇలాంటి": 4996,
      "వెళ్ల": 4997,
      "ర్‌లో": 4998,
      "ఎంపీ": 4999,
      "తాలు": 5000,
      "స్నే": 5001,
      "er": 5002,
      "జరు": 5003,
      "చేస్తూ": 5004,
      "స్పంది": 5005,
      "టర్ల": 5006,
      "కూల": 5007,
      "ప్రాజెక్టు": 5008,
      "జనం": 5009,
      "ంచబడింది": 5010,
      "పరిశీ": 5011,
      "వ్యూ": 5012,
      "తరచుగా": 5013,
      "వంట": 5014,
      "అమ్మా": 5015,
      "స్తో": 5016,
      "వేగ": 5017,
      "పల్లి": 5018,
      "యానికి": 5019,
      "గతంలో": 5020,
      "వారిని": 5021,
      "లేద": 5022,
      "పత్రి": 5023,
      "ండె": 5024,
      "శాస్త్ర": 5025,
      "డంలో": 5026,
      "రక్షి": 5027,
      "ములు": 5028,
      "రెండో": 5029,
      "మనం": 5030,
      "క్షే": 5031,
      "పతి": 5032,
      "ఘటన": 5033,
      "దాలు": 5034,
      "విజయం": 5035,
      "కోట్లు": 5036,
      "కాలి": 5037,
      "పడే": 5038,
      "అసలు": 5039,
      "భాష": 5040,
      "ఫర్": 5041,
      "చార": 5042,
      "బోర్": 5043,
      "రారు": 5044,
      "న్స్‌": 5045,
      "చుకు": 5046,
      "తప్పు": 5047,
      "పన": 5048,
      "పెళ్లి": 5049,
      "ఐదు": 5050,
      "వ్యాప్తంగా": 5051,
      "స్థాయిలో": 5052,
      "ర‌": 5053,
      "టమి": 5054,
      "17": 5055,
      "చెప్పు": 5056,
      "ల‌": 5057,
      "కళా": 5058,
      "ఏం": 5059,
      "ళ్లీ": 5060,
      "ప్రజల": 5061,
      "విక్ర": 5062,
      "డిమా": 5063,
      "రుగా": 5064,
      "్యాణ్": 5065,
      "సంవత్సరాల": 5066,
      "తేదీ": 5067,
      "పణ": 5068,
      "హార్": 5069,
      "తమిళ": 5070,
      "చేశాడు": 5071,
      "ప్టె": 5072,
      "పడిన": 5073,
      "పడ్డారు": 5074,
      "పోలి": 5075,
      "ల్డ్": 5076,
      "పౌ": 5077,
      "సంగీ": 5078,
      "అందరి": 5079,
      "మౌ": 5080,
      "నేందుకు": 5081,
      "క్యూ": 5082,
      "అసెం": 5083,
      "పేర్కొన్నారు": 5084,
      "వ్యాధి": 5085,
      "నమోదు": 5086,
      "ధాని": 5087,
      "జ‌": 5088,
      "విభ": 5089,
      "మొక్క": 5090,
      "ఉద్": 5091,
      "మద్దతు": 5092,
      "చెయ్య": 5093,
      "ంలోకి": 5094,
      "13": 5095,
      "పది": 5096,
      "అనేది": 5097,
      "ఫార్": 5098,
      "అందుబాటు": 5099,
      "ఎవర": 5100,
      "ఫ్‌": 5101,
      "ఫోటో": 5102,
      "లర్": 5103,
      "తులకు": 5104,
      "తెలుస్తోంది": 5105,
      "జాబి": 5106,
      "నమ్మ": 5107,
      "అసెంబ్లీ": 5108,
      "పట్టు": 5109,
      "నెట్": 5110,
      "నాడు": 5111,
      "గది": 5112,
      "నటు": 5113,
      "బ్రా": 5114,
      "ందం": 5115,
      "క్స్‌": 5116,
      "‌ని": 5117,
      "ప్రధాని": 5118,
      "కొండ": 5119,
      "నేతలు": 5120,
      "పోలీసు": 5121,
      "కేసీఆర్": 5122,
      "డర్": 5123,
      "ఉత్తమ": 5124,
      "అలాంటి": 5125,
      "కీలక": 5126,
      "రాష్ట్రంలో": 5127,
      "స్పె": 5128,
      "చరణ": 5129,
      "శుభ": 5130,
      "క్య": 5131,
      "అయినా": 5132,
      "ఆప": 5133,
      "రస్": 5134,
      "ర్ఘ": 5135,
      "స్థానంలో": 5136,
      "ారాన్ని": 5137,
      "భూమి": 5138,
      "ంటె": 5139,
      "నీరు": 5140,
      "నారా": 5141,
      "ందన్నారు": 5142,
      "లక్ష్": 5143,
      "టాయి": 5144,
      "ఎన్న": 5145,
      "చేస్తు": 5146,
      "మళ్లీ": 5147,
      "పర్యా": 5148,
      "ఖచ్చి": 5149,
      "సంత": 5150,
      "తులను": 5151,
      "వైసీపీ": 5152,
      "మాల": 5153,
      "వర్తి": 5154,
      "రకాల": 5155,
      "మోహ": 5156,
      "పిల్లల": 5157,
      "లభి": 5158,
      "పిల్లలు": 5159,
      "క్రా": 5160,
      "నున్నారు": 5161,
      "వ్యాఖ్య": 5162,
      "న్‌లో": 5163,
      "కొందరు": 5164,
      "తీరు": 5165,
      "దానికి": 5166,
      "మారింది": 5167,
      "తుల్లో": 5168,
      "బ్రి": 5169,
      "వుల": 5170,
      "లక్షణాలు": 5171,
      "ఇటీవల": 5172,
      "సార్": 5173,
      "అప్": 5174,
      "ఫే": 5175,
      "ారెడ్డి": 5176,
      "ఎవరి": 5177,
      "దర్శకుడు": 5178,
      "సంప్ర": 5179,
      "నిర్ణయం": 5180,
      "రొక": 5181,
      "గాలి": 5182,
      "జనా": 5183,
      "భార్య": 5184,
      "కనుగొ": 5185,
      "సై": 5186,
      "పడింది": 5187,
      "దీర్ఘ": 5188,
      "ఎన్‌": 5189,
      "ప్రశ్న": 5190,
      "అనంతరం": 5191,
      "ఆందోళన": 5192,
      "ట్రి": 5193,
      "మల": 5194,
      "తనకు": 5195,
      "కేంద్రం": 5196,
      "లై": 5197,
      "ణంలో": 5198,
      "వాతా": 5199,
      "మోడీ": 5200,
      "అమ్మాయి": 5201,
      "తాము": 5202,
      "వ్‌": 5203,
      "నిర్ధ": 5204,
      "లవ": 5205,
      "సంగతి": 5206,
      "మేరకు": 5207,
      "స్టో": 5208,
      "రిక": 5209,
      "జరగ": 5210,
      "ండగా": 5211,
      "భారత్": 5212,
      "ఎత్తు": 5213,
      "ప్రచారం": 5214,
      "ప్రకటన": 5215,
      "ంట్లో": 5216,
      "ీయ": 5217,
      "పుస్త": 5218,
      "పరిచ": 5219,
      "ాలంటే": 5220,
      "తికి": 5221,
      "అధికారి": 5222,
      "చేస్తే": 5223,
      "బాధ": 5224,
      "డమే": 5225,
      "సన్": 5226,
      "ండ్రి": 5227,
      "నియా": 5228,
      "ఇందులో": 5229,
      "వినియోగ": 5230,
      "క్ట్": 5231,
      "ంబర్": 5232,
      "మ్యాచ్": 5233,
      "ట్రో": 5234,
      "భయ": 5235,
      "ఇష్ట": 5236,
      "సాగు": 5237,
      "బౌ": 5238,
      "విశ్వ": 5239,
      "పొందు": 5240,
      "డైరె": 5241,
      "es": 5242,
      "విచారణ": 5243,
      "సినిమాలు": 5244,
      "కార్యాల": 5245,
      "ఆలోచన": 5246,
      "ణ్య": 5247,
      "చేరుకు": 5248,
      "ట్లో": 5249,
      "దాయ": 5250,
      "చూసి": 5251,
      "చేయి": 5252,
      "లోప": 5253,
      "సోష": 5254,
      "లుపు": 5255,
      "దర్శన": 5256,
      "య్యారు": 5257,
      "ులకు": 5258,
      "బ్లా": 5259,
      "అప్ప": 5260,
      "జాగ్ర": 5261,
      "మిగిలి": 5262,
      "శ్రా": 5263,
      "రాయ": 5264,
      "రచ": 5265,
      "స్ట్‌": 5266,
      "పైగా": 5267,
      "నిర్మాణం": 5268,
      "ఎల్": 5269,
      "కెట్‌": 5270,
      "ణీ": 5271,
      "భిన్న": 5272,
      "వేర్": 5273,
      "సంతో": 5274,
      "డవ": 5275,
      "భవ": 5276,
      "అధికారు": 5277,
      "రుచి": 5278,
      "తమైన": 5279,
      "ష్టా": 5280,
      "సమావేశ": 5281,
      "శ్రీనివా": 5282,
      "100": 5283,
      "ప్రె": 5284,
      "పాత": 5285,
      "టరీ": 5286,
      "అందువలన": 5287,
      "పాఠశాల": 5288,
      "నడు": 5289,
      "కాంగ్రెస్‌": 5290,
      "40": 5291,
      ").": 5292,
      "టంతో": 5293,
      "సేన": 5294,
      "ఆకర్": 5295,
      "హీరోయిన్": 5296,
      "మ్మి": 5297,
      "మరొక": 5298,
      "ఉదయం": 5299,
      "మన్నారు": 5300,
      "చెప్పిన": 5301,
      "రక్త": 5302,
      "ప్రభావం": 5303,
      "గాంధ": 5304,
      "టక": 5305,
      "ఏదో": 5306,
      "ండే": 5307,
      "శివ": 5308,
      "గిరి": 5309,
      "టూ": 5310,
      "నియోజ": 5311,
      "దాడి": 5312,
      "జాగ్రత్త": 5313,
      "విషయ": 5314,
      "యుద్ధ": 5315,
      "షో": 5316,
      "ఆనంద": 5317,
      "తండ్రి": 5318,
      "వరకూ": 5319,
      "డిపి": 5320,
      "చర్చి": 5321,
      "ఇండియా": 5322,
      "విమర్శ": 5323,
      "రిలీ": 5324,
      "వెనుక": 5325,
      "వివ": 5326,
      "ండర్": 5327,
      "ప్రకా": 5328,
      "రూపాయ": 5329,
      "గాంధీ": 5330,
      "మార్గం": 5331,
      "సహజ": 5332,
      "దిరి": 5333,
      "ప్రాంతంలో": 5334,
      "చదు": 5335,
      "వంద": 5336,
      "ఉపా": 5337,
      "జీవితం": 5338,
      "ఉదాహరణకు": 5339,
      "ఆవి": 5340,
      "అధ్యక్షుడు": 5341,
      "ంట్ర": 5342,
      "ంటీ": 5343,
      "ప్రమాద": 5344,
      "గంటల": 5345,
      "ar": 5346,
      "పాలి": 5347,
      "పారి": 5348,
      "తాన్ని": 5349,
      "చేసుకో": 5350,
      "చేస్తారు": 5351,
      "ఇద్దరు": 5352,
      "చక్క": 5353,
      "బ్‌": 5354,
      "పత్ర": 5355,
      "24": 5356,
      "స్కో": 5357,
      "విద్యు": 5358,
      "ద్దా": 5359,
      "పరిక": 5360,
      "గ్యా": 5361,
      "దారులు": 5362,
      "రాహు": 5363,
      "పరిమి": 5364,
      "చోటు": 5365,
      "ప్యూ": 5366,
      "ఖ్యా": 5367,
      "త్వంలో": 5368,
      "విధి": 5369,
      "ధ్": 5370,
      "మన్": 5371,
      "ప్రతిని": 5372,
      "సంస్": 5373,
      "కేటాయి": 5374,
      "తది": 5375,
      "సందర్భంలో": 5376,
      "హక్కు": 5377,
      "అందులో": 5378,
      "విష్య": 5379,
      "రల్": 5380,
      "రాజధాని": 5381,
      "ణంగా": 5382,
      "అరు": 5383,
      "వంతంగా": 5384,
      "రాయి": 5385,
      "ఉన్నప్పుడు": 5386,
      "రికార్డు": 5387,
      "షె": 5388,
      "2019": 5389,
      "కమిటీ": 5390,
      "డాయి": 5391,
      "తయారీ": 5392,
      "అడ": 5393,
      "మాన్": 5394,
      "నిర్వ": 5395,
      "కులకు": 5396,
      "్యు": 5397,
      "మోదీ": 5398,
      "కరమైన": 5399,
      "వడంతో": 5400,
      "గళ": 5401,
      "పరు": 5402,
      "హాలు": 5403,
      "కష్ట": 5404,
      "వ్యాపార": 5405,
      "కొనసాగి": 5406,
      "ధీ": 5407,
      "ఆంధ్రప్రదేశ్": 5408,
      "ఆహార": 5409,
      "పోయే": 5410,
      "కిలో": 5411,
      "తీర్": 5412,
      "య‌": 5413,
      "నిపుణ": 5414,
      "బరువు": 5415,
      "భవిష్య": 5416,
      "నిరో": 5417,
      "తీసుకో": 5418,
      "మూవీ": 5419,
      "ఆడ": 5420,
      "or": 5421,
      "ంచాయి": 5422,
      "లైన": 5423,
      "సంవత్సరం": 5424,
      "సాయి": 5425,
      "వరుస": 5426,
      "మార్కెట్": 5427,
      "య్యే": 5428,
      "వెలు": 5429,
      "పరిశీలి": 5430,
      "గార్": 5431,
      "య్యాయి": 5432,
      "వీరి": 5433,
      "సులభ": 5434,
      "పురు": 5435,
      "ంటో": 5436,
      "చ్చా": 5437,
      "టాల": 5438,
      "గెలి": 5439,
      "సిటీ": 5440,
      "తెరకె": 5441,
      "చేయండి": 5442,
      "విన": 5443,
      "వని": 5444,
      "సంబంధించి": 5445,
      "వార్డు": 5446,
      "దక్షి": 5447,
      "స్థానిక": 5448,
      "చుట్ట": 5449,
      "ెం": 5450,
      "జోడి": 5451,
      "మంత్ర": 5452,
      "ప్రశ్ని": 5453,
      "ఎక్కడ": 5454,
      "రేషన్": 5455,
      "ఫిర్యా": 5456,
      "el": 5457,
      "స్పష్టం": 5458,
      "గ‌": 5459,
      "స్థానం": 5460,
      "కుడి": 5461,
      "పాది": 5462,
      "ఆలోచి": 5463,
      "అనిపి": 5464,
      "చ్చిన": 5465,
      "జాబితా": 5466,
      "డ్యూ": 5467,
      "అవుతుంది": 5468,
      "at": 5469,
      "దండ్ర": 5470,
      "నమూ": 5471,
      "om": 5472,
      "యితే": 5473,
      "మొదలు": 5474,
      "మై": 5475,
      "ప్రసా": 5476,
      "క్ల": 5477,
      "చారు": 5478,
      "వేసి": 5479,
      "సంచ": 5480,
      "నియోజకవర్": 5481,
      "పరిధి": 5482,
      "వ్యవహరి": 5483,
      "పరిశ్రమ": 5484,
      "ఇంగ్": 5485,
      "చేరి": 5486,
      "భో": 5487,
      "హామీ": 5488,
      "సెస్": 5489,
      "ంగి": 5490,
      "చొ": 5491,
      "స్టె": 5492,
      "ష్ణ": 5493,
      "దిగు": 5494,
      "బడ్జె": 5495,
      "ళీ": 5496,
      "టీఆర్‌": 5497,
      "కేషన్": 5498,
      "క్షలు": 5499,
      "ఆధారంగా": 5500,
      "పించారు": 5501,
      "దెబ్బ": 5502,
      "ప్తి": 5503,
      "సభ్యులు": 5504,
      "ంత్రం": 5505,
      "ాలనుకు": 5506,
      "ఇప్పటికీ": 5507,
      "మను": 5508,
      "ఒత్తి": 5509,
      "కనీసం": 5510,
      "కపోతే": 5511,
      "కలె": 5512,
      "కన": 5513,
      "సహాయం": 5514,
      "చింది": 5515,
      "ండో": 5516,
      "ఎయి": 5517,
      "సంబంధం": 5518,
      "భవి": 5519,
      "ముల": 5520,
      "మృతి": 5521,
      "రద్దు": 5522,
      "గ్గా": 5523,
      "నిమిష": 5524,
      "సైతం": 5525,
      "మానం": 5526,
      "సోమ": 5527,
      "సమస్యలు": 5528,
      "తల్లిదండ్ర": 5529,
      "మెగా": 5530,
      "రహ": 5531,
      "ంచబడుతుంది": 5532,
      "సమాధా": 5533,
      "అడి": 5534,
      "రామ్": 5535,
      "వాయి": 5536,
      "దీనికి": 5537,
      "యణ": 5538,
      "కవి": 5539,
      "వేరు": 5540,
      "ఎల్‌": 5541,
      "ఎవరు": 5542,
      "జారీ": 5543,
      "ంచుకోండి": 5544,
      "శుభ్ర": 5545,
      "కొనసాగు": 5546,
      "స్తామని": 5547,
      "మైంది": 5548,
      "నాయుడు": 5549,
      "విశే": 5550,
      "on": 5551,
      "ఇంట్లో": 5552,
      "బయటకు": 5553,
      "తని": 5554,
      "అందుబాటులో": 5555,
      "వినిపి": 5556,
      "లన": 5557,
      "నొప్పి": 5558,
      "ఆరు": 5559,
      "అరె": 5560,
      "సార": 5561,
      "21": 5562,
      "సిబ్బంది": 5563,
      "ద్ధా": 5564,
      "చేప": 5565,
      "పాకి": 5566,
      "పింది": 5567,
      "శుక్ర": 5568,
      "నాణ్య": 5569,
      "భాగా": 5570,
      "వంతమైన": 5571,
      "మంగళ": 5572,
      "స్నేహి": 5573,
      "వేత్త": 5574,
      "హౌ": 5575,
      "సెల": 5576,
      "జిల్లాలో": 5577,
      "లియా": 5578,
      "ఏళ్ల": 5579,
      "రోజుల్లో": 5580,
      "పెట్టిన": 5581,
      "ఆశ్": 5582,
      "ట్లుగా": 5583,
      "మీటర్ల": 5584,
      "త్యం": 5585,
      "కాన్": 5586,
      "టర్లు": 5587,
      "స్తులు": 5588,
      "ఉపయోగ": 5589,
      "మ్స్": 5590,
      "సామాజి": 5591,
      "ల్లె": 5592,
      "సముద్ర": 5593,
      "సీనియ": 5594,
      "పన్ను": 5595,
      "ఆధు": 5596,
      "పోతుంది": 5597,
      "నేడు": 5598,
      "బృ": 5599,
      "పోయారు": 5600,
      "వేడి": 5601,
      "ధో": 5602,
      "అప్పటి": 5603,
      "ఎన్టీఆర్": 5604,
      "పిక్": 5605,
      "పెట్టుకు": 5606,
      "ణాళి": 5607,
      "శ్వ": 5608,
      "బాగు": 5609,
      "సుమారు": 5610,
      "ఎన్నో": 5611,
      "జ్య": 5612,
      "పేరుతో": 5613,
      "సన్ని": 5614,
      "ాలనే": 5615,
      "దేవి": 5616,
      "తాడు": 5617,
      "పాలన": 5618,
      "ఎల్ల": 5619,
      "ప్రదర్శన": 5620,
      "పదార్థ": 5621,
      "వేడు": 5622,
      "పురా": 5623,
      "యాల్లో": 5624,
      "ఆక": 5625,
      "తీసుకున్న": 5626,
      "సందే": 5627,
      "నరే": 5628,
      "రోజులు": 5629,
      "ప్రాంతాల్లో": 5630,
      "శరీరం": 5631,
      "గ్గు": 5632,
      "యాత్ర": 5633,
      "మవుతుంది": 5634,
      "ప్రణాళి": 5635,
      "అదనంగా": 5636,
      "నాయకులు": 5637,
      "మానవ": 5638,
      "డిమాండ్": 5639,
      "చేసేందుకు": 5640,
      "నిర్మాత": 5641,
      "వాల్": 5642,
      "ఫిర్యాదు": 5643,
      "స్ట్రే": 5644,
      "పడ్": 5645,
      "పాద": 5646,
      "పరిమా": 5647,
      "భారత్‌": 5648,
      "పనులు": 5649,
      "వాస": 5650,
      "క్లా": 5651,
      "ప్రై": 5652,
      "రాజీ": 5653,
      "లక్ష్య": 5654,
      "చేసుకున్న": 5655,
      "గారి": 5656,
      "హ్మ": 5657,
      "చేపట్ట": 5658,
      "ఔష": 5659,
      "కర్‌": 5660,
      "అదనపు": 5661,
      "ఎదురు": 5662,
      "కట్ట": 5663,
      "22": 5664,
      "చిత్రంలో": 5665,
      "గలి": 5666,
      "శై": 5667,
      "లిక": 5668,
      "సంఘటన": 5669,
      "పులు": 5670,
      "ముంబ": 5671,
      "హైదరాబాద్‌": 5672,
      "నిరా": 5673,
      "సల": 5674,
      "బహి": 5675,
      "పరిశో": 5676,
      "పేట": 5677,
      "శిక్షణ": 5678,
      "ఆరోపణ": 5679,
      "చైనా": 5680,
      "వదిలి": 5681,
      "నానికి": 5682,
      "చిత్రాన్ని": 5683,
      "చుట్టూ": 5684,
      "ంట్లు": 5685,
      "000": 5686,
      "ండీ": 5687,
      "పురుష": 5688,
      "చేరు": 5689,
      "ముక్క": 5690,
      "చదువు": 5691,
      "సిద్ధం": 5692,
      "కన్నా": 5693,
      "హత్య": 5694,
      "నాథ": 5695,
      "మనిషి": 5696,
      "బాధి": 5697,
      "ప్రమాదం": 5698,
      "ఎక్క": 5699,
      "కార్మి": 5700,
      "దిగా": 5701,
      "ఖచ్చితంగా": 5702,
      "al": 5703,
      "విషయాన్ని": 5704,
      "కోరుకు": 5705,
      "60": 5706,
      "ప్రజలకు": 5707,
      "గట్టి": 5708,
      "కరించ": 5709,
      "తిరు": 5710,
      "లింగ్": 5711,
      "వాళ్లు": 5712,
      "ఇటువంటి": 5713,
      "వ్యక్తిగత": 5714,
      "డ్రా": 5715,
      "కులను": 5716,
      "స్త్రీ": 5717,
      "లైన్": 5718,
      "కళ్యాణ్": 5719,
      "తానికి": 5720,
      "అభ్యర్థ": 5721,
      "స్మార్": 5722,
      "ఆహ్": 5723,
      "‘‘": 5724,
      "ఓపె": 5725,
      "నింగ్": 5726,
      "అలం": 5727,
      "తప్పి": 5728,
      "ఫల": 5729,
      "ఆగ": 5730,
      "కై": 5731,
      "సాంకే": 5732,
      "లేఖ": 5733,
      "చేస్తున్నా": 5734,
      "వివర": 5735,
      "నార్": 5736,
      "తార": 5737,
      "వెన": 5738,
      "రోడ్డు": 5739,
      "శుక్రవారం": 5740,
      "నాగ": 5741,
      "గృ": 5742,
      "కదా": 5743,
      "టార్": 5744,
      "గంలో": 5745,
      "తెలుసుకు": 5746,
      "మూల": 5747,
      "నారాయణ": 5748,
      "కాక": 5749,
      "ట్లను": 5750,
      "అంచనా": 5751,
      "కొడు": 5752,
      "కూర": 5753,
      "హింద": 5754,
      "థా": 5755,
      "సిరీ": 5756,
      "పొడి": 5757,
      "ఎదుర్కొ": 5758,
      "23": 5759,
      "త్తులు": 5760,
      "లాలు": 5761,
      "య్‌": 5762,
      "గుర": 5763,
      "మార్చ": 5764,
      "మరోసారి": 5765,
      "గుండె": 5766,
      "సామాజిక": 5767,
      "జల": 5768,
      "ాలపై": 5769,
      "సమీప": 5770,
      "రగ": 5771,
      "స్పీ": 5772,
      "ఆధునిక": 5773,
      "2018": 5774,
      "చ్ఛ": 5775,
      "కనె": 5776,
      "స్కూ": 5777,
      "క్టర్‌": 5778,
      "జీవ": 5779,
      "నిజానికి": 5780,
      "వార్తలు": 5781,
      "కాయ": 5782,
      "అంతా": 5783,
      "క్రితం": 5784,
      "రెండవ": 5785,
      "చ్చింది": 5786,
      "ప్రదర్శి": 5787,
      "నిర్మాణ": 5788,
      "చల్ల": 5789,
      "జరిగే": 5790,
      "యిన": 5791,
      "ఒప్ప": 5792,
      "రింగ్": 5793,
      "అడ్డు": 5794,
      "ఉంటా": 5795,
      "డ్రై": 5796,
      "విధానం": 5797,
      "వచ్చా": 5798,
      "మానికి": 5799,
      "రచయి": 5800,
      "దరఖా": 5801,
      "నంది": 5802,
      "సోషల్": 5803,
      "ఘన": 5804,
      "ంచుకున్న": 5805,
      "కాదని": 5806,
      "వల్": 5807,
      "పండు": 5808,
      "కార్యదర్శి": 5809,
      "en": 5810,
      "పట్ల": 5811,
      "సామర్థ": 5812,
      "సోమవారం": 5813,
      "రుద్ధ": 5814,
      "లక్షణ": 5815,
      "సుప్రీ": 5816,
      "తరులు": 5817,
      "న్నాను": 5818,
      "ఇచ్చారు": 5819,
      "భర్త": 5820,
      "నాట": 5821,
      "కోహ్": 5822,
      "శని": 5823,
      "డౌ": 5824,
      "ప్రాధా": 5825,
      "షనల్": 5826,
      "హే": 5827,
      "డ్స్": 5828,
      "''": 5829,
      "ఆత్": 5830,
      "వైఎస్": 5831,
      "పార్ల": 5832,
      "వస్తుంది": 5833,
      "కుని": 5834,
      "విశాఖ": 5835,
      "హోదా": 5836,
      "షూటింగ్": 5837,
      "సినీ": 5838,
      "పిన": 5839,
      "ులను": 5840,
      "అమరావ": 5841,
      "రూపంలో": 5842,
      "మిన": 5843,
      "ట్వి": 5844,
      "మిగిలిన": 5845,
      "అంతర్జాతీయ": 5846,
      "సరైన": 5847,
      "అంశం": 5848,
      "సమర్": 5849,
      "హెచ్చ": 5850,
      "స్ట్రీ": 5851,
      "ఉష్ణ": 5852,
      "బ్యాంకు": 5853,
      "బాధ్యత": 5854,
      "’’": 5855,
      "ఉండవచ్చు": 5856,
      "చార్": 5857,
      "చని": 5858,
      "విదేశ": 5859,
      "సాహి": 5860,
      "జంతు": 5861,
      "పరుగులు": 5862,
      "అవకాశాలు": 5863,
      "గ్రే": 5864,
      "ఫ్రె": 5865,
      "లేరు": 5866,
      "డాక్టర్": 5867,
      "పురం": 5868,
      "పాల్గొన్నారు": 5869,
      "దేవ": 5870,
      "వంతమైన": 5871,
      "నిజంగా": 5872,
      "ప్రవేశ": 5873,
      "సాధ్యం": 5874,
      "మళ్ళ": 5875,
      "తేడా": 5876,
      "రానికి": 5877,
      "మాం": 5878,
      "దానిని": 5879,
      "కలా": 5880,
      "రిలీజ్": 5881,
      "యాప్": 5882,
      "యిల్": 5883,
      "సెట్": 5884,
      "ధాలు": 5885,
      "సాంకేతిక": 5886,
      "నటించిన": 5887,
      "తుడు": 5888,
      "మత": 5889,
      "విమర్శి": 5890,
      "80": 5891,
      "వారీ": 5892,
      "బుధ": 5893,
      "ఉచి": 5894,
      "గణి": 5895,
      "మర": 5896,
      "జగన్‌": 5897,
      "సూపర్": 5898,
      "దుపు": 5899,
      "అక్": 5900,
      "దిశ": 5901,
      "వాళ్ల": 5902,
      "య్యి": 5903,
      "పడుతున్న": 5904,
      "వ్యతిరేకంగా": 5905,
      "దుర్": 5906,
      "దేవు": 5907,
      "ధర్": 5908,
      "పుష్": 5909,
      "ఉంటారు": 5910,
      "అంగీ": 5911,
      "కరంగా": 5912,
      "కెమె": 5913,
      "వలసిన": 5914,
      "ఖి": 5915,
      "విరా": 5916,
      "టీసీ": 5917,
      "ఎల్లప్పుడూ": 5918,
      "మహేష్": 5919,
      "బోర్డు": 5920,
      "న్నె": 5921,
      "సుప్రీం": 5922,
      "సీసీ": 5923,
      "ట్లయితే": 5924,
      "తిన": 5925,
      "ఫలితంగా": 5926,
      "ఖాతా": 5927,
      "భీ": 5928,
      "చేశ": 5929,
      "పోషి": 5930,
      "అటువంటి": 5931,
      "క్సి": 5932,
      "పంట": 5933,
      "70": 5934,
      "స్నా": 5935,
      "ర్ర": 5936,
      "ప్రయాణి": 5937,
      "ఇవి": 5938,
      "డేటా": 5939,
      "నిద్ర": 5940,
      "యజ": 5941,
      "ప్ల": 5942,
      "మెంట్‌": 5943,
      "చూడండి": 5944,
      "అంటున్నారు": 5945,
      "ంటాయి": 5946,
      "డల్": 5947,
      "ఉపయోగిస్తారు": 5948,
      "విశ్లే": 5949,
      "గురువారం": 5950,
      "ద్యం": 5951,
      "ద్‌": 5952,
      "నిబం": 5953,
      "తాబ్": 5954,
      "కాస్త": 5955,
      "హిట్": 5956,
      "ఆమో": 5957,
      "మండల": 5958,
      "హణ": 5959,
      "ఆదా": 5960,
      "అక్ష": 5961,
      "అండ్": 5962,
      "కష్టం": 5963,
      "శేఖ": 5964,
      "పచ్చ": 5965,
      "అక్కడి": 5966,
      "ఆధారపడి": 5967,
      "ప్రత్యేకంగా": 5968,
      "సారు": 5969,
      "వేళ": 5970,
      "ఫ్ట్": 5971,
      "ముందే": 5972,
      "భక్": 5973,
      "విడి": 5974,
      "ప్రస్తుత": 5975,
      "లియన్": 5976,
      "స్తాడు": 5977,
      "చేయా": 5978,
      "చర్మం": 5979,
      "మల్": 5980,
      "అర": 5981,
      "అధినేత": 5982,
      "ఓవర్": 5983,
      "పొందిన": 5984,
      "లాండ్": 5985,
      "మీడియాలో": 5986,
      "టిల్": 5987,
      "అధ్యయ": 5988,
      "ఆదేశి": 5989,
      "దైన": 5990,
      "199": 5991,
      "న్సీ": 5992,
      "వస్తే": 5993,
      "గౌర": 5994,
      "పుడు": 5995,
      "దాడు": 5996,
      "ఆదివారం": 5997,
      "తీవ్రంగా": 5998,
      "క్రో": 5999,
      "ారిటీ": 6000,
      "సినిమాకు": 6001,
      "దర్శకత్వంలో": 6002,
      "ఏడు": 6003,
      "అల్": 6004,
      "టాప్": 6005,
      "ట్యూ": 6006,
      "ఇబ్బ": 6007,
      "యె": 6008,
      "వివరాలు": 6009,
      "ఫ్రి": 6010,
      "లెట్": 6011,
      "డిసె": 6012,
      "స్క్": 6013,
      "జరుగుతున్న": 6014,
      "దయ": 6015,
      "వెళ్ళి": 6016,
      "ఘా": 6017,
      "గ్‌": 6018,
      "పైన": 6019,
      "హ్యా": 6020,
      "శ్వర": 6021,
      "వాద": 6022,
      "ఆత్మ": 6023,
      "వున్న": 6024,
      "తనం": 6025,
      "వ్యాఖ్యలు": 6026,
      "శ్చి": 6027,
      "తిరుగు": 6028,
      "నాలను": 6029,
      "ఏమిటి": 6030,
      "బుధవారం": 6031,
      "నేని": 6032,
      "షీ": 6033,
      "సాయంత్రం": 6034,
      "ప్పుడే": 6035,
      "ఠి": 6036,
      "ఖీ": 6037,
      "కార్యక్రమంలో": 6038,
      "చాలామంది": 6039,
      "దరఖాస్తు": 6040,
      "ల్లోకి": 6041,
      "నష్టం": 6042,
      "లికి": 6043,
      "డ్లు": 6044,
      "పరిచయం": 6045,
      "త్తా": 6046,
      "పొర": 6047,
      "ట్రం": 6048,
      "నీయ": 6049,
      "నిర్ధారి": 6050,
      "పాయి": 6051,
      "సమావేశంలో": 6052,
      "నాణ్యత": 6053,
      "జెపి": 6054,
      "పర్యటన": 6055,
      "కుటుంబం": 6056,
      "కూడదు": 6057,
      "సినిమాను": 6058,
      "ఆసు": 6059,
      "జుట్టు": 6060,
      "వాళ్ళ": 6061,
      "టివ్": 6062,
      "పెడు": 6063,
      "ఆటగా": 6064,
      "సాహ": 6065,
      "హీరోగా": 6066,
      "టికి": 6067,
      "తీసుకుని": 6068,
      "గడ": 6069,
      "వాల్సి": 6070,
      "మంగళవారం": 6071,
      "చేసుకుంది": 6072,
      "ప్రస": 6073,
      "నింది": 6074,
      "కంప్యూ": 6075,
      "ad": 6076,
      "గుర్తింపు": 6077,
      "ఉత్తర": 6078,
      "అడ్": 6079,
      "భాగంలో": 6080,
      "దాంతో": 6081,
      "కప్": 6082,
      "చట్టం": 6083,
      "కట్": 6084,
      "కలిపి": 6085,
      "బిల్లు": 6086,
      "వ్యాఖ్యా": 6087,
      "నగర్": 6088,
      "జాల": 6089,
      "నామా": 6090,
      "దైనా": 6091,
      "మార్‌": 6092,
      "మార్చి": 6093,
      "వాల్సిన": 6094,
      "అందరూ": 6095,
      "మెరుగు": 6096,
      "మహిళలు": 6097,
      "నియమి": 6098,
      "కట్టు": 6099,
      "ఒత్తిడి": 6100,
      "పంచా": 6101,
      "బలి": 6102,
      "28": 6103,
      "నర్‌": 6104,
      "మళ్ళీ": 6105,
      "బిజెపి": 6106,
      "ప్రభావి": 6107,
      "జరుగుతుంది": 6108,
      "ఎవ": 6109,
      "దేశాలు": 6110,
      "ంచలేదు": 6111,
      "నిర్వహించారు": 6112,
      "వెల్లడించారు": 6113,
      "ద‌": 6114,
      "సాను": 6115,
      "దృశ": 6116,
      "ఇబ్బందు": 6117,
      "రిజర్": 6118,
      "పాయింట్": 6119,
      "ఫోర్": 6120,
      "రకం": 6121,
      "కెట్లు": 6122,
      "న్యూఢిల్లీ": 6123,
      "గోదా": 6124,
      "ట్రై": 6125,
      "ృతి": 6126,
      "ఎప్పుడూ": 6127,
      "డాల": 6128,
      "పూర్వ": 6129,
      "చెప్పే": 6130,
      "కార్యకర్": 6131,
      "తీసుకొ": 6132,
      "చక్ర": 6133,
      "గ్రహం": 6134,
      "శనివారం": 6135,
      "ఊహి": 6136,
      "ఇంటికి": 6137,
      "బాలీవుడ్": 6138,
      "రైతు": 6139,
      "కండ": 6140,
      "హైకోర్టు": 6141,
      "నెలల": 6142,
      "అవార్డు": 6143,
      "టిక్": 6144,
      "వసూ": 6145,
      "సెల్": 6146,
      "ఉగ్ర": 6147,
      "సంస్థలు": 6148,
      "గవర్": 6149,
      "కాన్ని": 6150,
      "పూర్ణ": 6151,
      "గోడ": 6152,
      "జయ": 6153,
      "చేర్": 6154,
      "హెచ్‌": 6155,
      "పొడ": 6156,
      "అభ్యర్థి": 6157,
      "చెన్న": 6158,
      "26": 6159,
      "వస్తున్న": 6160,
      "మరోవైపు": 6161,
      "టన్": 6162,
      "విస్తృ": 6163,
      "తెలిపింది": 6164,
      "నల్ల": 6165,
      "మును": 6166,
      "స్థిర": 6167,
      "త్వరగా": 6168,
      "ధరి": 6169,
      "నెలకొ": 6170,
      "నిష్": 6171,
      "ఆఫీ": 6172,
      "సాక్షి": 6173,
      "డిగ్రీ": 6174,
      "ంపి": 6175,
      "జనీ": 6176,
      "ఉపయోగించి": 6177,
      "ల్వే": 6178,
      "తగినంత": 6179,
      "యల్": 6180,
      "ఓడి": 6181,
      "ఆహారం": 6182,
      "న్సర్": 6183,
      "27": 6184,
      "బట్ట": 6185,
      "ంచడంతో": 6186,
      "వాస్తవం": 6187,
      "టీవీ": 6188,
      "సిక": 6189,
      "గుల": 6190,
      "ట్‌లో": 6191,
      "త్రా": 6192,
      "డాడు": 6193,
      "ఠా": 6194,
      "కలిగిన": 6195,
      "కోర్సు": 6196,
      "చేర": 6197,
      "ఉంటుందని": 6198,
      "మానా": 6199,
      "వేగంగా": 6200,
      "శాలను": 6201,
      "టెస్టు": 6202,
      "ప్రతిపక్ష": 6203,
      "ట్వీ": 6204,
      "మెరు": 6205,
      "పదవి": 6206,
      "ఒక్": 6207,
      "చెబుతున్నారు": 6208,
      "జనవరి": 6209,
      "కెప్టె": 6210,
      "ద్దీ": 6211,
      "ఆశ": 6212,
      "ఆల్": 6213,
      "రమ": 6214,
      "విజయవాడ": 6215,
      "ళం": 6216,
      "వయస్సు": 6217,
      "పైకి": 6218,
      "పెట్టారు": 6219,
      "కర్య": 6220,
      "కూలంగా": 6221,
      "కునే": 6222,
      "నిర్వహణ": 6223,
      "మరీ": 6224,
      "ఇక్క": 6225,
      "పత్తి": 6226,
      "న్నది": 6227,
      "యాద": 6228,
      "హన": 6229,
      "సౌకర్య": 6230,
      "దరి": 6231,
      "తున్నాడు": 6232,
      "కేసులో": 6233,
      "గెలు": 6234,
      "పలువు": 6235,
      "పరిణా": 6236,
      "ంచబడ": 6237,
      "st": 6238,
      "దీన్ని": 6239,
      "చిరు": 6240,
      "సరిగా": 6241,
      "వ్యాయా": 6242,
      "నన్ను": 6243,
      "చనలు": 6244,
      "నిల్": 6245,
      "న్యం": 6246,
      "దిష్ట": 6247,
      "ముగ్": 6248,
      "ందన": 6249,
      "ప్రపంచంలో": 6250,
      "రవా": 6251,
      "నిక్": 6252,
      "భవిష్యత్తు": 6253,
      "రాజ్": 6254,
      "శాడు": 6255,
      "బ‌": 6256,
      "బడ్డాయి": 6257,
      "సులభంగా": 6258,
      "ఆన్": 6259,
      "రష్యా": 6260,
      "నిర్దిష్ట": 6261,
      "రాహుల్": 6262,
      "ఖాళీ": 6263,
      "తకు": 6264,
      "పెట్టే": 6265,
      "చది": 6266,
      "సల్": 6267,
      "సంపాది": 6268,
      "అభిమానులు": 6269,
      "ల్‌లో": 6270,
      "జనసేన": 6271,
      "విద్యార్థులు": 6272,
      "ంచ్": 6273,
      "రాలే": 6274,
      "య్యాడు": 6275,
      "కడ": 6276,
      "వయసు": 6277,
      "జంట": 6278,
      "కోరు": 6279,
      "శతాబ్": 6280,
      "పుట్టిన": 6281,
      "ప్రయత్నం": 6282,
      "మాకు": 6283,
      "రష్య": 6284,
      "శ్రే": 6285,
      "అందిస్తుంది": 6286,
      "స్తున్నాడు": 6287,
      "విద్యుత్": 6288,
      "పూరి": 6289,
      "నేరుగా": 6290,
      "తెరకెక్కి": 6291,
      "సంభవి": 6292,
      "సలు": 6293,
      "ప్రకటించారు": 6294,
      "చిరం": 6295,
      "ఆత్మహ": 6296,
      "జరుపు": 6297,
      "విస్తరి": 6298,
      "ed": 6299,
      "సభలో": 6300,
      "కృషి": 6301,
      "ముందుగా": 6302,
      "కెరీ": 6303,
      "శిక్ష": 6304,
      "రుణ": 6305,
      "ఇచ్చే": 6306,
      "ప్రేమి": 6307,
      "నది": 6308,
      "ఫ్రా": 6309,
      "భే": 6310,
      "శాన్ని": 6311,
      "కోహ్లీ": 6312,
      "తరగతి": 6313,
      "కూర్చు": 6314,
      "వన్‌": 6315,
      "జీవితంలో": 6316,
      "చౌ": 6317,
      "సాగి": 6318,
      "యన్‌": 6319,
      "ఇవ్వాలని": 6320,
      "లెక్క": 6321,
      "భావం": 6322,
      "క్రమంగా": 6323,
      "ఉండటం": 6324,
      "యులు": 6325,
      "తప్పని": 6326,
      "ఇన్‌": 6327,
      "కుమారు": 6328,
      "తెలిసిన": 6329,
      "ప్రాథ": 6330,
      "చూసిన": 6331,
      "సరఫ": 6332,
      "నటుడు": 6333,
      "దేశాల": 6334,
      "పరంగా": 6335,
      "చూపు": 6336,
      "ఏదైనా": 6337,
      "అల్లు": 6338,
      "్యాన్ని": 6339,
      "పోయినా": 6340,
      "తీసుకె": 6341,
      "ట్యా": 6342,
      "బద్ధ": 6343,
      "ోగ్ర": 6344,
      "ప్రారంభం": 6345,
      "అమి": 6346,
      "చిరంజీవి": 6347,
      "నడి": 6348,
      "దూరంగా": 6349,
      "స్టీ": 6350,
      "ళ్లకు": 6351,
      "కాపా": 6352,
      "దీనిపై": 6353,
      "పోస్టు": 6354,
      "మందికి": 6355,
      "నేర్చు": 6356,
      "ఉష్ణోగ్ర": 6357,
      "కొన్నిసార్లు": 6358,
      "శాంతి": 6359,
      "ఆశి": 6360,
      "నివ": 6361,
      "ప్రైవే": 6362,
      "కోరారు": 6363,
      "ల్లం": 6364,
      "ంటాడు": 6365,
      "రాం": 6366,
      "డుపు": 6367,
      "ఆటో": 6368,
      "మూడో": 6369,
      "ఫొ": 6370,
      "2016": 6371,
      "ర్యం": 6372,
      "గోదావరి": 6373,
      "చిత్రానికి": 6374,
      "బ్యూ": 6375,
      "ంచాల": 6376,
      "ళ్లలో": 6377,
      "అవగా": 6378,
      "కృత": 6379,
      "ంచినట్లు": 6380,
      "మ్యూని": 6381,
      "బ్లి": 6382,
      "నష్ట": 6383,
      "ఒకసారి": 6384,
      "బాలి": 6385,
      "దవ": 6386,
      "హెచ్చరి": 6387,
      "అన్నాడు": 6388,
      "యాల": 6389,
      "విషయాలు": 6390,
      "29": 6391,
      "భావ": 6392,
      "ారావు": 6393,
      "రౌ": 6394,
      "ల్యా": 6395,
      "రావడం": 6396,
      "ఫ్లా": 6397,
      "అర్జు": 6398,
      "వైద్య": 6399,
      "పార్టీకి": 6400,
      "కొద్దిగా": 6401,
      "తనను": 6402,
      "స్వామ": 6403,
      "వినియోగదారు": 6404,
      "వాని": 6405,
      "రైతులు": 6406,
      "దరు": 6407,
      "బిడ్డ": 6408,
      "సర్వే": 6409,
      "కత్తి": 6410,
      "డింగ్": 6411,
      "శ్మీ": 6412,
      "ముఖ్యమైన": 6413,
      "అంశాల": 6414,
      "బుక్": 6415,
      "విజయ్": 6416,
      "హాయి": 6417,
      "తీర్పు": 6418,
      "తెలియజే": 6419,
      "విమర్శలు": 6420,
      "హోటల్": 6421,
      "ప్రేక్షకుల": 6422,
      "మొత్త": 6423,
      "ర్ల": 6424,
      "తనిఖీ": 6425,
      "ఎన్నికలు": 6426,
      "సమావేశం": 6427,
      "అటు": 6428,
      "ఇండి": 6429,
      "మహిళా": 6430,
      "క్లిష్ట": 6431,
      "ఉండగా": 6432,
      "నియంత్ర": 6433,
      "పరిగణి": 6434,
      "సూచించారు": 6435,
      "మ్యూజి": 6436,
      "నూనె": 6437,
      "ండ్లు": 6438,
      "బ్రే": 6439,
      "ఎఫ్‌": 6440,
      "ద్రా": 6441,
      "టీమి": 6442,
      "సేకరి": 6443,
      "ఎవరూ": 6444,
      "మోహన్": 6445,
      "ొచ్చు": 6446,
      "న్నే": 6447,
      "పటి": 6448,
      "లేవు": 6449,
      "కార్పొ": 6450,
      "స్క్రీ": 6451,
      "సమాధానం": 6452,
      "రష్యన్": 6453,
      "సియా": 6454,
      "ందనే": 6455,
      "అనుసరి": 6456,
      "స్టేషన్": 6457,
      "తెల్ల": 6458,
      "తమకు": 6459,
      "పరిష్కరి": 6460,
      "మార్పులు": 6461,
      "మాన్ని": 6462,
      "లేకపోతే": 6463,
      "శాసన": 6464,
      "నై": 6465,
      "కథా": 6466,
      "అబ్": 6467,
      "నీతి": 6468,
      "ందరి": 6469,
      "టీమిండియా": 6470,
      "మనసు": 6471,
      "ళు": 6472,
      "ఎటువంటి": 6473,
      "సిద్ధంగా": 6474,
      "అయ్యి": 6475,
      "ంచారని": 6476,
      "దరణ": 6477,
      "ముఖ్యమైన": 6478,
      "\",": 6479,
      "మ్యాచ్‌": 6480,
      "ఫోన్‌": 6481,
      "చూస్తే": 6482,
      "ళ్లను": 6483,
      "అగ్ర": 6484,
      "ఏమీ": 6485,
      "2014": 6486,
      "పట్": 6487,
      "నివసి": 6488,
      "పెట్టా": 6489,
      "జనాలు": 6490,
      "ప్రాంతం": 6491,
      "ంజ": 6492,
      "కావడం": 6493,
      "ఏప్రి": 6494,
      "ధుల": 6495,
      "చేతి": 6496,
      "సమర్థ": 6497,
      "సెన్": 6498,
      "ంత్రి": 6499,
      "ందర": 6500,
      "బార్": 6501,
      "రైల్వే": 6502,
      "ప్రాధాన్య": 6503,
      "సమూ": 6504,
      "శ్‌": 6505,
      "మూర్తి": 6506,
      "వేసిన": 6507,
      "పరిస్థితులు": 6508,
      "స్పా": 6509,
      "ంతర": 6510,
      "వివరించారు": 6511,
      "ఇబ్బంది": 6512,
      "నగర": 6513,
      "టింగ్‌": 6514,
      "ఆస్": 6515,
      "కనిపిస్తుంది": 6516,
      "సంఘం": 6517,
      "పలువురు": 6518,
      "35": 6519,
      "2017": 6520,
      "నూతన": 6521,
      "అమరావతి": 6522,
      "రాజ్య": 6523,
      "మనో": 6524,
      "ముఖ్యం": 6525,
      "ంగు": 6526,
      "మరణి": 6527,
      "థియే": 6528,
      "జార్": 6529,
      "వుగా": 6530,
      "ంపులు": 6531,
      "కార్యక్రమం": 6532,
      "వర్క్": 6533,
      "వాణి": 6534,
      "వార్త": 6535,
      "అర్థ": 6536,
      "కమ్యూని": 6537,
      "విదేశీ": 6538,
      "మణి": 6539,
      "గడి": 6540,
      "వాస్తవానికి": 6541,
      "బరి": 6542,
      "తగ్గ": 6543,
      "విభజన": 6544,
      "ారట": 6545,
      "నియంత్రణ": 6546,
      "నేషన్": 6547,
      "మొబై": 6548,
      "మ్మడి": 6549,
      "ఉండి": 6550,
      "రాన్ని": 6551,
      "తీసి": 6552,
      "మండి": 6553,
      "అద్భుతమైన": 6554,
      "ఉపయోగం": 6555,
      "ఎడ": 6556,
      "వాది": 6557,
      "వ్యతిరేక": 6558,
      "it": 6559,
      "పండి": 6560,
      "వెబ్": 6561,
      "వలె": 6562,
      "అవగాహన": 6563,
      "కావచ్చు": 6564,
      "అతనికి": 6565,
      "ఔషధ": 6566,
      "am": 6567,
      "మైనా": 6568,
      "‌లు": 6569,
      "వాతావర": 6570,
      "సూర్య": 6571,
      "త్వరలో": 6572,
      "తారా": 6573,
      "రాష్ట్రం": 6574,
      "సరఫరా": 6575,
      "కనిపించ": 6576,
      "మొదట": 6577,
      "అత్యధిక": 6578,
      "క్రె": 6579,
      "హ్య": 6580,
      "తెచ్చు": 6581,
      "టాక్": 6582,
      "కప్పు": 6583,
      "ఆత్మహత్య": 6584,
      "రస": 6585,
      "స్తుందని": 6586,
      "న్యాయం": 6587,
      "కోవచ్చు": 6588,
      "కంటె": 6589,
      "ఏర్పా": 6590,
      "సెప్టె": 6591,
      "బోయే": 6592,
      "నాని": 6593,
      "ధక": 6594,
      "సౌకర్": 6595,
      "వచ్చాయి": 6596,
      "సారిగా": 6597,
      "ృప్తి": 6598,
      "జాగ్రత్తగా": 6599,
      "నరేంద్ర": 6600,
      "టెడ్": 6601,
      "బస్సు": 6602,
      "గాయి": 6603,
      "ఉన్నప్పటికీ": 6604,
      "సరిగ్గా": 6605,
      "చేస్తోంది": 6606,
      "కూర్": 6607,
      "సురే": 6608,
      "పోస్ట్": 6609,
      "ఫొటో": 6610,
      "శర్మ": 6611,
      "చిత్రాలు": 6612,
      "ఆసుపత్రి": 6613,
      "కుటుంబా": 6614,
      "ప్లాన్": 6615,
      "వర్ష": 6616,
      "బెర్": 6617,
      "భర్తీ": 6618,
      "మంచిది": 6619,
      "సీనియర్": 6620,
      "సులభం": 6621,
      "చెంద": 6622,
      "కోరి": 6623,
      "కెమెరా": 6624,
      "ంతం": 6625,
      "పెంచు": 6626,
      "నిపుణులు": 6627,
      "కొత్తగా": 6628,
      "పాత్రలో": 6629,
      "కఠి": 6630,
      "ర్‌ను": 6631,
      "టిఫి": 6632,
      "తదు": 6633,
      "కామె": 6634,
      "సంవత్సరాలు": 6635,
      "తల్లిదండ్రులు": 6636,
      "గలరు": 6637,
      "అక్టో": 6638,
      "ంక్": 6639,
      "రచయిత": 6640,
      "స్పష్టంగా": 6641,
      "గ్ని": 6642,
      "విద్యార్థి": 6643,
      "తదుపరి": 6644,
      "మంద": 6645,
      "ముంబై": 6646,
      "బహుశా": 6647,
      "నిల్వ": 6648,
      "ణాన్ని": 6649,
      "వెర్": 6650,
      "ఆకు": 6651,
      "మంచు": 6652,
      "తెలంగాణలో": 6653,
      "తెలుగులో": 6654,
      "వ్యవసాయ": 6655,
      "తులతో": 6656,
      "వ్యాఖ్యాని": 6657,
      "ల్ప": 6658,
      "నాటికి": 6659,
      "కణ": 6660,
      "అభిప్రాయ": 6661,
      "సంక్షే": 6662,
      "బ్లాక్": 6663,
      "గుణంగా": 6664,
      "ఆస్ట్రే": 6665,
      "ప్రభావితం": 6666,
      "సిఫార్": 6667,
      "ెర": 6668,
      "సందర్శి": 6669,
      "సన్న": 6670,
      "సంతోష": 6671,
      "కొంచ": 6672,
      "రోహి": 6673,
      "ప్రణాళిక": 6674,
      "అధ్యయనం": 6675,
      "ంచటానికి": 6676,
      "గృహ": 6677,
      "పూర్త": 6678,
      "ఉపరి": 6679,
      "వుంది": 6680,
      "ఫైన": 6681,
      "బంధు": 6682,
      "కార్యకలా": 6683,
      "స్తారని": 6684,
      "ఉప్పు": 6685,
      "పేద": 6686,
      "రంగంలో": 6687,
      "పిలు": 6688,
      "కుం": 6689,
      "ఆకట్టుకు": 6690,
      "ఆశ్చర్య": 6691,
      "ప్రాథమిక": 6692,
      "త్రు": 6693,
      "సంఖ్యలో": 6694,
      "వేడుక": 6695,
      "సంగీతం": 6696,
      "పక్కన": 6697,
      "హాజర": 6698,
      "నగరం": 6699,
      "చెన్నై": 6700,
      "సాయం": 6701,
      "సత్య": 6702,
      "పేర్కొంది": 6703,
      "చేత": 6704,
      "భావన": 6705,
      "నిలు": 6706,
      "గ్రూ": 6707,
      "ch": 6708,
      "పంపిణీ": 6709,
      "పోయాడు": 6710,
      "కూతు": 6711,
      "బాక్": 6712,
      "తెలుగుదేశం": 6713,
      "డైరెక్టర్": 6714,
      "జాన్": 6715,
      "కేసీఆర్‌": 6716,
      "్యాలు": 6717,
      "వచ్చారు": 6718,
      "షు": 6719,
      "ారే": 6720,
      "వారిలో": 6721,
      "దృష్ట": 6722,
      "చిపో": 6723,
      "వెల్": 6724,
      "దశలో": 6725,
      "స్తున్నారని": 6726,
      "శిశు": 6727,
      "టకు": 6728,
      "వాటిలో": 6729,
      "మున్సి": 6730,
      "45": 6731,
      "నవం": 6732,
      "గానీ": 6733,
      "ట్స్‌": 6734,
      "ాలీ": 6735,
      "దిలీ": 6736,
      "సంగీత": 6737,
      "దూరం": 6738,
      "డితే": 6739,
      "క్కా": 6740,
      "శబ్": 6741,
      "తీసుకోవాలని": 6742,
      "నిషే": 6743,
      "ఓటు": 6744,
      "దీనిని": 6745,
      "వాతావరణ": 6746,
      "పదే": 6747,
      "ప్రచార": 6748,
      "ఏక": 6749,
      "పూజ": 6750,
      "భిన్నంగా": 6751,
      "రై": 6752,
      "ప్రయోజనం": 6753,
      "రవాణా": 6754,
      "వ్రా": 6755,
      "పబ్లి": 6756,
      "యుద్ధం": 6757,
      "అద్ద": 6758,
      "బాహు": 6759,
      "క్రే": 6760,
      "స్టిక్": 6761,
      "బొమ్మ": 6762,
      "వర్గా": 6763,
      "వర్మ": 6764,
      "కోట్": 6765,
      "ప్రతీ": 6766,
      "మస్": 6767,
      "ఉండదు": 6768,
      "చెప్పాడు": 6769,
      "దాఖ": 6770,
      "మార్గ": 6771,
      "మండలం": 6772,
      "అవసరమైన": 6773,
      "ఆకర్షి": 6774,
      "ఆరోపించారు": 6775,
      "ఆరోపణలు": 6776,
      "కున్నారు": 6777,
      "ఆస్ప": 6778,
      "వ్యక్తులు": 6779,
      "అంటు": 6780,
      "ఫలితాలు": 6781,
      "పిల్": 6782,
      "పార్టీలో": 6783,
      "హాన్ని": 6784,
      "వులను": 6785,
      "‌ను": 6786,
      "పద్ధతి": 6787,
      "హర్": 6788,
      "వెంకటే": 6789,
      "మహిళల": 6790,
      "ఆయా": 6791,
      "వెలుగు": 6792,
      "స్పందన": 6793,
      "త్రం": 6794,
      "యూనిట్": 6795,
      "బాల్": 6796,
      "ఉత్పత్తు": 6797,
      "తక్కువగా": 6798,
      "90": 6799,
      "ంచుకుని": 6800,
      "ఆర్టీసీ": 6801,
      "ఇన్ని": 6802,
      "భాగాలు": 6803,
      "అన్": 6804,
      "సినిమాల": 6805,
      "ంచుకోవ": 6806,
      "సింహ": 6807,
      "చైర్మ": 6808,
      "చేతులు": 6809,
      "చారి": 6810,
      "అనుమతిస్తుంది": 6811,
      "దక్కి": 6812,
      "వృత్తి": 6813,
      "కావడంతో": 6814,
      "మహారా": 6815,
      "వినో": 6816,
      "విశ్వా": 6817,
      "స్తున్నట్లు": 6818,
      "రాజ్‌": 6819,
      "చారాన్ని": 6820,
      "నర": 6821,
      "ముస్": 6822,
      "టీఆర్ఎస్": 6823,
      "ఇండ": 6824,
      "బడ్జెట్": 6825,
      "రోగ": 6826,
      "డౌన్": 6827,
      "ంచినా": 6828,
      "పరచ": 6829,
      "చెప్పింది": 6830,
      "కూరగాయ": 6831,
      "అందరికీ": 6832,
      "ఆయనకు": 6833,
      "మధు": 6834,
      "బాయి": 6835,
      "దర్శకత్వం": 6836,
      "సర్వీ": 6837,
      "రాణి": 6838,
      "ఇన్స్": 6839,
      "ంచుకోవడం": 6840,
      "అయింది": 6841,
      "ఫిబ్ర": 6842,
      "కుమార్‌": 6843,
      "కాంతి": 6844,
      "500": 6845,
      "తోనే": 6846,
      "అనుకూల": 6847,
      "కుంటే": 6848,
      "ంచాల్సి": 6849,
      "గలు": 6850,
      "సురక్షి": 6851,
      "తరచూ": 6852,
      "అనుభవం": 6853,
      "అంటారు": 6854,
      "31": 6855,
      "ఉన్నత": 6856,
      "దేశాల్లో": 6857,
      "ఐటీ": 6858,
      "చిత్రీ": 6859,
      "రులు": 6860,
      "కొంతమంది": 6861,
      "హృ": 6862,
      "పడుతున్నారు": 6863,
      "పోయాయి": 6864,
      "అయినప్పటికీ": 6865,
      "ఆకర్షణ": 6866,
      "భౌ": 6867,
      "ఎలక్": 6868,
      "లక్ష్యం": 6869,
      "ప్రొఫె": 6870,
      "చ్చాడు": 6871,
      "కాలిక": 6872,
      "తేజ": 6873,
      "కరించారు": 6874,
      "ome": 6875,
      "పట్టుకు": 6876,
      "అనారో": 6877,
      "గ్యం": 6878,
      "సవి": 6879,
      "ఇరు": 6880,
      "సినిమ": 6881,
      "స్థలం": 6882,
      "చం": 6883,
      "ంద్": 6884,
      "స్‌ను": 6885,
      "వీలు": 6886,
      "సన్నివే": 6887,
      "యూనివర్": 6888,
      "వివాహం": 6889,
      "సంబంధిత": 6890,
      "పిటి": 6891,
      "ాలె": 6892,
      "మనీ": 6893,
      "క్యాన్సర్": 6894,
      "గ్రహి": 6895,
      "వివరణ": 6896,
      "నాయకుడు": 6897,
      "బీఐ": 6898,
      "డూ": 6899,
      "ధ్ర": 6900,
      "మొదల": 6901,
      "కూడిన": 6902,
      "ంచటం": 6903,
      "నిబంధన": 6904,
      "నిర్వహించిన": 6905,
      "ధ్యం": 6906,
      "గమ": 6907,
      "క్రింది": 6908,
      "లోపల": 6909,
      "పిండి": 6910,
      "వుతుంది": 6911,
      "పశ్చి": 6912,
      "రాజే": 6913,
      "ట‌": 6914,
      "న్‌గా": 6915,
      "రేటు": 6916,
      "సాధించిన": 6917,
      "కోల్పో": 6918,
      "రుల": 6919,
      "వర్‌": 6920,
      "ఆడి": 6921,
      "సంప్రది": 6922,
      "నేటి": 6923,
      "ంచగా": 6924,
      "నవ": 6925,
      "సింగ్‌": 6926,
      "పార్టీలు": 6927,
      "ఫిబ్రవరి": 6928,
      "గర్భ": 6929,
      "గతా": 6930,
      "పరిష్కారం": 6931,
      "ov": 6932,
      "గాని": 6933,
      "కార్యక్రమ": 6934,
      "ఇష్టం": 6935,
      "రాల్లో": 6936,
      "శైలి": 6937,
      "ఆస్ట్రేలియా": 6938,
      "టప్పుడు": 6939,
      "తెలుపు": 6940,
      "శరీర": 6941,
      "వీటిలో": 6942,
      "విమర్శించారు": 6943,
      "కంప్యూటర్": 6944,
      "ప్రసాద్": 6945,
      "మధ్యలో": 6946,
      "ంటర్‌": 6947,
      "గ్రహ": 6948,
      "షెడ్యూ": 6949,
      "నిరోధక": 6950,
      "మించి": 6951,
      "సగం": 6952,
      "భారీగా": 6953,
      "తున్నారని": 6954,
      "సిరి": 6955,
      "లోక్‌": 6956,
      "కనుక": 6957,
      "ంచబడిన": 6958,
      "ఎరు": 6959,
      "సున్ని": 6960,
      "పోర్ట్": 6961,
      "ప్రవేశి": 6962,
      "హిత": 6963,
      "లోనూ": 6964,
      "మెద": 6965,
      "మెడి": 6966,
      "ంచాల్సిన": 6967,
      "ప్రయోజన": 6968,
      "ఎగు": 6969,
      "దక్షిణ": 6970,
      "చేతిలో": 6971,
      "అన్నీ": 6972,
      "ఆవిష్": 6973,
      "మానసిక": 6974,
      "కల్పన": 6975,
      "బలహీ": 6976,
      "క్రీడా": 6977,
      "తృ": 6978,
      "పాన్": 6979,
      "కొట్ట": 6980,
      "ఎఫ్": 6981,
      "వరం": 6982,
      "వేసవి": 6983,
      "నామి": 6984,
      "దుకా": 6985,
      "దళ": 6986,
      "ాలే": 6987,
      "ప్రసిద్ధ": 6988,
      "రీలు": 6989,
      "జున": 6990,
      "చేసుకుని": 6991,
      "భరి": 6992,
      "విద్యాల": 6993,
      "దారితీ": 6994,
      "వ్యాసం": 6995,
      "టెక్నాల": 6996,
      "స్థాని": 6997,
      "అదుపు": 6998,
      "నాయక": 6999,
      "పథకం": 7000,
      "రాజ్యా": 7001,
      "విమాన": 7002,
      "ఉన్నట్లు": 7003,
      "నివారి": 7004,
      "కోండి": 7005,
      "ణానికి": 7006,
      "నిరసన": 7007,
      "మాంసం": 7008,
      "ఉత్పత్తులు": 7009,
      "పదార్థాలు": 7010,
      "ప్రస్తా": 7011,
      "భయం": 7012,
      "ట్టుగా": 7013,
      "బహిరంగ": 7014,
      "సిక్": 7015,
      "వినియోగి": 7016,
      "మందులు": 7017,
      "డైన": 7018,
      "శ్రద్ధ": 7019,
      "ఆపరే": 7020,
      "ఉచిత": 7021,
      "లక్ష్మీ": 7022,
      "రత్": 7023,
      "వేరే": 7024,
      "చేసారు": 7025,
      "ంచుకున్నారు": 7026,
      "సిపి": 7027,
      "అనుకూలంగా": 7028,
      "దర్యాప్": 7029,
      "ప్రశం": 7030,
      "ఇచ్చింది": 7031,
      "ug": 7032,
      "సంభా": 7033,
      "కేసులు": 7034,
      "ల్చి": 7035,
      "ప్రారంభించారు": 7036,
      "కుక్క": 7037,
      "ఉనికి": 7038,
      "ట్రే": 7039,
      "మ్యాచ్‌లో": 7040,
      "ర్స్": 7041,
      "ఒకరు": 7042,
      "క్సెస్": 7043,
      "మృదు": 7044,
      "కళాశాల": 7045,
      "పరిమాణం": 7046,
      "నిరు": 7047,
      "కొంచెం": 7048,
      "స్వంత": 7049,
      "చాలు": 7050,
      "రాష్ట్రాల్లో": 7051,
      "దర్యాప్తు": 7052,
      "మాయ": 7053,
      "అలె": 7054,
      "సగ": 7055,
      "ముగ్గురు": 7056,
      "ఎక్స్": 7057,
      "సిస్": 7058,
      "న్‌కు": 7059,
      "అగ్ని": 7060,
      "as": 7061,
      "స్థితి": 7062,
      "అద్భుతమైన": 7063,
      "వసర": 7064,
      "తదితర": 7065,
      "సచి": 7066,
      "మట్టి": 7067,
      "యిక": 7068,
      "స్తోందని": 7069,
      "స్వి": 7070,
      "నివేదిక": 7071,
      "ఆమెను": 7072,
      "కొట్టి": 7073,
      "గోల్": 7074,
      "హ్నం": 7075,
      "ఫిల్": 7076,
      "వేలు": 7077,
      "సందర్భా": 7078,
      "ఉపయోగించవచ్చు": 7079,
      "అనుగుణంగా": 7080,
      "యింది": 7081,
      "అలవా": 7082,
      "సమీక్షలు": 7083,
      "మనకు": 7084,
      "టెక్నాలజీ": 7085,
      "జాతి": 7086,
      "యస్": 7087,
      "స్పి": 7088,
      "బదిలీ": 7089,
      "ప్రత్యక్ష": 7090,
      "ఫిక్": 7091,
      "బడే": 7092,
      "పరికరం": 7093,
      "టాలీవుడ్": 7094,
      "కాలను": 7095,
      "వైన": 7096,
      "కార్యక్రమాలు": 7097,
      "ఫలిత": 7098,
      "సిస్ట": 7099,
      "ఇబ్బందులు": 7100,
      "మోడల్": 7101,
      "ఆయు": 7102,
      "ఇంజి": 7103,
      "దై": 7104,
      "ఆధ్": 7105,
      "తోపాటు": 7106,
      "నాల్లో": 7107,
      "ఎపి": 7108,
      "హత": 7109,
      "మాటలు": 7110,
      "కొడుకు": 7111,
      "నిధులు": 7112,
      "ic": 7113,
      "రకాలు": 7114,
      "భద్రత": 7115,
      "వర్తన": 7116,
      "Home": 7117,
      "రిజి": 7118,
      "సీజన్": 7119,
      "ఎప్పుడు": 7120,
      "ధరలు": 7121,
      "ందర్": 7122,
      "లేన": 7123,
      "ఇసు": 7124,
      "సమే": 7125,
      "హౌస్": 7126,
      "సంస్కృ": 7127,
      "సిఫార్సు": 7128,
      "పిలి": 7129,
      "వరూ": 7130,
      "దుర": 7131,
      "అందమైన": 7132,
      "ళూరు": 7133,
      "పాయ": 7134,
      "నిన్న": 7135,
      "సంకే": 7136,
      "అరెస్టు": 7137,
      "పదార్": 7138,
      "చేసుకున్నారు": 7139,
      "మంత్రులు": 7140,
      "టిడిపి": 7141,
      "మండలి": 7142,
      "ing": 7143,
      "స్లా": 7144,
      "ందున": 7145,
      "ముని": 7146,
      "బంధ": 7147,
      "వచ్చని": 7148,
      "పేజీ": 7149,
      "డాన్ని": 7150,
      "చ్చని": 7151,
      "హద్దు": 7152,
      "il": 7153,
      "తెలియదు": 7154,
      "తూర్పు": 7155,
      "తరం": 7156,
      "క్రింద": 7157,
      "కాలేదు": 7158,
      "ర్‌కు": 7159,
      "ద్రి": 7160,
      "నీటిని": 7161,
      "మేనే": 7162,
      "పరిస్థితుల్లో": 7163,
      "పెట్టుబడి": 7164,
      "మద్యం": 7165,
      "ఎనిమి": 7166,
      "లాభ": 7167,
      "ఉష్ణోగ్రత": 7168,
      "ఇటీవ": 7169,
      "వీర": 7170,
      "వేశారు": 7171,
      "సూచన": 7172,
      "వాతావరణం": 7173,
      "ఎప్పటి": 7174,
      "ప్రకటించింది": 7175,
      "అర్ధ": 7176,
      "స్మార్ట్": 7177,
      "లాక్": 7178,
      "టిస్": 7179,
      "ంటున్నా": 7180,
      "సబ్": 7181,
      "నెస్": 7182,
      "సలహా": 7183,
      "పెట్టింది": 7184,
      "పద్": 7185,
      "ఫ్లో": 7186,
      "తగా": 7187,
      "సేవలు": 7188,
      "ఉపయోగించడానికి": 7189,
      "రియల్": 7190,
      "కుర్": 7191,
      "అందువల్ల": 7192,
      "ట్విట్ట": 7193,
      "నుంచే": 7194,
      "బోతున్న": 7195,
      "ప్రశ్నించారు": 7196,
      "జనాభా": 7197,
      "తేలి": 7198,
      "ప్రోత్స": 7199,
      "అత్యా": 7200,
      "చెందు": 7201,
      "ఐపీ": 7202,
      "పశ్చిమ": 7203,
      "బెంగ": 7204,
      "వేసుకు": 7205,
      "ఆధ్వర్": 7206,
      "కారులు": 7207,
      "చేస్తాయి": 7208,
      "అమర్": 7209,
      "క్రికెట్": 7210,
      "తంత్ర": 7211,
      "వన్డే": 7212,
      "నాన్న": 7213,
      "విడుద": 7214,
      "బాహుబలి": 7215,
      "ol": 7216,
      "99": 7217,
      "ారానికి": 7218,
      "మిగతా": 7219,
      "ఛార్": 7220,
      "పరుగుల": 7221,
      "ఎత్తున": 7222,
      "సిద్ధా": 7223,
      "సామర్థ్యం": 7224,
      "కస్ట": 7225,
      "పర్‌": 7226,
      "పెరిగింది": 7227,
      "బృందం": 7228,
      "ప్రసం": 7229,
      "వ్యాప": 7230,
      "బంగ": 7231,
      "అప్పగి": 7232,
      "క్యు": 7233,
      "మున": 7234,
      "గంటలకు": 7235,
      "సమి": 7236,
      "స్వయంగా": 7237,
      "నమ్మకం": 7238,
      "ఆడియో": 7239,
      "ఉద్దేశ": 7240,
      "లోడ్": 7241,
      "దుస్తులు": 7242,
      "ద్దాం": 7243,
      "మాల్లో": 7244,
      "పదార్థం": 7245,
      "పొడవు": 7246,
      "తమిళనాడు": 7247,
      "is": 7248,
      "త్వరలోనే": 7249,
      "ఒప్పందం": 7250,
      "ప్రయత్నాలు": 7251,
      "పోలీసులకు": 7252,
      "వేధి": 7253,
      "స్యం": 7254,
      "నమూనా": 7255,
      "రూపం": 7256,
      "గుంటూ": 7257,
      "లొ": 7258,
      "అంశాలు": 7259,
      "నాగార్": 7260,
      "ందన్న": 7261,
      "ఆప్": 7262,
      "తదితరులు": 7263,
      "ప్రభావ": 7264,
      "రోడ్": 7265,
      "బ్యాక్": 7266,
      "దక్షిణా": 7267,
      "పోలీస్": 7268,
      "థ్": 7269,
      "ముఖం": 7270,
      "ంచుకుంది": 7271,
      "రాష్ట్రాల": 7272,
      "విశేషం": 7273,
      "ఉమ్మడి": 7274,
      "బాస్": 7275,
      "సెలవు": 7276,
      "మాట్లాడారు": 7277,
      "అంతర్గత": 7278,
      "వలసి": 7279,
      "పాకిస్తా": 7280,
      "కఠిన": 7281,
      "కంటి": 7282,
      "ప్రోత్సహి": 7283,
      "మధ్యా": 7284,
      "తోట": 7285,
      "రాజీనామా": 7286,
      "టై": 7287,
      "ఆవే": 7288,
      "ఒక్కో": 7289,
      "మ్మే": 7290,
      "చూసే": 7291,
      "ప్రధానంగా": 7292,
      "ప్రచు": 7293,
      "గింది": 7294,
      "కాద": 7295,
      "డిస్": 7296,
      "యేషన్": 7297,
      "నిజం": 7298,
      "వ్యవహార": 7299,
      "కొర": 7300,
      "మిలియన్": 7301,
      "గ్లా": 7302,
      "కన్న": 7303,
      "కేర": 7304,
      "పరికరాలు": 7305,
      "మొక్కలు": 7306,
      "మ్మల్ని": 7307,
      "గడ్డ": 7308,
      "డియం": 7309,
      "రేపు": 7310,
      "కోట": 7311,
      "నేల": 7312,
      "ల్స్‌": 7313,
      "ఇటు": 7314,
      "ఖరీ": 7315,
      "కుమారుడు": 7316,
      "అఖి": 7317,
      "నువ్వు": 7318,
      "పార్టీల": 7319,
      "అవినీతి": 7320,
      "సరే": 7321,
      "నిరూ": 7322,
      "సంబంధ": 7323,
      "వరుసగా": 7324,
      "ారన్నారు": 7325,
      "ంటోంది": 7326,
      "ప్రభుత్వానికి": 7327,
      "ందట": 7328,
      "కేజీ": 7329,
      "అంగీకరి": 7330,
      "శాం": 7331,
      "జైలు": 7332,
      "లోకే": 7333,
      "పసు": 7334,
      "చూడాలి": 7335,
      "భారతీయ": 7336,
      "పల": 7337,
      "తరహా": 7338,
      "ఆదాయం": 7339,
      "ఈసారి": 7340,
      "కరె": 7341,
      "ఎవరైనా": 7342,
      "et": 7343,
      "ఆధ్వర్యంలో": 7344,
      "టెలి": 7345,
      "అసాధారణ": 7346,
      "సమీపంలో": 7347,
      "ఆమెకు": 7348,
      "వాళ్ళు": 7349,
      "ప్స్": 7350,
      "అయ్యే": 7351,
      "మాస్": 7352,
      "ప్రతినిధి": 7353,
      "ంజ్": 7354,
      "వర్గాలు": 7355,
      "యార్": 7356,
      "విటమి": 7357,
      "లెక్కి": 7358,
      "చైత": 7359,
      "యాం": 7360,
      "ఉన్నాయని": 7361,
      "గతం": 7362,
      "పదం": 7363,
      "రోజూ": 7364,
      "చేశారని": 7365,
      "సూచిస్తుంది": 7366,
      "కటి": 7367,
      "కృష్ణా": 7368,
      "ఎంచుకోండి": 7369,
      "విశ్వవిద్యాల": 7370,
      "పిల్లలకు": 7371,
      "సినిమాతో": 7372,
      "గుంటూరు": 7373,
      "ప్య": 7374,
      "అవసరమైన": 7375,
      "షింగ్": 7376,
      "వెళు": 7377,
      "సమాన": 7378,
      "కెసి": 7379,
      "పెరి": 7380,
      "పర్యాట": 7381,
      "బిజీ": 7382,
      "పాస్": 7383,
      "రెడీ": 7384,
      "చేసినప్పుడు": 7385,
      "నడ": 7386,
      "ఇస్తుంది": 7387,
      "పెరగ": 7388,
      "డ్డీ": 7389,
      "వినియోగం": 7390,
      "బరు": 7391,
      "ప్రయోజనాలు": 7392,
      "పవర్": 7393,
      "ఆశ్ర": 7394,
      "టెన్": 7395,
      "కేరళ": 7396,
      "నాశ": 7397,
      "ప్రియ": 7398,
      "పునరా": 7399,
      "చరణ్": 7400,
      "ంచుకునే": 7401,
      "దుగా": 7402,
      "మెంటు": 7403,
      "కర్ణా": 7404,
      "రని": 7405,
      "నాగార్జున": 7406,
      "ముస్లిం": 7407,
      "ఉన్నాడు": 7408,
      "మంట": 7409,
      "గరి": 7410,
      "కొవ్వు": 7411,
      "టైటిల్": 7412,
      "వైపు": 7413,
      "దీనిలో": 7414,
      "సర్‌": 7415,
      "తగ్గు": 7416,
      "క్రీడ": 7417,
      "ముగింపు": 7418,
      "బంగా": 7419,
      "దులుగా": 7420,
      "వరద": 7421,
      "సమాచారాన్ని": 7422,
      "అధికారంలోకి": 7423,
      "వెళ్లిన": 7424,
      "సినిమాల్లో": 7425,
      "ఉడికి": 7426,
      "పోవ": 7427,
      "తోందని": 7428,
      "వెళ్లే": 7429,
      "పరిశోధన": 7430,
      "సాలు": 7431,
      "ఆస్పత్రి": 7432,
      "పొందడానికి": 7433,
      "భేటీ": 7434,
      "బయో": 7435,
      "ఉపాధ్యా": 7436,
      "సినిమాకి": 7437,
      "ఎయిర్": 7438,
      "కని": 7439,
      "సాడు": 7440,
      "మైనది": 7441,
      "ప్రకృతి": 7442,
      "గాను": 7443,
      "దాకా": 7444,
      "సుప్రీంకోర్టు": 7445,
      "పనితీరు": 7446,
      "వేయి": 7447,
      "వాయు": 7448,
      "వర్గం": 7449,
      "గట్టిగా": 7450,
      "ప్రమాణ": 7451,
      "చేపట్టిన": 7452,
      "ఉద్యోగం": 7453,
      "ంచనున్నారు": 7454,
      "కండి": 7455,
      "చేస్తామని": 7456,
      "వేచి": 7457,
      "పూర్‌": 7458,
      "అవుట్": 7459,
      "సహాయపడుతుంది": 7460,
      "ప్రాణ": 7461,
      "రంగం": 7462,
      "75": 7463,
      "విడ": 7464,
      "త్యామ్": 7465,
      "పరా": 7466,
      "ముంద": 7467,
      "మిలీ": 7468,
      "శ్వాస": 7469,
      "తీసుకున్నారు": 7470,
      "ur": 7471,
      "కురి": 7472,
      "తీసుకొని": 7473,
      "అనంత": 7474,
      "ఆయ": 7475,
      "కిరణ": 7476,
      "లాది": 7477,
      "ఏప్రిల్": 7478,
      "ఇసుక": 7479,
      "చేయాల": 7480,
      "లేకపోవడం": 7481,
      "గడం": 7482,
      "198": 7483,
      "ర్షి": 7484,
      "రూపాయల": 7485,
      "శాస్త్రవేత్త": 7486,
      "అర్జున్": 7487,
      "ట్రె": 7488,
      "ఎస్పీ": 7489,
      "ఖాన్": 7490,
      "నున్నట్లు": 7491,
      "శ్రీనివాస్": 7492,
      "యతీ": 7493,
      "సగటు": 7494,
      "కరీ": 7495,
      "ఇండస్ట్రీ": 7496,
      "చాడు": 7497,
      "ఫూ": 7498,
      "నౌ": 7499,
      "సిరీస్": 7500,
      "వైన": 7501,
      "స్పెష": 7502,
      "ంచని": 7503,
      "ఇంటర్నెట్": 7504,
      "పురాతన": 7505,
      "గ్రి": 7506,
      "ప్రత్యామ్": 7507,
      "కారణాలు": 7508,
      "ugu": 7509,
      "హెచ్": 7510,
      "స్ట్రా": 7511,
      "అమెరికన్": 7512,
      "హిందీ": 7513,
      "ఉంచు": 7514,
      "డిజి": 7515,
      "విక": 7516,
      "ఎగ్": 7517,
      "ఉండాలని": 7518,
      "36": 7519,
      "నేషనల్": 7520,
      "పెద్దగా": 7521,
      "నగదు": 7522,
      "కనిపించే": 7523,
      "ఓటమి": 7524,
      "త్మకంగా": 7525,
      "డబ్": 7526,
      "అందజే": 7527,
      "కర్ణాటక": 7528,
      "ఏర్పాట్లు": 7529,
      "స్వే": 7530,
      "బీసీ": 7531,
      "సిఎం": 7532,
      "నిరూపి": 7533,
      "వీరు": 7534,
      "సేపు": 7535,
      "సంప్రదాయ": 7536,
      "ముడి": 7537,
      "మిని": 7538,
      "సర్వ": 7539,
      "ఇవ్వడం": 7540,
      "ఖరి": 7541,
      "పోవడం": 7542,
      "బ్రె": 7543,
      "కరు": 7544,
      "హరీ": 7545,
      "పవన్‌": 7546,
      "ఇవా": 7547,
      "మాణి": 7548,
      "వంతం": 7549,
      "బంగారు": 7550,
      "వర్గాల": 7551,
      "రైతుల": 7552,
      "అనుకున్న": 7553,
      "అతడి": 7554,
      "ంట్రా": 7555,
      "విశ్రా": 7556,
      "కూటమి": 7557,
      "32": 7558,
      "ఆహ్వాని": 7559,
      "వాసన": 7560,
      "థియేటర్": 7561,
      "బలహీన": 7562,
      "వాయిదా": 7563,
      "ఆపరేషన్": 7564,
      "మిత్ర": 7565,
      "హిం": 7566,
      "ంచీ": 7567,
      "దాటి": 7568,
      "పాజి": 7569,
      "స్క్రీన్": 7570,
      "ారనే": 7571,
      "మోహన్‌": 7572,
      "పరిగణ": 7573,
      "ఇందుకు": 7574,
      "తీవ్రమైన": 7575,
      "అయ్యింది": 7576,
      "నిమిషాలు": 7577,
      "రచన": 7578,
      "స్థాపన": 7579,
      "వ్యాధులు": 7580,
      "వుండ": 7581,
      "ముక్కలు": 7582,
      "రైతులకు": 7583,
      "పసుపు": 7584,
      "లేదో": 7585,
      "పైన": 7586,
      "పిలుపు": 7587,
      "నికే": 7588,
      "పత్రిక": 7589,
      "నవ్వు": 7590,
      "కార్పొరే": 7591,
      "తెలిసింది": 7592,
      "మినహాయి": 7593,
      "వచ్ఛ": 7594,
      "పెట్టుబడు": 7595,
      "పోతున్న": 7596,
      "జీవన": 7597,
      "లంక": 7598,
      "పర్వ": 7599,
      "కున్నా": 7600,
      "కోరిక": 7601,
      "ra": 7602,
      "కలుపు": 7603,
      "ప్రతికూల": 7604,
      "హీరోయి": 7605,
      "టోర్": 7606,
      "క్యం": 7607,
      "డెన్": 7608,
      "రాజా": 7609,
      "సము": 7610,
      "కడుపు": 7611,
      "elugu": 7612,
      "ంఛ": 7613,
      "ంచగల": 7614,
      "షాక్": 7615,
      "భోజనం": 7616,
      "ంచినప్పుడు": 7617,
      "సమాజ": 7618,
      "భద్రతా": 7619,
      "నిరోధి": 7620,
      "హాజరు": 7621,
      "చెట్టు": 7622,
      "జత": 7623,
      "పిరి": 7624,
      "అక్రమ": 7625,
      "వంతు": 7626,
      "విష్": 7627,
      "చెక్క": 7628,
      "వేత": 7629,
      "ఉల్లి": 7630,
      "ంట్రీ": 7631,
      "రికార్": 7632,
      "ఆగస్టు": 7633,
      "శిశువు": 7634,
      "నాయకు": 7635,
      "నిర్ధారణ": 7636,
      "ఒకరి": 7637,
      "విభజి": 7638,
      "విరుద్ధ": 7639,
      "గేమ్": 7640,
      "పరిధిలో": 7641,
      "స్ట్రి": 7642,
      "ప్రయత్నించండి": 7643,
      "మురు": 7644,
      "డిసెంబర్": 7645,
      "జూన్": 7646,
      "నియంత్రి": 7647,
      "ఉండేది": 7648,
      "ఆడు": 7649,
      "నగరంలో": 7650,
      "స్పూ": 7651,
      "డట": 7652,
      "వస": 7653,
      "కావాలని": 7654,
      "వేసే": 7655,
      "సంరక్షణ": 7656,
      "ఆర్టి": 7657,
      "వేదికగా": 7658,
      "విశేష": 7659,
      "ఒప్పు": 7660,
      "స్పద": 7661,
      "ఫ్రికా": 7662,
      "చేసినట్లు": 7663,
      "బలం": 7664,
      "ప్రజలను": 7665,
      "స్తుంటే": 7666,
      "అందించిన": 7667,
      "న్‌ను": 7668,
      "చేసినా": 7669,
      "కెరీర్": 7670,
      "లని": 7671,
      "ంచడంలో": 7672,
      "చల్లని": 7673,
      "అతడు": 7674,
      "లుక్": 7675,
      "పార్ట్": 7676,
      "వాడి": 7677,
      "కాలేజీ": 7678,
      "కనుగొన": 7679,
      "పెట్రో": 7680,
      "పునరుద్ధ": 7681,
      "ధర్మ": 7682,
      "బ్రాండ్": 7683,
      "అభిప్రాయం": 7684,
      "హిందూ": 7685,
      "పాకిస్థా": 7686,
      "కాలా": 7687,
      "స్వచ్ఛ": 7688,
      "చివరికి": 7689,
      "రమే": 7690,
      "ఏజె": 7691,
      "’.": 7692,
      "కెప్టెన్": 7693,
      "సమర్పి": 7694,
      "సమస్యలను": 7695,
      "ఫం": 7696,
      "కపోవడం": 7697,
      "కుంది": 7698,
      "జ్ఞానం": 7699,
      "యజమాని": 7700,
      "పోలీసుల": 7701,
      "నిమిషాల": 7702,
      "కావలసిన": 7703,
      "సాగ": 7704,
      "అందించే": 7705,
      "ష్మ": 7706,
      "చేయటానికి": 7707,
      "రసం": 7708,
      "సెంటర్": 7709,
      "2015": 7710,
      "గితే": 7711,
      "ట్లలో": 7712,
      "రోజుకు": 7713,
      "రాలి": 7714,
      "తుండ": 7715,
      "చిత్త": 7716,
      "రైలు": 7717,
      "పంచాయతీ": 7718,
      "మానాలు": 7719,
      "ంచుకోవడానికి": 7720,
      "ఎక్స్‌": 7721,
      "డిజై": 7722,
      "విండో": 7723,
      "పోరాటం": 7724,
      "సింగ": 7725,
      "మొబైల్": 7726,
      "అయ్యారు": 7727,
      "కద": 7728,
      "స్‌కు": 7729,
      "లక్ష్మి": 7730,
      "సమీక్ష": 7731,
      "మూసి": 7732,
      "వివాహ": 7733,
      "గ్రామంలో": 7734,
      "ఆనందం": 7735,
      "గ్రం": 7736,
      "తుంటే": 7737,
      "వాణిజ్య": 7738,
      "దురు": 7739,
      "శాంత": 7740,
      "వర్షం": 7741,
      "జింగ్": 7742,
      "వాస్తవ": 7743,
      "మార్కెట్‌": 7744,
      "ఫ్రీ": 7745,
      "కుమార్తె": 7746,
      "మహారాష్ట్ర": 7747,
      "కానికి": 7748,
      "చర్చలు": 7749,
      "దేశానికి": 7750,
      "క్లిక్": 7751,
      "ళ్లుగా": 7752,
      "శ్వర్": 7753,
      "అప్పు": 7754,
      "లాడు": 7755,
      "బెంగళూరు": 7756,
      "ఆరా": 7757,
      "లభ్య": 7758,
      "మాదిరి": 7759,
      "ములో": 7760,
      "క్రికె": 7761,
      "స్తానని": 7762,
      "ంతు": 7763,
      "పరికర": 7764,
      "న్ల": 7765,
      "స్వాధీ": 7766,
      "ఉపాధి": 7767,
      "రాలేదు": 7768,
      "హోం": 7769,
      "తెలుస్తుంది": 7770,
      "నగర్‌": 7771,
      "బిగ్": 7772,
      "ప్రకాశ": 7773,
      "జిల్ల": 7774,
      "యన్స్": 7775,
      "ఇంటర్వ్యూ": 7776,
      "రమణ": 7777,
      "పరిశోధ": 7778,
      "గదిలో": 7779,
      "స్థాపి": 7780,
      "నల్‌": 7781,
      "కాలంగా": 7782,
      "సరిహద్దు": 7783,
      "కపోవడంతో": 7784,
      "ప్రాధాన్యత": 7785,
      "పరీక్షలు": 7786,
      "150": 7787,
      "దాడులు": 7788,
      "\".": 7789,
      "చేయగల": 7790,
      "రామ్‌": 7791,
      "దాఖలు": 7792,
      "డ‌": 7793,
      "హాని": 7794,
      "ఈవె": 7795,
      "పర్యవే": 7796,
      "తుందో": 7797,
      "ఘో": 7798,
      "సంచలన": 7799,
      "జాబితాలో": 7800,
      "త్తం": 7801,
      "లక్షణాలను": 7802,
      "వదిలే": 7803,
      "గడు": 7804,
      "తూనే": 7805,
      "అంతకు": 7806,
      "స్తం": 7807,
      "మెత్త": 7808,
      "ర్‌గా": 7809,
      "ంగిక": 7810,
      "కిలోమీటర్ల": 7811,
      "టీఆర్‌ఎస్‌": 7812,
      "దీక్ష": 7813,
      "నటిస్తున్న": 7814,
      "లైంది": 7815,
      "కమిష": 7816,
      "సెంచ": 7817,
      "ఏకంగా": 7818,
      "ఎర్ర": 7819,
      "పోటు": 7820,
      "పల్": 7821,
      "వర్ణ": 7822,
      "కామెడీ": 7823,
      "క్ట": 7824,
      "షన్‌లో": 7825,
      "సంస్థల": 7826,
      "తాయని": 7827,
      "జిల్లాలోని": 7828,
      "మార్గా": 7829,
      "జీర్": 7830,
      "దొంగ": 7831,
      "అప్లి": 7832,
      "అంతేకాదు": 7833,
      "లక్ష్యంగా": 7834,
      "చక్కెర": 7835,
      "శాబ్": 7836,
      "శంకర్": 7837,
      "వస్తాయి": 7838,
      "షన్లు": 7839,
      "వీటిని": 7840,
      "మరిన్ని": 7841,
      "నాల్": 7842,
      "ంచకుండా": 7843,
      "చూడవచ్చు": 7844,
      "చదవ": 7845,
      "దుల": 7846,
      "ట్వీట్": 7847,
      "చివరకు": 7848,
      "రాసిన": 7849,
      "సంచల": 7850,
      "అసో": 7851,
      "అర్ధం": 7852,
      "సాధించింది": 7853,
      "కది": 7854,
      "ఏపీలో": 7855,
      "బాధ్యతలు": 7856,
      "పిలుస్తారు": 7857,
      "ఎండ": 7858,
      "వ్యాయామం": 7859,
      "విల": 7860,
      "స్పీకర్": 7861,
      "సంక్షేమ": 7862,
      "రాజకీయాల్లో": 7863,
      "సేకరణ": 7864,
      "క్రాంతి": 7865,
      "హాట్": 7866,
      "రెస్ట": 7867,
      "తేదీన": 7868,
      "చూస్తున్న": 7869,
      "టాల్": 7870,
      "క్రమి": 7871,
      "సీట్లు": 7872,
      "ఒంట": 7873,
      "బీచ్": 7874,
      "మృత": 7875,
      "సాక్ష": 7876,
      "కింది": 7877,
      "ఎంటర్": 7878,
      "స్వీకరి": 7879,
      "వంటివి": 7880,
      "గులా": 7881,
      "తీసుకోవడం": 7882,
      "ఫ్యామిలీ": 7883,
      "వేసింది": 7884,
      "ండ్ల": 7885,
      "th": 7886,
      "యాజ": 7887,
      "రెండే": 7888,
      "ఆఫ్‌": 7889,
      "దగ్గరగా": 7890,
      "హెల్": 7891,
      "పెరుగుతుంది": 7892,
      "విక్రమ్": 7893,
      "ఇతరు": 7894,
      "సరిపో": 7895,
      "బాలు": 7896,
      "నిండి": 7897,
      "ప్రజాదరణ": 7898,
      "ల్సిందే": 7899,
      "ులతో": 7900,
      "ల్‌కు": 7901,
      "జ్యో": 7902,
      "పింగ్": 7903,
      "సన్‌": 7904,
      "శాశ్వ": 7905,
      "బర్‌": 7906,
      "వందల": 7907,
      "శీతా": 7908,
      "రూపాయలు": 7909,
      "చేస్తున్నారని": 7910,
      "కైనా": 7911,
      "క్రిప్": 7912,
      "ఆన్‌": 7913,
      "33": 7914,
      "బెల్": 7915,
      "స్మార్ట్‌": 7916,
      "మయ్యే": 7917,
      "రెస్టారె": 7918,
      "ఎలి": 7919,
      "పోర్టు": 7920,
      "ఆరం": 7921,
      "దానిపై": 7922,
      "అత్యు": 7923,
      "సెక్స్": 7924,
      "మొట్ట": 7925,
      "పట్టణ": 7926,
      "ంచె": 7927,
      "శుభ్రం": 7928,
      "ఓపెన్": 7929,
      "రోగి": 7930,
      "గాడు": 7931,
      "ఆధి": 7932,
      "ఏది": 7933,
      "ఫుల్": 7934,
      "వింగ్": 7935,
      "కల్యాణ్": 7936,
      "విస్": 7937,
      "కోవటానికి": 7938,
      "స్టై": 7939,
      "నివార": 7940,
      "చెప్పుకొ": 7941,
      "ట్లే": 7942,
      "దానం": 7943,
      "బెదిరి": 7944,
      "మెంట్స్": 7945,
      "ఈరోజు": 7946,
      "నేర": 7947,
      "పుట్ట": 7948,
      "గై": 7949,
      "చ‌": 7950,
      "ఇన్నింగ్": 7951,
      "ఫలితం": 7952,
      "పట్టించుకో": 7953,
      "దిగిన": 7954,
      "నమ్ము": 7955,
      "బ్రహ్మ": 7956,
      "పుణ్య": 7957,
      "తద్వారా": 7958,
      "భవిష్యత్తులో": 7959,
      "దాల": 7960,
      "సాఫ్ట్": 7961,
      "పెడ": 7962,
      "దూర": 7963,
      "నటన": 7964,
      "జియో": 7965,
      "ళ్ళి": 7966,
      "లకి": 7967,
      "చేయడంతో": 7968,
      "ఊపిరి": 7969,
      "సమంత": 7970,
      "తిరస్": 7971,
      "బ్యాంక్": 7972,
      "విక్రయి": 7973,
      "పరమైన": 7974,
      "పాటలు": 7975,
      "చోట్ల": 7976,
      "అతిపెద్ద": 7977,
      "రూపొందించిన": 7978,
      "దేవాల": 7979,
      "సంతోషంగా": 7980,
      "సెర్": 7981,
      "మౌళి": 7982,
      "నేతల": 7983,
      "ఉగ్రవా": 7984,
      "అంశాలను": 7985,
      "దశాబ్": 7986,
      "సొంతం": 7987,
      "రోజులుగా": 7988,
      "బాద్‌": 7989,
      "రాశి": 7990,
      "శస్త్ర": 7991,
      "సందర్భాల్లో": 7992,
      "జవా": 7993,
      "అధికారం": 7994,
      "నైనా": 7995,
      "కాగి": 7996,
      "భూతి": 7997,
      "కాంత్": 7998,
      "వ్యాఖ్యానించారు": 7999,
      "అనుభవి": 8000,
      "స్టేట్": 8001,
      "ఇద్దరి": 8002,
      "కనెక్ట్": 8003,
      "సంపూర్ణ": 8004,
      "ఆగ్రహం": 8005,
      "లక్షలు": 8006,
      "క్షేత్ర": 8007,
      "పారిశ్రా": 8008,
      "బై": 8009,
      "సమ్మె": 8010,
      "నోటీ": 8011,
      "రల్‌": 8012,
      "తాత్": 8013,
      "వసూలు": 8014,
      "దూరంలో": 8015,
      "లైట్": 8016,
      "క్రికెట్‌": 8017,
      "చెప్పడం": 8018,
      "సిద్ద": 8019,
      "పాదన": 8020,
      "బిజి": 8021,
      "భావిస్తున్నారు": 8022,
      "ఏమిట": 8023,
      "అధికారిక": 8024,
      "ఆచరణ": 8025,
      "రోజువారీ": 8026,
      "ముగా": 8027,
      "48": 8028,
      "ష‌": 8029,
      "నెలలో": 8030,
      "అట": 8031,
      "పండుగ": 8032,
      "ండింగ్": 8033,
      "దేశంలోని": 8034,
      "ప్రతినిధులు": 8035,
      "ఎనిమిది": 8036,
      "ంచేలా": 8037,
      "విఫల": 8038,
      "ఒకవేళ": 8039,
      "మిక్": 8040,
      "కొల": 8041,
      "వద్దు": 8042,
      "ఒంటరి": 8043,
      "ఆకా": 8044,
      "ంచుకోవచ్చు": 8045,
      "స్తాం": 8046,
      "ళా": 8047,
      "చేపట్టారు": 8048,
      "లైన": 8049,
      "యుల": 8050,
      "ఎయిర్‌": 8051,
      "ంచుకోవాలి": 8052,
      "ఎప్పుడ": 8053,
      "కావాలి": 8054,
      "క్రియా": 8055,
      "శేఖర్": 8056,
      "అక్టోబర్": 8057,
      "అవ్వ": 8058,
      "ప్రస్తావి": 8059,
      "Telugu": 8060,
      "స్వతంత్ర": 8061,
      "లైన్": 8062,
      "ఆదర్శ": 8063,
      "ead": 8064,
      "id": 8065,
      "భవన": 8066,
      "జరా": 8067,
      "యూరో": 8068,
      "రోజున": 8069,
      "స్థల": 8070,
      "గ్రౌ": 8071,
      "ల్‌ను": 8072,
      "కాంబి": 8073,
      "బిల్": 8074,
      "చెల్లింపు": 8075,
      "విన్": 8076,
      "సర్దు": 8077,
      "పుస్తకం": 8078,
      "ఎమ్మెల్యేలు": 8079,
      "క్షీ": 8080,
      "ప్రారంభంలో": 8081,
      "చేర్చ": 8082,
      "జన్మి": 8083,
      "తప్పకుండా": 8084,
      "ప్రామాణి": 8085,
      "పొందింది": 8086,
      "నివేది": 8087,
      "పుర": 8088,
      "తెరి": 8089,
      "వరల్డ్": 8090,
      "షేర్": 8091,
      "వస్తువు": 8092,
      "ఇల్లు": 8093,
      "సోదరు": 8094,
      "నివారణ": 8095,
      "మేర": 8096,
      "స్వాధీనం": 8097,
      "నవీ": 8098,
      "బదులుగా": 8099,
      "నిశ్": 8100,
      "లాన్ని": 8101,
      "ఎంట్రీ": 8102,
      "అందమైన": 8103,
      "రావడంతో": 8104,
      "గ్రాముల": 8105,
      "విష్ణు": 8106,
      "ధై": 8107,
      "బాలకృష్ణ": 8108,
      "నిర్మాతలు": 8109,
      "ఎడి": 8110,
      "మరు": 8111,
      "దళి": 8112,
      "ప్రమో": 8113,
      "ఇప్పటివరకు": 8114,
      "పాక్": 8115,
      "మీడియాతో": 8116,
      "లోక్‌సభ": 8117,
      "మిశ్ర": 8118,
      "రాష్ట్రానికి": 8119,
      "పేర్లు": 8120,
      "సంబంధాలు": 8121,
      "వారితో": 8122,
      "చ్ఛి": 8123,
      "రహస్య": 8124,
      "క్లో": 8125,
      "కొరకు": 8126,
      "ou": 8127,
      "కుట్ర": 8128,
      "చైతన్య": 8129,
      "వెల్లు": 8130,
      "సైట్": 8131,
      "వరంగ": 8132,
      "నిర్వాహ": 8133,
      "బలమైన": 8134,
      "కాంట్రా": 8135,
      "గవర్నర్": 8136,
      "భావిస్తారు": 8137,
      "తరలించారు": 8138,
      "భవనం": 8139,
      "మంజూ": 8140,
      "త్సవ": 8141,
      "ఫస్ట్": 8142,
      "ఎస్సీ": 8143,
      "భగ": 8144,
      "కూర్పు": 8145,
      "ఫై": 8146,
      "పంజా": 8147,
      "తీవ్రమైన": 8148,
      "జరుగుతోంది": 8149,
      "డబ్బులు": 8150,
      "సంబ": 8151,
      "02": 8152,
      "బంగారం": 8153,
      "క్యారె": 8154,
      "విశ్రాంతి": 8155,
      "పోతే": 8156,
      "రిజర్వే": 8157,
      "రక్": 8158,
      "నిరాశ": 8159,
      "ఆమోది": 8160,
      "ర్జీ": 8161,
      "తొమ్మి": 8162,
      "అప్లికేషన్": 8163,
      "తుది": 8164,
      "తీసుకోవాలి": 8165,
      "పంప": 8166,
      "….": 8167,
      "చేసుకోవచ్చు": 8168,
      "ఇష్టపడ": 8169,
      "మిమ్మల్ని": 8170,
      "వతి": 8171,
      "తేలిక": 8172,
      "వెనక్కి": 8173,
      "దండ": 8174,
      "బ్యాటరీ": 8175,
      "US": 8176,
      "మొదలైన": 8177,
      "కార్యాలయంలో": 8178,
      "సూర్": 8179,
      "ఎరుపు": 8180,
      "స్వల్ప": 8181,
      "ఎము": 8182,
      "సీమ": 8183,
      "లెస్": 8184,
      "కలెక్టర్": 8185,
      "పోష": 8186,
      "కనిపిస్తోంది": 8187,
      "ప్రొడ": 8188,
      "స్టూ": 8189,
      "పునర్": 8190,
      "దిగ": 8191,
      "క్షణం": 8192,
      "01": 8193,
      "శర": 8194,
      "మార్కె": 8195,
      "ఇదిలా": 8196,
      "నిర్వహించడానికి": 8197,
      "జ్ర": 8198,
      "డెంట్": 8199,
      "నవంబర్": 8200,
      "మాస్టర్": 8201,
      "ఎస్టీ": 8202,
      "ల్సీ": 8203,
      "ఉన్నది": 8204,
      "మధ్యాహ్నం": 8205,
      "సునీ": 8206,
      "డొ": 8207,
      "లాగ్": 8208,
      "బేస్": 8209,
      "ద్దే": 8210,
      "నాలకు": 8211,
      "దృష్టిలో": 8212,
      "ఇన్స్టాల్": 8213,
      "తెలియని": 8214,
      "వైఎస్‌": 8215,
      "ఉద్దేశి": 8216,
      "బ్రహ్": 8217,
      "భౌతిక": 8218,
      "ఆయ‌": 8219,
      "మండిపడ్డారు": 8220,
      "హై": 8221,
      "కంలో": 8222,
      "ఇతరులు": 8223,
      "రసా": 8224,
      "సంతా": 8225,
      "ప్రతిదీ": 8226,
      "గుర్తించారు": 8227,
      "చిక్కు": 8228,
      "చెడు": 8229,
      "నేది": 8230,
      "మెయిల్": 8231,
      "ఇంజనీ": 8232,
      "డ్యా": 8233,
      "వినియోగదారులు": 8234,
      "పొందవచ్చు": 8235,
      "సందర్శ": 8236,
      "మొత్తంలో": 8237,
      "పెరుగుతున్న": 8238,
      "దేశవ్యాప్తంగా": 8239,
      "ణ్‌": 8240,
      "బల్": 8241,
      "తలె": 8242,
      "మరణం": 8243,
      "ప్రెస్": 8244,
      "కశ్మీ": 8245,
      "స్తూనే": 8246,
      "చుట్టు": 8247,
      "జై": 8248,
      "గ్రామీ": 8249,
      "నకి": 8250,
      "ప్లాస్టిక్": 8251,
      "వాదాలు": 8252,
      "అడుగుల": 8253,
      "ఆర్ధిక": 8254,
      "సెప్టెంబర్": 8255,
      "సరికి": 8256,
      "ఉంచండి": 8257,
      "చూసుకు": 8258,
      "కంపెనీలు": 8259,
      "రంగులు": 8260,
      "ప్రాజెక్ట్": 8261,
      "పెంపు": 8262,
      "జెండా": 8263,
      "సాధన": 8264,
      "ఎడమ": 8265,
      "వికెట్లు": 8266,
      "కెసిఆర్": 8267,
      "బస్": 8268,
      "నున్నాయి": 8269,
      "విస్తృత": 8270,
      "వివరాలను": 8271,
      "గిల్": 8272,
      "ప్రపంచవ్యాప్తంగా": 8273,
      "సదు": 8274,
      "రాష్ట్రపతి": 8275,
      "లింగ": 8276,
      "మూత్ర": 8277,
      "నడిపి": 8278,
      "నీయంగా": 8279,
      "వడ్డీ": 8280,
      "న్నర": 8281,
      "విభాగం": 8282,
      "త్సవం": 8283,
      "37": 8284,
      "అద్దె": 8285,
      "కలుగు": 8286,
      "సభ్యుల": 8287,
      "చేస్తున్నాడు": 8288,
      "స్తుల": 8289,
      "మన్న": 8290,
      "స్‌తో": 8291,
      "అన్నా": 8292,
      "కారి": 8293,
      "సారా": 8294,
      "కథలు": 8295,
      "వైద్యులు": 8296,
      "నెమ్మ": 8297,
      "రూపకల్పన": 8298,
      "ద్రవ్య": 8299,
      "కానుంది": 8300,
      "గానికి": 8301,
      "బ్య": 8302,
      "చోట": 8303,
      "పెరిగిన": 8304,
      "నాథ్": 8305,
      "ఎమ్మెల్సీ": 8306,
      "లేదన్నారు": 8307,
      "వర్గ": 8308,
      "నలి": 8309,
      "హోమ్": 8310,
      "ప‌రి": 8311,
      "సుదీర్ఘ": 8312,
      "34": 8313,
      "తయార": 8314,
      "ష్టాలు": 8315,
      "సాహిత్య": 8316,
      "కంటెంట్": 8317,
      "వెం": 8318,
      "చిట్": 8319,
      "నూలు": 8320,
      "ప్రకటించిన": 8321,
      "నిరంతరం": 8322,
      "పల్లె": 8323,
      "ఆదేశించారు": 8324,
      "అన్నది": 8325,
      "ముడు": 8326,
      "గాజు": 8327,
      "సంక్రాంతి": 8328,
      "సాంగ్": 8329,
      "దిశగా": 8330,
      "వస్త్ర": 8331,
      "యాంటీ": 8332,
      "అతిథ": 8333,
      "ఫూర్తి": 8334,
      "రైన": 8335,
      "మూడవ": 8336,
      "ప్రోగ్రా": 8337,
      "ఆకుపచ్చ": 8338,
      "కాపీ": 8339,
      "ఓట్లు": 8340,
      "విన్న": 8341,
      "మెదడు": 8342,
      "గొంతు": 8343,
      "గ్రీన్": 8344,
      "కోసమే": 8345,
      "వల్లే": 8346,
      "అస్": 8347,
      "సృ": 8348,
      "లోపే": 8349,
      "మైతే": 8350,
      "ప్రచురి": 8351,
      "స్థాయికి": 8352,
      "బాట": 8353,
      "క్కె": 8354,
      "స్రా": 8355,
      "ముద్దు": 8356,
      "అల్ల": 8357,
      "పవి": 8358,
      "ంచబడ్డాయి": 8359,
      "అలంకరణ": 8360,
      "చెప్పా": 8361,
      "చాల": 8362,
      "ద్వే": 8363,
      "చేయబడిన": 8364,
      "బలంగా": 8365,
      "ంగ్లా": 8366,
      "త్వాన్ని": 8367,
      "ద్యో": 8368,
      "వాట్": 8369,
      "ఉద్యమ": 8370,
      "వన్నీ": 8371,
      "సమాచార": 8372,
      "300": 8373,
      "సిన్": 8374,
      "ఇంగ్లీ": 8375,
      "65": 8376,
      "38": 8377,
      "ాలూ": 8378,
      "భాగస్వామ": 8379,
      "క్లీ": 8380,
      "పుల్": 8381,
      "మృతదే": 8382,
      "పారిశ్రామిక": 8383,
      "ఆసియా": 8384,
      "వరీ": 8385,
      "కాకు": 8386,
      "చీఫ్": 8387,
      "క్రమణ": 8388,
      "సినిమాని": 8389,
      "సూచనలు": 8390,
      "పుట్టి": 8391,
      "ట్‌ను": 8392,
      "యజమాను": 8393,
      "డ్రై": 8394,
      "వాటా": 8395,
      "మంతా": 8396,
      "కళ్ళు": 8397,
      "రీమే": 8398,
      "తుకు": 8399,
      "అంతేకాకుండా": 8400,
      "అలీ": 8401,
      "దారుల": 8402,
      "వశా": 8403,
      "తీసుకునే": 8404,
      "ఉద్యోగులు": 8405,
      "కేటీఆర్": 8406,
      "సస్పె": 8407,
      "ధ్వని": 8408,
      "ప్రాసె": 8409,
      "ఇమే": 8410,
      "శై": 8411,
      "స్కా": 8412,
      "వ్యవధి": 8413,
      "వ్యతిరేకి": 8414,
      "డిమాండ్‌": 8415,
      "నిర్మించిన": 8416,
      "ధన్య": 8417,
      "హోట": 8418,
      "పడ్డాడు": 8419,
      "లిన్": 8420,
      "గులకు": 8421,
      "ఆమ్": 8422,
      "ంచ‌": 8423,
      "వారే": 8424,
      "ఇండియన్": 8425,
      "ఉద్యమం": 8426,
      "ఘి": 8427,
      "లార్": 8428,
      "ంగానే": 8429,
      "ఎత్తి": 8430,
      "ఈనెల": 8431,
      "క్రూ": 8432,
      "సమితి": 8433,
      "చేరిన": 8434,
      "le": 8435,
      "అధిగ": 8436,
      "కూతురు": 8437,
      "సిద్ధి": 8438,
      "దృశ్య": 8439,
      "గుజరా": 8440,
      "రాహుల్‌": 8441,
      "జూలై": 8442,
      "అనుసం": 8443,
      "నిలిపి": 8444,
      "ఆరోగ్యం": 8445,
      "యాక్": 8446,
      "గొడవ": 8447,
      "చెప్పాలి": 8448,
      "శత్రు": 8449,
      "గల్": 8450,
      "తీసిన": 8451,
      "రేవం": 8452,
      "కిల్": 8453,
      "కార్మికులు": 8454,
      "నులు": 8455,
      "55": 8456,
      "నామ": 8457,
      "బెంగా": 8458,
      "తోడు": 8459,
      "బాయ్": 8460,
      "మొట్టమొదటి": 8461,
      "రవ": 8462,
      "ఎవరో": 8463,
      "రన్": 8464,
      "విద్యార్థులకు": 8465,
      "తప్పనిసరిగా": 8466,
      "అంచనాలు": 8467,
      "స్తోన్న": 8468,
      "హృదయ": 8469,
      "కనిపించింది": 8470,
      "అసంత": 8471,
      "అవకాశ": 8472,
      "స్ఫూర్తి": 8473,
      "పత": 8474,
      "అంశంపై": 8475,
      "ఎంసీ": 8476,
      "చివర": 8477,
      "చేయలేదు": 8478,
      "బంగ్లా": 8479,
      "విడుదలైన": 8480,
      "విలువైన": 8481,
      "సాంప్ర": 8482,
      "గంటలు": 8483,
      "పార్టీని": 8484,
      "తీసే": 8485,
      "వ‌ర్": 8486,
      "బాహ్య": 8487,
      "బాక్స్": 8488,
      "విశ్వాసం": 8489,
      "కట్టి": 8490,
      "నలుగురు": 8491,
      "మెడ": 8492,
      "ట్టుకో": 8493,
      "ఒడి": 8494,
      "వెచ్చని": 8495,
      "లాగా": 8496,
      "ంచబడతాయి": 8497,
      "సద": 8498,
      "స్క్రిప్": 8499,
      "బయలు": 8500,
      "పూడి": 8501,
      "ఎక": 8502,
      "సూత్ర": 8503,
      "క్వి": 8504,
      "పెర్": 8505,
      "చేసుకునే": 8506,
      "క్రెడి": 8507,
      "మిస్": 8508,
      "నియన్": 8509,
      "యువత": 8510,
      "కీర్తి": 8511,
      "పిడి": 8512,
      "ప్పున": 8513,
      "మైంది": 8514,
      "ఏసీ": 8515,
      "కోటి": 8516,
      "విందు": 8517,
      "శ్రీనివాస": 8518,
      "మెట్రో": 8519,
      "ధృ": 8520,
      "వేయడం": 8521,
      "ముందుగానే": 8522,
      "ల్లోనే": 8523,
      "ఎదుర్": 8524,
      "అనుకో": 8525,
      "చట్టా": 8526,
      "పుల": 8527,
      "ష్టి": 8528,
      "షెడ్యూల్": 8529,
      "నరసింహ": 8530,
      "ప్రభాస్": 8531,
      "ఘు": 8532,
      "సంయు": 8533,
      "ప్రామాణిక": 8534,
      "మిషన్": 8535,
      "అందంగా": 8536,
      "దిగువ": 8537,
      "హార్డ్": 8538,
      "తీసుకోవ": 8539,
      "కాపాడు": 8540,
      "పాయింట్లు": 8541,
      "మారిన": 8542,
      "వస్తున్నాయి": 8543,
      "అమెరికాలో": 8544,
      "అలవాటు": 8545,
      "బాలయ్య": 8546,
      "ఆఫర్": 8547,
      "నమూనాలు": 8548,
      "మెన్": 8549,
      "పట్నం": 8550,
      "ట్టె": 8551,
      "భక్తులు": 8552,
      "రాజమౌళి": 8553,
      "విమానా": 8554,
      "నిలిచింది": 8555,
      "పాల్గొన": 8556,
      "పార్లమెంటు": 8557,
      "ఉల్లం": 8558,
      "చేయకుండా": 8559,
      "ఆశ్చర్": 8560,
      "మతులు": 8561,
      "నెట్‌": 8562,
      "ఆన": 8563,
      "04": 8564,
      "పేర్": 8565,
      "కుంటున్న": 8566,
      "ay": 8567,
      "స్తాయని": 8568,
      "జూనియ": 8569,
      "అధికారుల": 8570,
      "సార్‌": 8571,
      "చెంది": 8572,
      "క్షన్‌": 8573,
      "వర్ణి": 8574,
      "కాఫీ": 8575,
      "లైంగిక": 8576,
      "ఆవేదన": 8577,
      "స్వీయ": 8578,
      "ఆలోచనలు": 8579,
      "చరిత్రలో": 8580,
      "బహుమతి": 8581,
      "ంచిందని": 8582,
      "ఉపరిత": 8583,
      "విభిన్న": 8584,
      "చేసుకోవ": 8585,
      "పరిమితం": 8586,
      "పోరాట": 8587,
      "స్తాను": 8588,
      "తామని": 8589,
      "సానుకూల": 8590,
      "వేర్వేరు": 8591,
      "శృ": 8592,
      "వంశీ": 8593,
      "మర్చిపో": 8594,
      "సరైన": 8595,
      "లక్షణం": 8596,
      "నాశనం": 8597,
      "‌టి": 8598,
      "అంగు": 8599,
      "re": 8600,
      "పక": 8601,
      "టీ20": 8602,
      "టీన్": 8603,
      "ఆసక్తికరమైన": 8604,
      "బడతాయి": 8605,
      "కార్యాలయం": 8606,
      "ఫోటోలు": 8607,
      "ఉపయోగించే": 8608,
      "గుణ": 8609,
      "రణి": 8610,
      "అమ్ము": 8611,
      "క్‌లో": 8612,
      "వెన్": 8613,
      "అప్పుడే": 8614,
      "ore": 8615,
      "రిటై": 8616,
      "ల్చ": 8617,
      "రాని": 8618,
      "మగ": 8619,
      "సౌకర్యం": 8620,
      "ప్రైవేటు": 8621,
      "ప్రమాదంలో": 8622,
      "మోసం": 8623,
      "పోలిస్తే": 8624,
      "ప్రభుత్వాన్ని": 8625,
      "ఆదేశాలు": 8626,
      "పాత్రలు": 8627,
      "భారతీ": 8628,
      "దంతా": 8629,
      "ప్త": 8630,
      "కార్యకర్తలు": 8631,
      "సంస్కరణ": 8632,
      "సరదా": 8633,
      "పైనే": 8634,
      "బడ్డ": 8635,
      "సన్నా": 8636,
      "వెండి": 8637,
      "టైన": 8638,
      "తారని": 8639,
      "ఇద్దరూ": 8640,
      "వెంకట": 8641,
      "కూలి": 8642,
      "ఫెడ": 8643,
      "మూర్": 8644,
      "వద్దకు": 8645,
      "అక్కడే": 8646,
      "జల్": 8647,
      "సక్సెస్": 8648,
      "గరిష్ట": 8649,
      "సెప్": 8650,
      "జ్ఞాన": 8651,
      "హ‌": 8652,
      "రాక్": 8653,
      "ఉపయోగించడం": 8654,
      "నార్హం": 8655,
      "విద్యార్": 8656,
      "తెలుసుకోవడానికి": 8657,
      "చొప్పున": 8658,
      "జపా": 8659,
      "శాస్త్రం": 8660,
      "మీరే": 8661,
      "కై": 8662,
      "కున్నాడు": 8663,
      "చేయాల్సి": 8664,
      "విరు": 8665,
      "ఒక్కరూ": 8666,
      "చేయబడుతుంది": 8667,
      "అకౌ": 8668,
      "ప్రవా": 8669,
      "అందుకున్న": 8670,
      "లక్ష్మ": 8671,
      "బంధం": 8672,
      "ష్క": 8673,
      "దిన": 8674,
      "అర్హత": 8675,
      "నియామ": 8676,
      "ట్విట్టర్": 8677,
      "ప్రయాణం": 8678,
      "తరఫు": 8679,
      "బ్లూ": 8680,
      "పండ్లు": 8681,
      "గొండ": 8682,
      "తుండగా": 8683,
      "తెగ": 8684,
      "సేవల": 8685,
      "డ్రో": 8686,
      "ఉండటంతో": 8687,
      "సరికొత్త": 8688,
      "ఇక్కడి": 8689,
      "ఫ్యాషన్": 8690,
      "ఇవాళ": 8691,
      "ప్రగతి": 8692,
      "వాటికి": 8693,
      "బట్టలు": 8694,
      "ఐదే": 8695,
      "నెట్వర్క్": 8696,
      "వాతి": 8697,
      "ందర్‌": 8698,
      "నెర": 8699,
      "శ‌": 8700,
      "పర్యటి": 8701,
      "ర్యాం": 8702,
      "ఫార్మా": 8703,
      "లాండ్‌": 8704,
      "ఆస్తి": 8705,
      "కల్‌": 8706,
      "ంబు": 8707,
      "ంబి": 8708,
      "ఆకులు": 8709,
      "పెరుగుదల": 8710,
      "దిగి": 8711,
      "రాష్ట్రంలోని": 8712,
      "ంటింగ్": 8713,
      "ఢిల్లీలో": 8714,
      "ro": 8715,
      "మలు": 8716,
      "పవిత్ర": 8717,
      "ైంది": 8718,
      "శానికి": 8719,
      "త‌న": 8720,
      "కన్ను": 8721,
      "ట్రిక్": 8722,
      "ఇంద్ర": 8723,
      "వస్తువులు": 8724,
      "క్రీమ్": 8725,
      "సలా": 8726,
      "ఉన్నారని": 8727,
      "సరసన": 8728,
      "కచ్చి": 8729,
      "హాల": 8730,
      "విపరీ": 8731,
      "ీకరణ": 8732,
      "వేగం": 8733,
      "టేబుల్": 8734,
      "శ్వరరావు": 8735,
      "బీమా": 8736,
      "మాస్కో": 8737,
      "విద్యార్థుల": 8738,
      "పారా": 8739,
      "హైదరాబాద్‌లో": 8740,
      "తతో": 8741,
      "కోలు": 8742,
      "గ్రామానికి": 8743,
      "మెరుగ": 8744,
      "కస్": 8745,
      "__": 8746,
      "దర్శకు": 8747,
      "సవరణ": 8748,
      "సెంచరీ": 8749,
      "ండం": 8750,
      "మాట్లాడే": 8751,
      "05": 8752,
      "అంచు": 8753,
      "గార": 8754,
      "జిల్లాల్లో": 8755,
      "ష్య": 8756,
      "ఫైల్": 8757,
      "విజ్ఞ": 8758,
      "సంవత్సరంలో": 8759,
      "సూక్": 8760,
      "విభాగా": 8761,
      "వాదన": 8762,
      "ఎకర": 8763,
      "వివాదం": 8764,
      "un": 8765,
      "ఏర్పడ": 8766,
      "స్ర": 8767,
      "కుంటూ": 8768,
      "విచారి": 8769,
      "కొనే": 8770,
      "ప్రియా": 8771,
      "అప్పట్లో": 8772,
      "నెమ్మదిగా": 8773,
      "విశ్లేషణ": 8774,
      "03": 8775,
      "ఉద్యోగ": 8776,
      "ఇటీవలే": 8777,
      "197": 8778,
      "దంప": 8779,
      "ద్వీ": 8780,
      "ముక్కు": 8781,
      "తాగు": 8782,
      "జీవితాన్ని": 8783,
      "ధన్యవాదాలు": 8784,
      "డబుల్": 8785,
      "తక్షణ": 8786,
      "జ్యోతి": 8787,
      "సమానంగా": 8788,
      "చూసు": 8789,
      "ట్రంప్": 8790,
      "మ్యూజిక్": 8791,
      "వూ": 8792,
      "ఉత్తమం": 8793,
      "గొట్ట": 8794,
      "శస్త్రచికిత్స": 8795,
      "రవీ": 8796,
      "ఫేస్": 8797,
      "కృతజ్ఞ": 8798,
      "నీకు": 8799,
      "కార్తీ": 8800,
      "పురుషులు": 8801,
      "నీటిలో": 8802,
      "వుంటుంది": 8803,
      "పురస్": 8804,
      "అసోసి": 8805,
      "పాల్గొన్న": 8806,
      "ప్రత్యామ్నాయ": 8807,
      "మార్క్": 8808,
      "ఆగి": 8809,
      "విజే": 8810,
      "ఉంద": 8811,
      "హెడ్": 8812,
      "గమనార్హం": 8813,
      "విషా": 8814,
      "ws": 8815,
      "ధాన్ని": 8816,
      "క్రై": 8817,
      "అశ్": 8818,
      "నోటి": 8819,
      "కలసి": 8820,
      "ఆండ్ర": 8821,
      "అధ్యక్షు": 8822,
      "అందుబాటులోకి": 8823,
      "పనిచేస్తుంది": 8824,
      "వ్యాపారం": 8825,
      "సృష్టించడానికి": 8826,
      "గూగు": 8827,
      "పనిచేసే": 8828,
      "ప్రాంతాల": 8829,
      "నేతృ": 8830,
      "ద్దరి": 8831,
      "యాక్షన్": 8832,
      "షిప్": 8833,
      "44": 8834,
      "ఉత్తర్": 8835,
      "తుపా": 8836,
      "మోతా": 8837,
      "చుకున్న": 8838,
      "పెద్దలు": 8839,
      "పబ్లిక్": 8840,
      "పర్యావరణ": 8841,
      "అరవి": 8842,
      "దోహ": 8843,
      "ఎక్కడా": 8844,
      "కేంద్రంలో": 8845,
      "నకు": 8846,
      "మహిళలకు": 8847,
      "జన్మ": 8848,
      "ఢీ": 8849,
      "షియా": 8850,
      "న్నింటి": 8851,
      "జాలం": 8852,
      "చైర్మన్": 8853,
      "సహకార": 8854,
      "పోలవ": 8855,
      "ంబరు": 8856,
      "చేయబడింది": 8857,
      "స్టార్‌": 8858,
      "రాజ్యాంగ": 8859,
      "విమానాశ్ర": 8860,
      "తీర్చి": 8861,
      "ౖనా": 8862,
      "సంతృప్తి": 8863,
      "కనిపిస్తాయి": 8864,
      "యూనివర్సిటీ": 8865,
      "క్లబ్": 8866,
      "వెర్షన్": 8867,
      "నిమ్మ": 8868,
      "లండ": 8869,
      "పెట్టాడు": 8870,
      "జస్టి": 8871,
      "పదు": 8872,
      "లావా": 8873,
      "మేం": 8874,
      "Read": 8875,
      "ఎలక్ట్రా": 8876,
      "ములను": 8877,
      "ముంబయి": 8878,
      "ంచం": 8879,
      "వలస": 8880,
      "ప్రారంభమవుతుంది": 8881,
      "గ్న": 8882,
      "అటవీ": 8883,
      "ంగం": 8884,
      "‌గా": 8885,
      "మైక్రో": 8886,
      "చెరువు": 8887,
      "ak": 8888,
      "డ్రైవర్": 8889,
      "రూబి": 8890,
      "2020": 8891,
      "గోళ": 8892,
      "పానీ": 8893,
      "ఈవెంట్": 8894,
      "అభ్యర్థులు": 8895,
      "దేశీయ": 8896,
      "ట్టాడు": 8897,
      "స్ట్రో": 8898,
      "విభాగంలో": 8899,
      "గ్లో": 8900,
      "తున్నాయని": 8901,
      "బంతుల్లో": 8902,
      "39": 8903,
      "వసంత": 8904,
      "రెండి": 8905,
      "రజనీ": 8906,
      "ఆశ్రయి": 8907,
      "పసి": 8908,
      "దొరికి": 8909,
      "టర్స్": 8910,
      "నవ్": 8911,
      "వుడ్‌": 8912,
      "di": 8913,
      "అడవి": 8914,
      "వస్తోంది": 8915,
      "కార్యకలాపాలు": 8916,
      "మంజూరు": 8917,
      "07": 8918,
      "కిడ్": 8919,
      "అరెస్ట్": 8920,
      "వాగ్": 8921,
      "వెల్లడించింది": 8922,
      "పెన్": 8923,
      "స్థితిలో": 8924,
      "టికెట్": 8925,
      "కాడ": 8926,
      "టిఆర్‌": 8927,
      "గోధు": 8928,
      "స్కూల్": 8929,
      "అయో": 8930,
      "అంగుళ": 8931,
      "చిహ్": 8932,
      "కింగ్‌": 8933,
      "లవ్": 8934,
      "ఏర్పడిన": 8935,
      "ఆరోపి": 8936,
      "వివాదా": 8937,
      "స్థానాన్ని": 8938,
      "రకమైన": 8939,
      "ధూ": 8940,
      "సంపద": 8941,
      "శతాబ్దం": 8942,
      "లోతు": 8943,
      "కోడ్": 8944,
      "మామూ": 8945,
      "నిలిచి": 8946,
      "ఆంగ్": 8947,
      "ధులను": 8948,
      "దగిన": 8949,
      "విషయాలను": 8950,
      "దార్": 8951,
      "దొరక": 8952,
      "అద్భుత": 8953,
      "గౌరవం": 8954,
      "ప్రాణాలు": 8955,
      "09": 8956,
      "కార్మిక": 8957,
      "సీటు": 8958,
      "ఆపిల్": 8959,
      "అడగ": 8960,
      "ద్రవ": 8961,
      "కరించిన": 8962,
      "కమ": 8963,
      "నినా": 8964,
      "యట్": 8965,
      "శారీ": 8966,
      "వార్షి": 8967,
      "పేర్కొన్న": 8968,
      "ప్రశ్నలు": 8969,
      "తుంటారు": 8970,
      "గౌరవ": 8971,
      "సమస్యను": 8972,
      "దక్క": 8973,
      "జాన": 8974,
      "గణనీయంగా": 8975,
      "బారి": 8976,
      "ఆం": 8977,
      "2013": 8978,
      "బలమైన": 8979,
      "శ్రీలంక": 8980,
      "మూడే": 8981,
      "మార్కెట్లో": 8982,
      "టార్గె": 8983,
      "సిసి": 8984,
      "కొన్న": 8985,
      "ఫ్రెండ్": 8986,
      "శక్తిని": 8987,
      "గ్రౌండ్": 8988,
      "అయ్యా": 8989,
      "కనీస": 8990,
      "గన్": 8991,
      "కార్యా": 8992,
      "ఎక్": 8993,
      "రూపాన్ని": 8994,
      "గులాబీ": 8995,
      "ఖండి": 8996,
      "ారన్న": 8997,
      "చమురు": 8998,
      "రోహిత్": 8999,
      "తలను": 9000,
      "సుగు": 9001,
      "బెట్ట": 9002,
      "అవును": 9003,
      "చేసుకొని": 9004,
      "ఆయ‌న": 9005,
      "జిల్": 9006,
      "రాస": 9007,
      "పడం": 9008,
      "పలి": 9009,
      "రహదారి": 9010,
      "కడప": 9011,
      "ంచాను": 9012,
      "వ్యాప్తి": 9013,
      "ఫీచర్": 9014,
      "విష‌": 9015,
      "అధికంగా": 9016,
      "47": 9017,
      "oo": 9018,
      "షియల్": 9019,
      "పద్ధతులు": 9020,
      "వాదం": 9021,
      "ంత్రా": 9022,
      "వాపు": 9023,
      "ట్రీ": 9024,
      "ధోనీ": 9025,
      "వాలి": 9026,
      "లాభా": 9027,
      "మోతాదు": 9028,
      "వ్యవహారం": 9029,
      "వర్త": 9030,
      "వెలి": 9031,
      "ఉల్లిపాయ": 9032,
      "సూపర్‌": 9033,
      "06": 9034,
      "టిన్": 9035,
      "బహుళ": 9036,
      "సాస్": 9037,
      "కోర": 9038,
      "అందం": 9039,
      "పొత్తు": 9040,
      "టీజర్": 9041,
      "పిలుపుని": 9042,
      "మాధ": 9043,
      "పాల్‌": 9044,
      "అసహ": 9045,
      "ంచుకున్నాడు": 9046,
      "సౌంద": 9047,
      "మొత్తానికి": 9048,
      "నిజమైన": 9049,
      "టాలు": 9050,
      "నట్లు": 9051,
      "సామర్": 9052,
      "ముగిసిన": 9053,
      "య్యం": 9054,
      "అబ్బాయి": 9055,
      "యన్నారు": 9056,
      "కప్పుడు": 9057,
      "కామ": 9058,
      "బాగానే": 9059,
      "రూబిళ్లు": 9060,
      "రంధ్ర": 9061,
      "రాదు": 9062,
      "పులి": 9063,
      "సెయింట్": 9064,
      "శీల": 9065,
      "పోతున్నారు": 9066,
      "విని": 9067,
      "తేడాతో": 9068,
      "చేందుకు": 9069,
      "ప్రత్యేకమైన": 9070,
      "డ్ల": 9071,
      "కాశ్మీ": 9072,
      "ఉపకరణ": 9073,
      "రాక": 9074,
      "అనారోగ్య": 9075,
      "అందించారు": 9076,
      "తడి": 9077,
      "అభినంది": 9078,
      "రిట": 9079,
      "ర్యాలీ": 9080,
      "స్తుండ": 9081,
      "పార్క్": 9082,
      "చదివి": 9083,
      "ద్వి": 9084,
      "భక్తి": 9085,
      "ట్రైలర్": 9086,
      "08": 9087,
      "రక్తం": 9088,
      "పండ": 9089,
      "విజయాన్ని": 9090,
      "అధిగమి": 9091,
      "నీస్": 9092,
      "మూరి": 9093,
      "వళి": 9094,
      "బిజీగా": 9095,
      "మ్రా": 9096,
      "ప్రశాంత": 9097,
      "ఆకృ": 9098,
      "టెస్ట్": 9099,
      "కెన్": 9100,
      "ఉద్యోగాలు": 9101,
      "విమానం": 9102,
      "స్వేచ్ఛ": 9103,
      "ఇర": 9104,
      "గ్రామీణ": 9105,
      "భై": 9106,
      "ప్రతిభ": 9107,
      "ఖై": 9108,
      "వెళ్లారు": 9109,
      "సిస్టమ్": 9110,
      "లోపు": 9111,
      "విజన్": 9112,
      "బాలిక": 9113,
      "రోల్": 9114,
      "దేవర": 9115,
      "ప్లస్": 9116,
      "శైలి": 9117,
      "చూస్తూ": 9118,
      "మంటే": 9119,
      "పెట్టడం": 9120,
      "ందరూ": 9121,
      "పదాలు": 9122,
      "పోలవరం": 9123,
      "టన్ను": 9124,
      "బ్రిటీ": 9125,
      "కరీం": 9126,
      "ద్దరూ": 9127,
      "పశు": 9128,
      "మేలు": 9129,
      "రానున్న": 9130,
      "పెయి": 9131,
      "యంతో": 9132,
      "గోధుమ": 9133,
      "అత్త": 9134,
      "పాప": 9135,
      "64": 9136,
      "వాహనం": 9137,
      "పట్టింది": 9138,
      "ఎగ్జి": 9139,
      "పేస్": 9140,
      "పునరావృ": 9141,
      "స్తున్నది": 9142,
      "కలో": 9143,
      "రామకృష్ణ": 9144,
      "చేరింది": 9145,
      "గీత": 9146,
      "కూరగాయలు": 9147,
      "చేస్త": 9148,
      "రాడు": 9149,
      "):": 9150,
      "రెగ్య": 9151,
      "కోట్లకు": 9152,
      "బుల్‌": 9153,
      "బద్ద": 9154,
      "ఫీజు": 9155,
      "ందరికీ": 9156,
      "ాలనుకుంటే": 9157,
      "ంలోనే": 9158,
      "ప్రీమి": 9159,
      "స్మి": 9160,
      "కేట్": 9161,
      "నిర్వహిస్తారు": 9162,
      "స్పందించారు": 9163,
      "ఎదుర": 9164,
      "భావో": 9165,
      "కార్లు": 9166,
      "స్తున్నాను": 9167,
      "నివాసం": 9168,
      "దైన": 9169,
      "పద్మ": 9170,
      "మిడి": 9171,
      "శృంగ": 9172,
      "యింగ్": 9173,
      "దిగ్గ": 9174,
      "మిలి": 9175,
      "గని": 9176,
      "జనరల్": 9177,
      "అభివృద్ధికి": 9178,
      "స్నేహితులు": 9179,
      "గందర": 9180,
      "మంగా": 9181,
      "ట్‌గా": 9182,
      "కుటుంబానికి": 9183,
      "రెసి": 9184,
      "త్తుగా": 9185,
      "గాయం": 9186,
      "పత్రాలు": 9187,
      "ప్రాతిని": 9188,
      "ప్రవర్తన": 9189,
      "పడటం": 9190,
      "కమా": 9191,
      "బయలుదే": 9192,
      "సంస్కృతి": 9193,
      "చేశాయి": 9194,
      "ఆకలి": 9195,
      "ab": 9196,
      "నటులు": 9197,
      "ఫ్యూ": 9198,
      "నీళ్లు": 9199,
      "సీబీఐ": 9200,
      "సంభాషణ": 9201,
      "పునరుద్ధరి": 9202,
      "ఆనంది": 9203,
      "చేయటం": 9204,
      "అసి": 9205,
      "సీతారా": 9206,
      "వర్గీ": 9207,
      "అదుపులోకి": 9208,
      "సనం": 9209,
      "ప్రతిబి": 9210,
      "ప్రతిపాదన": 9211,
      "అనుభవ": 9212,
      "రుచికరమైన": 9213,
      "కనుగొనేందుకు": 9214,
      "తరఫున": 9215,
      "వ్య‌": 9216,
      "వైరల్": 9217,
      "ఏమిటంటే": 9218,
      "ముర": 9219,
      "ఎన్నికలకు": 9220,
      "సభ్యుడు": 9221,
      "తీర్చిది": 9222,
      "42": 9223,
      "అప్ర": 9224,
      "శుద్ధి": 9225,
      "సార్వ": 9226,
      "పిల్లలను": 9227,
      "లబ్": 9228,
      "కౌన్సి": 9229,
      "పుస్తకాలు": 9230,
      "పడ్డాయి": 9231,
      "చేస్తున్నాయి": 9232,
      "ందీ": 9233,
      "తాధిక": 9234,
      "ఒక్కసారిగా": 9235,
      "లాభం": 9236,
      "నృ": 9237,
      "వాహన": 9238,
      "ఆలయ": 9239,
      "అధికారులకు": 9240,
      "ఫేస్‌": 9241,
      "తెరకెక్కు": 9242,
      "ప్రభుత్వాలు": 9243,
      "షియం": 9244,
      "గూడ": 9245,
      "సదుపా": 9246,
      "బెట్టి": 9247,
      "సీరియ": 9248,
      "లేకపోవడంతో": 9249,
      "అనూ": 9250,
      "ప్రవర్తి": 9251,
      "దురదృష్ట": 9252,
      "అణు": 9253,
      "నాలుగో": 9254,
      "సర్టిఫి": 9255,
      "కారణాల": 9256,
      "వివే": 9257,
      "స్తున్నామని": 9258,
      "కర్త": 9259,
      "ముందస్తు": 9260,
      "సైని": 9261,
      "ధనలు": 9262,
      "సురక్షితంగా": 9263,
      "స్థానాల్లో": 9264,
      "ఐతే": 9265,
      "డిపాజి": 9266,
      "బ్రేక్": 9267,
      "కన్నీ": 9268,
      "వెలువ": 9269,
      "మనస్సు": 9270,
      "రావాలని": 9271,
      "ంచామని": 9272,
      "రిటీ": 9273,
      "ంచేది": 9274,
      "విలి": 9275,
      "సూక్ష్మ": 9276,
      "చెత్త": 9277,
      "బ్రౌ": 9278,
      "అలంకరి": 9279,
      "దృష్టిని": 9280,
      "నెల్ల": 9281,
      "కంఠ": 9282,
      "స్టులు": 9283,
      "రంగంలోకి": 9284,
      "మొత్తాన్ని": 9285,
      "పరీక్షి": 9286,
      "సేవ్": 9287,
      "కర్నూలు": 9288,
      "గ్రంథ": 9289,
      "పెట్టుకుని": 9290,
      "నిజమైన": 9291,
      "వారాల": 9292,
      "కనెక్షన్": 9293,
      "కరం": 9294,
      "బెడ్": 9295,
      "ాలన్నారు": 9296,
      "సమస్యల": 9297,
      "ఇంగ్లాండ్": 9298,
      "త్సా": 9299,
      "వాషింగ్": 9300,
      "దెబ్బతి": 9301,
      "పిలవ": 9302,
      "ఉత్తరా": 9303,
      "తులలో": 9304,
      "స్తుంటారు": 9305,
      "శాస్త్రవేత్తలు": 9306,
      "ఇరా": 9307,
      "తమను": 9308,
      "సమగ్ర": 9309,
      "క్రిస్": 9310,
      "శక్": 9311,
      "కగా": 9312,
      "రకమైన": 9313,
      "మెరుగైన": 9314,
      "తిరుపతి": 9315,
      "రాజకీయాలు": 9316,
      "లిమి": 9317,
      "ల్లోనూ": 9318,
      "కారుడు": 9319,
      "49": 9320,
      "షన్స్": 9321,
      "సంక్లిష్ట": 9322,
      "ఉపరితలం": 9323,
      "యడం": 9324,
      "మార్గాలు": 9325,
      "ప్రశ్నకు": 9326,
      "నిర్ణయాలు": 9327,
      "తొలగించడానికి": 9328,
      "డార్": 9329,
      "చేస్తున్నట్లు": 9330,
      "ంట్రో": 9331,
      "ఉపయోగించండి": 9332,
      "త్రిక": 9333,
      "యువతి": 9334,
      "వ్యవస్థను": 9335,
      "బూట్లు": 9336,
      "కొరియా": 9337,
      "రాజ‌": 9338,
      "ంచుకొని": 9339,
      "్యాత్": 9340,
      "చర్మ": 9341,
      "ఎమ్": 9342,
      "పోలీస్‌": 9343,
      "ఎంపికలు": 9344,
      "ag": 9345,
      "మెంట": 9346,
      "శుభా": 9347,
      "గడువు": 9348,
      "రాబోయే": 9349,
      "రక్ష": 9350,
      "విరుద్ధంగా": 9351,
      "విలు": 9352,
      "పేలు": 9353,
      "ఉందా": 9354,
      "కుండ": 9355,
      "తెచ్చి": 9356,
      "మెజ": 9357,
      "డై": 9358,
      "లావాదే": 9359,
      "ంచడమే": 9360,
      "పేరిట": 9361,
      "గదులు": 9362,
      "మోస": 9363,
      "చింత": 9364,
      "తేనె": 9365,
      "ాలన్న": 9366,
      "తున్నట్లు": 9367,
      "వాల్యూ": 9368,
      "శబ్ద": 9369,
      "మొన్న": 9370,
      "కార్యాచరణ": 9371,
      "ఫ్రే": 9372,
      "జడ్": 9373,
      "ఉపశ": 9374,
      "కేబి": 9375,
      "సంచలనం": 9376,
      "సరళ": 9377,
      "పనులను": 9378,
      "మూలం": 9379,
      "నిర్మించారు": 9380,
      "గ్రామాల్లో": 9381,
      "ఫరె": 9382,
      "ఇను": 9383,
      "పాలకు": 9384,
      "హార్మో": 9385,
      "ప్యాకేజీ": 9386,
      "అవయ": 9387,
      "పొగ": 9388,
      "ఆమోదం": 9389,
      "వెను": 9390,
      "కూడదని": 9391,
      "సంప్రదా": 9392,
      "ఎగువ": 9393,
      "అండ్‌": 9394,
      "దనం": 9395,
      "ఎన్టీఆర్‌": 9396,
      "సర్దుబాటు": 9397,
      "సందర్భాలలో": 9398,
      "ఫంక్షన్": 9399,
      "ప్రేక్షకులు": 9400,
      "జరిగాయి": 9401,
      "ఆహ్లా": 9402,
      "ప్రతిపాది": 9403,
      "వ్యక్తుల": 9404,
      "మారుతుంది": 9405,
      "వేరి": 9406,
      "ారంటూ": 9407,
      "తొమ్మిది": 9408,
      "2009": 9409,
      "నేనే": 9410,
      "సైడ్": 9411,
      "అభినంద": 9412,
      "మనుష": 9413,
      "లానికి": 9414,
      "పర్యాటక": 9415,
      "వీధి": 9416,
      "నుల": 9417,
      "అంకి": 9418,
      "చీకటి": 9419,
      "స్తుండగా": 9420,
      "పోలింగ్": 9421,
      "ఇచ్చాడు": 9422,
      "కాలనీ": 9423,
      "నన్న": 9424,
      "పునరు": 9425,
      "సచివాల": 9426,
      "నక్ష": 9427,
      "అద్భుతంగా": 9428,
      "ఆలయం": 9429,
      "సత్తా": 9430,
      "సహాయంతో": 9431,
      "పడ్డా": 9432,
      "చేసుకున్నాడు": 9433,
      "ల్లోని": 9434,
      "పడితే": 9435,
      "‌‌": 9436,
      "త్రివిక్రమ్": 9437,
      "కత్తిరి": 9438,
      "వాటర్": 9439,
      "న్నం": 9440,
      "more": 9441,
      "ఉందన్నారు": 9442,
      "గెలుపు": 9443,
      "డిజైన్": 9444,
      "చేసాడు": 9445,
      "ంటున్నాను": 9446,
      "ణులు": 9447,
      "వులకు": 9448,
      "తమే": 9449,
      "పంపు": 9450,
      "తొలు": 9451,
      "ఆధ్యాత్": 9452,
      "కౌంటర్": 9453,
      "వారిపై": 9454,
      "నెటి": 9455,
      "మెజారిటీ": 9456,
      "వాన్": 9457,
      "ఉరి": 9458,
      "పనిలో": 9459,
      "అన్నింటి": 9460,
      "సీఐ": 9461,
      "మతం": 9462,
      "వొ": 9463,
      "బలోపే": 9464,
      "శరీరంలో": 9465,
      "కొట్టే": 9466,
      "ఆశా": 9467,
      "జరీ": 9468,
      "తెలుసా": 9469,
      "ఇంకో": 9470,
      "స్కోరు": 9471,
      "నాలుగే": 9472,
      "భవిష్యత్": 9473,
      "అంశ": 9474,
      "తక": 9475,
      "కావాల్సిన": 9476,
      "క్షో": 9477,
      "విలీ": 9478,
      "తిరి": 9479,
      "గతంగా": 9480,
      "ద‌ర్": 9481,
      "ఏమైనా": 9482,
      "జొ": 9483,
      "ల్‌గా": 9484,
      "నాటక": 9485,
      "ర్షణ": 9486,
      "డిష్": 9487,
      "వస్తుందని": 9488,
      "వికెట్": 9489,
      "న్‌తో": 9490,
      "ేయ": 9491,
      "రూమ్": 9492,
      "ప్రతిష్టా": 9493,
      "ఇట": 9494,
      "భాస్": 9495,
      "నేర్": 9496,
      "చేసుకోవాలి": 9497,
      "అంశాలపై": 9498,
      "క్టరీ": 9499,
      "ంటుందని": 9500,
      "ఖరారు": 9501,
      "కూర్చుని": 9502,
      "సమాజంలో": 9503,
      "ల్యూ": 9504,
      "దినో": 9505,
      "ot": 9506,
      "చెవి": 9507,
      "ప్రసాద్‌": 9508,
      "ఖమ్మ": 9509,
      "ఎండి": 9510,
      "కలయిక": 9511,
      "చురుకు": 9512,
      "46": 9513,
      "ఏమాత్రం": 9514,
      "పరిష్కార": 9515,
      "విల్": 9516,
      "ప్రపంచా": 9517,
      "తప్పుడు": 9518,
      "నెల్": 9519,
      "టైమ్": 9520,
      "ఉపరితల": 9521,
      "భాషా": 9522,
      "ప్పులు": 9523,
      "రిసార్": 9524,
      "గ్లూ": 9525,
      "ళ్లతో": 9526,
      "కస్టమర్": 9527,
      "డ్యు": 9528,
      "విధానాన్ని": 9529,
      "డిప్యూ": 9530,
      "దారితీస్తుంది": 9531,
      "పాకిస్తాన్": 9532,
      "ంబర్‌": 9533,
      "టికీ": 9534,
      "యీ": 9535,
      "బృంద": 9536,
      "పతా": 9537,
      "వేసు": 9538,
      "భ్ర": 9539,
      "గొడుగు": 9540,
      "కార్మికుల": 9541,
      "ఇప్ప": 9542,
      "విగా": 9543,
      "మత్": 9544,
      "ఏర్పడింది": 9545,
      "నిరుద్యో": 9546,
      "వృద్ధ": 9547,
      "అతిథులు": 9548,
      "టోర్నీ": 9549,
      "బన్": 9550,
      "సాంస్": 9551,
      "నవల": 9552,
      "సమాజం": 9553,
      "కాగితం": 9554,
      "రాఘ": 9555,
      "సులో": 9556,
      "దేవుడు": 9557,
      "దంలో": 9558,
      "మలుపు": 9559,
      "సేవలను": 9560,
      "తమవు": 9561,
      "గతే": 9562,
      "నిషేధి": 9563,
      "గాన్ని": 9564,
      "స్టోర్": 9565,
      "మల్టీ": 9566,
      "హిక": 9567,
      "శాయి": 9568,
      "నిర్వహించ": 9569,
      "బాబా": 9570,
      "యర్‌": 9571,
      "కుంటారు": 9572,
      "వెన్యూ": 9573,
      "అప": 9574,
      "రీతిలో": 9575,
      "అనుష్క": 9576,
      "నెలకొంది": 9577,
      "పెయింట్": 9578,
      "చుకో": 9579,
      "పర్యాటకులు": 9580,
      "వర్షాలు": 9581,
      "శాస్త": 9582,
      "ఆర్మీ": 9583,
      "క్‌ను": 9584,
      "మింగ్": 9585,
      "సైట్": 9586,
      "పెద": 9587,
      "జంతువులు": 9588,
      "గురైన": 9589,
      "డిగ్రీల": 9590,
      "os": 9591,
      "శీతాకాలంలో": 9592,
      "లన్నీ": 9593,
      "ద్రో": 9594,
      "యువకుడు": 9595,
      "టిక్కె": 9596,
      "ంశం": 9597,
      "యాజమాన్": 9598,
      "సర్కారు": 9599,
      "న్యూజి": 9600,
      "మయ్యారు": 9601,
      "ఎన్నిక‌": 9602,
      "and": 9603,
      "విడిచి": 9604,
      "సెక్యూ": 9605,
      "ధోరణి": 9606,
      "స్తులను": 9607,
      "పోవడంతో": 9608,
      "ఫాలో": 9609,
      "400": 9610,
      "త్పత్తి": 9611,
      "వెబ్‌": 9612,
      "అవత": 9613,
      "‌ల": 9614,
      "విద్యుత్‌": 9615,
      "నకిలీ": 9616,
      "యినా": 9617,
      "మెటల్": 9618,
      "సిగ్": 9619,
      "నిజామా": 9620,
      "కచ్చితంగా": 9621,
      "హెచ్చరించారు": 9622,
      "కాయి": 9623,
      "ఫ్రెంచ్": 9624,
      "డిజిటల్": 9625,
      "సత్": 9626,
      "నిధి": 9627,
      "తినే": 9628,
      "బ్రో": 9629,
      "ఆక్": 9630,
      "సమన్": 9631,
      "గ్రామం": 9632,
      "ac": 9633,
      "కొక్క": 9634,
      "నుంచీ": 9635,
      "మోడ": 9636,
      "విధులు": 9637,
      "తేజ్": 9638,
      "హక్కుల": 9639,
      "క్షన్స్": 9640,
      "ఉద్యోగి": 9641,
      "పొందే": 9642,
      "స్థానికులు": 9643,
      "మియా": 9644,
      "కార్యక్రమానికి": 9645,
      "లోకేష్": 9646,
      "లెక్": 9647,
      "ఎక్కి": 9648,
      "గుడ్లు": 9649,
      "అమిత్": 9650,
      "ల్డ్‌": 9651,
      "మంటూ": 9652,
      "నోటిఫి": 9653,
      "తొలుత": 9654,
      "పాదయాత్ర": 9655,
      "రేడియో": 9656,
      "నోట్ల": 9657,
      "తేమ": 9658,
      "ఫిక్స్": 9659,
      "షర్": 9660,
      "యాదవ్": 9661,
      "కంట్రో": 9662,
      "మందిని": 9663,
      "పోయాలి": 9664,
      "ఆంధ్రప్రదేశ్‌": 9665,
      "సాంస్కృ": 9666,
      "పరిధిలోని": 9667,
      "చుక్క": 9668,
      "మీటర్లు": 9669,
      "మద్య": 9670,
      "నిర్మాణానికి": 9671,
      "అనుబంధ": 9672,
      "నీలం": 9673,
      "కేక్": 9674,
      "అత్యవసర": 9675,
      "అడ్డ": 9676,
      "వచ్చినా": 9677,
      "క్లాసిక్": 9678,
      "ఉత్పత్తుల": 9679,
      "యంగ్": 9680,
      "ఉండడం": 9681,
      "ులర్": 9682,
      "యాలను": 9683,
      "త్తే": 9684,
      "జోక్యం": 9685,
      "రెస్టారెంట్": 9686,
      "ప్రదేశం": 9687,
      "క్షంలో": 9688,
      "వెన్నె": 9689,
      "బోర్డ్": 9690,
      "చెల": 9691,
      "చారిత్ర": 9692,
      "నామినేషన్": 9693,
      "వచ్చాడు": 9694,
      "లోపం": 9695,
      "స్వభావం": 9696,
      "తరపున": 9697,
      "హానికి": 9698,
      "ఉన్నతాధిక": 9699,
      "ఐటి": 9700,
      "స్టేషన్‌": 9701,
      "ఒప్పంద": 9702,
      "శిఖ": 9703,
      "స్కీ": 9704,
      "ట్రాక్": 9705,
      "అయ్యాడు": 9706,
      "ఆరోగ్యా": 9707,
      "భివృద్ధి": 9708,
      "పరస్ప": 9709,
      "డిద": 9710,
      "ఘనంగా": 9711,
      "నాగే": 9712,
      "మామ": 9713,
      "కణాలు": 9714,
      "గాయాలు": 9715,
      "నెలలు": 9716,
      "వ్ఞ": 9717,
      "పేరును": 9718,
      "జోడించండి": 9719,
      "సెంట్ర": 9720,
      "ప్రెసి": 9721,
      "తొలిసారి": 9722,
      "అజ": 9723,
      "ప్రజాస్వామ": 9724,
      "టౌ": 9725,
      "అధికారికంగా": 9726,
      "టచ్": 9727,
      "గురువు": 9728,
      "అధికారులను": 9729,
      "ఫార": 9730,
      "చేయ‌": 9731,
      "సుఖ": 9732,
      "ఎప్పటికప్పుడు": 9733,
      "రెండింటి": 9734,
      "మయ్యాయి": 9735,
      "పట్టా": 9736,
      "సాన్ని": 9737,
      "అతన్ని": 9738,
      "తలుపు": 9739,
      "విత్త": 9740,
      "మావో": 9741,
      "చెప్పవచ్చు": 9742,
      "లభించింది": 9743,
      "విషయమై": 9744,
      "వద్దని": 9745,
      "ైతే": 9746,
      "ంద‌ని": 9747,
      "పురుగు": 9748,
      "నమ్మక": 9749,
      "స్నానం": 9750,
      "శుభాకాం": 9751,
      "తేల్": 9752,
      "యూజర్": 9753,
      "తప్పక": 9754,
      "ఉద్యోగుల": 9755,
      "అవుతోంది": 9756,
      "చక్కగా": 9757,
      "జిల్లాల": 9758,
      "సైన్": 9759,
      "196": 9760,
      "కప్‌": 9761,
      "జోన్": 9762,
      "క్రమం": 9763,
      "అనుమానం": 9764,
      "రథ": 9765,
      "వర్డ్": 9766,
      "టైటి": 9767,
      "రిగిన": 9768,
      "జమ్": 9769,
      "బన్నీ": 9770,
      "సతీ": 9771,
      "దీర్ఘకాలిక": 9772,
      "గవర్నర్‌": 9773,
      "ఇవన్నీ": 9774,
      "తీసుకుంటా": 9775,
      "క్రియే": 9776,
      "టుగా": 9777,
      "2012": 9778,
      "ళ్లే": 9779,
      "ent": 9780,
      "మార్గంలో": 9781,
      "ట్రాఫిక్": 9782,
      "అప్రమ": 9783,
      "క్రెడిట్": 9784,
      "మాట్లాడిన": 9785,
      "ుని": 9786,
      "డెవల": 9787,
      "జన్‌": 9788,
      "చేసుకోవడం": 9789,
      "దాడికి": 9790,
      "ప్రపంచం": 9791,
      "రేట్": 9792,
      "చంద": 9793,
      "రీమేక్": 9794,
      "బోతున్నారు": 9795,
      "ప్రభావాన్ని": 9796,
      "పత్రం": 9797,
      "నితి": 9798,
      "సుబ్బ": 9799,
      "సాని": 9800,
      "విశ్లేషి": 9801,
      "జర్నలి": 9802,
      "కత": 9803,
      "చేయనున్నారు": 9804,
      "రంగుల": 9805,
      "శ్య": 9806,
      "కోర్టులో": 9807,
      "ముంది": 9808,
      "శాశ్వత": 9809,
      "జీబీ": 9810,
      "ముగిసింది": 9811,
      "నీడ": 9812,
      "నాయి": 9813,
      "నియమాలు": 9814,
      "నిస్": 9815,
      "మిర్": 9816,
      "తెలంగాణా": 9817,
      "విసి": 9818,
      "సామ్రా": 9819,
      "ఎగ": 9820,
      "గెలిచిన": 9821,
      "II": 9822,
      "జరిగిందని": 9823,
      "పర్వత": 9824,
      "పెడితే": 9825,
      "వచ్చినప్పుడు": 9826,
      "ఆదు": 9827,
      "ri": 9828,
      "తీసుకుంది": 9829,
      "విశ్వస": 9830,
      "ఛై": 9831,
      "కెట్ల": 9832,
      "--": 9833,
      "చేయగా": 9834,
      "ఓకే": 9835,
      "సురేష్": 9836,
      "టమే": 9837,
      "కోల్‌": 9838,
      "వాల్‌": 9839,
      "అయ్యాయి": 9840,
      "దర్శనం": 9841,
      "సృజనా": 9842,
      "ందాం": 9843,
      "పనికి": 9844,
      "గుడి": 9845,
      "స్టోరీ": 9846,
      "రకంగా": 9847,
      "అశో": 9848,
      "ఎవరికి": 9849,
      "కైన": 9850,
      "శ్రీనివాస్‌": 9851,
      "గ్రఫీ": 9852,
      "గోపాల్": 9853,
      "అమ్మాయిలు": 9854,
      "ప్రాంతీయ": 9855,
      "ul": 9856,
      "నెల్లూరు": 9857,
      "పెళ్ళి": 9858,
      "వంగా": 9859,
      "పాలసీ": 9860,
      "’,": 9861,
      "కురు": 9862,
      "అంతరి": 9863,
      "మోటార్": 9864,
      "దేవరకొండ": 9865,
      "లలి": 9866,
      "న్యూస్": 9867,
      "సదస్సు": 9868,
      "లోగా": 9869,
      "కతా": 9870,
      "తుందా": 9871,
      "నిలబడి": 9872,
      "సన్నని": 9873,
      "విజ్ఞప్తి": 9874,
      "నిమ": 9875,
      "ల‌ను": 9876,
      "రఘు": 9877,
      "వాడే": 9878,
      "డిజై": 9879,
      "పనిచేస్తున్న": 9880,
      "వారంలో": 9881,
      "విరాట్": 9882,
      "దోష": 9883,
      "సమ్మ": 9884,
      "కవిత": 9885,
      "సీన్": 9886,
      "43": 9887,
      "అప్పటికే": 9888,
      "నొక్క": 9889,
      "దేశాలలో": 9890,
      "సాంస్కృతిక": 9891,
      "సంఘాలు": 9892,
      "దృష్టికి": 9893,
      "అవ‌": 9894,
      "తీర": 9895,
      "కాంబినేషన్": 9896,
      "పరిశీలన": 9897,
      "56": 9898,
      "లాగే": 9899,
      "పోతోంది": 9900,
      "ఉనికిని": 9901,
      "దక్షిణాఫ్రికా": 9902,
      "వాసి": 9903,
      "కృత్రి": 9904,
      "గాక": 9905,
      "సమయానికి": 9906,
      "ంద్రా": 9907,
      "ఆయనను": 9908,
      "తమ్ము": 9909,
      "శ్రేణి": 9910,
      "పోరు": 9911,
      "రాకుండా": 9912,
      "ఆకారం": 9913,
      "ణాల్లో": 9914,
      "గ్రూప్": 9915,
      "తానే": 9916,
      "చారిత్రక": 9917,
      "సమూహం": 9918,
      "హాజరయ్యారు": 9919,
      "ap": 9920,
      "గుర్తించడానికి": 9921,
      "లింగ్‌": 9922,
      "విజయవంతంగా": 9923,
      "ఆకార": 9924,
      "వడ": 9925,
      "కాపు": 9926,
      "ప్రసిద్ధి": 9927,
      "రావడానికి": 9928,
      "సీనియర్‌": 9929,
      "సహకరి": 9930,
      "క్వె": 9931,
      "41": 9932,
      "థీ": 9933,
      "సరదాగా": 9934,
      "గణా": 9935,
      "డిప్యూటీ": 9936,
      "బిజినెస్": 9937,
      "యంత్రా": 9938,
      "స్నేహ": 9939,
      "ion": 9940,
      "సెమీ": 9941,
      "చూప": 9942,
      "తరగ": 9943,
      "అలెర్జీ": 9944,
      "నచ్చ": 9945,
      "పునా": 9946,
      "ఉడికించాలి": 9947,
      "సిల్": 9948,
      "వాలో": 9949,
      "కూరు": 9950,
      "నీటితో": 9951,
      "మెరి": 9952,
      "సెస్‌": 9953,
      "చూడటానికి": 9954,
      "ళితే": 9955,
      "స్తున్నాం": 9956,
      "తుడి": 9957,
      "పించే": 9958,
      "ంతోనే": 9959,
      "హూ": 9960,
      "పాత్రను": 9961,
      "దేశాన్ని": 9962,
      "కుంభ": 9963,
      "అనుభూతి": 9964,
      "చూస్తున్నారు": 9965,
      "సమావేశాలు": 9966,
      "సత్యనారాయణ": 9967,
      "స్పెషల్": 9968,
      "వెనక": 9969,
      "ఆక్సి": 9970,
      "తున్నది": 9971,
      "య్యింది": 9972,
      "రౌండ్": 9973,
      "చక్రం": 9974,
      "ఓట్ల": 9975,
      "జరిమానా": 9976,
      "ఉద్రి": 9977,
      "సాధించి": 9978,
      "వ్వులు": 9979,
      "నల": 9980,
      "ట్రంప్‌": 9981,
      "ంచినట్టు": 9982,
      "వశాత్తు": 9983,
      "సౌందర్య": 9984,
      "జీర్ణ": 9985,
      "మనే": 9986,
      "కమిషన్": 9987,
      "ఫౌ": 9988,
      "భాగస్వామి": 9989,
      "సెక్యూరిటీ": 9990,
      "రసాయన": 9991,
      "అరుదైన": 9992,
      "చంద్ర‌": 9993,
      "రేవంత్": 9994,
      "ఆలస్యం": 9995,
      "పోస్టర్": 9996,
      "అసంతృప్తి": 9997,
      "చురుకుగా": 9998,
      "సెన్సార్": 9999,
      "ుల్లో": 10000,
      "ంచుకోవాలని": 10001,
      "వెళ్లా": 10002,
      "విత్": 10003,
      "రాజ్యసభ": 10004,
      "వివాదాస్పద": 10005,
      "ఆధ్యాత్మిక": 10006,
      "గుడ్డు": 10007,
      "సిలి": 10008,
      "దారులకు": 10009,
      "మినహాయింపు": 10010,
      "ఆంగ్ల": 10011,
      "నియమం": 10012,
      "స్థానాలు": 10013,
      "త్తుల": 10014,
      "రింగ్‌": 10015,
      "నందమూరి": 10016,
      "హిందు": 10017,
      "గణే": 10018,
      "ఒంటరిగా": 10019,
      "ప్రాంతానికి": 10020,
      "బడ్జెట్‌": 10021,
      "సన్నిహి": 10022,
      "ప్రాముఖ్య": 10023,
      "దూకుడు": 10024,
      "మాధ్య": 10025,
      "తప్పనిసరి": 10026,
      "మిశ్రమం": 10027,
      "జైన": 10028,
      "రూపాయి": 10029,
      "58": 10030,
      "డాక్టర్‌": 10031,
      "అన్వే": 10032,
      "బియా": 10033,
      "బిట్": 10034,
      "మహబూ": 10035,
      "ధ్వ": 10036,
      "లైఫ్": 10037,
      "శె": 10038,
      "నమ్మి": 10039,
      "ందాన్ని": 10040,
      "త్తమ": 10041,
      "తగిలి": 10042,
      "కోణం": 10043,
      "సదరు": 10044,
      "విపక్ష": 10045,
      "శాల్లో": 10046,
      "హారి": 10047,
      "Ne": 10048,
      "57": 10049,
      "పరుస్తుంది": 10050,
      "నాళ": 10051,
      "షార్": 10052,
      "ీవుడ్‌": 10053,
      "TV": 10054,
      "చేయు": 10055,
      "దిగారు": 10056,
      "ట్యూబ్": 10057,
      "గడ్డి": 10058,
      "నిర్వహించే": 10059,
      "జర్మనీ": 10060,
      "బౌలింగ్": 10061,
      "ఆపరేటింగ్": 10062,
      "ఒకేసారి": 10063,
      "ఆహ్లాద": 10064,
      "యంత్ర": 10065,
      "అడ్డం": 10066,
      "కావు": 10067,
      "డిజైన్": 10068,
      "అసాధ్యం": 10069,
      "రెవెన్యూ": 10070,
      "అండగా": 10071,
      "వైకాపా": 10072,
      "ంప్": 10073,
      "మునిగి": 10074,
      "రానా": 10075,
      "ెస్": 10076,
      "టిక్స్": 10077,
      "ఉండకూడదు": 10078,
      "ఖమ్మం": 10079,
      "కోడి": 10080,
      "వేటు": 10081,
      "ష్ఠ": 10082,
      "ఎవరికీ": 10083,
      "కాళ": 10084,
      "లోపలి": 10085,
      "షనల్‌": 10086,
      "చెక్": 10087,
      "దూసుకు": 10088,
      "తిరగ": 10089,
      "రెడ్": 10090,
      "వైఖరి": 10091,
      "టీరియా": 10092,
      "థ్రి": 10093,
      "లోక": 10094,
      "నియోజకవర్గం": 10095,
      "యాని": 10096,
      "ఇంజినీ": 10097,
      "పొడిగి": 10098,
      "చనిపోయిన": 10099,
      "జ్ఞాప": 10100,
      "2011": 10101,
      "దంత": 10102,
      "ఫ్ట్‌": 10103,
      "అలరి": 10104,
      "నియోజకవర్గంలో": 10105,
      "జర్‌": 10106,
      "ఎక్కు": 10107,
      "వాల్యూమ్": 10108,
      "నోరు": 10109,
      "పెట్టుబడులు": 10110,
      "బిలి": 10111,
      "బ్యాంకులు": 10112,
      "em": 10113,
      "చిత్రాల": 10114,
      "ఉపసం": 10115,
      "వైఎస్సార్‌": 10116,
      "బంగ్లాదేశ్": 10117,
      "ఆధా": 10118,
      "ఒలిం": 10119,
      "మచ్చ": 10120,
      "జరిపి": 10121,
      "చిన్నారి": 10122,
      "స్రావం": 10123,
      "సోవి": 10124,
      "ఆవిష్కరణ": 10125,
      "రేంజ్": 10126,
      "ఆదాయ": 10127,
      "పరిపాలన": 10128,
      "నిబంధనలు": 10129,
      "శిల్": 10130,
      "సెట్టి": 10131,
      "పాలక": 10132,
      "బలోపేతం": 10133,
      "బోతోంది": 10134,
      "సన్నాహాలు": 10135,
      "లింక్": 10136,
      "ప్రియాంక": 10137,
      "పాక్షి": 10138,
      "బరిలోకి": 10139,
      "కదిలి": 10140,
      "అంతేకాక": 10141,
      "వెయ్యి": 10142,
      "వినిపిస్తున్నాయి": 10143,
      "కృతజ్ఞతలు": 10144,
      "కీల": 10145,
      "తున్నాను": 10146,
      "పద్ధతిలో": 10147,
      "చూద్దాం": 10148,
[...]
