{
  "version": "1.0",
  "truncation": null,
  "padding": null,
  "added_tokens": [
    {
      "id": 0,
      "content": "[UNK]",
      "single_word": false,
      "lstrip": false,
      "rstrip": false,
      "normalized": false,
      "special": true
    },
    {
      "id": 1,
      "content": "[CLS]",
      "single_word": false,
      "lstrip": false,
      "rstrip": false,
      "normalized": false,
      "special": true
    },
    {
      "id": 2,
      "content": "[SEP]",
      "single_word": false,
      "lstrip": false,
      "rstrip": false,
      "normalized": false,
      "special": true
    },
    {
      "id": 3,
      "content": "[PAD]",
      "single_word": false,
      "lstrip": false,
      "rstrip": false,
      "normalized": false,
      "special": true
    },
    {
      "id": 4,
      "content": "[MASK]",
      "single_word": false,
      "lstrip": false,
      "rstrip": false,
      "normalized": false,
      "special": true
    },
    {
      "id": 5,
      "content": "[PAR]",
      "single_word": false,
      "lstrip": false,
      "rstrip": false,
      "normalized": false,
      "special": true
    },
    {
      "id": 6,
      "content": "[TAB]",
      "single_word": false,
      "lstrip": false,
      "rstrip": false,
      "normalized": false,
      "special": true
    }
  ],
  "normalizer": null,
  "pre_tokenizer": {
    "type": "Whitespace"
  },
  "post_processor": null,
  "decoder": null,
  "model": {
    "type": "BPE",
    "dropout": null,
    "unk_token": "[UNK]",
    "continuing_subword_prefix": null,
    "end_of_word_suffix": null,
    "fuse_unk": false,
    "byte_fallback": false,
    "ignore_merges": false,
    "vocab": {
      "[UNK]": 0,
      "[CLS]": 1,
      "[SEP]": 2,
      "[PAD]": 3,
      "[MASK]": 4,
      "[PAR]": 5,
      "[TAB]": 6,
      "\u0001": 7,
      "\u0003": 8,
      "\u0004": 9,
      "\u0012": 10,
      "\u0013": 11,
      "\u001b": 12,
      "\u001e": 13,
      "!": 14,
      "\"": 15,
      "#": 16,
      "$": 17,
      "%": 18,
      "&": 19,
      "'": 20,
      "(": 21,
      ")": 22,
      "*": 23,
      "+": 24,
      ",": 25,
      "-": 26,
      ".": 27,
      "/": 28,
      "0": 29,
      "1": 30,
      "2": 31,
      "3": 32,
      "4": 33,
      "5": 34,
      "6": 35,
      "7": 36,
      "8": 37,
      "9": 38,
      ":": 39,
      ";": 40,
      "<": 41,
      "=": 42,
      ">": 43,
      "?": 44,
      "@": 45,
      "A": 46,
      "B": 47,
      "C": 48,
      "D": 49,
      "E": 50,
      "F": 51,
      "G": 52,
      "H": 53,
      "I": 54,
      "J": 55,
      "K": 56,
      "L": 57,
      "M": 58,
      "N": 59,
      "O": 60,
      "P": 61,
      "Q": 62,
      "R": 63,
      "S": 64,
      "T": 65,
      "U": 66,
      "V": 67,
      "W": 68,
      "X": 69,
      "Y": 70,
      "Z": 71,
      "[": 72,
      "\\": 73,
      "]": 74,
      "^": 75,
      "_": 76,
      "`": 77,
      "a": 78,
      "b": 79,
      "c": 80,
      "d": 81,
      "e": 82,
      "f": 83,
      "g": 84,
      "h": 85,
      "i": 86,
      "j": 87,
      "k": 88,
      "l": 89,
      "m": 90,
      "n": 91,
      "o": 92,
      "p": 93,
      "q": 94,
      "r": 95,
      "s": 96,
      "t": 97,
      "u": 98,
      "v": 99,
      "w": 100,
      "x": 101,
      "y": 102,
      "z": 103,
      "{": 104,
      "|": 105,
      "}": 106,
      "~": 107,
      "": 108,
      "": 109,
      "": 110,
      "": 111,
      "": 112,
      "": 113,
      "": 114,
      "": 115,
      "": 116,
      "": 117,
      "": 118,
      "": 119,
      "": 120,
      "": 121,
      "": 122,
      "": 123,
      "": 124,
      "": 125,
      "": 126,
      "": 127,
      "": 128,
      "": 129,
      "": 130,
      "": 131,
      "": 132,
      "": 133,
      "": 134,
      "": 135,
      "": 136,
      "": 137,
      "¡": 138,
      "¢": 139,
      "£": 140,
      "¤": 141,
      "¥": 142,
      "¦": 143,
      "§": 144,
      "¨": 145,
      "©": 146,
      "ª": 147,
      "«": 148,
      "¬": 149,
      "­": 150,
      "®": 151,
      "¯": 152,
      "°": 153,
      "±": 154,
      "²": 155,
      "³": 156,
      "´": 157,
      "µ": 158,
      "¶": 159,
      "·": 160,
      "¸": 161,
      "¹": 162,
      "º": 163,
      "»": 164,
      "¼": 165,
      "½": 166,
      "¾": 167,
      "¿": 168,
      "À": 169,
      "Á": 170,
      "Â": 171,
      "Ä": 172,
      "Å": 173,
      "Æ": 174,
      "Ç": 175,
      "È": 176,
      "É": 177,
      "Ê": 178,
      "Ë": 179,
      "Ì": 180,
      "Í": 181,
      "Ï": 182,
      "Ð": 183,
      "Ñ": 184,
      "Ó": 185,
      "Ô": 186,
      "Ö": 187,
      "×": 188,
      "Ø": 189,
      "Ù": 190,
      "Ú": 191,
      "Û": 192,
      "Ü": 193,
      "Þ": 194,
      "ß": 195,
      "à": 196,
      "á": 197,
      "â": 198,
      "ã": 199,
      "ä": 200,
      "å": 201,
      "æ": 202,
      "ç": 203,
      "è": 204,
      "é": 205,
      "ê": 206,
      "ë": 207,
      "ì": 208,
      "í": 209,
      "î": 210,
      "ï": 211,
      "ð": 212,
      "ñ": 213,
      "ò": 214,
      "ó": 215,
      "ô": 216,
      "õ": 217,
      "ö": 218,
      "÷": 219,
      "ø": 220,
      "ù": 221,
      "ú": 222,
      "û": 223,
      "ü": 224,
      "ý": 225,
      "ā": 226,
      "ă": 227,
      "ą": 228,
      "ć": 229,
      "Č": 230,
      "č": 231,
      "ď": 232,
      "Đ": 233,
      "đ": 234,
      "ē": 235,
      "ė": 236,
      "ę": 237,
      "ě": 238,
      "ğ": 239,
      "ġ": 240,
      "ħ": 241,
      "ĩ": 242,
      "ī": 243,
      "ĭ": 244,
      "į": 245,
      "İ": 246,
      "ı": 247,
      "ķ": 248,
      "ĸ": 249,
      "Ĺ": 250,
      "ł": 251,
      "ń": 252,
      "ň": 253,
      "Ŋ": 254,
      "ŋ": 255,
      "Ō": 256,
      "ō": 257,
      "Ő": 258,
      "ő": 259,
      "Œ": 260,
      "œ": 261,
      "ř": 262,
      "Ś": 263,
      "ś": 264,
      "Ş": 265,
      "ş": 266,
      "Š": 267,
      "š": 268,
      "ţ": 269,
      "ũ": 270,
      "ū": 271,
      "ŭ": 272,
      "ů": 273,
      "ű": 274,
      "ų": 275,
      "Ÿ": 276,
      "ź": 277,
      "Ż": 278,
      "ż": 279,
      "Ž": 280,
      "ž": 281,
      "ƀ": 282,
      "Ƒ": 283,
      "ƒ": 284,
      "ơ": 285,
      "ư": 286,
      "Ʋ": 287,
      "ƴ": 288,
      "ǎ": 289,
      "ǐ": 290,
      "ǒ": 291,
      "ǔ": 292,
      "ǣ": 293,
      "ǫ": 294,
      "ș": 295,
      "ț": 296,
      "ɐ": 297,
      "ɑ": 298,
      "ɒ": 299,
      "ɔ": 300,
      "ɕ": 301,
      "ɖ": 302,
      "ɘ": 303,
      "ə": 304,
      "ɛ": 305,
      "ɡ": 306,
      "ɨ": 307,
      "ɪ": 308,
      "ɻ": 309,
      "ɾ": 310,
      "ʁ": 311,
      "ʃ": 312,
      "ʊ": 313,
      "ʌ": 314,
      "ʒ": 315,
      "ʲ": 316,
      "ʹ": 317,
      "ʻ": 318,
      "ˆ": 319,
      "ˈ": 320,
      "ˌ": 321,
      "ː": 322,
      "˗": 323,
      "˙": 324,
      "˚": 325,
      "˜": 326,
      "˟": 327,
      "ˠ": 328,
      "́": 329,
      "̃": 330,
      "̄": 331,
      "̊": 332,
      "̍": 333,
      "̪": 334,
      "̴": 335,
      "΄": 336,
      "Έ": 337,
      "Ό": 338,
      "Α": 339,
      "Β": 340,
      "Γ": 341,
      "Δ": 342,
      "Ε": 343,
      "Η": 344,
      "Θ": 345,
      "Ι": 346,
      "Κ": 347,
      "Λ": 348,
      "Μ": 349,
      "Ν": 350,
      "Ο": 351,
      "Π": 352,
      "Ρ": 353,
      "Σ": 354,
      "Τ": 355,
      "Υ": 356,
      "Φ": 357,
      "Χ": 358,
      "Ω": 359,
      "ά": 360,
      "έ": 361,
      "ή": 362,
      "ί": 363,
      "α": 364,
      "β": 365,
      "γ": 366,
      "δ": 367,
      "ε": 368,
      "ζ": 369,
      "η": 370,
      "θ": 371,
      "ι": 372,
      "κ": 373,
      "λ": 374,
      "μ": 375,
      "ν": 376,
      "ξ": 377,
      "ο": 378,
      "π": 379,
      "ρ": 380,
      "ς": 381,
      "σ": 382,
      "τ": 383,
      "υ": 384,
      "φ": 385,
      "χ": 386,
      "ψ": 387,
      "ω": 388,
      "ό": 389,
      "ύ": 390,
      "ώ": 391,
      "Є": 392,
      "І": 393,
      "А": 394,
      "Б": 395,
      "В": 396,
      "Г": 397,
      "Д": 398,
      "Е": 399,
      "Ж": 400,
      "З": 401,
      "И": 402,
      "Й": 403,
      "К": 404,
      "Л": 405,
      "М": 406,
      "Н": 407,
      "О": 408,
      "П": 409,
      "Р": 410,
      "С": 411,
      "Т": 412,
      "У": 413,
      "Ф": 414,
      "Х": 415,
      "Ц": 416,
      "Ч": 417,
      "Ш": 418,
      "Щ": 419,
      "Ъ": 420,
      "Ы": 421,
      "Ь": 422,
      "Э": 423,
      "Ю": 424,
      "Я": 425,
      "а": 426,
      "б": 427,
      "в": 428,
      "г": 429,
      "д": 430,
      "е": 431,
      "ж": 432,
      "з": 433,
      "и": 434,
      "й": 435,
      "к": 436,
      "л": 437,
      "м": 438,
      "н": 439,
      "о": 440,
      "п": 441,
      "р": 442,
      "с": 443,
      "т": 444,
      "у": 445,
      "ф": 446,
      "х": 447,
      "ц": 448,
      "ч": 449,
      "ш": 450,
      "щ": 451,
      "ъ": 452,
      "ы": 453,
      "ь": 454,
      "э": 455,
      "ю": 456,
      "я": 457,
      "ё": 458,
      "є": 459,
      "і": 460,
      "ї": 461,
      "ј": 462,
      "ѝ": 463,
      "Җ": 464,
      "Қ": 465,
      "қ": 466,
      "ҡ": 467,
      "ҷ": 468,
      "ә": 469,
      "ӣ": 470,
      "Ԑ": 471,
      "ԑ": 472,
      "Հ": 473,
      "՚": 474,
      "ա": 475,
      "ե": 476,
      "յ": 477,
      "ն": 478,
      "ր": 479,
      "ְ": 480,
      "ִ": 481,
      "ַ": 482,
      "ָ": 483,
      "ֹ": 484,
      "ּ": 485,
      "ֿ": 486,
      "א": 487,
      "ב": 488,
      "ד": 489,
      "ה": 490,
      "ו": 491,
      "ז": 492,
      "ח": 493,
      "ט": 494,
      "י": 495,
      "ך": 496,
      "כ": 497,
      "ל": 498,
      "ם": 499,
      "מ": 500,
      "ן": 501,
      "נ": 502,
      "ס": 503,
      "ע": 504,
      "ף": 505,
      "פ": 506,
      "ץ": 507,
      "צ": 508,
      "ק": 509,
      "ר": 510,
      "ש": 511,
      "ת": 512,
      "،": 513,
      "؟": 514,
      "آ": 515,
      "أ": 516,
      "إ": 517,
      "ئ": 518,
      "ا": 519,
      "ب": 520,
      "ة": 521,
      "ت": 522,
      "ث": 523,
      "ج": 524,
      "ح": 525,
      "خ": 526,
      "د": 527,
      "ذ": 528,
      "ر": 529,
      "ز": 530,
      "س": 531,
      "ش": 532,
      "ص": 533,
      "ض": 534,
      "ط": 535,
      "ظ": 536,
      "ع": 537,
      "غ": 538,
      "ف": 539,
      "ق": 540,
      "ك": 541,
      "ل": 542,
      "م": 543,
      "ن": 544,
      "ه": 545,
      "و": 546,
      "ى": 547,
      "ي": 548,
      "ً": 549,
      "َ": 550,
      "ُ": 551,
      "ِ": 552,
      "ّ": 553,
      "ْ": 554,
      "ٹ": 555,
      "پ": 556,
      "چ": 557,
      "ڈ": 558,
      "ڌ": 559,
      "ښ": 560,
      "ک": 561,
      "گ": 562,
      "ھ": 563,
      "ہ": 564,
      "ی": 565,
      "މ": 566,
      "ލ": 567,
      "ާ": 568,
      "ެ": 569,
      "ँ": 570,
      "ं": 571,
      "ः": 572,
      "अ": 573,
      "आ": 574,
      "इ": 575,
      "ई": 576,
      "उ": 577,
      "ऍ": 578,
      "ए": 579,
      "ओ": 580,
      "औ": 581,
      "क": 582,
      "ख": 583,
      "ग": 584,
      "घ": 585,
      "च": 586,
      "छ": 587,
      "ज": 588,
      "ञ": 589,
      "ट": 590,
      "ठ": 591,
      "ड": 592,
      "ढ": 593,
      "ण": 594,
      "त": 595,
      "थ": 596,
      "द": 597,
      "ध": 598,
      "न": 599,
      "प": 600,
      "फ": 601,
      "ब": 602,
      "भ": 603,
      "म": 604,
      "य": 605,
      "र": 606,
      "ल": 607,
      "ळ": 608,
      "व": 609,
      "श": 610,
      "ष": 611,
      "स": 612,
      "ह": 613,
      "़": 614,
      "ऽ": 615,
      "ा": 616,
      "ि": 617,
      "ी": 618,
      "ु": 619,
      "ू": 620,
      "ृ": 621,
      "ॅ": 622,
      "ॆ": 623,
      "े": 624,
      "ै": 625,
      "ॉ": 626,
      "ॊ": 627,
      "ो": 628,
      "ौ": 629,
      "्": 630,
      "ॐ": 631,
      "ज़": 632,
      "ड़": 633,
      "।": 634,
      "॥": 635,
      "०": 636,
      "१": 637,
      "॰": 638,
      "ং": 639,
      "অ": 640,
      "ঊ": 641,
      "ঙ": 642,
      "ড": 643,
      "ত": 644,
      "প": 645,
      "ব": 646,
      "ম": 647,
      "র": 648,
      "ল": 649,
      "শ": 650,
      "স": 651,
      "হ": 652,
      "়": 653,
      "া": 654,
      "ি": 655,
      "ী": 656,
      "ু": 657,
      "্": 658,
      "য়": 659,
      "ৡ": 660,
      "১": 661,
      "ৰ": 662,
      "ਂ": 663,
      "ਕ": 664,
      "ਖ": 665,
      "ਗ": 666,
      "ਜ": 667,
      "ਥ": 668,
      "ਦ": 669,
      "ਨ": 670,
      "ਪ": 671,
      "ਬ": 672,
      "ਮ": 673,
      "ਰ": 674,
      "ਲ": 675,
      "ਸ਼": 676,
      "ਸ": 677,
      "ਹ": 678,
      "਼": 679,
      "ਾ": 680,
      "ਿ": 681,
      "ੀ": 682,
      "ੁ": 683,
      "ੂ": 684,
      "ੇ": 685,
      "੍": 686,
      "ੰ": 687,
      "ੱ": 688,
      "ગ": 689,
      "જ": 690,
      "ત": 691,
      "ર": 692,
      "ા": 693,
      "ી": 694,
      "ુ": 695,
      "அ": 696,
      "ஆ": 697,
      "இ": 698,
      "உ": 699,
      "ஊ": 700,
      "எ": 701,
      "ஏ": 702,
      "ஐ": 703,
      "ஒ": 704,
      "ஓ": 705,
      "க": 706,
      "ங": 707,
      "ச": 708,
      "ஜ": 709,
      "ஞ": 710,
      "ட": 711,
      "ண": 712,
      "த": 713,
      "ந": 714,
      "ன": 715,
      "ப": 716,
      "ம": 717,
      "ய": 718,
      "ர": 719,
      "ற": 720,
      "ல": 721,
      "ள": 722,
      "ழ": 723,
      "வ": 724,
      "ஷ": 725,
      "ஸ": 726,
      "ஹ": 727,
      "ா": 728,
      "ி": 729,
      "ீ": 730,
      "ு": 731,
      "ூ": 732,
      "ெ": 733,
      "ே": 734,
      "ை": 735,
      "ொ": 736,
      "ோ": 737,
      "்": 738,
      "ௐ": 739,
      "௫": 740,
      "௵": 741,
      "௸": 742,
      "௹": 743,
      "௺": 744,
      "ఁ": 745,
      "ం": 746,
      "ః": 747,
      "ఄ": 748,
      "అ": 749,
      "ఆ": 750,
      "ఇ": 751,
      "ఈ": 752,
      "ఉ": 753,
      "ఊ": 754,
      "ఋ": 755,
      "ఌ": 756,
      "఍": 757,
      "ఎ": 758,
      "ఏ": 759,
      "ఐ": 760,
      "఑": 761,
      "ఒ": 762,
      "ఓ": 763,
      "ఔ": 764,
      "క": 765,
      "ఖ": 766,
      "గ": 767,
      "ఘ": 768,
      "ఙ": 769,
      "చ": 770,
      "ఛ": 771,
      "జ": 772,
      "ఝ": 773,
      "ఞ": 774,
      "ట": 775,
      "ఠ": 776,
      "డ": 777,
      "ఢ": 778,
      "ణ": 779,
      "త": 780,
      "థ": 781,
      "ద": 782,
      "ధ": 783,
      "న": 784,
      "఩": 785,
      "ప": 786,
      "ఫ": 787,
      "బ": 788,
      "భ": 789,
      "మ": 790,
      "య": 791,
      "ర": 792,
      "ఱ": 793,
      "ల": 794,
      "ళ": 795,
      "ఴ": 796,
      "వ": 797,
      "శ": 798,
      "ష": 799,
      "స": 800,
      "హ": 801,
      "ఽ": 802,
      "ా": 803,
      "ి": 804,
      "ీ": 805,
      "ు": 806,
      "ూ": 807,
      "ృ": 808,
      "ౄ": 809,
      "ె": 810,
      "ే": 811,
      "ై": 812,
      "ొ": 813,
      "ో": 814,
      "ౌ": 815,
      "్": 816,
      "౎": 817,
      "ౖ": 818,
      "ౘ": 819,
      "ౙ": 820,
      "౛": 821,
      "ౠ": 822,
      "ౡ": 823,
      "ౢ": 824,
      "౦": 825,
      "౧": 826,
      "౨": 827,
      "౩": 828,
      "౪": 829,
      "౫": 830,
      "౬": 831,
      "౭": 832,
      "౮": 833,
      "౯": 834,
      "౹": 835,
      "౼": 836,
      "౽": 837,
      "౾": 838,
      "ಂ": 839,
      "ಅ": 840,
      "ಆ": 841,
      "ಇ": 842,
      "ಉ": 843,
      "ಎ": 844,
      "ಒ": 845,
      "ಓ": 846,
      "ಕ": 847,
      "ಗ": 848,
      "ಚ": 849,
      "ಜ": 850,
      "ಟ": 851,
      "ಡ": 852,
      "ಣ": 853,
      "ತ": 854,
      "ಥ": 855,
      "ದ": 856,
      "ಧ": 857,
      "ನ": 858,
      "ಪ": 859,
      "ಫ": 860,
      "ಬ": 861,
      "ಭ": 862,
      "ಮ": 863,
      "ಯ": 864,
      "ರ": 865,
      "ಲ": 866,
      "ಳ": 867,
      "ವ": 868,
      "ಶ": 869,
      "ಷ": 870,
      "ಸ": 871,
      "ಹ": 872,
      "ಾ": 873,
      "ಿ": 874,
      "ೀ": 875,
      "ು": 876,
      "ೂ": 877,
      "ೃ": 878,
      "ೆ": 879,
      "ೇ": 880,
      "ೊ": 881,
      "ೋ": 882,
      "ೌ": 883,
      "್": 884,
      "ೞ": 885,
      "೦": 886,
      "೧": 887,
      "೨": 888,
      "೩": 889,
      "೪": 890,
      "೫": 891,
      "೯": 892,
      "ം": 893,
      "അ": 894,
      "ഇ": 895,
      "ഉ": 896,
      "എ": 897,
      "ഏ": 898,
      "ഒ": 899,
      "ക": 900,
      "ഗ": 901,
      "ങ": 902,
      "ച": 903,
      "ജ": 904,
      "ഞ": 905,
      "ട": 906,
      "ണ": 907,
      "ത": 908,
      "ദ": 909,
      "ന": 910,
      "പ": 911,
      "ബ": 912,
      "ഭ": 913,
      "മ": 914,
      "യ": 915,
      "ര": 916,
      "റ": 917,
      "ല": 918,
      "ള": 919,
      "ഴ": 920,
      "വ": 921,
      "ഷ": 922,
      "സ": 923,
      "ാ": 924,
      "ി": 925,
      "ീ": 926,
      "ു": 927,
      "ൂ": 928,
      "െ": 929,
      "േ": 930,
      "ോ": 931,
      "്": 932,
      "ൗ": 933,
      "ൠ": 934,
      "ൽ": 935,
      "ൾ": 936,
      "ං": 937,
      "ඇ": 938,
      "ඊ": 939,
      "ඌ": 940,
      "ඏ": 941,
      "ඐ": 942,
      "ච": 943,
      "ජ": 944,
      "ට": 945,
      "ඩ": 946,
      "ණ": 947,
      "ධ": 948,
      "ප": 949,
      "බ": 950,
      "ර": 951,
      "ල": 952,
      "ව": 953,
      "ෂ": 954,
      "ස": 955,
      "හ": 956,
      "ෆ": 957,
      "්": 958,
      "ි": 959,
      "ී": 960,
      "ේ": 961,
      "ก": 962,
      "ข": 963,
      "ค": 964,
      "ง": 965,
      "จ": 966,
      "ฉ": 967,
      "ช": 968,
      "ซ": 969,
      "ญ": 970,
      "ฎ": 971,
      "ฏ": 972,
      "ฐ": 973,
      "ฒ": 974,
      "ณ": 975,
      "ด": 976,
      "ต": 977,
      "ถ": 978,
      "ท": 979,
      "ธ": 980,
      "น": 981,
      "บ": 982,
      "ป": 983,
      "ผ": 984,
      "ฝ": 985,
      "พ": 986,
      "ฟ": 987,
      "ภ": 988,
      "ม": 989,
      "ย": 990,
      "ร": 991,
      "ฤ": 992,
      "ล": 993,
      "ว": 994,
      "ศ": 995,
      "ษ": 996,
      "ส": 997,
      "ห": 998,
      "ฬ": 999,
      "อ": 1000,
      "ฮ": 1001,
      "ะ": 1002,
      "ั": 1003,
      "า": 1004,
      "ำ": 1005,
      "ิ": 1006,
      "ี": 1007,
      "ึ": 1008,
      "ื": 1009,
      "ุ": 1010,
      "ู": 1011,
      "เ": 1012,
      "แ": 1013,
      "โ": 1014,
      "ใ": 1015,
      "ไ": 1016,
      "็": 1017,
      "่": 1018,
      "้": 1019,
      "์": 1020,
      "ກ": 1021,
      "ຂ": 1022,
      "ຄ": 1023,
      "ງ": 1024,
      "ຈ": 1025,
      "ຊ": 1026,
      "ຍ": 1027,
      "ດ": 1028,
      "ຕ": 1029,
      "ຖ": 1030,
      "ທ": 1031,
      "ນ": 1032,
      "ບ": 1033,
      "ປ": 1034,
      "ຜ": 1035,
      "ພ": 1036,
      "ມ": 1037,
      "ຢ": 1038,
      "ຣ": 1039,
      "ລ": 1040,
      "ວ": 1041,
      "ສ": 1042,
      "ຫ": 1043,
      "ອ": 1044,
      "ຮ": 1045,
      "ະ": 1046,
      "ັ": 1047,
      "າ": 1048,
      "ຳ": 1049,
      "ິ": 1050,
      "ີ": 1051,
      "ຶ": 1052,
      "ື": 1053,
      "ຸ": 1054,
      "ູ": 1055,
      "ົ": 1056,
      "ຼ": 1057,
      "ຽ": 1058,
      "ເ": 1059,
      "ແ": 1060,
      "ໂ": 1061,
      "ໃ": 1062,
      "ໄ": 1063,
      "ໆ": 1064,
      "່": 1065,
      "້": 1066,
      "ໍ": 1067,
      "ໜ": 1068,
      "ໝ": 1069,
      "་": 1070,
      "ཀ": 1071,
      "ག": 1072,
      "ང": 1073,
      "པ": 1074,
      "ཙ": 1075,
      "ཡ": 1076,
      "ར": 1077,
      "ས": 1078,
      "ུ": 1079,
      "ོ": 1080,
      "ླ": 1081,
      "က": 1082,
      "ခ": 1083,
      "င": 1084,
      "စ": 1085,
      "ဆ": 1086,
      "ဉ": 1087,
      "ည": 1088,
      "တ": 1089,
      "ထ": 1090,
      "န": 1091,
      "ပ": 1092,
      "ဖ": 1093,
      "ဗ": 1094,
      "မ": 1095,
      "ယ": 1096,
      "ရ": 1097,
      "လ": 1098,
      "ဝ": 1099,
      "သ": 1100,
      "ဟ": 1101,
      "အ": 1102,
      "ါ": 1103,
      "ာ": 1104,
      "ိ": 1105,
      "ီ": 1106,
      "ု": 1107,
      "ူ": 1108,
      "ေ": 1109,
      "ဲ": 1110,
      "ံ": 1111,
      "့": 1112,
      "း": 1113,
      "္": 1114,
      "်": 1115,
      "ျ": 1116,
      "ြ": 1117,
      "ွ": 1118,
      "၊": 1119,
      "။": 1120,
      "၍": 1121,
      "၏": 1122,
      "ၚ": 1123,
      "ၤ": 1124,
      "ၻ": 1125,
      "ა": 1126,
      "თ": 1127,
      "ი": 1128,
      "ლ": 1129,
      "ნ": 1130,
      "ო": 1131,
      "რ": 1132,
      "უ": 1133,
      "ქ": 1134,
      "ማ": 1135,
      "ር": 1136,
      "ኛ": 1137,
      "አ": 1138,
      "ᚁ": 1139,
      "ᚂ": 1140,
      "ᚃ": 1141,
      "ᚄ": 1142,
      "ᚅ": 1143,
      "ᚆ": 1144,
      "ᚇ": 1145,
      "ᚈ": 1146,
      "ᚉ": 1147,
      "ᚊ": 1148,
      "ᚋ": 1149,
      "ᚌ": 1150,
      "ᚍ": 1151,
      "ᚎ": 1152,
      "ᚏ": 1153,
      "ᚐ": 1154,
      "ᚑ": 1155,
      "ᚒ": 1156,
      "ᚓ": 1157,
      "ᚔ": 1158,
      "ᚕ": 1159,
      "ᚖ": 1160,
      "ᚗ": 1161,
      "ᚘ": 1162,
      "ᚙ": 1163,
      "ᚚ": 1164,
      "᚛": 1165,
      "᚜": 1166,
      "ខ": 1167,
      "ឃ": 1168,
      "ឈ": 1169,
      "ណ": 1170,
      "ត": 1171,
      "ថ": 1172,
      "ភ": 1173,
      "ម": 1174,
      "រ": 1175,
      "ល": 1176,
      "ស": 1177,
      "ា": 1178,
      "ែ": 1179,
      "ៃ": 1180,
      "្": 1181,
      "᠔": 1182,
      "ᠶ": 1183,
      "ᡮ": 1184,
      "ᢡ": 1185,
      "ᴼ": 1186,
      "ᶟ": 1187,
      "ḍ": 1188,
      "ḥ": 1189,
      "ḷ": 1190,
      "Ḻ": 1191,
      "ṁ": 1192,
      "ṃ": 1193,
      "ṅ": 1194,
      "ṇ": 1195,
      "ṛ": 1196,
      "ṟ": 1197,
      "Ṣ": 1198,
      "ṣ": 1199,
      "ṭ": 1200,
      "ạ": 1201,
      "ả": 1202,
      "ầ": 1203,
      "ắ": 1204,
      "ẽ": 1205,
      "ế": 1206,
      "ề": 1207,
      "ể": 1208,
      "ễ": 1209,
      "ệ": 1210,
      "ỉ": 1211,
      "ị": 1212,
      "ộ": 1213,
      "ớ": 1214,
      "ờ": 1215,
      "ỡ": 1216,
      "ợ": 1217,
      "ụ": 1218,
      "ủ": 1219,
      "ứ": 1220,
      "ừ": 1221,
      "ử": 1222,
      "ữ": 1223,
      "ἀ": 1224,
      "ἄ": 1225,
      "Ἀ": 1226,
      "ἔ": 1227,
      "Ἵ": 1228,
      "ῖ": 1229,
      "ῳ": 1230,
      "​": 1231,
      "‌": 1232,
      "‍": 1233,
      "‎": 1234,
      "‏": 1235,
      "‑": 1236,
      "‒": 1237,
      "–": 1238,
      "—": 1239,
      "‘": 1240,
      "’": 1241,
      "‛": 1242,
      "“": 1243,
      "”": 1244,
      "„": 1245,
      "†": 1246,
      "‡": 1247,
      "•": 1248,
      "‣": 1249,
      "…": 1250,
      "‧": 1251,
      "‪": 1252,
      "‫": 1253,
      "‬": 1254,
      "‰": 1255,
      "′": 1256,
      "″": 1257,
      "‹": 1258,
      "›": 1259,
      "※": 1260,
      "‼": 1261,
      "⁄": 1262,
      "⁠": 1263,
      "⁪": 1264,
      "⁬": 1265,
      "⁭": 1266,
      "⁮": 1267,
      "⁰": 1268,
      "⁹": 1269,
      "₀": 1270,
      "₁": 1271,
      "₂": 1272,
      "₃": 1273,
      "₄": 1274,
      "₅": 1275,
      "₆": 1276,
      "₉": 1277,
      "ₒ": 1278,
      "€": 1279,
      "₹": 1280,
      "℃": 1281,
      "ℓ": 1282,
      "№": 1283,
      "℗": 1284,
      "℞": 1285,
      "™": 1286,
      "⅓": 1287,
      "⅛": 1288,
      "⅜": 1289,
      "⅝": 1290,
      "ↄ": 1291,
      "←": 1292,
      "↑": 1293,
      "→": 1294,
      "↓": 1295,
      "↔": 1296,
      "↕": 1297,
      "↗": 1298,
      "⇉": 1299,
      "⇌": 1300,
      "⇐": 1301,
      "⇒": 1302,
      "⇔": 1303,
      "⇛": 1304,
      "⇧": 1305,
      "⇨": 1306,
      "∀": 1307,
      "∂": 1308,
      "∇": 1309,
      "∉": 1310,
      "∑": 1311,
      "−": 1312,
      "∗": 1313,
      "∙": 1314,
      "√": 1315,
      "∞": 1316,
      "∠": 1317,
      "∩": 1318,
      "∫": 1319,
      "∴": 1320,
      "∼": 1321,
      "≈": 1322,
      "≡": 1323,
      "≤": 1324,
      "≥": 1325,
      "≪": 1326,
      "≫": 1327,
      "≽": 1328,
      "⊂": 1329,
      "⊃": 1330,
      "⊕": 1331,
      "⊗": 1332,
      "⊞": 1333,
      "⊹": 1334,
      "⋆": 1335,
      "⋯": 1336,
      "⌚": 1337,
      "⍟": 1338,
      "⏩": 1339,
      "⏳": 1340,
      "①": 1341,
      "②": 1342,
      "④": 1343,
      "⒚": 1344,
      "─": 1345,
      "■": 1346,
      "□": 1347,
      "▪": 1348,
      "▬": 1349,
      "▶": 1350,
      "►": 1351,
      "▻": 1352,
      "▼": 1353,
      "▾": 1354,
      "◀": 1355,
      "◆": 1356,
      "◊": 1357,
      "◌": 1358,
      "●": 1359,
      "◘": 1360,
      "◦": 1361,
      "◼": 1362,
      "☀": 1363,
      "☂": 1364,
      "★": 1365,
      "☆": 1366,
      "☊": 1367,
      "☋": 1368,
      "☏": 1369,
      "☑": 1370,
      "☕": 1371,
      "☘": 1372,
      "☛": 1373,
      "☜": 1374,
      "☝": 1375,
      "☞": 1376,
      "☺": 1377,
      "♃": 1378,
      "♄": 1379,
      "♅": 1380,
      "♆": 1381,
      "♇": 1382,
      "♑": 1383,
      "♓": 1384,
      "♠": 1385,
      "♣": 1386,
      "♥": 1387,
      "♦": 1388,
      "♪": 1389,
      "♫": 1390,
      "♬": 1391,
      "♭": 1392,
      "♯": 1393,
      "⚕": 1394,
      "⚙": 1395,
      "⚜": 1396,
      "⚝": 1397,
      "⚠": 1398,
      "⛏": 1399,
      "✈": 1400,
      "✉": 1401,
      "✊": 1402,
      "✍": 1403,
      "✓": 1404,
      "✔": 1405,
      "✦": 1406,
      "✨": 1407,
      "✩": 1408,
      "✪": 1409,
      "✱": 1410,
      "✳": 1411,
      "✶": 1412,
      "✷": 1413,
      "✸": 1414,
      "✹": 1415,
      "✺": 1416,
      "✼": 1417,
      "❂": 1418,
      "❉": 1419,
      "❊": 1420,
      "❋": 1421,
      "❓": 1422,
      "❝": 1423,
      "❞": 1424,
      "❤": 1425,
      "➖": 1426,
      "➡": 1427,
      "➤": 1428,
      "➥": 1429,
      "➦": 1430,
      "➧": 1431,
      "➪": 1432,
      "⤏": 1433,
      "⦁": 1434,
      "⦿": 1435,
      "⬛": 1436,
      "⭕": 1437,
      "、": 1438,
      "。": 1439,
      "々": 1440,
      "《": 1441,
      "》": 1442,
      "「": 1443,
      "」": 1444,
      "『": 1445,
      "』": 1446,
      "【": 1447,
      "】": 1448,
      "あ": 1449,
      "い": 1450,
      "う": 1451,
      "え": 1452,
      "お": 1453,
      "か": 1454,
      "が": 1455,
      "き": 1456,
      "く": 1457,
      "ぐ": 1458,
      "け": 1459,
      "げ": 1460,
      "こ": 1461,
      "ご": 1462,
      "さ": 1463,
      "ざ": 1464,
      "し": 1465,
      "じ": 1466,
      "す": 1467,
      "ず": 1468,
      "せ": 1469,
      "ぜ": 1470,
      "そ": 1471,
      "た": 1472,
      "だ": 1473,
      "ち": 1474,
      "っ": 1475,
      "つ": 1476,
      "づ": 1477,
      "て": 1478,
      "で": 1479,
      "と": 1480,
      "ど": 1481,
      "な": 1482,
      "に": 1483,
      "ぬ": 1484,
      "ね": 1485,
      "の": 1486,
      "は": 1487,
      "ば": 1488,
      "ぱ": 1489,
      "ひ": 1490,
      "び": 1491,
      "ふ": 1492,
      "べ": 1493,
      "ほ": 1494,
      "ま": 1495,
      "み": 1496,
      "む": 1497,
      "め": 1498,
      "も": 1499,
      "ゃ": 1500,
      "や": 1501,
      "ゅ": 1502,
      "よ": 1503,
      "ら": 1504,
      "り": 1505,
      "る": 1506,
      "れ": 1507,
      "ろ": 1508,
      "わ": 1509,
      "を": 1510,
      "ん": 1511,
      "ァ": 1512,
      "ア": 1513,
      "ィ": 1514,
      "イ": 1515,
      "ウ": 1516,
      "ェ": 1517,
      "エ": 1518,
      "オ": 1519,
      "カ": 1520,
      "ガ": 1521,
      "キ": 1522,
      "ク": 1523,
      "グ": 1524,
      "ケ": 1525,
      "コ": 1526,
      "ゴ": 1527,
      "サ": 1528,
      "ザ": 1529,
      "シ": 1530,
      "ジ": 1531,
      "ス": 1532,
      "ズ": 1533,
      "セ": 1534,
      "ソ": 1535,
      "タ": 1536,
      "ダ": 1537,
      "チ": 1538,
      "ッ": 1539,
      "ツ": 1540,
      "テ": 1541,
      "デ": 1542,
      "ト": 1543,
      "ド": 1544,
      "ナ": 1545,
      "ニ": 1546,
      "ネ": 1547,
      "ハ": 1548,
      "バ": 1549,
      "パ": 1550,
      "ヒ": 1551,
      "ビ": 1552,
      "ピ": 1553,
      "フ": 1554,
      "ブ": 1555,
      "プ": 1556,
      "ヘ": 1557,
      "ベ": 1558,
      "ペ": 1559,
      "ボ": 1560,
      "ポ": 1561,
      "マ": 1562,
      "ミ": 1563,
      "ム": 1564,
      "メ": 1565,
      "モ": 1566,
      "ャ": 1567,
      "ヤ": 1568,
      "ュ": 1569,
      "ョ": 1570,
      "ラ": 1571,
      "リ": 1572,
      "ル": 1573,
      "レ": 1574,
      "ロ": 1575,
      "ワ": 1576,
      "ン": 1577,
      "ヶ": 1578,
      "・": 1579,
      "ー": 1580,
      "㎡": 1581,
      "䥫": 1582,
      "一": 1583,
      "七": 1584,
      "万": 1585,
      "丈": 1586,
      "三": 1587,
      "上": 1588,
      "下": 1589,
      "不": 1590,
      "与": 1591,
      "专": 1592,
      "且": 1593,
      "世": 1594,
      "业": 1595,
      "东": 1596,
      "丝": 1597,
      "両": 1598,
      "丢": 1599,
      "两": 1600,
      "严": 1601,
      "並": 1602,
      "个": 1603,
      "中": 1604,
      "临": 1605,
      "为": 1606,
      "主": 1607,
      "丽": 1608,
      "举": 1609,
      "乃": 1610,
      "久": 1611,
      "么": 1612,
      "之": 1613,
      "乐": 1614,
      "乘": 1615,
      "也": 1616,
      "习": 1617,
      "乡": 1618,
      "书": 1619,
      "乱": 1620,
      "乳": 1621,
      "了": 1622,
      "予": 1623,
      "争": 1624,
      "事": 1625,
      "二": 1626,
      "于": 1627,
      "互": 1628,
      "五": 1629,
      "井": 1630,
      "些": 1631,
      "亞": 1632,
      "亡": 1633,
      "交": 1634,
      "亥": 1635,
      "亦": 1636,
      "产": 1637,
      "享": 1638,
      "京": 1639,
      "亮": 1640,
      "亲": 1641,
      "人": 1642,
      "亿": 1643,
      "什": 1644,
      "今": 1645,
      "介": 1646,
      "仍": 1647,
      "从": 1648,
      "仔": 1649,
      "仕": 1650,
      "他": 1651,
      "付": 1652,
      "仙": 1653,
      "代": 1654,
      "令": 1655,
      "以": 1656,
      "仪": 1657,
      "们": 1658,
      "件": 1659,
      "价": 1660,
      "任": 1661,
      "份": 1662,
      "仿": 1663,
      "企": 1664,
      "伊": 1665,
      "伏": 1666,
      "休": 1667,
      "众": 1668,
      "会": 1669,
      "伝": 1670,
      "传": 1671,
      "伦": 1672,
      "伴": 1673,
      "但": 1674,
      "位": 1675,
      "低": 1676,
      "住": 1677,
      "体": 1678,
      "何": 1679,
      "余": 1680,
      "佛": 1681,
      "作": 1682,
      "你": 1683,
      "佳": 1684,
      "使": 1685,
      "例": 1686,
      "供": 1687,
      "依": 1688,
      "価": 1689,
      "侦": 1690,
      "便": 1691,
      "係": 1692,
      "俗": 1693,
      "保": 1694,
      "信": 1695,
      "修": 1696,
      "個": 1697,
      "倍": 1698,
      "們": 1699,
      "倒": 1700,
      "候": 1701,
      "值": 1702,
      "做": 1703,
      "停": 1704,
      "健": 1705,
      "側": 1706,
      "偵": 1707,
      "偽": 1708,
      "備": 1709,
      "催": 1710,
      "傭": 1711,
      "僅": 1712,
      "像": 1713,
      "僕": 1714,
      "價": 1715,
      "儘": 1716,
      "優": 1717,
      "儿": 1718,
      "允": 1719,
      "元": 1720,
      "充": 1721,
      "先": 1722,
      "光": 1723,
      "克": 1724,
      "児": 1725,
      "党": 1726,
      "入": 1727,
      "內": 1728,
      "全": 1729,
      "八": 1730,
      "公": 1731,
      "六": 1732,
      "共": 1733,
      "关": 1734,
      "兴": 1735,
      "兵": 1736,
      "其": 1737,
      "具": 1738,
      "典": 1739,
      "养": 1740,
      "兼": 1741,
      "内": 1742,
      "円": 1743,
      "册": 1744,
      "再": 1745,
      "军": 1746,
      "农": 1747,
      "冯": 1748,
      "决": 1749,
      "况": 1750,
      "冷": 1751,
      "准": 1752,
      "减": 1753,
      "凝": 1754,
      "几": 1755,
      "凤": 1756,
      "出": 1757,
      "击": 1758,
      "分": 1759,
      "切": 1760,
      "刊": 1761,
      "划": 1762,
      "列": 1763,
      "刘": 1764,
      "创": 1765,
      "初": 1766,
      "判": 1767,
      "利": 1768,
      "别": 1769,
      "到": 1770,
      "制": 1771,
      "刷": 1772,
      "券": 1773,
      "前": 1774,
      "剑": 1775,
      "剖": 1776,
      "剤": 1777,
      "剩": 1778,
      "副": 1779,
      "創": 1780,
      "力": 1781,
      "办": 1782,
      "功": 1783,
      "加": 1784,
      "务": 1785,
      "动": 1786,
      "助": 1787,
      "努": 1788,
      "劫": 1789,
      "劳": 1790,
      "動": 1791,
      "務": 1792,
      "募": 1793,
      "勢": 1794,
      "勤": 1795,
      "包": 1796,
      "化": 1797,
      "北": 1798,
      "匣": 1799,
      "匯": 1800,
      "匹": 1801,
      "区": 1802,
      "医": 1803,
      "十": 1804,
      "千": 1805,
      "升": 1806,
      "午": 1807,
      "半": 1808,
      "华": 1809,
      "协": 1810,
      "卐": 1811,
      "单": 1812,
      "卖": 1813,
      "南": 1814,
      "単": 1815,
      "博": 1816,
      "卡": 1817,
      "卫": 1818,
      "印": 1819,
      "危": 1820,
      "即": 1821,
      "卷": 1822,
      "厂": 1823,
      "厅": 1824,
      "历": 1825,
      "压": 1826,
      "厚": 1827,
      "原": 1828,
      "去": 1829,
      "参": 1830,
      "又": 1831,
      "及": 1832,
      "友": 1833,
      "双": 1834,
      "反": 1835,
      "发": 1836,
      "取": 1837,
      "受": 1838,
      "变": 1839,
      "口": 1840,
      "古": 1841,
      "句": 1842,
      "另": 1843,
      "只": 1844,
      "召": 1845,
      "可": 1846,
      "台": 1847,
      "右": 1848,
      "号": 1849,
      "司": 1850,
      "各": 1851,
      "合": 1852,
      "吉": 1853,
      "同": 1854,
      "名": 1855,
      "后": 1856,
      "向": 1857,
      "吧": 1858,
      "含": 1859,
      "听": 1860,
      "吸": 1861,
      "呂": 1862,
      "告": 1863,
      "员": 1864,
      "呢": 1865,
      "周": 1866,
      "味": 1867,
      "命": 1868,
      "和": 1869,
      "咨": 1870,
      "品": 1871,
      "哈": 1872,
      "員": 1873,
      "哪": 1874,
      "售": 1875,
      "唯": 1876,
      "商": 1877,
      "問": 1878,
      "善": 1879,
      "喎": 1880,
      "喜": 1881,
      "單": 1882,
      "喷": 1883,
      "器": 1884,
      "四": 1885,
      "回": 1886,
      "囟": 1887,
      "因": 1888,
      "团": 1889,
      "园": 1890,
      "围": 1891,
      "固": 1892,
      "国": 1893,
      "國": 1894,
      "土": 1895,
      "圥": 1896,
      "圧": 1897,
      "在": 1898,
      "圭": 1899,
      "地": 1900,
      "圹": 1901,
      "场": 1902,
      "址": 1903,
      "坂": 1904,
      "均": 1905,
      "坊": 1906,
      "坏": 1907,
      "坐": 1908,
      "块": 1909,
      "坚": 1910,
      "坠": 1911,
      "坤": 1912,
      "垄": 1913,
      "型": 1914,
      "城": 1915,
      "培": 1916,
      "基": 1917,
      "埼": 1918,
      "堂": 1919,
      "堆": 1920,
      "報": 1921,
      "場": 1922,
      "塑": 1923,
      "塞": 1924,
      "填": 1925,
      "境": 1926,
      "墙": 1927,
      "壇": 1928,
      "士": 1929,
      "壮": 1930,
      "声": 1931,
      "壳": 1932,
      "处": 1933,
      "备": 1934,
      "変": 1935,
      "复": 1936,
      "夏": 1937,
      "夕": 1938,
      "外": 1939,
      "多": 1940,
      "夜": 1941,
      "够": 1942,
      "大": 1943,
      "天": 1944,
      "太": 1945,
      "夫": 1946,
      "夭": 1947,
      "央": 1948,
      "头": 1949,
      "夹": 1950,
      "夺": 1951,
      "奇": 1952,
      "奈": 1953,
      "契": 1954,
      "套": 1955,
      "女": 1956,
      "奴": 1957,
      "她": 1958,
      "好": 1959,
      "如": 1960,
      "妇": 1961,
      "妙": 1962,
      "姉": 1963,
      "始": 1964,
      "委": 1965,
      "姨": 1966,
      "姻": 1967,
      "姿": 1968,
      "威": 1969,
      "娘": 1970,
      "娜": 1971,
      "娱": 1972,
      "婚": 1973,
      "婴": 1974,
      "媒": 1975,
      "媛": 1976,
      "嫂": 1977,
      "子": 1978,
      "孔": 1979,
      "字": 1980,
      "存": 1981,
      "季": 1982,
      "学": 1983,
      "宁": 1984,
      "它": 1985,
      "安": 1986,
      "完": 1987,
      "宏": 1988,
      "官": 1989,
      "定": 1990,
      "宝": 1991,
      "实": 1992,
      "宠": 1993,
      "审": 1994,
      "客": 1995,
      "宣": 1996,
      "室": 1997,
      "宫": 1998,
      "宮": 1999,
      "害": 2000,
      "家": 2001,
      "容": 2002,
      "宿": 2003,
      "寄": 2004,
      "密": 2005,
      "富": 2006,
      "寡": 2007,
      "寥": 2008,
      "實": 2009,
      "寫": 2010,
      "寶": 2011,
      "对": 2012,
      "寺": 2013,
      "寻": 2014,
      "导": 2015,
      "対": 2016,
      "寿": 2017,
      "封": 2018,
      "将": 2019,
      "將": 2020,
      "對": 2021,
      "導": 2022,
      "小": 2023,
      "少": 2024,
      "尔": 2025,
      "尘": 2026,
      "尚": 2027,
      "就": 2028,
      "尻": 2029,
      "尾": 2030,
      "局": 2031,
      "层": 2032,
      "居": 2033,
      "屋": 2034,
      "展": 2035,
      "属": 2036,
      "層": 2037,
      "山": 2038,
      "屺": 2039,
      "岛": 2040,
      "岡": 2041,
      "岣": 2042,
      "岩": 2043,
      "峰": 2044,
      "島": 2045,
      "嵐": 2046,
      "嶺": 2047,
      "川": 2048,
      "州": 2049,
      "巣": 2050,
      "工": 2051,
      "巧": 2052,
      "巨": 2053,
      "差": 2054,
      "己": 2055,
      "已": 2056,
      "巴": 2057,
      "巷": 2058,
      "市": 2059,
      "布": 2060,
      "师": 2061,
      "希": 2062,
      "帝": 2063,
      "带": 2064,
      "師": 2065,
      "席": 2066,
      "帮": 2067,
      "帯": 2068,
      "帳": 2069,
      "常": 2070,
      "幕": 2071,
      "幢": 2072,
      "幣": 2073,
      "幫": 2074,
      "干": 2075,
      "平": 2076,
      "年": 2077,
      "并": 2078,
      "幸": 2079,
      "幹": 2080,
      "幼": 2081,
      "幾": 2082,
      "广": 2083,
      "広": 2084,
      "庄": 2085,
      "庆": 2086,
      "床": 2087,
      "序": 2088,
      "库": 2089,
      "应": 2090,
      "底": 2091,
      "店": 2092,
      "府": 2093,
      "庠": 2094,
      "度": 2095,
      "座": 2096,
      "庵": 2097,
      "廓": 2098,
      "廣": 2099,
      "延": 2100,
      "廷": 2101,
      "建": 2102,
      "开": 2103,
      "弁": 2104,
      "异": 2105,
      "式": 2106,
      "弓": 2107,
      "引": 2108,
      "张": 2109,
      "弯": 2110,
      "張": 2111,
      "强": 2112,
      "归": 2113,
      "当": 2114,
      "形": 2115,
      "彩": 2116,
      "彭": 2117,
      "影": 2118,
      "彻": 2119,
      "往": 2120,
      "待": 2121,
      "很": 2122,
      "律": 2123,
      "後": 2124,
      "徒": 2125,
      "得": 2126,
      "微": 2127,
      "德": 2128,
      "心": 2129,
      "必": 2130,
      "志": 2131,
      "忘": 2132,
      "忙": 2133,
      "応": 2134,
      "快": 2135,
      "念": 2136,
      "态": 2137,
      "思": 2138,
      "性": 2139,
      "怪": 2140,
      "总": 2141,
      "恋": 2142,
      "恒": 2143,
      "恕": 2144,
      "恩": 2145,
      "息": 2146,
      "恵": 2147,
      "恶": 2148,
      "悠": 2149,
      "患": 2150,
      "您": 2151,
      "悪": 2152,
      "情": 2153,
      "惠": 2154,
      "想": 2155,
      "惶": 2156,
      "意": 2157,
      "愛": 2158,
      "感": 2159,
      "愿": 2160,
      "慈": 2161,
      "態": 2162,
      "慧": 2163,
      "應": 2164,
      "戀": 2165,
      "戈": 2166,
      "戏": 2167,
      "成": 2168,
      "我": 2169,
      "或": 2170,
      "战": 2171,
      "戦": 2172,
      "戴": 2173,
      "户": 2174,
      "戸": 2175,
      "房": 2176,
      "所": 2177,
      "扇": 2178,
      "手": 2179,
      "才": 2180,
      "打": 2181,
      "托": 2182,
      "扣": 2183,
      "执": 2184,
      "扩": 2185,
      "扬": 2186,
      "扭": 2187,
      "扮": 2188,
      "扶": 2189,
      "批": 2190,
      "找": 2191,
      "承": 2192,
      "技": 2193,
      "把": 2194,
      "投": 2195,
      "抗": 2196,
      "択": 2197,
      "护": 2198,
      "报": 2199,
      "抵": 2200,
      "押": 2201,
      "抽": 2202,
      "担": 2203,
      "拉": 2204,
      "拍": 2205,
      "拘": 2206,
      "招": 2207,
      "择": 2208,
      "拿": 2209,
      "持": 2210,
      "指": 2211,
      "按": 2212,
      "挚": 2213,
      "振": 2214,
      "捐": 2215,
      "据": 2216,
      "掀": 2217,
      "掌": 2218,
      "排": 2219,
      "掛": 2220,
      "掠": 2221,
      "採": 2222,
      "探": 2223,
      "接": 2224,
      "控": 2225,
      "推": 2226,
      "提": 2227,
      "換": 2228,
      "援": 2229,
      "損": 2230,
      "搜": 2231,
      "携": 2232,
      "摄": 2233,
      "撇": 2234,
      "撕": 2235,
      "播": 2236,
      "撮": 2237,
      "擇": 2238,
      "操": 2239,
      "支": 2240,
      "收": 2241,
      "改": 2242,
      "攻": 2243,
      "政": 2244,
      "故": 2245,
      "效": 2246,
      "教": 2247,
      "数": 2248,
      "整": 2249,
      "文": 2250,
      "斗": 2251,
      "料": 2252,
      "断": 2253,
      "新": 2254,
      "方": 2255,
      "於": 2256,
      "旅": 2257,
      "旋": 2258,
      "族": 2259,
      "旗": 2260,
      "无": 2261,
      "既": 2262,
      "日": 2263,
      "旧": 2264,
      "旨": 2265,
      "早": 2266,
      "时": 2267,
      "昇": 2268,
      "昌": 2269,
      "明": 2270,
      "易": 2271,
      "春": 2272,
      "是": 2273,
      "显": 2274,
      "時": 2275,
      "晚": 2276,
      "普": 2277,
      "景": 2278,
      "智": 2279,
      "曲": 2280,
      "更": 2281,
      "曾": 2282,
      "替": 2283,
      "最": 2284,
      "會": 2285,
      "月": 2286,
      "有": 2287,
      "服": 2288,
      "望": 2289,
      "朝": 2290,
      "期": 2291,
      "木": 2292,
      "未": 2293,
      "本": 2294,
      "术": 2295,
      "机": 2296,
      "杂": 2297,
      "权": 2298,
      "杆": 2299,
      "杉": 2300,
      "材": 2301,
      "村": 2302,
      "杜": 2303,
      "束": 2304,
      "条": 2305,
      "来": 2306,
      "杨": 2307,
      "杭": 2308,
      "杯": 2309,
      "杰": 2310,
      "東": 2311,
      "松": 2312,
      "板": 2313,
      "极": 2314,
      "构": 2315,
      "析": 2316,
      "林": 2317,
      "果": 2318,
      "枣": 2319,
      "枪": 2320,
      "枭": 2321,
      "架": 2322,
      "柄": 2323,
      "某": 2324,
      "柜": 2325,
      "查": 2326,
      "柴": 2327,
      "査": 2328,
      "标": 2329,
      "栓": 2330,
      "栗": 2331,
      "校": 2332,
      "株": 2333,
      "样": 2334,
      "根": 2335,
      "格": 2336,
      "案": 2337,
      "桌": 2338,
      "桜": 2339,
      "桶": 2340,
      "梦": 2341,
      "梯": 2342,
      "械": 2343,
      "梳": 2344,
      "检": 2345,
      "業": 2346,
      "極": 2347,
      "楹": 2348,
      "楼": 2349,
      "楽": 2350,
      "概": 2351,
      "様": 2352,
      "槻": 2353,
      "樂": 2354,
      "模": 2355,
      "樣": 2356,
      "横": 2357,
      "橋": 2358,
      "機": 2359,
      "橹": 2360,
      "次": 2361,
      "欢": 2362,
      "欧": 2363,
      "款": 2364,
      "歌": 2365,
      "歡": 2366,
      "止": 2367,
      "正": 2368,
      "此": 2369,
      "步": 2370,
      "武": 2371,
      "歧": 2372,
      "歩": 2373,
      "死": 2374,
      "殇": 2375,
      "残": 2376,
      "段": 2377,
      "殿": 2378,
      "母": 2379,
      "每": 2380,
      "毓": 2381,
      "比": 2382,
      "毛": 2383,
      "民": 2384,
      "气": 2385,
      "気": 2386,
      "氣": 2387,
      "氧": 2388,
      "氨": 2389,
      "水": 2390,
      "永": 2391,
      "求": 2392,
      "汉": 2393,
      "江": 2394,
      "汪": 2395,
      "決": 2396,
      "汽": 2397,
      "沂": 2398,
      "沟": 2399,
      "没": 2400,
      "沢": 2401,
      "河": 2402,
      "油": 2403,
      "治": 2404,
      "沼": 2405,
      "法": 2406,
      "波": 2407,
      "注": 2408,
      "泰": 2409,
      "泻": 2410,
      "泽": 2411,
      "洁": 2412,
      "洗": 2413,
      "津": 2414,
      "洲": 2415,
      "活": 2416,
      "派": 2417,
      "流": 2418,
      "测": 2419,
      "济": 2420,
      "浏": 2421,
      "浓": 2422,
      "浙": 2423,
      "浦": 2424,
      "浮": 2425,
      "海": 2426,
      "浸": 2427,
      "消": 2428,
      "涡": 2429,
      "涤": 2430,
      "润": 2431,
      "液": 2432,
      "淄": 2433,
      "淅": 2434,
      "淑": 2435,
      "深": 2436,
      "淼": 2437,
      "清": 2438,
      "済": 2439,
      "減": 2440,
      "港": 2441,
      "游": 2442,
      "湖": 2443,
      "源": 2444,
      "準": 2445,
      "滑": 2446,
      "滚": 2447,
      "滨": 2448,
      "滿": 2449,
      "漂": 2450,
      "漏": 2451,
      "演": 2452,
      "漢": 2453,
      "漫": 2454,
      "潍": 2455,
      "潔": 2456,
      "潮": 2457,
      "澜": 2458,
      "激": 2459,
      "瀛": 2460,
      "瀞": 2461,
      "瀬": 2462,
      "灣": 2463,
      "火": 2464,
      "灯": 2465,
      "灵": 2466,
      "点": 2467,
      "為": 2468,
      "烟": 2469,
      "烫": 2470,
      "热": 2471,
      "烷": 2472,
      "無": 2473,
      "焦": 2474,
      "焱": 2475,
      "然": 2476,
      "煤": 2477,
      "照": 2478,
      "熊": 2479,
      "熙": 2480,
      "熟": 2481,
      "爆": 2482,
      "爱": 2483,
      "父": 2484,
      "片": 2485,
      "版": 2486,
      "物": 2487,
      "特": 2488,
      "犀": 2489,
      "状": 2490,
      "犹": 2491,
      "狂": 2492,
      "狭": 2493,
      "猫": 2494,
      "献": 2495,
      "獨": 2496,
      "獲": 2497,
      "玉": 2498,
      "王": 2499,
      "玩": 2500,
      "环": 2501,
      "现": 2502,
      "玻": 2503,
      "球": 2504,
      "理": 2505,
      "琳": 2506,
      "璃": 2507,
      "瓦": 2508,
      "甕": 2509,
      "甘": 2510,
      "甚": 2511,
      "生": 2512,
      "產": 2513,
      "用": 2514,
      "田": 2515,
      "由": 2516,
      "甲": 2517,
      "申": 2518,
      "电": 2519,
      "男": 2520,
      "町": 2521,
      "画": 2522,
      "界": 2523,
      "留": 2524,
      "略": 2525,
      "番": 2526,
      "畴": 2527,
      "當": 2528,
      "疆": 2529,
      "疏": 2530,
      "疾": 2531,
      "痛": 2532,
      "痩": 2533,
      "癖": 2534,
      "発": 2535,
      "登": 2536,
      "發": 2537,
      "白": 2538,
      "百": 2539,
      "的": 2540,
      "皆": 2541,
      "皇": 2542,
      "皮": 2543,
      "益": 2544,
      "监": 2545,
      "盒": 2546,
      "盟": 2547,
      "目": 2548,
      "直": 2549,
      "相": 2550,
      "省": 2551,
      "看": 2552,
      "真": 2553,
      "眠": 2554,
      "眼": 2555,
      "着": 2556,
      "睐": 2557,
      "督": 2558,
      "知": 2559,
      "矩": 2560,
      "石": 2561,
      "矿": 2562,
      "码": 2563,
      "破": 2564,
      "硝": 2565,
      "确": 2566,
      "碎": 2567,
      "碑": 2568,
      "碰": 2569,
      "確": 2570,
      "磁": 2571,
      "礁": 2572,
      "礎": 2573,
      "示": 2574,
      "礼": 2575,
      "社": 2576,
      "祝": 2577,
      "神": 2578,
      "票": 2579,
      "禁": 2580,
      "福": 2581,
      "禾": 2582,
      "私": 2583,
      "秋": 2584,
      "种": 2585,
      "科": 2586,
      "秘": 2587,
      "租": 2588,
      "秦": 2589,
      "秩": 2590,
      "积": 2591,
      "称": 2592,
      "移": 2593,
      "程": 2594,
      "種": 2595,
      "稳": 2596,
      "穸": 2597,
      "穹": 2598,
      "空": 2599,
      "突": 2600,
      "窝": 2601,
      "窨": 2602,
      "立": 2603,
      "站": 2604,
      "竞": 2605,
      "章": 2606,
      "童": 2607,
      "端": 2608,
      "笑": 2609,
      "笔": 2610,
      "第": 2611,
      "等": 2612,
      "筋": 2613,
      "筑": 2614,
      "筒": 2615,
      "答": 2616,
      "策": 2617,
      "签": 2618,
      "简": 2619,
      "算": 2620,
      "管": 2621,
      "箱": 2622,
      "節": 2623,
      "範": 2624,
      "篇": 2625,
      "篠": 2626,
      "簡": 2627,
      "簽": 2628,
      "米": 2629,
      "类": 2630,
      "粉": 2631,
      "粗": 2632,
      "粤": 2633,
      "粹": 2634,
      "精": 2635,
      "糖": 2636,
      "系": 2637,
      "約": 2638,
      "納": 2639,
      "素": 2640,
      "紫": 2641,
      "細": 2642,
      "紹": 2643,
      "組": 2644,
      "経": 2645,
      "結": 2646,
      "絡": 2647,
      "給": 2648,
      "絵": 2649,
      "続": 2650,
      "網": 2651,
      "総": 2652,
      "緑": 2653,
      "線": 2654,
      "繁": 2655,
      "繋": 2656,
      "織": 2657,
      "繳": 2658,
      "繼": 2659,
      "續": 2660,
      "红": 2661,
      "约": 2662,
      "级": 2663,
      "纪": 2664,
      "纯": 2665,
      "纱": 2666,
      "纳": 2667,
      "纵": 2668,
      "纸": 2669,
      "线": 2670,
      "组": 2671,
      "细": 2672,
      "织": 2673,
      "终": 2674,
      "经": 2675,
      "结": 2676,
      "绕": 2677,
      "绘": 2678,
      "给": 2679,
      "络": 2680,
      "绞": 2681,
      "统": 2682,
      "继": 2683,
      "维": 2684,
      "综": 2685,
      "缀": 2686,
      "网": 2687,
      "置": 2688,
      "署": 2689,
      "美": 2690,
      "群": 2691,
      "義": 2692,
      "羽": 2693,
      "翻": 2694,
      "老": 2695,
      "考": 2696,
      "者": 2697,
      "而": 2698,
      "耧": 2699,
      "聊": 2700,
      "职": 2701,
      "联": 2702,
      "聘": 2703,
      "聚": 2704,
      "職": 2705,
      "肃": 2706,
      "肉": 2707,
      "肖": 2708,
      "肚": 2709,
      "肩": 2710,
      "育": 2711,
      "背": 2712,
      "胶": 2713,
      "胸": 2714,
      "能": 2715,
      "脑": 2716,
      "脚": 2717,
      "脸": 2718,
      "腕": 2719,
      "腰": 2720,
      "膜": 2721,
      "臃": 2722,
      "自": 2723,
      "至": 2724,
      "臼": 2725,
      "舆": 2726,
      "與": 2727,
      "舞": 2728,
      "航": 2729,
      "般": 2730,
      "舸": 2731,
      "艦": 2732,
      "良": 2733,
      "色": 2734,
      "艺": 2735,
      "节": 2736,
      "芝": 2737,
      "花": 2738,
      "芳": 2739,
      "苏": 2740,
      "若": 2741,
      "英": 2742,
      "范": 2743,
      "茶": 2744,
      "草": 2745,
      "荐": 2746,
      "荛": 2747,
      "荷": 2748,
      "莞": 2749,
      "莲": 2750,
      "获": 2751,
      "菏": 2752,
      "菖": 2753,
      "菜": 2754,
      "菱": 2755,
      "菲": 2756,
      "萍": 2757,
      "营": 2758,
      "萬": 2759,
      "落": 2760,
      "葛": 2761,
      "蒙": 2762,
      "蒲": 2763,
      "蓉": 2764,
      "蓝": 2765,
      "蓮": 2766,
      "蕨": 2767,
      "薬": 2768,
      "藉": 2769,
      "藍": 2770,
      "藏": 2771,
      "藕": 2772,
      "處": 2773,
      "虹": 2774,
      "蜂": 2775,
      "融": 2776,
      "螺": 2777,
      "蟲": 2778,
      "行": 2779,
      "街": 2780,
      "衣": 2781,
      "表": 2782,
      "衬": 2783,
      "衰": 2784,
      "袂": 2785,
      "袋": 2786,
      "被": 2787,
      "装": 2788,
      "裝": 2789,
      "裥": 2790,
      "裱": 2791,
      "裸": 2792,
      "製": 2793,
      "西": 2794,
      "要": 2795,
      "見": 2796,
      "視": 2797,
      "覺": 2798,
      "见": 2799,
      "观": 2800,
      "规": 2801,
      "览": 2802,
      "角": 2803,
      "解": 2804,
      "触": 2805,
      "言": 2806,
      "訂": 2807,
      "計": 2808,
      "記": 2809,
      "訳": 2810,
      "訴": 2811,
      "証": 2812,
      "評": 2813,
      "話": 2814,
      "該": 2815,
      "詳": 2816,
      "誌": 2817,
      "認": 2818,
      "誕": 2819,
      "語": 2820,
      "說": 2821,
      "読": 2822,
      "調": 2823,
      "談": 2824,
      "請": 2825,
      "諺": 2826,
      "謝": 2827,
      "證": 2828,
      "識": 2829,
      "警": 2830,
      "議": 2831,
      "變": 2832,
      "讓": 2833,
      "计": 2834,
      "订": 2835,
      "认": 2836,
      "让": 2837,
      "训": 2838,
      "议": 2839,
      "记": 2840,
      "讲": 2841,
      "许": 2842,
      "论": 2843,
      "设": 2844,
      "访": 2845,
      "证": 2846,
      "评": 2847,
      "识": 2848,
      "词": 2849,
      "试": 2850,
      "诗": 2851,
      "诚": 2852,
      "话": 2853,
      "诞": 2854,
      "询": 2855,
      "语": 2856,
      "说": 2857,
      "请": 2858,
      "读": 2859,
      "课": 2860,
      "谋": 2861,
      "谓": 2862,
      "谢": 2863,
      "谴": 2864,
      "谷": 2865,
      "象": 2866,
      "負": 2867,
      "貨": 2868,
      "販": 2869,
      "責": 2870,
      "貴": 2871,
      "貶": 2872,
      "費": 2873,
      "資": 2874,
      "賜": 2875,
      "賞": 2876,
      "購": 2877,
      "负": 2878,
      "财": 2879,
      "责": 2880,
      "货": 2881,
      "质": 2882,
      "贫": 2883,
      "购": 2884,
      "贯": 2885,
      "贴": 2886,
      "贵": 2887,
      "贷": 2888,
      "贸": 2889,
      "费": 2890,
      "赁": 2891,
      "资": 2892,
      "赛": 2893,
      "赠": 2894,
      "赤": 2895,
      "赴": 2896,
      "起": 2897,
      "超": 2898,
      "越": 2899,
      "趣": 2900,
      "足": 2901,
      "跨": 2902,
      "路": 2903,
      "蹈": 2904,
      "身": 2905,
      "車": 2906,
      "転": 2907,
      "輪": 2908,
      "轉": 2909,
      "车": 2910,
      "轨": 2911,
      "转": 2912,
      "轮": 2913,
      "轴": 2914,
      "轻": 2915,
      "载": 2916,
      "辅": 2917,
      "输": 2918,
      "辛": 2919,
      "辨": 2920,
      "辭": 2921,
      "辺": 2922,
      "辽": 2923,
      "达": 2924,
      "过": 2925,
      "迎": 2926,
      "运": 2927,
      "近": 2928,
      "还": 2929,
      "这": 2930,
      "进": 2931,
      "远": 2932,
      "连": 2933,
      "迷": 2934,
      "追": 2935,
      "退": 2936,
      "送": 2937,
      "选": 2938,
      "這": 2939,
      "通": 2940,
      "速": 2941,
      "造": 2942,
      "連": 2943,
      "週": 2944,
      "進": 2945,
      "遇": 2946,
      "運": 2947,
      "過": 2948,
      "道": 2949,
      "達": 2950,
      "違": 2951,
      "遣": 2952,
      "遭": 2953,
      "選": 2954,
      "邀": 2955,
      "還": 2956,
      "邓": 2957,
      "那": 2958,
      "邪": 2959,
      "郎": 2960,
      "郡": 2961,
      "部": 2962,
      "郷": 2963,
      "都": 2964,
      "配": 2965,
      "酒": 2966,
      "酸": 2967,
      "醪": 2968,
      "采": 2969,
      "里": 2970,
      "重": 2971,
      "野": 2972,
      "量": 2973,
      "金": 2974,
      "針": 2975,
      "錄": 2976,
      "錯": 2977,
      "録": 2978,
      "鍛": 2979,
      "钉": 2980,
      "钓": 2981,
      "钗": 2982,
      "钟": 2983,
      "钠": 2984,
      "钮": 2985,
      "铁": 2986,
      "银": 2987,
      "铺": 2988,
      "链": 2989,
      "销": 2990,
      "锂": 2991,
      "锋": 2992,
      "锥": 2993,
      "镇": 2994,
      "長": 2995,
      "长": 2996,
      "門": 2997,
      "開": 2998,
      "間": 2999,
      "関": 3000,
      "關": 3001,
      "门": 3002,
      "闭": 3003,
      "问": 3004,
      "间": 3005,
      "闻": 3006,
      "阋": 3007,
      "阜": 3008,
      "队": 3009,
      "防": 3010,
      "阳": 3011,
      "阻": 3012,
      "阿": 3013,
      "附": 3014,
      "际": 3015,
      "陆": 3016,
      "陈": 3017,
      "降": 3018,
      "限": 3019,
      "陕": 3020,
      "院": 3021,
      "除": 3022,
      "险": 3023,
      "陰": 3024,
      "陲": 3025,
      "陵": 3026,
      "険": 3027,
      "陽": 3028,
      "階": 3029,
      "隔": 3030,
      "障": 3031,
      "隨": 3032,
      "隻": 3033,
      "难": 3034,
      "雄": 3035,
      "集": 3036,
      "雇": 3037,
      "雕": 3038,
      "難": 3039,
      "零": 3040,
      "雷": 3041,
      "電": 3042,
      "雾": 3043,
      "需": 3044,
      "震": 3045,
      "霉": 3046,
      "霊": 3047,
      "霞": 3048,
      "露": 3049,
      "霸": 3050,
      "靈": 3051,
      "青": 3052,
      "非": 3053,
      "靡": 3054,
      "面": 3055,
      "革": 3056,
      "鞋": 3057,
      "韧": 3058,
      "音": 3059,
      "須": 3060,
      "頭": 3061,
      "頼": 3062,
      "題": 3063,
      "額": 3064,
      "願": 3065,
      "页": 3066,
      "项": 3067,
      "须": 3068,
      "领": 3069,
      "颇": 3070,
      "题": 3071,
      "風": 3072,
      "风": 3073,
      "飘": 3074,
      "飞": 3075,
      "食": 3076,
      "飯": 3077,
      "飲": 3078,
      "飾": 3079,
      "館": 3080,
      "首": 3081,
      "香": 3082,
      "馬": 3083,
      "駒": 3084,
      "駿": 3085,
      "騎": 3086,
      "験": 3087,
      "马": 3088,
      "驱": 3089,
      "验": 3090,
      "骑": 3091,
      "骷": 3092,
      "體": 3093,
      "高": 3094,
      "魔": 3095,
      "鯉": 3096,
      "鯖": 3097,
      "鱼": 3098,
      "鳩": 3099,
      "鴻": 3100,
      "鶴": 3101,
      "鷲": 3102,
      "鸟": 3103,
      "鸽": 3104,
      "鹏": 3105,
      "鹿": 3106,
      "黃": 3107,
      "黄": 3108,
      "黑": 3109,
      "鼓": 3110,
      "齊": 3111,
      "齿": 3112,
      "龋": 3113,
      "龙": 3114,
      "가": 3115,
      "개": 3116,
      "경": 3117,
      "계": 3118,
      "고": 3119,
      "공": 3120,
      "국": 3121,
      "그": 3122,
      "기": 3123,
      "꼭": 3124,
      "는": 3125,
      "능": 3126,
      "니": 3127,
      "다": 3128,
      "단": 3129,
      "닫": 3130,
      "더": 3131,
      "도": 3132,
      "동": 3133,
      "될": 3134,
      "라": 3135,
      "로": 3136,
      "를": 3137,
      "면": 3138,
      "보": 3139,
      "부": 3140,
      "브": 3141,
      "사": 3142,
      "서": 3143,
      "세": 3144,
      "소": 3145,
      "속": 3146,
      "수": 3147,
      "습": 3148,
      "시": 3149,
      "아": 3150,
      "어": 3151,
      "없": 3152,
      "에": 3153,
      "요": 3154,
      "용": 3155,
      "우": 3156,
      "웃": 3157,
      "유": 3158,
      "으": 3159,
      "을": 3160,
      "음": 3161,
      "의": 3162,
      "이": 3163,
      "인": 3164,
      "있": 3165,
      "자": 3166,
      "장": 3167,
      "저": 3168,
      "접": 3169,
      "정": 3170,
      "주": 3171,
      "지": 3172,
      "출": 3173,
      "터": 3174,
      "필": 3175,
      "하": 3176,
      "학": 3177,
      "한": 3178,
      "할": 3179,
      "해": 3180,
      "": 3181,
      "": 3182,
      "": 3183,
      "": 3184,
      "": 3185,
      "": 3186,
      "": 3187,
      "": 3188,
      "": 3189,
      "": 3190,
      "": 3191,
      "": 3192,
      "": 3193,
      "": 3194,
      "": 3195,
      "": 3196,
      "": 3197,
      "": 3198,
      "": 3199,
      "": 3200,
      "": 3201,
      "": 3202,
      "": 3203,
      "": 3204,
      "": 3205,
      "": 3206,
      "": 3207,
      "": 3208,
      "": 3209,
      "": 3210,
      "": 3211,
      "": 3212,
      "": 3213,
      "": 3214,
      "": 3215,
      "": 3216,
      "": 3217,
      "": 3218,
      "": 3219,
      "": 3220,
      "": 3221,
      "": 3222,
      "": 3223,
      "": 3224,
      "": 3225,
      "": 3226,
      "": 3227,
      "": 3228,
      "": 3229,
      "": 3230,
      "": 3231,
      "": 3232,
      "": 3233,
      "": 3234,
      "": 3235,
      "": 3236,
      "": 3237,
      "": 3238,
      "": 3239,
      "": 3240,
      "": 3241,
      "": 3242,
      "": 3243,
      "": 3244,
      "": 3245,
      "": 3246,
      "": 3247,
      "": 3248,
      "": 3249,
      "": 3250,
      "": 3251,
      "": 3252,
      "": 3253,
      "": 3254,
      "": 3255,
      "": 3256,
      "": 3257,
      "": 3258,
      "": 3259,
      "": 3260,
      "": 3261,
      "": 3262,
      "": 3263,
      "": 3264,
      "": 3265,
      "": 3266,
      "": 3267,
      "": 3268,
      "": 3269,
      "": 3270,
      "樂": 3271,
      "藍": 3272,
      "勞": 3273,
      "櫓": 3274,
      "殺": 3275,
      "廬": 3276,
      "︎": 3277,
      "️": 3278,
      "︰": 3279,
      "﻿": 3280,
      "！": 3281,
      "（": 3282,
      "）": 3283,
      "，": 3284,
      "－": 3285,
      "／": 3286,
      "０": 3287,
      "１": 3288,
      "２": 3289,
      "３": 3290,
      "４": 3291,
      "５": 3292,
      "６": 3293,
      "７": 3294,
      "８": 3295,
      "９": 3296,
      "：": 3297,
      "；": 3298,
      "？": 3299,
      "￼": 3300,
      "�": 3301,
      "𐌰": 3302,
      "𐌱": 3303,
      "𐌲": 3304,
      "𐌳": 3305,
      "𐌴": 3306,
      "𐌵": 3307,
      "𐌶": 3308,
      "𐌷": 3309,
      "𐌸": 3310,
      "𐌹": 3311,
      "𐌺": 3312,
      "𐌻": 3313,
      "𐌼": 3314,
      "𐌽": 3315,
      "𐌾": 3316,
      "𐌿": 3317,
      "𐍀": 3318,
      "𐍁": 3319,
      "𐍂": 3320,
      "𐍃": 3321,
      "𐍄": 3322,
      "𐍅": 3323,
      "𐍆": 3324,
      "𐍇": 3325,
      "𐍈": 3326,
      "𐍉": 3327,
      "𐍊": 3328,
      "🇧": 3329,
      "🇮": 3330,
      "🇳": 3331,
      "🇴": 3332,
      "🇸": 3333,
      "🇺": 3334,
      "🌏": 3335,
      "🌟": 3336,
      "🌷": 3337,
      "🌸": 3338,
      "🌹": 3339,
      "🌺": 3340,
      "🌻": 3341,
      "🌾": 3342,
      "🌿": 3343,
      "🍀": 3344,
      "🍏": 3345,
      "🍑": 3346,
      "🍒": 3347,
      "🎂": 3348,
      "🎈": 3349,
      "🎒": 3350,
      "🎥": 3351,
      "🏡": 3352,
      "🏹": 3353,
      "🏻": 3354,
      "🏿": 3355,
      "🐍": 3356,
      "🐒": 3357,
      "🐓": 3358,
      "🐔": 3359,
      "👀": 3360,
      "👆": 3361,
      "👇": 3362,
      "👉": 3363,
      "👌": 3364,
      "👍": 3365,
      "👏": 3366,
      "👐": 3367,
      "👗": 3368,
      "👚": 3369,
      "👛": 3370,
      "👜": 3371,
      "👞": 3372,
      "👟": 3373,
      "👫": 3374,
      "💍": 3375,
      "💎": 3376,
      "💐": 3377,
      "💕": 3378,
      "💖": 3379,
      "💣": 3380,
      "💥": 3381,
      "💦": 3382,
      "💪": 3383,
      "💫": 3384,
      "💰": 3385,
      "💲": 3386,
      "💼": 3387,
      "📖": 3388,
      "📣": 3389,
      "📱": 3390,
      "📲": 3391,
      "📷": 3392,
      "🔊": 3393,
      "🔎": 3394,
      "🔚": 3395,
      "🔥": 3396,
      "🔱": 3397,
      "🔹": 3398,
      "🔺": 3399,
      "🕉": 3400,
      "🗡": 3401,
      "😀": 3402,
      "😁": 3403,
      "😂": 3404,
      "😃": 3405,
      "😆": 3406,
      "😇": 3407,
      "😈": 3408,
      "😉": 3409,
      "😊": 3410,
      "😍": 3411,
      "😎": 3412,
      "😔": 3413,
      "😘": 3414,
      "😛": 3415,
      "😝": 3416,
      "😟": 3417,
      "😠": 3418,
      "😡": 3419,
      "😢": 3420,
      "😦": 3421,
      "😱": 3422,
      "🙁": 3423,
      "🙂": 3424,
      "🙌": 3425,
      "🙏": 3426,
      "🚀": 3427,
      "🛎": 3428,
      "🤔": 3429,
      "🤗": 3430,
      "🤘": 3431,
      "🤝": 3432,
      "🤤": 3433,
      "🥇": 3434,
      "🥒": 3435,
      "ని": 3436,
      "ర్": 3437,
      "్ర": 3438,
      "న్": 3439,
      "స్": 3440,
      "ార": 3441,
      "లు": 3442,
      "ంద": 3443,
      "లో": 3444,
      "కు": 3445,
      "క్": 3446,
      "రి": 3447,
      "ంచ": 3448,
      "్య": 3449,
      "గా": 3450,
      "ను": 3451,
      "ల్": 3452,
      "ట్": 3453,
      "న్న": 3454,
      "ప్ర": 3455,
      "ంది": 3456,
      "వి": 3457,
      "ాల": 3458,
      "ారు": 3459,
      "తు": 3460,
      "మా": 3461,
      "డు": 3462,
      "కి": 3463,
      "చే": 3464,
      "టి": 3465,
      "డి": 3466,
      "కా": 3467,
      "సి": 3468,
      "రు": 3469,
      "త్": 3470,
      "తి": 3471,
      "ప్": 3472,
      "యి": 3473,
      "లి": 3474,
      "ంత": 3475,
      "ంట": 3476,
      "వా": 3477,
      "రా": 3478,
      "పు": 3479,
      "ది": 3480,
      "నా": 3481,
      "చి": 3482,
      "పా": 3483,
      "ద్": 3484,
      "నే": 3485,
      "ంగా": 3486,
      "డా": 3487,
      "కో": 3488,
      "గు": 3489,
      "లా": 3490,
      "యు": 3491,
      "ంచి": 3492,
      "సు": 3493,
      "సం": 3494,
      "లే": 3495,
      "ము": 3496,
      "తో": 3497,
      "చ్": 3498,
      "డ్": 3499,
      "టు": 3500,
      "ంలో": 3501,
      "పి": 3502,
      "మరి": 3503,
      "దు": 3504,
      "స్తు": 3505,
      "యా": 3506,
      "గి": 3507,
      "దా": 3508,
      "న్ని": 3509,
      "ష్": 3510,
      "మీ": 3511,
      "మి": 3512,
      "కొ": 3513,
      "మరియు": 3514,
      "పో": 3515,
      "్యా": 3516,
      "సా": 3517,
      "మె": 3518,
      "స్త": 3519,
      "గ్": 3520,
      "నికి": 3521,
      "క్క": 3522,
      "ఒక": 3523,
      "వే": 3524,
      "పె": 3525,
      "త్ర": 3526,
      "వు": 3527,
      "క్ష": 3528,
      "ండ": 3529,
      "ందు": 3530,
      "టీ": 3531,
      "రో": 3532,
      "తె": 3533,
      "నీ": 3534,
      "ధి": 3535,
      "కే": 3536,
      "మ్": 3537,
      "బా": 3538,
      "కూ": 3539,
      "చె": 3540,
      "న్నా": 3541,
      "వె": 3542,
      "వార": 3543,
      "న్నారు": 3544,
      "ళ్": 3545,
      "తీ": 3546,
      "తా": 3547,
      "దే": 3548,
      "ండి": 3549,
      "స్థ": 3550,
      "ప్ప": 3551,
      "క్ర": 3552,
      "చు": 3553,
      "పై": 3554,
      "రె": 3555,
      "శా": 3556,
      "యం": 3557,
      "తే": 3558,
      "భా": 3559,
      "ప్పు": 3560,
      "ల్లో": 3561,
      "రం": 3562,
      "ైన": 3563,
      "మే": 3564,
      "సీ": 3565,
      "ర్‌": 3566,
      "డం": 3567,
      "వం": 3568,
      "ంగ్": 3569,
      "పరి": 3570,
      "చేయ": 3571,
      "టా": 3572,
      "నిర్": 3573,
      "గ్ర": 3574,
      "జా": 3575,
      "న్‌": 3576,
      "ట్ర": 3577,
      "యో": 3578,
      "హి": 3579,
      "ల్ల": 3580,
      "తం": 3581,
      "ంతో": 3582,
      "బ్": 3583,
      "స్‌": 3584,
      "కూడా": 3585,
      "వ్య": 3586,
      "ొక్క": 3587,
      "వీ": 3588,
      "ంటే": 3589,
      "ంటు": 3590,
      "వర": 3591,
      "జీ": 3592,
      "ద్ద": 3593,
      "నం": 3594,
      "సె": 3595,
      "ారం": 3596,
      "ారి": 3597,
      "పీ": 3598,
      "జి": 3599,
      "హా": 3600,
      "బు": 3601,
      "యొక్క": 3602,
      "వర్": 3603,
      "లీ": 3604,
      "ట్ట": 3605,
      "ాలి": 3606,
      "రీ": 3607,
      "డానికి": 3608,
      "ంచారు": 3609,
      "దీ": 3610,
      "శ్": 3611,
      "ర్య": 3612,
      "జు": 3613,
      "చేసి": 3614,
      "ంచిన": 3615,
      "ధా": 3616,
      "పే": 3617,
      "చూ": 3618,
      "మొ": 3619,
      "చ్చి": 3620,
      "రే": 3621,
      "కె": 3622,
      "సిని": 3623,
      "ట్టు": 3624,
      "కీ": 3625,
      "మో": 3626,
      "త్త": 3627,
      "వ్": 3628,
      "ప్రా": 3629,
      "రూ": 3630,
      "ట్లు": 3631,
      "ట్టి": 3632,
      "సే": 3633,
      "నె": 3634,
      "త్య": 3635,
      "ాలా": 3636,
      "మైన": 3637,
      "అవ": 3638,
      "మీరు": 3639,
      "భి": 3640,
      "మూ": 3641,
      "కోసం": 3642,
      "పూ": 3643,
      "జ్": 3644,
      "మార్": 3645,
      "ఇది": 3646,
      "సినిమా": 3647,
      "సుకు": 3648,
      "శి": 3649,
      "ధ్య": 3650,
      "చ్చు": 3651,
      "బి": 3652,
      "అయి": 3653,
      "పొ": 3654,
      "ంచు": 3655,
      "ర్థ": 3656,
      "ప్పుడు": 3657,
      "ౖన": 3658,
      "ందుకు": 3659,
      "ాయి": 3660,
      "ఉంది": 3661,
      "ంద్ర": 3662,
      "వారి": 3663,
      "అను": 3664,
      "వై": 3665,
      "చాలా": 3666,
      "స్తుంది": 3667,
      "్రి": 3668,
      "ల్‌": 3669,
      "ంటి": 3670,
      "క్కు": 3671,
      "ట్‌": 3672,
      "అని": 3673,
      "ంచే": 3674,
      "రణ": 3675,
      "ారణ": 3676,
      "కోవ": 3677,
      "తెలి": 3678,
      "టర్": 3679,
      "ాలు": 3680,
      "న్నాయి": 3681,
      "భు": 3682,
      "తుంది": 3683,
      "శ్ర": 3684,
      "ఉండ": 3685,
      "ష్ట": 3686,
      "కాల": 3687,
      "20": 3688,
      "తర": 3689,
      "బం": 3690,
      "లేదు": 3691,
      "పార్": 3692,
      "ఎం": 3693,
      "విష": 3694,
      "చిత్ర": 3695,
      "ధిక": 3696,
      "ఖ్య": 3697,
      "ద్య": 3698,
      "ండా": 3699,
      "లె": 3700,
      "లేదా": 3701,
      "కం": 3702,
      "నుంచి": 3703,
      "స్తున్న": 3704,
      "కానీ": 3705,
      "ఫ్": 3706,
      "డీ": 3707,
      "ర్తి": 3708,
      "మైన": 3709,
      "వ్యా": 3710,
      "చ్చ": 3711,
      "ట్ల": 3712,
      "తెలు": 3713,
      "రిగి": 3714,
      "వాత": 3715,
      "య్య": 3716,
      "యన": 3717,
      "శారు": 3718,
      "దేశ": 3719,
      "ండ్": 3720,
      "రుగు": 3721,
      "టె": 3722,
      "గో": 3723,
      "అనే": 3724,
      "షన్": 3725,
      "దర్": 3726,
      "రోజు": 3727,
      "సమ": 3728,
      "పాటు": 3729,
      "మని": 3730,
      "ఉంటు": 3731,
      "నుండి": 3732,
      "ప్పటి": 3733,
      "సూ": 3734,
      "ఉప": 3735,
      "ఆర్": 3736,
      "గం": 3737,
      "డే": 3738,
      "ళ్ల": 3739,
      "ులు": 3740,
      "ంట్": 3741,
      "క్తి": 3742,
      "వారు": 3743,
      "కుండా": 3744,
      "లం": 3745,
      "గొ": 3746,
      "మంత": 3747,
      "రాజ": 3748,
      "భార": 3749,
      "గే": 3750,
      "అత": 3751,
      "అధిక": 3752,
      "ష్ట్ర": 3753,
      "ండు": 3754,
      "మ్మ": 3755,
      "ద్ధ": 3756,
      "యూ": 3757,
      "మాత్ర": 3758,
      "ప్రభు": 3759,
      "బీ": 3760,
      "త్స": 3761,
      "జె": 3762,
      "ారా": 3763,
      "ల్లి": 3764,
      "యంలో": 3765,
      "ఆయన": 3766,
      "ప్రభుత్": 3767,
      "ళ్ళ": 3768,
      "తోంది": 3769,
      "రాష్ట్ర": 3770,
      "అయితే": 3771,
      "స్తా": 3772,
      "పార్టీ": 3773,
      "షి": 3774,
      "తుల": 3775,
      "క్రి": 3776,
      "తున్న": 3777,
      "అంత": 3778,
      "స్ట": 3779,
      "కార్": 3780,
      "స్థా": 3781,
      "ంచింది": 3782,
      "అభి": 3783,
      "మంది": 3784,
      "అది": 3785,
      "చేసిన": 3786,
      "లిగి": 3787,
      "క్కువ": 3788,
      "వరి": 3789,
      "చేశారు": 3790,
      "చెప్ప": 3791,
      "సిన": 3792,
      "మొద": 3793,
      "ఉంటుంది": 3794,
      "వారా": 3795,
      "నాలు": 3796,
      "బో": 3797,
      "ుల": 3798,
      "తులు": 3799,
      "ృష్": 3800,
      "శం": 3801,
      "ణా": 3802,
      "ంచా": 3803,
      "అవస": 3804,
      "డ్డి": 3805,
      "కాం": 3806,
      "ద్వారా": 3807,
      "ఉపయో": 3808,
      "ఆమె": 3809,
      "కార్య": 3810,
      "ముఖ్య": 3811,
      "వంటి": 3812,
      "ంచడానికి": 3813,
      "బె": 3814,
      "ఫి": 3815,
      "అన్ని": 3816,
      "్రా": 3817,
      "్యూ": 3818,
      "సంద": 3819,
      "సో": 3820,
      "గురి": 3821,
      "నో": 3822,
      "మంత్రి": 3823,
      "ణి": 3824,
      "విజ": 3825,
      "రెండు": 3826,
      "మం": 3827,
      "త్తి": 3828,
      "వారం": 3829,
      "అందు": 3830,
      "ల్లా": 3831,
      "బడి": 3832,
      "సర్": 3833,
      "స్తున్నారు": 3834,
      "కులు": 3835,
      "కొన్ని": 3836,
      "స్ప": 3837,
      "తూ": 3838,
      "ంటూ": 3839,
      "తంగా": 3840,
      "స్థి": 3841,
      "క్షణ": 3842,
      "అం": 3843,
      "కాదు": 3844,
      "పోయి": 3845,
      "విధ": 3846,
      "న్స్": 3847,
      "దర్శ": 3848,
      "ఎలా": 3849,
      "ఫో": 3850,
      "హీ": 3851,
      "లోని": 3852,
      "పెద్ద": 3853,
      "ఎన్ని": 3854,
      "లంగా": 3855,
      "స్తే": 3856,
      "ర్లు": 3857,
      "దాని": 3858,
      "తర్": 3859,
      "స్తారు": 3860,
      "వచ్చు": 3861,
      "ప్పి": 3862,
      "అలా": 3863,
      "టో": 3864,
      "క్‌": 3865,
      "జే": 3866,
      "ంపు": 3867,
      "00": 3868,
      "వహి": 3869,
      "ముందు": 3870,
      "పడి": 3871,
      "హై": 3872,
      "కుల": 3873,
      "వరకు": 3874,
      "ట్లా": 3875,
      "నూ": 3876,
      "నిపి": 3877,
      "తీసుకు": 3878,
      "డంతో": 3879,
      "సాధ": 3880,
      "చ్చిన": 3881,
      "వృ": 3882,
      "గ్రా": 3883,
      "క్కడ": 3884,
      "తొ": 3885,
      "త్రి": 3886,
      "న్నాడు": 3887,
      "రై": 3888,
      "మన": 3889,
      "అంద": 3890,
      "తరు": 3891,
      "లై": 3892,
      "శ్రీ": 3893,
      "బాబు": 3894,
      "ద్ర": 3895,
      "ప్రజ": 3896,
      "ఏర్": 3897,
      "చర్": 3898,
      "తర్వాత": 3899,
      "మై": 3900,
      "భ్య": 3901,
      "గురించి": 3902,
      "19": 3903,
      "ఎస్": 3904,
      "స్తూ": 3905,
      "టం": 3906,
      "ప్రారం": 3907,
      "మధ్య": 3908,
      "సరి": 3909,
      "మంచి": 3910,
      "వాల": 3911,
      "ఎన్నిక": 3912,
      "జరిగి": 3913,
      "సై": 3914,
      "పం": 3915,
      "ంచడం": 3916,
      "ప్రధా": 3917,
      "ఉపయోగి": 3918,
      "కేంద్ర": 3919,
      "మరో": 3920,
      "పూర్తి": 3921,
      "మాట్లా": 3922,
      "సంబం": 3923,
      "ంబ": 3924,
      "క్షి": 3925,
      "బ్యా": 3926,
      "రెడ్డి": 3927,
      "జన": 3928,
      "సందర్": 3929,
      "కొత్త": 3930,
      "కంగా": 3931,
      "ప్రే": 3932,
      "స్య": 3933,
      "కారణ": 3934,
      "మర్": 3935,
      "అంది": 3936,
      "రాల": 3937,
      "సారి": 3938,
      "త్యే": 3939,
      "వాటి": 3940,
      "పోలీ": 3941,
      "ణం": 3942,
      "కంటే": 3943,
      "సుకోవ": 3944,
      "నేత": 3945,
      "డె": 3946,
      "ర్త": 3947,
      "ంచుకు": 3948,
      "పడు": 3949,
      "లోకి": 3950,
      "ప్రాంత": 3951,
      "ఉంట": 3952,
      "స్తోంది": 3953,
      "చిన్న": 3954,
      "చేసుకు": 3955,
      "సాధారణ": 3956,
      "ళ్లు": 3957,
      "బాద్": 3958,
      "లేద": 3959,
      "నియ": 3960,
      "నెల": 3961,
      "వల": 3962,
      "హీరో": 3963,
      "స్ట్": 3964,
      "చేసే": 3965,
      "ఇం": 3966,
      "జిల్లా": 3967,
      "చంద్ర": 3968,
      "పారు": 3969,
      "జీవి": 3970,
      "యే": 3971,
      "సులు": 3972,
      "హె": 3973,
      "నిర్వహి": 3974,
      "ఖా": 3975,
      "‌లో": 3976,
      "పాల": 3977,
      "ఎక్కువ": 3978,
      "హ్": 3979,
      "బ్బ": 3980,
      "హు": 3981,
      "పర్": 3982,
      "అవసరం": 3983,
      "ఆధ": 3984,
      "తెలంగా": 3985,
      "ద్ధి": 3986,
      "ందే": 3987,
      "షా": 3988,
      "ందిన": 3989,
      "ప్రభుత్వం": 3990,
      "లేక": 3991,
      "మీద": 3992,
      "క్స్": 3993,
      "చా": 3994,
      "భూ": 3995,
      "చ్చే": 3996,
      "శాల": 3997,
      "హో": 3998,
      "వ్వ": 3999,
      "సంస్థ": 4000,
      "ృష్టి": 4001,
      "్యం": 4002,
      "నిర్మా": 4003,
      "మాన": 4004,
      "పిల్ల": 4005,
      "శు": 4006,
      "దం": 4007,
      "తెలంగాణ": 4008,
      "త్తు": 4009,
      "యాల": 4010,
      "వంత": 4011,
      "201": 4012,
      "బ్ర": 4013,
      "ఉత్": 4014,
      "డ్డ": 4015,
      "నిర్ణ": 4016,
      "పేరు": 4017,
      "గ్రె": 4018,
      "ఇతర": 4019,
      "కోర్": 4020,
      "నేను": 4021,
      "ళ్లి": 4022,
      "పాల్": 4023,
      "రాలు": 4024,
      "సమయంలో": 4025,
      "ారులు": 4026,
      "స్వా": 4027,
      "ైనా": 4028,
      "సుల": 4029,
      "కారం": 4030,
      "క్కి": 4031,
      "సర": 4032,
      "అన": 4033,
      "ఆరో": 4034,
      "కరణ": 4035,
      "ంగ": 4036,
      "కాంగ్రె": 4037,
      "వద్ద": 4038,
      "పరిస్థి": 4039,
      "ర్థి": 4040,
      "అవు": 4041,
      "స్టా": 4042,
      "మొదటి": 4043,
      "సంవ": 4044,
      "అనేక": 4045,
      "చారం": 4046,
      "కథ": 4047,
      "గె": 4048,
      "తెలుగు": 4049,
      "ంచాల": 4050,
      "పడ": 4051,
      "ంగ్‌": 4052,
      "యత్": 4053,
      "పంచ": 4054,
      "ఫీ": 4055,
      "ద్యా": 4056,
      "త్యేక": 4057,
      "ంధ": 4058,
      "తున్నారు": 4059,
      "నాయ": 4060,
      "దో": 4061,
      "ప్రధాన": 4062,
      "విడు": 4063,
      "గ్గ": 4064,
      "ఫా": 4065,
      "పాత్ర": 4066,
      "విడుద": 4067,
      "టే": 4068,
      "హం": 4069,
      "కాలు": 4070,
      "కృ": 4071,
      "ఇలా": 4072,
      "తెలిపారు": 4073,
      "ఉద్య": 4074,
      "సహా": 4075,
      "య్": 4076,
      "భాగ": 4077,
      "యాలు": 4078,
      "గీ": 4079,
      "అత్య": 4080,
      "ర్కొ": 4081,
      "శాఖ": 4082,
      "టానికి": 4083,
      "జో": 4084,
      "రంగా": 4085,
      "న్ను": 4086,
      "వ్ర": 4087,
      "పోవ": 4088,
      "నాల": 4089,
      "తీయ": 4090,
      "10": 4091,
      "మొత్": 4092,
      "హైద": 4093,
      "చిత్రం": 4094,
      "మహి": 4095,
      "త్‌": 4096,
      "దీని": 4097,
      "మహ": 4098,
      "చూడ": 4099,
      "దూ": 4100,
      "ల్లు": 4101,
      "ఉంటే": 4102,
      "ర్చు": 4103,
      "ఎస్‌": 4104,
      "నియో": 4105,
      "చెందిన": 4106,
      "శీ": 4107,
      "తరువాత": 4108,
      "యని": 4109,
      "విద్యా": 4110,
      "సందర్భ": 4111,
      "కర": 4112,
      "అదే": 4113,
      "ఇక": 4114,
      "ఆర్‌": 4115,
      "అన్నారు": 4116,
      "పథ": 4117,
      "ప్రభా": 4118,
      "కుడు": 4119,
      "స్టు": 4120,
      "స్వ": 4121,
      "రాబాద్": 4122,
      "ష్టం": 4123,
      "వృద్ధి": 4124,
      "మరింత": 4125,
      "అతను": 4126,
      "మహిళ": 4127,
      "ప్పటికీ": 4128,
      "లుగా": 4129,
      "చర్య": 4130,
      "చేసింది": 4131,
      "పెట్ట": 4132,
      "ందో": 4133,
      "ద్దు": 4134,
      "అమ": 4135,
      "జర్": 4136,
      "ళి": 4137,
      "తిని": 4138,
      "తీవ్ర": 4139,
      "స్థాయి": 4140,
      "గర్": 4141,
      "ఉత్త": 4142,
      "ారీ": 4143,
      "బట్టి": 4144,
      "జగ": 4145,
      "చ్చింది": 4146,
      "ంచండి": 4147,
      "స్ట్ర": 4148,
      "వ‌": 4149,
      "విషయం": 4150,
      "హైదరాబాద్": 4151,
      "నిక": 4152,
      "సంబంధి": 4153,
      "మాత్రం": 4154,
      "డ్‌": 4155,
      "రుకు": 4156,
      "మాల": 4157,
      "మూడు": 4158,
      "స్త్ర": 4159,
      "ఫె": 4160,
      "కటి": 4161,
      "ంచాడు": 4162,
      "ఉత్ప": 4163,
      "అన్న": 4164,
      "ట్టుకు": 4165,
      "జరుగు": 4166,
      "కాశం": 4167,
      "కళ": 4168,
      "ంలోని": 4169,
      "ఏర్పాటు": 4170,
      "సహ": 4171,
      "కుటు": 4172,
      "టన": 4173,
      "మారు": 4174,
      "రెండ": 4175,
      "సాధి": 4176,
      "యారు": 4177,
      "ముఖ": 4178,
      "వులు": 4179,
      "గిన": 4180,
      "బయ": 4181,
      "ణ్": 4182,
      "టై": 4183,
      "డియా": 4184,
      "ఒక్క": 4185,
      "మొత్తం": 4186,
      "భారీ": 4187,
      "ుడు": 4188,
      "ప్రారంభ": 4189,
      "చెప్పారు": 4190,
      "రావ": 4191,
      "బడు": 4192,
      "చేస్తున్న": 4193,
      "ల్స్": 4194,
      "తారు": 4195,
      "యన్": 4196,
      "ారుల": 4197,
      "ంటారు": 4198,
      "గుర్తి": 4199,
      "అధ్య": 4200,
      "గంట": 4201,
      "సిద్ధ": 4202,
      "స్తున్నా": 4203,
      "యాన్ని": 4204,
      "అర్": 4205,
      "విశ్": 4206,
      "జం": 4207,
      "ల్లీ": 4208,
      "కావ": 4209,
      "ర్ల": 4210,
      "ట్టిన": 4211,
      "మ్మె": 4212,
      "గురు": 4213,
      "అలాగే": 4214,
      "షన్‌": 4215,
      "తాయి": 4216,
      "జూ": 4217,
      "తీసు": 4218,
      "సౌ": 4219,
      "ందా": 4220,
      "య్యా": 4221,
      "ప్రజల": 4222,
      "వుల": 4223,
      "వహ": 4224,
      "స్తాయి": 4225,
      "ప్రి": 4226,
      "త్మ": 4227,
      "లిసి": 4228,
      "తాజా": 4229,
      "కృష్": 4230,
      "వరు": 4231,
      "కేవ": 4232,
      "మ్యా": 4233,
      "కొన": 4234,
      "రంగ": 4235,
      "ంటర్": 4236,
      "శాలు": 4237,
      "స్తుతం": 4238,
      "పేర్కొ": 4239,
      "యువ": 4240,
      "డ్ర": 4241,
      "టింగ్": 4242,
      "పూర్": 4243,
      "చేయాల": 4244,
      "ల్సి": 4245,
      "చికి": 4246,
      "అభివృద్ధి": 4247,
      "అద": 4248,
      "చో": 4249,
      "న్యా": 4250,
      "లేని": 4251,
      "జరిగిన": 4252,
      "క్రీ": 4253,
      "గానే": 4254,
      "నీటి": 4255,
      "దీంతో": 4256,
      "ఆలో": 4257,
      "మాట్లాడు": 4258,
      "వార్": 4259,
      "అంటే": 4260,
      "భావి": 4261,
      "ప్రశ్": 4262,
      "కొని": 4263,
      "ధం": 4264,
      "కోర్టు": 4265,
      "ఉంటాయి": 4266,
      "చేశా": 4267,
      "ఉద్యో": 4268,
      "క్టర్": 4269,
      "అమె": 4270,
      "ంచుకోవ": 4271,
      "సభ్య": 4272,
      "లేకుండా": 4273,
      "తెలిసి": 4274,
      "జ్ఞ": 4275,
      "శాతం": 4276,
      "క‌": 4277,
      "మ్‌": 4278,
      "ప్‌": 4279,
      "వివిధ": 4280,
      "ఏమి": 4281,
      "డియో": 4282,
      "లోనే": 4283,
      "సూచి": 4284,
      "పట్ట": 4285,
      "మారి": 4286,
      "15": 4287,
      "సంఘ": 4288,
      "మృ": 4289,
      "మీడియా": 4290,
      "వాటిని": 4291,
      "ఎంపి": 4292,
      "న్యూ": 4293,
      "సభ": 4294,
      "కాంగ్రెస్": 4295,
      "పర": 4296,
      "త్వ": 4297,
      "చీ": 4298,
      "కాబట్టి": 4299,
      "చికిత్స": 4300,
      "మంలో": 4301,
      "ఫలి": 4302,
      "సొ": 4303,
      "వారికి": 4304,
      "గుల": 4305,
      "బర్": 4306,
      "తాను": 4307,
      "గాల": 4308,
      "స్టే": 4309,
      "గ్య": 4310,
      "ప‌": 4311,
      "మావే": 4312,
      "ర్మ": 4313,
      "ప్పుడ": 4314,
      "మండ": 4315,
      "మాట": 4316,
      "కల": 4317,
      "ంచవచ్చు": 4318,
      "ంటా": 4319,
      "గ్గి": 4320,
      "ధర": 4321,
      "ారె": 4322,
      "ప్పటికే": 4323,
      "న్నీ": 4324,
      "టువంటి": 4325,
      "ంక": 4326,
      "ంత్ర": 4327,
      "బాల": 4328,
      "వైపు": 4329,
      "పరీ": 4330,
      "చెప్పి": 4331,
      "తంలో": 4332,
      "రొ": 4333,
      "తెర": 4334,
      "మేము": 4335,
      "ఇవ్వ": 4336,
      "ప్రభుత్వ": 4337,
      "గుర్": 4338,
      "ఎంత": 4339,
      "ఇక్కడ": 4340,
      "డై": 4341,
      "కెట్": 4342,
      "నంలో": 4343,
      "వై": 4344,
      "బాగా": 4345,
      "అమెరి": 4346,
      "మెంట్": 4347,
      "కోట్ల": 4348,
      "జన్": 4349,
      "రావు": 4350,
      "ల్య": 4351,
      "జ్‌": 4352,
      "అస": 4353,
      "విద్య": 4354,
      "వో": 4355,
      "పై": 4356,
      "ఎమ్మె": 4357,
      "ర్థం": 4358,
      "జర": 4359,
      "ధన": 4360,
      "జేపీ": 4361,
      "ల్ని": 4362,
      "డ్డు": 4363,
      "పోలీసులు": 4364,
      "ఉంద": 4365,
      "కార": 4366,
      "లువ": 4367,
      "వస్థ": 4368,
      "ప్లా": 4369,
      "క్యా": 4370,
      "వెంట": 4371,
      "బడింది": 4372,
      "బీజేపీ": 4373,
      "ఎన్": 4374,
      "నిర్మి": 4375,
      "ప్రారంభి": 4376,
      "మ‌": 4377,
      "ఆధార": 4378,
      "జాతీయ": 4379,
      "ట్స్": 4380,
      "పోటీ": 4381,
      "చ్చారు": 4382,
      "జరి": 4383,
      "డికి": 4384,
      "కారు": 4385,
      "ఎంపిక": 4386,
      "గల": 4387,
      "ఆక": 4388,
      "గాలు": 4389,
      "12": 4390,
      "పున": 4391,
      "పవ": 4392,
      "అతని": 4393,
      "వాహ": 4394,
      "ళ్ళు": 4395,
      "ఇంటి": 4396,
      "వేల": 4397,
      "నంద": 4398,
      "ఉండే": 4399,
      "ంచాలి": 4400,
      "బే": 4401,
      "బల": 4402,
      "వినియో": 4403,
      "కృష్ణ": 4404,
      "అభ్య": 4405,
      "పాల్గొ": 4406,
      "అత్యంత": 4407,
      "డో": 4408,
      "ట్రా": 4409,
      "నంగా": 4410,
      "నివా": 4411,
      "చేయవచ్చు": 4412,
      "వస్తు": 4413,
      "టీడీ": 4414,
      "అంటూ": 4415,
      "చెబు": 4416,
      "కున్న": 4417,
      "మాను": 4418,
      "దేశం": 4419,
      "త్వం": 4420,
      "క్త": 4421,
      "కొంత": 4422,
      "అయిన": 4423,
      "అతి": 4424,
      "ఎందు": 4425,
      "లుపు": 4426,
      "ంటున్నారు": 4427,
      "పోయింది": 4428,
      "మాచారం": 4429,
      "తిరిగి": 4430,
      "విజయ": 4431,
      "విధా": 4432,
      "ప్రజలు": 4433,
      "చేస్తుంది": 4434,
      "కేసు": 4435,
      "స్సు": 4436,
      "ద్ది": 4437,
      "తుంద": 4438,
      "గులు": 4439,
      "ఢి": 4440,
      "లూ": 4441,
      "కొను": 4442,
      "న్య": 4443,
      "ంచేందుకు": 4444,
      "పొంద": 4445,
      "విధంగా": 4446,
      "ర్యా": 4447,
      "శే": 4448,
      "మిక": 4449,
      "పోతే": 4450,
      "బాటు": 4451,
      "ఆస": 4452,
      "వలన": 4453,
      "ట్టా": 4454,
      "సాగు": 4455,
      "ఢిల్లీ": 4456,
      "‌కు": 4457,
      "సృష్టి": 4458,
      "ఉండాలి": 4459,
      "ల్సిన": 4460,
      "బయట": 4461,
      "ంతా": 4462,
      "ఒకటి": 4463,
      "దొ": 4464,
      "స్టి": 4465,
      "అద్": 4466,
      "వెళ్లి": 4467,
      "కౌ": 4468,
      "దృష్టి": 4469,
      "మ్ము": 4470,
      "జెక్": 4471,
      "ఫోన్": 4472,
      "ఆర్థి": 4473,
      "ధు": 4474,
      "వాస్త": 4475,
      "నున్న": 4476,
      "తెలియ": 4477,
      "క్షన్": 4478,
      "శో": 4479,
      "డిగా": 4480,
      "కీయ": 4481,
      "బ్యాం": 4482,
      "కాలం": 4483,
      "క్షల": 4484,
      "పొంది": 4485,
      "సీపీ": 4486,
      "నిజ": 4487,
      "సీఎం": 4488,
      "చూపి": 4489,
      "దర్శి": 4490,
      "తొలి": 4491,
      "టీడీపీ": 4492,
      "క్రియ": 4493,
      "ంచుకో": 4494,
      "మాట్లాడుతూ": 4495,
      "ంటున్న": 4496,
      "అధికారులు": 4497,
      "దాపు": 4498,
      "ఏపీ": 4499,
      "తిలో": 4500,
      "బ్బు": 4501,
      "ఫ్ర": 4502,
      "సందర్భంగా": 4503,
      "దేశ్": 4504,
      "క్తం": 4505,
      "షే": 4506,
      "దె": 4507,
      "శరీ": 4508,
      "సంఖ్య": 4509,
      "అప్పుడు": 4510,
      "30": 4511,
      "నిమి": 4512,
      "అనుమ": 4513,
      "ల్యే": 4514,
      "తొల": 4515,
      "తున్నాయి": 4516,
      "ంప": 4517,
      "్యంలో": 4518,
      "సమయం": 4519,
      "50": 4520,
      "దాదాపు": 4521,
      "టీఆర్": 4522,
      "చెల్లి": 4523,
      "శక్తి": 4524,
      "ఆఫ్": 4525,
      "ఇద్ద": 4526,
      "ంధ్ర": 4527,
      "పెరుగు": 4528,
      "ఎమ్మెల్యే": 4529,
      "గోలు": 4530,
      "కాకుండా": 4531,
      "నుక": 4532,
      "వేది": 4533,
      "200": 4534,
      "సార్లు": 4535,
      "పుణ": 4536,
      "ారో": 4537,
      "కంపె": 4538,
      "బడ్": 4539,
      "ఆసక్తి": 4540,
      "ఇంకా": 4541,
      "టర్ల": 4542,
      "ాన్ని": 4543,
      "ప్రజా": 4544,
      "చ్‌": 4545,
      "కాని": 4546,
      "యత్ని": 4547,
      "కంపెనీ": 4548,
      "వాడ": 4549,
      "ఉద": 4550,
      "ఆహ": 4551,
      "గారు": 4552,
      "రూపా": 4553,
      "కార్డు": 4554,
      "18": 4555,
      "రించ": 4556,
      "ండ్ర": 4557,
      "ప్రో": 4558,
      "స్టార్": 4559,
      "జై": 4560,
      "విమర్": 4561,
      "తున్నా": 4562,
      "ఆర్థిక": 4563,
      "త్వర": 4564,
      "బొ": 4565,
      "ంతరం": 4566,
      "ంట్‌": 4567,
      "త‌": 4568,
      "),": 4569,
      "జగన్": 4570,
      "వెళ్ళ": 4571,
      "డాది": 4572,
      "నేపథ": 4573,
      "తిక": 4574,
      "నాకు": 4575,
      "వ్యవహ": 4576,
      "కేసీ": 4577,
      "చ్చా": 4578,
      "పాఠ": 4579,
      "తిరే": 4580,
      "ఎందుకంటే": 4581,
      "తీసుకోవ": 4582,
      "షణ": 4583,
      "విస్త": 4584,
      "నాన్ని": 4585,
      "ష్క": 4586,
      "ఛా": 4587,
      "ప్రాజెక్": 4588,
      "విషయంలో": 4589,
      "తెలిసిందే": 4590,
      "పోయా": 4591,
      "సింది": 4592,
      "చేస్తున్నారు": 4593,
      "అద్భు": 4594,
      "అయ్య": 4595,
      "అమెరికా": 4596,
      "గుర్తు": 4597,
      "ాల్లో": 4598,
      "భవ": 4599,
      "అవి": 4600,
      "వరణ": 4601,
      "పార": 4602,
      "గౌ": 4603,
      "కొనుగోలు": 4604,
      "చిన": 4605,
      "ఫై": 4606,
      "వ్యతిరే": 4607,
      "పాట": 4608,
      "గొప్ప": 4609,
      "పట్టి": 4610,
      "పోయిన": 4611,
      "క్లి": 4612,
      "ానికి": 4613,
      "రంలో": 4614,
      "ండియా": 4615,
      "ండ్‌": 4616,
      "పరిస్థితి": 4617,
      "వెల్ల": 4618,
      "ఇటీ": 4619,
      "న‌": 4620,
      "బడుతుంది": 4621,
      "పడ్డ": 4622,
      "in": 4623,
      "అల": 4624,
      "బడ": 4625,
      "వది": 4626,
      "ప్ర‌": 4627,
      "మ్మా": 4628,
      "సాం": 4629,
      "క్షలు": 4630,
      "యిన్": 4631,
      "విచ": 4632,
      "రికి": 4633,
      "వివా": 4634,
      "అవసర": 4635,
      "ఉదా": 4636,
      "కాలంలో": 4637,
      "చరి": 4638,
      "టర్‌": 4639,
      "రువు": 4640,
      "అడు": 4641,
      "పూర్తిగా": 4642,
      "త్యా": 4643,
      "నిర్ణయి": 4644,
      "మాజీ": 4645,
      "యుడు": 4646,
      "వ్యాప్": 4647,
      "హరణ": 4648,
      "భం": 4649,
      "ఆట": 4650,
      "నిలి": 4651,
      "దేశంలో": 4652,
      "11": 4653,
      "గ్గర": 4654,
      "స‌": 4655,
      "సాగి": 4656,
      "ఇటీవ": 4657,
      "చేస్తా": 4658,
      "పాడు": 4659,
      "ప్రీ": 4660,
      "సాయ": 4661,
      "రాజు": 4662,
      "ముగి": 4663,
      "రోజుల": 4664,
      "అంతే": 4665,
      "వెళ్": 4666,
      "నిజా": 4667,
      "ర్పు": 4668,
      "పెట్టి": 4669,
      "పవన్": 4670,
      "షన": 4671,
      "వేదిక": 4672,
      "వాడు": 4673,
      "కారణంగా": 4674,
      "విలువ": 4675,
      "ణాలు": 4676,
      "వుడ్": 4677,
      "కూడ": 4678,
      "బహు": 4679,
      "వార్త": 4680,
      "న్సి": 4681,
      "ఇదే": 4682,
      "ప్పుడూ": 4683,
      "చివరి": 4684,
      "ఎందుకు": 4685,
      "యంగా": 4686,
      "ంతి": 4687,
      "ఇంత": 4688,
      "ల్పి": 4689,
      "సాధారణంగా": 4690,
      "మార": 4691,
      "క్ష్": 4692,
      "కింద": 4693,
      "వైద్య": 4694,
      "అమలు": 4695,
      "అధి": 4696,
      "గిలి": 4697,
      "నొ": 4698,
      "కీల": 4699,
      "పోర్": 4700,
      "సంగ": 4701,
      "గ్రీ": 4702,
      "దర్శక": 4703,
      "దశ": 4704,
      "అమ్మ": 4705,
      "ఆల": 4706,
      "ష్‌": 4707,
      "కుటుంబ": 4708,
      "బడిన": 4709,
      "ప్రేక్ష": 4710,
      "మార్పు": 4711,
      "సేవ": 4712,
      "తాజాగా": 4713,
      "ై": 4714,
      "మాలు": 4715,
      "అంతర్": 4716,
      "ప్రొ": 4717,
      "స్తున్నాయి": 4718,
      "ఆలోచ": 4719,
      "దాలు": 4720,
      "పరుగు": 4721,
      "చేసుకోవ": 4722,
      "దారు": 4723,
      "గూ": 4724,
      "ఏడాది": 4725,
      "ప్రేమ": 4726,
      "సాధ్య": 4727,
      "రామ": 4728,
      "నేపథ్యంలో": 4729,
      "ఆది": 4730,
      "ఇంటర్": 4731,
      "ఉదాహరణ": 4732,
      "నుకు": 4733,
      "నిల": 4734,
      "పర్య": 4735,
      "నాలుగు": 4736,
      "చట్ట": 4737,
      "దృ": 4738,
      "దారి": 4739,
      "సంబంధించిన": 4740,
      "ముల": 4741,
      "కింగ్": 4742,
      "న్లు": 4743,
      "రియ": 4744,
      "పెట్టు": 4745,
      "సిం": 4746,
      "సెం": 4747,
      "బ్బంది": 4748,
      "సహాయ": 4749,
      "అంచ": 4750,
      "ఇన్": 4751,
      "కొంద": 4752,
      "వేయ": 4753,
      "రంగు": 4754,
      "పడుతుంది": 4755,
      "అర్థం": 4756,
      "మేర": 4757,
      "వీటి": 4758,
      "ధులు": 4759,
      "బై": 4760,
      "మద్ద": 4761,
      "అందుకు": 4762,
      "అధికార": 4763,
      "బాధ్య": 4764,
      "భాగంగా": 4765,
      "ఫ్యా": 4766,
      "నై": 4767,
      "చెప్": 4768,
      "జ్ఞా": 4769,
      "విద్యార్థ": 4770,
      "వివరి": 4771,
      "వయ": 4772,
      "వీడియో": 4773,
      "దేశాల": 4774,
      "ఖర్చు": 4775,
      "ఫు": 4776,
      "రిక": 4777,
      "యూని": 4778,
      "వాలు": 4779,
      "రాత్రి": 4780,
      "కాగా": 4781,
      "సినిమాలో": 4782,
      "చై": 4783,
      "వెళ్ల": 4784,
      "మరణ": 4785,
      "ంటుంది": 4786,
      "దేశా": 4787,
      "కాలే": 4788,
      "డిన": 4789,
      "పోరా": 4790,
      "సొంత": 4791,
      "ధ్యా": 4792,
      "జరిగింది": 4793,
      "ప్యా": 4794,
      "నాటి": 4795,
      "ప్రశ్న": 4796,
      "మీకు": 4797,
      "ముద్ర": 4798,
      "దాన్ని": 4799,
      "లిం": 4800,
      "రూప": 4801,
      "ఆంధ్ర": 4802,
      "కాల్": 4803,
      "్‌": 4804,
      "ర్స్": 4805,
      "భాగం": 4806,
      "మ్యూ": 4807,
      "బూ": 4808,
      "నిర": 4809,
      "పాలు": 4810,
      "నుంది": 4811,
      "కొద్ది": 4812,
      "ఎంతో": 4813,
      "సింగ్": 4814,
      "ముఖ్యంగా": 4815,
      "14": 4816,
      "మహా": 4817,
      "పద": 4818,
      "చరిత్ర": 4819,
      "దురు": 4820,
      "ందోళ": 4821,
      "దులు": 4822,
      "చేయాలి": 4823,
      "స్‌లో": 4824,
      "మాట్లాడ": 4825,
      "ూరు": 4826,
      "ప్లే": 4827,
      "కుమార్": 4828,
      "పరిక": 4829,
      "కోల్": 4830,
      "థి": 4831,
      "జట్టు": 4832,
      "స్వామి": 4833,
      "మహే": 4834,
      "ఇచ్చిన": 4835,
      "చర్చ": 4836,
      "పాయి": 4837,
      "వుతుంది": 4838,
      "గణ": 4839,
      "కరమైన": 4840,
      "స్వీ": 4841,
      "వానికి": 4842,
      "అనుకు": 4843,
      "ఇందు": 4844,
      "వ్వు": 4845,
      "భద్ర": 4846,
      "బ్లీ": 4847,
      "16": 4848,
      "టెక్": 4849,
      "పాటి": 4850,
      "పంపి": 4851,
      "బుల్": 4852,
      "ఆరోగ్య": 4853,
      "రియా": 4854,
      "అందుకే": 4855,
      "షూ": 4856,
      "దేశి": 4857,
      "25": 4858,
      "ఎలాంటి": 4859,
      "వెంక": 4860,
      "రూపొంది": 4861,
      "కారణం": 4862,
      "పెరిగి": 4863,
      "వాన్ని": 4864,
      "గాయ": 4865,
      "ఒకే": 4866,
      "కాద": 4867,
      "చార": 4868,
      "రష": 4869,
      "ణాల": 4870,
      "అద్భుత": 4871,
      "మాని": 4872,
      "షం": 4873,
      "డిని": 4874,
      "ముందుకు": 4875,
      "మందు": 4876,
      "సామ": 4877,
      "వాస": 4878,
      "ఆందోళ": 4879,
      "తరచు": 4880,
      "అభిమాను": 4881,
      "కుటుం": 4882,
      "ీవుడ్": 4883,
      "స్పష్ట": 4884,
      "సామా": 4885,
      "ట్టే": 4886,
      "అభిప్రా": 4887,
      "లాంటి": 4888,
      "ఇలాంటి": 4889,
      "స్టర్": 4890,
      "మిళ": 4891,
      "ర్‌లో": 4892,
      "ఎంపీ": 4893,
      "తాలు": 4894,
      "స్నే": 4895,
      "జరు": 4896,
      "చేస్తూ": 4897,
      "కూల": 4898,
      "స్పంది": 4899,
      "న్యాయ": 4900,
      "తోంద": 4901,
      "త్సరాల": 4902,
      "ప్రాజెక్టు": 4903,
      "జనం": 4904,
      "బాధ్యత": 4905,
      "పరిశీ": 4906,
      "వ్యూ": 4907,
      "తరచుగా": 4908,
      "పోవడం": 4909,
      "వంట": 4910,
      "అమ్మా": 4911,
      "వేగ": 4912,
      "ష్ణ": 4913,
      "జ‌": 4914,
      "ల్ప": 4915,
      "క్షే": 4916,
      "వారిని": 4917,
      "an": 4918,
      "ండె": 4919,
      "శాస్త్ర": 4920,
      "భవి": 4921,
      "డంలో": 4922,
      "రెండో": 4923,
      "ములు": 4924,
      "ఘటన": 4925,
      "విజయం": 4926,
      "నిర్మాత": 4927,
      "కోట్లు": 4928,
      "కాలి": 4929,
      "యానికి": 4930,
      "మన్": 4931,
      "విక్ర": 4932,
      "లిక": 4933,
      "అసలు": 4934,
      "మనం": 4935,
      "భాష": 4936,
      "పడే": 4937,
      "రారు": 4938,
      "మోదు": 4939,
      "న్స్‌": 4940,
      "పణ": 4941,
      "చుకు": 4942,
      "పాద": 4943,
      "పెళ్లి": 4944,
      "ర‌": 4945,
      "తికి": 4946,
      "గ్గు": 4947,
      "ఐదు": 4948,
      "వ్యాప్తంగా": 4949,
      "స్థాయిలో": 4950,
      "ల్యా": 4951,
      "17": 4952,
      "చెప్పు": 4953,
      "జీవ": 4954,
      "కళా": 4955,
      "ళ్లీ": 4956,
      "మౌ": 4957,
      "తాల": 4958,
      "డిమా": 4959,
      "బోర్": 4960,
      "er": 4961,
      "ఏం": 4962,
      "తేదీ": 4963,
      "దర్శన": 4964,
      "మణ": 4965,
      "ల్డ్": 4966,
      "ప్టె": 4967,
      "క్కడి": 4968,
      "పడిన": 4969,
      "పడ్డారు": 4970,
      "మోహ": 4971,
      "పౌ": 4972,
      "సంగీ": 4973,
      "‌ని": 4974,
      "నేందుకు": 4975,
      "క్యూ": 4976,
      "అసెం": 4977,
      "పేర్కొన్నారు": 4978,
      "వ్యాధి": 4979,
      "ధాని": 4980,
      "మొక్క": 4981,
      "ఉద్": 4982,
      "నున్నారు": 4983,
      "చెయ్య": 4984,
      "13": 4985,
      "విభ": 4986,
      "నులు": 4987,
      "అనేది": 4988,
      "అందుబాటు": 4989,
      "ఎవర": 4990,
      "ఫోటో": 4991,
      "అందరి": 4992,
      "ఫార్": 4993,
      "లైన": 4994,
      "తెలుస్తోంది": 4995,
      "హార్": 4996,
      "క్స్‌": 4997,
      "క్షణాలు": 4998,
      "జాబి": 4999,
      "అసెంబ్లీ": 5000,
      "సౌక": 5001,
      "నాడు": 5002,
      "ఫ్‌": 5003,
      "పట్టు": 5004,
      "లుగు": 5005,
      "బ్రా": 5006,
      "నీరు": 5007,
      "ందం": 5008,
      "లిపి": 5009,
      "ప్రధాని": 5010,
      "నెట్": 5011,
      "చేశాడు": 5012,
      "రాష్ట్రంలో": 5013,
      "కొండ": 5014,
      "చ్ఛ": 5015,
      "ఆప": 5016,
      "దానికి": 5017,
      "కేసీఆర్": 5018,
      "నారా": 5019,
      "అలాంటి": 5020,
      "తెలుసు": 5021,
      "ధుల": 5022,
      "చరణ": 5023,
      "శుభ": 5024,
      "స్పె": 5025,
      "అయినా": 5026,
      "ర్ఘ": 5027,
      "స్థానంలో": 5028,
      "ారాన్ని": 5029,
      "ంటె": 5030,
      "‌ర్": 5031,
      "భూమి": 5032,
      "టాయి": 5033,
      "ఎన్న": 5034,
      "చేస్తు": 5035,
      "మళ్లీ": 5036,
      "పర్యా": 5037,
      "ఖచ్చి": 5038,
      "సంత": 5039,
      "తీరు": 5040,
      "క్షుడు": 5041,
      "వైసీపీ": 5042,
      "క్రా": 5043,
      "వ్యాఖ్య": 5044,
      "న్‌లో": 5045,
      "కొందరు": 5046,
      "వర్తి": 5047,
      "మారింది": 5048,
      "నుగొ": 5049,
      "తుల్లో": 5050,
      "బ్రి": 5051,
      "తల": 5052,
      "గాలి": 5053,
      "కాక": 5054,
      "అప్": 5055,
      "ఫే": 5056,
      "సంప్ర": 5057,
      "ారెడ్డి": 5058,
      "ఎవరి": 5059,
      "మాద": 5060,
      "దర్శకుడు": 5061,
      "నిర్ణయం": 5062,
      "భార్య": 5063,
      "జనా": 5064,
      "సై": 5065,
      "మరొ": 5066,
      "ఫర్": 5067,
      "పాఠశాల": 5068,
      "దీర్ఘ": 5069,
      "ణంలో": 5070,
      "పడింది": 5071,
      "అనంతరం": 5072,
      "ట్రి": 5073,
      "స్క": 5074,
      "కేంద్రం": 5075,
      "లై": 5076,
      "మోడీ": 5077,
      "వాతా": 5078,
      "అమ్మాయి": 5079,
      "తాము": 5080,
      "వ్‌": 5081,
      "ంట్లో": 5082,
      "నిర్ధ": 5083,
      "చేసు": 5084,
      "స్టో": 5085,
      "క్ట్": 5086,
      "జరగ": 5087,
      "చేప": 5088,
      "ంలోకి": 5089,
      "దారుల": 5090,
      "ీయ": 5091,
      "పుస్త": 5092,
      "ఎన్‌": 5093,
      "పరిచ": 5094,
      "అధికారి": 5095,
      "టాల": 5096,
      "తార": 5097,
      "చేస్తే": 5098,
      "పోలి": 5099,
      "నియా": 5100,
      "బాధ": 5101,
      "కార్యాల": 5102,
      "వాళ్ల": 5103,
      "ండ్రి": 5104,
      "ఇందులో": 5105,
      "వినియోగ": 5106,
      "ఎత్తు": 5107,
      "సార్": 5108,
      "విశ్వ": 5109,
      "మ్యాచ్": 5110,
      "ంచబడింది": 5111,
      "నుల": 5112,
      "ట్రో": 5113,
      "ఇష్ట": 5114,
      "బౌ": 5115,
      "పొందు": 5116,
      "డైరె": 5117,
      "విచారణ": 5118,
      "సినిమాలు": 5119,
      "చేరుకు": 5120,
      "ల‌": 5121,
      "ట్లో": 5122,
      "చూసి": 5123,
      "చేయి": 5124,
      "సోష": 5125,
      "అర": 5126,
      "య్యారు": 5127,
      "సేన": 5128,
      "బ్లా": 5129,
      "అప్ప": 5130,
      "జాగ్ర": 5131,
      "మిగిలి": 5132,
      "శ్రా": 5133,
      "స్ట్‌": 5134,
      "శివ": 5135,
      "క్ల": 5136,
      "భయ": 5137,
      "పైగా": 5138,
      "నిర్మాణం": 5139,
      "కెట్‌": 5140,
      "భిన్న": 5141,
      "రించారు": 5142,
      "ఎల్": 5143,
      "రుచి": 5144,
      "క్తులు": 5145,
      "ష్టా": 5146,
      "శ్రీనివా": 5147,
      "100": 5148,
      "రించిన": 5149,
      "ప్రె": 5150,
      "టరీ": 5151,
      "అందువలన": 5152,
      "మను": 5153,
      "కాంగ్రెస్‌": 5154,
      "జిక": 5155,
      "40": 5156,
      ").": 5157,
      "టంతో": 5158,
      "ఆకర్": 5159,
      "రుల": 5160,
      "హీరోయిన్": 5161,
      "మ్మి": 5162,
      "వేర్": 5163,
      "ఉదయం": 5164,
      "వేరు": 5165,
      "చెప్పిన": 5166,
      "ప్రభావం": 5167,
      "గాంధ": 5168,
      "ఏదో": 5169,
      "ండే": 5170,
      "పాత": 5171,
      "గిరి": 5172,
      "టూ": 5173,
      "నియోజ": 5174,
      "దాడి": 5175,
      "ణీ": 5176,
      "ంబర్": 5177,
      "యుద్ధ": 5178,
      "షో": 5179,
      "తండ్రి": 5180,
      "వరకూ": 5181,
      "డిపి": 5182,
      "మంగా": 5183,
      "చర్చి": 5184,
      "రాయ": 5185,
      "ఇండియా": 5186,
      "విమర్శ": 5187,
      "రిలీ": 5188,
      "మన్నారు": 5189,
      "వివ": 5190,
      "్యత": 5191,
      "న్ల": 5192,
      "మిటీ": 5193,
      "గాంధీ": 5194,
      "వెనుక": 5195,
      "మరొక": 5196,
      "మార్గం": 5197,
      "సహజ": 5198,
      "యారీ": 5199,
      "వంద": 5200,
      "ప్రాంతంలో": 5201,
      "చదు": 5202,
      "రూపాయ": 5203,
      "ఉపా": 5204,
      "జీవితం": 5205,
      "ఆవి": 5206,
      "క్తిగ": 5207,
      "ంట్ర": 5208,
      "ంటీ": 5209,
      "దుర్": 5210,
      "అధికారుల": 5211,
      "పారి": 5212,
      "తాన్ని": 5213,
      "పరీక్ష": 5214,
      "క్తుల": 5215,
      "పాలి": 5216,
      "ప్రేక్షకుల": 5217,
      "చేస్తారు": 5218,
      "పోయే": 5219,
      "ఇద్దరు": 5220,
      "ద్దా": 5221,
      "బ్‌": 5222,
      "నాట": 5223,
      "24": 5224,
      "సంతో": 5225,
      "మావేశ": 5226,
      "విద్యు": 5227,
      "అంశాల": 5228,
      "మాన్": 5229,
      "లోప": 5230,
      "గ్యా": 5231,
      "య్యాయి": 5232,
      "స్కో": 5233,
      "రాహు": 5234,
      "పరిమి": 5235,
      "చోటు": 5236,
      "ప్యూ": 5237,
      "ఖ్యా": 5238,
      "పోయారు": 5239,
      "త్వంలో": 5240,
      "విధి": 5241,
      "ధ్": 5242,
      "దారులు": 5243,
      "మహిళల": 5244,
      "ళిక": 5245,
      "కేటాయి": 5246,
      "సందర్భంలో": 5247,
      "అందులో": 5248,
      "వేశ": 5249,
      "విష్య": 5250,
      "మైంది": 5251,
      "రాజధాని": 5252,
      "నాణ": 5253,
      "క్ష్య": 5254,
      "తిప": 5255,
      "అరు": 5256,
      "వంతంగా": 5257,
      "రాయి": 5258,
      "రికార్డు": 5259,
      "షె": 5260,
      "2019": 5261,
      "డాయి": 5262,
      "అడ": 5263,
      "వాద": 5264,
      "మానం": 5265,
      "య‌": 5266,
      "సినిమాల": 5267,
      "గళ": 5268,
      "భావ": 5269,
      "మోదీ": 5270,
      "కష్ట": 5271,
      "హాలు": 5272,
      "వ్యాపార": 5273,
      "ఆడ": 5274,
      "ధీ": 5275,
      "కిలో": 5276,
      "ర్ర": 5277,
      "విన": 5278,
      "గ్గా": 5279,
      "తీర్": 5280,
      "పోలీసుల": 5281,
      "నిపుణ": 5282,
      "ఆహార": 5283,
      "త్సరం": 5284,
      "సెల": 5285,
      "re": 5286,
      "మూల": 5287,
      "నిరో": 5288,
      "భవిష్య": 5289,
      "మూవీ": 5290,
      "హరి": 5291,
      "సాయి": 5292,
      "వరుస": 5293,
      "ణంగా": 5294,
      "య్యే": 5295,
      "బరువు": 5296,
      "పరిశీలి": 5297,
      "వీరి": 5298,
      "వరం": 5299,
      "ంటో": 5300,
      "పురు": 5301,
      "ెం": 5302,
      "చేయండి": 5303,
      "కరమైన": 5304,
      "గార్": 5305,
      "స్థానిక": 5306,
      "సంబంధించి": 5307,
      "వార్డు": 5308,
      "దాయ": 5309,
      "చుట్ట": 5310,
      "్యు": 5311,
      "జోడి": 5312,
      "మంత్ర": 5313,
      "ప్రశ్ని": 5314,
      "ఎక్కడ": 5315,
      "రేషన్": 5316,
      "కుడి": 5317,
      "ఫిర్యా": 5318,
      "కవర్": 5319,
      "స్పష్టం": 5320,
      "స్థానం": 5321,
      "పరిశ్ర": 5322,
      "కళ్యా": 5323,
      "పాది": 5324,
      "ఆలోచి": 5325,
      "మల": 5326,
      "భర్త": 5327,
      "దిరి": 5328,
      "అనిపి": 5329,
      "జాబితా": 5330,
      "డ్యూ": 5331,
      "నీసం": 5332,
      "అవుతుంది": 5333,
      "క్య": 5334,
      "సార": 5335,
      "సంస్": 5336,
      "దండ్ర": 5337,
      "వేసి": 5338,
      "యితే": 5339,
      "మై": 5340,
      "నియోజకవర్": 5341,
      "పరిధి": 5342,
      "వర్త": 5343,
      "ఇంగ్": 5344,
      "సెస్": 5345,
      "భో": 5346,
      "హామీ": 5347,
      "దెబ్బ": 5348,
      "మాధా": 5349,
      "మార్కెట్": 5350,
      "ంగి": 5351,
      "అడుగు": 5352,
      "చొ": 5353,
      "బడ్జె": 5354,
      "ళీ": 5355,
      "టీఆర్‌": 5356,
      "కేషన్": 5357,
      "దిగు": 5358,
      "స్టె": 5359,
      "ఆధారంగా": 5360,
      "ఇవ్": 5361,
      "సభ్యులు": 5362,
      "ంత్రం": 5363,
      "ల్లిదండ్ర": 5364,
      "రైతుల": 5365,
      "న్నాను": 5366,
      "చేరి": 5367,
      "సహాయం": 5368,
      "ఏళ్ల": 5369,
      "చింది": 5370,
      "ండో": 5371,
      "సంచ": 5372,
      "చారు": 5373,
      "సంబంధం": 5374,
      "యణ": 5375,
      "గౌర": 5376,
      "మీటర్ల": 5377,
      "నిమిష": 5378,
      "సైతం": 5379,
      "సోమ": 5380,
      "మెగా": 5381,
      "లువు": 5382,
      "హోట": 5383,
      "అడి": 5384,
      "మృతి": 5385,
      "రామ్": 5386,
      "వాయి": 5387,
      "దీనికి": 5388,
      "పించారు": 5389,
      "ఎవరు": 5390,
      "హాల": 5391,
      "జారీ": 5392,
      "ంచుకోండి": 5393,
      "స్తామని": 5394,
      "om": 5395,
      "మిన": 5396,
      "ఎల్‌": 5397,
      "త్తుల": 5398,
      "విశే": 5399,
      "శుభ్ర": 5400,
      "ర్యం": 5401,
      "ar": 5402,
      "నాయుడు": 5403,
      "తమ": 5404,
      "ఇంట్లో": 5405,
      "బయటకు": 5406,
      "అందుబాటులో": 5407,
      "ఆరు": 5408,
      "వినిపి": 5409,
      "పరు": 5410,
      "న్నార": 5411,
      "ఉంటుంద": 5412,
      "నొప్పి": 5413,
      "అరె": 5414,
      "21": 5415,
      "సిబ్బంది": 5416,
      "ద్ధా": 5417,
      "ప్తి": 5418,
      "పాకి": 5419,
      "శుక్ర": 5420,
      "el": 5421,
      "మంగళ": 5422,
      "స్నేహి": 5423,
      "వేత్త": 5424,
      "ంచాయి": 5425,
      "లియా": 5426,
      "హౌ": 5427,
      "పోతుంది": 5428,
      "ల్లె": 5429,
      "జిల్లాలో": 5430,
      "రుగా": 5431,
      "పోవడంతో": 5432,
      "తున్నార": 5433,
      "రోజుల్లో": 5434,
      "ప్ల": 5435,
      "సిటీ": 5436,
      "పెట్టిన": 5437,
      "ఆశ్": 5438,
      "ట్లుగా": 5439,
      "మ్స్": 5440,
      "శార": 5441,
      "త్యం": 5442,
      "దార్థ": 5443,
      "స్తార": 5444,
      "టర్లు": 5445,
      "ఉపయోగ": 5446,
      "స్తులు": 5447,
      "సీనియ": 5448,
      "ఆధు": 5449,
      "నేడు": 5450,
      "తెలిపి": 5451,
      "బృ": 5452,
      "కాన్": 5453,
      "వేడి": 5454,
      "ధో": 5455,
      "ఎన్టీఆర్": 5456,
      "పెట్టుకు": 5457,
      "పిక్": 5458,
      "ణు": 5459,
      "తీసుకో": 5460,
      "సుమారు": 5461,
      "బాగు": 5462,
      "ఎన్నో": 5463,
      "జ్య": 5464,
      "పేరుతో": 5465,
      "అధ్యయ": 5466,
      "ంచబడుతుంది": 5467,
      "దేవి": 5468,
      "తాడు": 5469,
      "కావాల": 5470,
      "at": 5471,
      "కృతి": 5472,
      "ఎల్ల": 5473,
      "గ‌": 5474,
      "ప్రణా": 5475,
      "డుపు": 5476,
      "వేడు": 5477,
      "పురా": 5478,
      "యాల్లో": 5479,
      "సందే": 5480,
      "కాశ": 5481,
      "on": 5482,
      "రోజులు": 5483,
      "టించిన": 5484,
      "ప్రాంతాల్లో": 5485,
      "శరీరం": 5486,
      "జల": 5487,
      "యాత్ర": 5488,
      "డిమాండ్": 5489,
      "చేసేందుకు": 5490,
      "ఫిర్యాదు": 5491,
      "స్ట్రే": 5492,
      "మాదం": 5493,
      "గారి": 5494,
      "చయి": 5495,
      "తరగ": 5496,
      "వాల్": 5497,
      "పరిమా": 5498,
      "క్లా": 5499,
      "ప్రై": 5500,
      "పడ్": 5501,
      "నపు": 5502,
      "చేపట్ట": 5503,
      "మర": 5504,
      "ఔష": 5505,
      "అదనపు": 5506,
      "రాజీ": 5507,
      "స్తున్నార": 5508,
      "22": 5509,
      "చిత్రంలో": 5510,
      "శై": 5511,
      "సంఘటన": 5512,
      "నిరా": 5513,
      "ముంబ": 5514,
      "సామాజిక": 5515,
      "తెలుసుకోవ": 5516,
      "హైదరాబాద్‌": 5517,
      "స్తుంద": 5518,
      "బహి": 5519,
      "పరిశో": 5520,
      "పేట": 5521,
      "లిగిన": 5522,
      "శిక్షణ": 5523,
      "ఆరోపణ": 5524,
      "చైనా": 5525,
      "వదిలి": 5526,
      "నానికి": 5527,
      "చిత్రాన్ని": 5528,
      "చుట్టూ": 5529,
      "ంట్లు": 5530,
      "కాశాలు": 5531,
      "000": 5532,
      "ండీ": 5533,
      "పురుష": 5534,
      "చేరు": 5535,
      "ముక్క": 5536,
      "నాగ": 5537,
      "సిద్ధం": 5538,
      "నాథ": 5539,
      "మనిషి": 5540,
      "కోవడం": 5541,
      "బాధి": 5542,
      "వెన": 5543,
      "దిగా": 5544,
      "ఖచ్చితంగా": 5545,
      "కార్మి": 5546,
      "హత్య": 5547,
      "విషయాన్ని": 5548,
      "కోరుకు": 5549,
      "60": 5550,
      "చన": 5551,
      "తిరు": 5552,
      "లింగ్": 5553,
      "నారాయణ": 5554,
      "ప్రజలకు": 5555,
      "ఇటువంటి": 5556,
      "డ్రా": 5557,
      "స్త్రీ": 5558,
      "గుర": 5559,
      "ఆహ్": 5560,
      "మీప": 5561,
      "కళ్యాణ్": 5562,
      "తానికి": 5563,
      "వాళ్లు": 5564,
      "స్మార్": 5565,
      "కట్ట": 5566,
      "‘‘": 5567,
      "అలం": 5568,
      "నింగ్": 5569,
      "డాల": 5570,
      "సాంకే": 5571,
      "లేఖ": 5572,
      "వివర": 5573,
      "చేస్తున్నా": 5574,
      "ంపి": 5575,
      "రోడ్డు": 5576,
      "దుర్కొ": 5577,
      "గృ": 5578,
      "తెలుసుకు": 5579,
      "యిన": 5580,
      "కొడు": 5581,
      "దాల": 5582,
      "హింద": 5583,
      "థా": 5584,
      "సిరీ": 5585,
      "పొడి": 5586,
      "23": 5587,
      "త్తులు": 5588,
      "లాలు": 5589,
      "య్‌": 5590,
      "రింగ్": 5591,
      "మరోసారి": 5592,
      "గుండె": 5593,
      "క్టర్‌": 5594,
      "త్రిక": 5595,
      "ఘన": 5596,
      "చదువు": 5597,
      "కూర": 5598,
      "పరిష్క": 5599,
      "ఆధునిక": 5600,
      "నార్": 5601,
      "స్పీ": 5602,
      "కాయ": 5603,
      "2018": 5604,
      "స్కూ": 5605,
      "తిన": 5606,
      "ఆగ": 5607,
      "రించి": 5608,
      "నిజానికి": 5609,
      "అంతా": 5610,
      "క్రితం": 5611,
      "రఖా": 5612,
      "ంచార": 5613,
      "ప్రణాళిక": 5614,
      "జరిగే": 5615,
      "నంది": 5616,
      "ఒప్ప": 5617,
      "మార్చ": 5618,
      "అడ్డు": 5619,
      "చేసుకున్న": 5620,
      "అనుభ": 5621,
      "ఉంటా": 5622,
      "డ్రై": 5623,
      "కొర": 5624,
      "మానికి": 5625,
      "విధానం": 5626,
      "పార్ల": 5627,
      "సోషల్": 5628,
      "తీసుకున్న": 5629,
      "పండు": 5630,
      "డ్స్": 5631,
      "స్తుల": 5632,
      "సామర్థ": 5633,
      "సుప్రీ": 5634,
      "రుద్ధ": 5635,
      "హే": 5636,
      "తరులు": 5637,
      "ఇచ్చారు": 5638,
      "కోహ్": 5639,
      "డౌ": 5640,
      "జాల": 5641,
      "ప్రాధా": 5642,
      "''": 5643,
      "వైఎస్": 5644,
      "్యాల": 5645,
      "శని": 5646,
      "వస్తుంది": 5647,
      "విశాఖ": 5648,
      "చిత": 5649,
      "హోదా": 5650,
      "ఫల": 5651,
      "షూటింగ్": 5652,
      "సినీ": 5653,
      "లైన్": 5654,
      "పట్ల": 5655,
      "దేవ": 5656,
      "అమరావ": 5657,
      "ంట్ల": 5658,
      "రూపంలో": 5659,
      "ట్వి": 5660,
      "మిగిలిన": 5661,
      "అంతర్జాతీయ": 5662,
      "సరైన": 5663,
      "అంశం": 5664,
      "సాద్": 5665,
      "గెలి": 5666,
      "హెచ్చ": 5667,
      "స్ట్రీ": 5668,
      "ఉష్ణ": 5669,
      "’’": 5670,
      "ధర్": 5671,
      "సాహి": 5672,
      "జంతు": 5673,
      "కడ": 5674,
      "పరుగులు": 5675,
      "విద్యార్థుల": 5676,
      "చార్": 5677,
      "పొడ": 5678,
      "మార్గ": 5679,
      "గ్రే": 5680,
      "ఫ్రె": 5681,
      "పురం": 5682,
      "డాక్టర్": 5683,
      "లేరు": 5684,
      "ప్రాంతాల": 5685,
      "పాల్గొన్నారు": 5686,
      "విరా": 5687,
      "సమర్": 5688,
      "గ్రామ": 5689,
      "నిజంగా": 5690,
      "వేడుక": 5691,
      "కై": 5692,
      "సాధ్యం": 5693,
      "మళ్ళ": 5694,
      "నాణ్యత": 5695,
      "తేడా": 5696,
      "బుధ": 5697,
      "రానికి": 5698,
      "సాంకేతిక": 5699,
      "కెక్కి": 5700,
      "రాష్ట్రాల": 5701,
      "పైన": 5702,
      "ఇవ్వాల": 5703,
      "దుపు": 5704,
      "చద": 5705,
      "బ్యాంకు": 5706,
      "దానిని": 5707,
      "రిలీజ్": 5708,
      "యాప్": 5709,
      "ధాలు": 5710,
      "విమర్శి": 5711,
      "80": 5712,
      "గణి": 5713,
      "వారీ": 5714,
      "ఆదా": 5715,
      "పరిష్": 5716,
      "యాణి": 5717,
      "త్యేకంగా": 5718,
      "సూపర్": 5719,
      "జగన్‌": 5720,
      "చ్చాయి": 5721,
      "చయిత": 5722,
      "న్సీ": 5723,
      "దిశ": 5724,
      "సెట్": 5725,
      "భంగా": 5726,
      "య్యి": 5727,
      "వ్యతిరేకంగా": 5728,
      "ఉంటారు": 5729,
      "అంగీ": 5730,
      "అధినేత": 5731,
      "al": 5732,
      "యిల్": 5733,
      "దేవు": 5734,
      "కెమె": 5735,
      "ఖి": 5736,
      "డించారు": 5737,
      "వలసిన": 5738,
      "టీసీ": 5739,
      "మహేష్": 5740,
      "న్నె": 5741,
      "బోర్డు": 5742,
      "es": 5743,
      "సుప్రీం": 5744,
      "త్రం": 5745,
      "సీసీ": 5746,
      "ఫలితంగా": 5747,
      "క్సి": 5748,
      "ఖాతా": 5749,
      "భీ": 5750,
      "పంట": 5751,
      "పోషి": 5752,
      "అటువంటి": 5753,
      "స్నా": 5754,
      "70": 5755,
      "మాం": 5756,
      "తుడు": 5757,
      "స్తుత": 5758,
      "ఇవి": 5759,
      "డేటా": 5760,
      "నిద్ర": 5761,
      "ధాల": 5762,
      "మెంట్‌": 5763,
      "చూడండి": 5764,
      "అంటున్నారు": 5765,
      "ంటాయి": 5766,
      "ఉపయోగిస్తారు": 5767,
      "సంచల": 5768,
      "చ్చాడు": 5769,
      "విశ్లే": 5770,
      "గురువారం": 5771,
      "ద్యం": 5772,
      "యజ": 5773,
      "నిబం": 5774,
      "తాబ్": 5775,
      "యత్నం": 5776,
      "ఆమో": 5777,
      "కాస్త": 5778,
      "దుర": 5779,
      "అండ్": 5780,
      "కుని": 5781,
      "కష్టం": 5782,
      "ంచుకున్న": 5783,
      "పచ్చ": 5784,
      "శేఖ": 5785,
      "స్తాడు": 5786,
      "వేళ": 5787,
      "ముందే": 5788,
      "త్తిడి": 5789,
      "హిట్": 5790,
      "యె": 5791,
      "లియన్": 5792,
      "విడి": 5793,
      "యుల": 5794,
      "ఫ్ట్": 5795,
      "సారు": 5796,
      "చేయా": 5797,
      "చర్మం": 5798,
      "దాడు": 5799,
      "ఓవర్": 5800,
      "ల్వ": 5801,
      "పొందిన": 5802,
      "లాండ్": 5803,
      "సుప": 5804,
      "మీడియాలో": 5805,
      "పేద": 5806,
      "చూపు": 5807,
      "ఆదేశి": 5808,
      "దైన": 5809,
      "199": 5810,
      "టిల్": 5811,
      "వస్తే": 5812,
      "గర": 5813,
      "ఆదివారం": 5814,
      "తీవ్రంగా": 5815,
      "క్రో": 5816,
      "కట": 5817,
      "మోడ": 5818,
      "en": 5819,
      "మావేశంలో": 5820,
      "ారిటీ": 5821,
      "దార్": 5822,
      "సినిమాకు": 5823,
      "దర్శకత్వంలో": 5824,
      "సంస్థల": 5825,
      "ట్యూ": 5826,
      "ఇబ్బ": 5827,
      "సాహ": 5828,
      "నిబంధన": 5829,
      "లికి": 5830,
      "యింట్": 5831,
      "వివరాలు": 5832,
      "ఫ్రి": 5833,
      "జరుగుతున్న": 5834,
      "టాప్": 5835,
      "సభ్యుల": 5836,
      "వెళ్ళి": 5837,
      "ఘా": 5838,
      "గ్‌": 5839,
      "డిసె": 5840,
      "హ్యా": 5841,
      "దేశీ": 5842,
      "శ్వర": 5843,
      "పార్టీల": 5844,
      "పొర": 5845,
      "గరం": 5846,
      "తిరుగు": 5847,
      "ఏమిటి": 5848,
      "బుధవారం": 5849,
      "షీ": 5850,
      "పుడు": 5851,
      "సాయంత్రం": 5852,
      "నేని": 5853,
      "ప్పుడే": 5854,
      "ఠి": 5855,
      "ఖీ": 5856,
      "క్కె": 5857,
      "ల్లోకి": 5858,
      "క్టో": 5859,
      "చాలామంది": 5860,
      "జీవిత": 5861,
      "డ్లు": 5862,
      "త్తా": 5863,
      "పరిచయం": 5864,
      "ట్రం": 5865,
      "నిర్ధారి": 5866,
      "నిపించ": 5867,
      "జెపి": 5868,
      "కుటుంబం": 5869,
      "సినిమాను": 5870,
      "శ్వ": 5871,
      "జుట్టు": 5872,
      "టివ్": 5873,
      "లెట్": 5874,
      "పెడు": 5875,
      "వాళ్ళ": 5876,
      "హీరోగా": 5877,
      "తీసుకుని": 5878,
      "వాల్సి": 5879,
      "మంగళవారం": 5880,
      "చేసుకుంది": 5881,
      "టికి": 5882,
      "నింది": 5883,
      "కంప్యూ": 5884,
      "గుర్తింపు": 5885,
      "అడ్": 5886,
      "కట్టు": 5887,
      "చిత్రాల": 5888,
      "భాగంలో": 5889,
      "దాంతో": 5890,
      "టార్": 5891,
      "ఎవ": 5892,
      "చట్టం": 5893,
      "బిల్లు": 5894,
      "వ్యాఖ్యా": 5895,
      "శ్చి": 5896,
      "నామా": 5897,
      "నిర్వహ": 5898,
      "మార్‌": 5899,
      "బ్రహ్": 5900,
      "దైనా": 5901,
      "వాల్సిన": 5902,
      "పర్యాట": 5903,
      "మార్చి": 5904,
      "పైకి": 5905,
      "అందరూ": 5906,
      "ఉత్తర": 5907,
      "మెరుగు": 5908,
      "మహిళలు": 5909,
      "శాస": 5910,
      "పంచా": 5911,
      "28": 5912,
      "మళ్ళీ": 5913,
      "స్క్": 5914,
      "బిజెపి": 5915,
      "ప్రభావి": 5916,
      "జరుగుతుంది": 5917,
      "దేశాలు": 5918,
      "నిర్వహించారు": 5919,
      "సిక": 5920,
      "ఇబ్బందు": 5921,
      "రిజర్": 5922,
      "బలి": 5923,
      "టిక్": 5924,
      "వున్న": 5925,
      "కెట్లు": 5926,
      "గినంత": 5927,
      "న్యూఢిల్లీ": 5928,
      "గోదా": 5929,
      "ట్రై": 5930,
      "తోపాటు": 5931,
      "సాను": 5932,
      "ఎప్పుడూ": 5933,
      "వ్యవహరి": 5934,
      "చెప్పే": 5935,
      "స్తోంద": 5936,
      "గ్రహం": 5937,
      "పూర్వ": 5938,
      "శనివారం": 5939,
      "తీసుకొ": 5940,
      "కండ": 5941,
      "ఊహి": 5942,
      "ఇంటికి": 5943,
      "బాలీవుడ్": 5944,
      "తుండ": 5945,
      "న్సర్": 5946,
      "హైకోర్టు": 5947,
      "అవార్డు": 5948,
      "స్థాప": 5949,
      "శాడు": 5950,
      "నివేదిక": 5951,
      "విస్తృ": 5952,
      "వసూ": 5953,
      "ల్స్‌": 5954,
      "ఉగ్ర": 5955,
      "గోడ": 5956,
      "వేద": 5957,
      "సంస్థలు": 5958,
      "ఏడు": 5959,
      "సల": 5960,
      "టుడు": 5961,
      "కాన్ని": 5962,
      "కృత": 5963,
      "పూర్ణ": 5964,
      "న్నాయని": 5965,
      "హెచ్‌": 5966,
      "చేర్": 5967,
      "రోగ": 5968,
      "చెన్న": 5969,
      "త్రా": 5970,
      "26": 5971,
      "మరోవైపు": 5972,
      "వైర": 5973,
      "నిర్మాణ": 5974,
      "స్థిర": 5975,
      "నిష్": 5976,
      "తెలిపింది": 5977,
      "ఇచ్చే": 5978,
      "వేత": 5979,
      "దుల": 5980,
      "శంక": 5981,
      "నీయ": 5982,
      "ఆఫీ": 5983,
      "సాక్షి": 5984,
      "ఉండాల": 5985,
      "డిగ్రీ": 5986,
      "మానా": 5987,
      "ఉపయోగించి": 5988,
      "ఆహారం": 5989,
      "ల్వే": 5990,
      "యాద": 5991,
      "27": 5992,
      "బట్ట": 5993,
      "అప్పటి": 5994,
      "జయ": 5995,
      "తోనే": 5996,
      "టీవీ": 5997,
      "పూర్త": 5998,
      "రేంద్ర": 5999,
      "ట్‌లో": 6000,
      "డాడు": 6001,
      "డ్ల": 6002,
      "ఠా": 6003,
      "ఎక్క": 6004,
      "వేగంగా": 6005,
      "టెస్టు": 6006,
      "వర్న": 6007,
      "ట్వీ": 6008,
      "తిర": 6009,
      "ఒక్": 6010,
      "పదవి": 6011,
      "మెరు": 6012,
      "ముగ్": 6013,
      "చెబుతున్నారు": 6014,
      "or": 6015,
      "అల్": 6016,
      "జనవరి": 6017,
      "కెప్టె": 6018,
      "ఆశ": 6019,
      "ద్దీ": 6020,
      "పంచంలో": 6021,
      "ఆల్": 6022,
      "పెట్టారు": 6023,
      "రించడానికి": 6024,
      "కూలంగా": 6025,
      "వయస్సు": 6026,
      "మరీ": 6027,
      "నిర్వహణ": 6028,
      "తున్నాడు": 6029,
      "రైతు": 6030,
      "గెలు": 6031,
      "ళం": 6032,
      "కేసులో": 6033,
      "‌లు": 6034,
      "మును": 6035,
      "పరిణా": 6036,
      "చిరు": 6037,
      "అంగీక": 6038,
      "కట్": 6039,
      "దీన్ని": 6040,
      "ర్జీ": 6041,
      "సరిగా": 6042,
      "జీవితంలో": 6043,
      "వ్యాయా": 6044,
      "న్యం": 6045,
      "దిష్ట": 6046,
      "చేశార": 6047,
      "బ‌": 6048,
      "సేక": 6049,
      "రాజ్": 6050,
      "భవిష్యత్తు": 6051,
      "బడ్డాయి": 6052,
      "జనసేన": 6053,
      "రాలే": 6054,
      "రష్యా": 6055,
      "నిర్దిష్ట": 6056,
      "యోజన": 6057,
      "రాహుల్": 6058,
      "ఖాళీ": 6059,
      "పెట్టే": 6060,
      "సూచ": 6061,
      "నిక్": 6062,
      "ఓడి": 6063,
      "చది": 6064,
      "కోరు": 6065,
      "సంపాది": 6066,
      "య్యాడు": 6067,
      "అభిమానులు": 6068,
      "ల్‌లో": 6069,
      "విద్యార్థులు": 6070,
      "ంచ్": 6071,
      "ర్‌ను": 6072,
      "పెన్": 6073,
      "తిస్తుంది": 6074,
      "జంట": 6075,
      "పుల": 6076,
      "క్షణం": 6077,
      "పుట్టిన": 6078,
      "శతాబ్": 6079,
      "వయసు": 6080,
      "నిపిస్తుంది": 6081,
      "వాణి": 6082,
      "మాకు": 6083,
      "శ్రే": 6084,
      "సెల్": 6085,
      "అందిస్తుంది": 6086,
      "తీసుకోవాల": 6087,
      "పోయాడు": 6088,
      "స్తున్నాడు": 6089,
      "విద్యుత్": 6090,
      "త్మహ": 6091,
      "నేరుగా": 6092,
      "పుర": 6093,
      "సంభవి": 6094,
      "లోనూ": 6095,
      "కటించారు": 6096,
      "చేసుకో": 6097,
      "చిరం": 6098,
      "జరుపు": 6099,
      "ad": 6100,
      "కృషి": 6101,
      "రష్య": 6102,
      "ముందుగా": 6103,
      "కెరీ": 6104,
      "రఖాస్తు": 6105,
      "చేత": 6106,
      "ప్రేమి": 6107,
      "వస్తున్న": 6108,
      "ఫ్రా": 6109,
      "భే": 6110,
      "శాన్ని": 6111,
      "కోహ్లీ": 6112,
      "గాన్ని": 6113,
      "కూర్చు": 6114,
      "చౌ": 6115,
      "భావం": 6116,
      "ఉండటం": 6117,
      "యులు": 6118,
      "ఇన్‌": 6119,
      "కుమారు": 6120,
      "చేర": 6121,
      "యన్‌": 6122,
      "తెలిసిన": 6123,
      "ప్రాథ": 6124,
      "చూసిన": 6125,
      "సరఫ": 6126,
      "సభలో": 6127,
      "లెక్క": 6128,
      "ఏదైనా": 6129,
      "సుర": 6130,
      "అల్లు": 6131,
      "పోయినా": 6132,
      "నివ": 6133,
      "స్టీ": 6134,
      "తీసుకె": 6135,
      "ట్యా": 6136,
      "ఎల": 6137,
      "బద్ధ": 6138,
      "ోగ్ర": 6139,
      "క్షణాల": 6140,
      "ప్రారంభం": 6141,
      "చిరంజీవి": 6142,
      "దూరంగా": 6143,
      "పరంగా": 6144,
      "కాపా": 6145,
      "దీనిపై": 6146,
      "గాహ": 6147,
      "పోస్టు": 6148,
      "మందికి": 6149,
      "అమి": 6150,
      "ల్లం": 6151,
      "నేర్చు": 6152,
      "కునే": 6153,
      "ఉష్ణోగ్ర": 6154,
      "కొన్నిసార్లు": 6155,
      "ఆశి": 6156,
      "ప్రైవే": 6157,
      "శాంతి": 6158,
      "మావేశం": 6159,
      "కోరారు": 6160,
      "ఎక": 6161,
      "ంటాడు": 6162,
      "రాం": 6163,
      "ఆటో": 6164,
      "శిక్ష": 6165,
      "మణి": 6166,
      "మూడో": 6167,
      "ఫొ": 6168,
      "కోర్సు": 6169,
      "2016": 6170,
      "యిర్": 6171,
      "గోదావరి": 6172,
      "చిత్రానికి": 6173,
      "మాధానం": 6174,
      "బ్యూ": 6175,
      "క్ష్యం": 6176,
      "లువురు": 6177,
      "మ్యూని": 6178,
      "బడతాయి": 6179,
      "బాలి": 6180,
      "ర్తీ": 6181,
      "గర్‌": 6182,
      "అన్నాడు": 6183,
      "విషయాలు": 6184,
      "29": 6185,
      "ల్లే": 6186,
      "రావడం": 6187,
      "ఫ్లా": 6188,
      "ంచడంతో": 6189,
      "st": 6190,
      "నూత": 6191,
      "అర్జు": 6192,
      "వైద్య": 6193,
      "పార్టీకి": 6194,
      "కొద్దిగా": 6195,
      "నిఖీ": 6196,
      "ఎంచుకోవ": 6197,
      "వాని": 6198,
      "ారావు": 6199,
      "రైతులు": 6200,
      "స్వామ": 6201,
      "బిడ్డ": 6202,
      "డింగ్": 6203,
      "శ్మీ": 6204,
      "పడుతున్న": 6205,
      "విజయ్": 6206,
      "హాయి": 6207,
      "వర్గాల": 6208,
      "తీర్పు": 6209,
      "మొత్త": 6210,
      "విమర్శలు": 6211,
      "వివరాల": 6212,
      "అటు": 6213,
      "ఇండి": 6214,
      "మహిళా": 6215,
      "రౌ": 6216,
      "క్లిష్ట": 6217,
      "పోలీసు": 6218,
      "ండ్ల": 6219,
      "బుక్": 6220,
      "నియంత్ర": 6221,
      "పరిగణి": 6222,
      "సూచించారు": 6223,
      "స్తో": 6224,
      "్యాన్ని": 6225,
      "ండ్లు": 6226,
      "బ్రే": 6227,
      "ఎఫ్‌": 6228,
      "టీమి": 6229,
      "ద్రా": 6230,
      "ఎవరూ": 6231,
      "‌ను": 6232,
      "ొచ్చు": 6233,
      "న్నే": 6234,
      "పులు": 6235,
      "లేన": 6236,
      "స్పంద": 6237,
      "పటి": 6238,
      "కార్పొ": 6239,
      "స్క్రీ": 6240,
      "విషయాల": 6241,
      "తెల్ల": 6242,
      "అనుసరి": 6243,
      "నై": 6244,
      "స్టేషన్": 6245,
      "తమకు": 6246,
      "మార్పులు": 6247,
      "మాన్ని": 6248,
      "రష్యన్": 6249,
      "అబ్": 6250,
      "కథా": 6251,
      "పరుగుల": 6252,
      "టీమిండియా": 6253,
      "చెంద": 6254,
      "ందరి": 6255,
      "ఎటువంటి": 6256,
      "రాక": 6257,
      "నేది": 6258,
      "ళు": 6259,
      "మైనా": 6260,
      "రులు": 6261,
      "సియా": 6262,
      "పర్యట": 6263,
      "సిద్ధంగా": 6264,
      "అయ్యి": 6265,
      "క్కుల": 6266,
      "\",": 6267,
      "మ్యాచ్‌": 6268,
      "ఫోన్‌": 6269,
      "చూస్తే": 6270,
      "అగ్ర": 6271,
      "మూర్తి": 6272,
      "ఏమీ": 6273,
      "2014": 6274,
      "నివసి": 6275,
      "పెట్టా": 6276,
      "జనాలు": 6277,
      "ప్రాంతం": 6278,
      "కావడం": 6279,
      "ఏప్రి": 6280,
      "ందర": 6281,
      "నూనె": 6282,
      "సెన్": 6283,
      "ంత్రి": 6284,
      "ర్‌గా": 6285,
      "పట్": 6286,
      "వేసిన": 6287,
      "పరిస్థితులు": 6288,
      "వివరించారు": 6289,
      "ఇబ్బంది": 6290,
      "స్పా": 6291,
      "గాల్లో": 6292,
      "సంఘం": 6293,
      "ప్రాధాన్య": 6294,
      "కామె": 6295,
      "35": 6296,
      "2017": 6297,
      "మనో": 6298,
      "ముఖ్యం": 6299,
      "మరణి": 6300,
      "థియే": 6301,
      "రచన": 6302,
      "టింగ్‌": 6303,
      "ంపులు": 6304,
      "రైల్వే": 6305,
      "అర్థ": 6306,
      "విదేశీ": 6307,
      "క్కా": 6308,
      "సర్వే": 6309,
      "దరణ": 6310,
      "విభజన": 6311,
      "ఎడ": 6312,
      "నియంత్రణ": 6313,
      "బరి": 6314,
      "నేషన్": 6315,
      "వ్యతిరేక": 6316,
      "మొబై": 6317,
      "మ్మడి": 6318,
      "ఉండి": 6319,
      "రాన్ని": 6320,
      "సాల": 6321,
      "మండి": 6322,
      "తీసి": 6323,
      "వాది": 6324,
      "ఉపయోగం": 6325,
      "మ్యూజి": 6326,
      "వెబ్": 6327,
      "అభిమానుల": 6328,
      "పండి": 6329,
      "అతనికి": 6330,
      "లేవు": 6331,
      "జార్": 6332,
      "తారా": 6333,
      "అవినీ": 6334,
      "సూర్య": 6335,
      "రాష్ట్రం": 6336,
      "ంతర": 6337,
      "సరఫరా": 6338,
      "డమే": 6339,
      "మొదట": 6340,
      "అత్యధిక": 6341,
      "క్రె": 6342,
      "కంటె": 6343,
      "తెచ్చు": 6344,
      "టాక్": 6345,
      "మంద": 6346,
      "ఇచ్చి": 6347,
      "బార్": 6348,
      "వాతావర": 6349,
      "కోవాల": 6350,
      "న్యాయం": 6351,
      "పరిత": 6352,
      "ఏర్పా": 6353,
      "గానికి": 6354,
      "త్మహత్య": 6355,
      "సెప్టె": 6356,
      "బోయే": 6357,
      "కటన": 6358,
      "సారిగా": 6359,
      "గాడు": 6360,
      "వర్క్": 6361,
      "టెడ్": 6362,
      "సరిగ్గా": 6363,
      "చేస్తోంది": 6364,
      "మిషన్": 6365,
      "కూర్": 6366,
      "విక": 6367,
      "హ్య": 6368,
      "నాని": 6369,
      "ఫొటో": 6370,
      "శర్మ": 6371,
      "ల్లిదండ్రులు": 6372,
      "చిత్రాలు": 6373,
      "నేషన": 6374,
      "కుటుంబా": 6375,
      "త్సరాలు": 6376,
      "దిలో": 6377,
      "భర్తీ": 6378,
      "చేతి": 6379,
      "వర్ష": 6380,
      "శ్‌": 6381,
      "కుం": 6382,
      "రించింది": 6383,
      "క్కడే": 6384,
      "మంచిది": 6385,
      "యిక": 6386,
      "యార": 6387,
      "నిపుణులు": 6388,
      "గలరు": 6389,
      "కెమెరా": 6390,
      "ంతం": 6391,
      "అండ": 6392,
      "కఠి": 6393,
      "టిఫి": 6394,
      "హృ": 6395,
      "దుపరి": 6396,
      "స్పష్టంగా": 6397,
      "ధక": 6398,
      "గ్ని": 6399,
      "విద్యార్థి": 6400,
      "పూరి": 6401,
      "పోస్ట్": 6402,
      "బెర్": 6403,
      "ముంబై": 6404,
      "బహుశా": 6405,
      "ణాన్ని": 6406,
      "వసాయ": 6407,
      "మంచు": 6408,
      "వ్యాఖ్యాని": 6409,
      "నాటికి": 6410,
      "సంర": 6411,
      "ంక్": 6412,
      "సంక్షే": 6413,
      "వెర్": 6414,
      "గుణంగా": 6415,
      "ప్రభావితం": 6416,
      "నిల్వ": 6417,
      "తృ": 6418,
      "సందర్శి": 6419,
      "సంతోష": 6420,
      "సోద": 6421,
      "దేశ్‌": 6422,
      "కొంచ": 6423,
      "రోహి": 6424,
      "సిఫార్": 6425,
      "వుంది": 6426,
      "ఫైన": 6427,
      "ప్పులు": 6428,
      "బ్లాక్": 6429,
      "ra": 6430,
      "ఉపరిత": 6431,
      "కెట్ల": 6432,
      "రంగంలో": 6433,
      "రాజ్య": 6434,
      "ఆకట్టుకు": 6435,
      "బంధు": 6436,
      "ఆశ్చర్య": 6437,
      "ఉప్పు": 6438,
      "తెలంగాణలో": 6439,
      "ఎరు": 6440,
      "సంగీతం": 6441,
      "పిలు": 6442,
      "హాజర": 6443,
      "ప్లాన్": 6444,
      "చెన్నై": 6445,
      "సాయం": 6446,
      "తరగతి": 6447,
      "వుగా": 6448,
      "పేర్కొంది": 6449,
      "నేల": 6450,
      "వాణా": 6451,
      "పరిస్థితుల": 6452,
      "చాల": 6453,
      "గ్రూ": 6454,
      "త్రు": 6455,
      "పంపిణీ": 6456,
      "కూతు": 6457,
      "తెలుగుదేశం": 6458,
      "బాక్": 6459,
      "డైరెక్టర్": 6460,
      "పోయాయి": 6461,
      "కేసీఆర్‌": 6462,
      "జాన్": 6463,
      "తలు": 6464,
      "ప్రాథమిక": 6465,
      "గంలో": 6466,
      "మిశ్ర": 6467,
      "సత్య": 6468,
      "డితే": 6469,
      "ట‌": 6470,
      "టిక": 6471,
      "మున్సి": 6472,
      "శిశు": 6473,
      "45": 6474,
      "ధ్వ": 6475,
      "ట్స్‌": 6476,
      "ంచటానికి": 6477,
      "శబ్": 6478,
      "గానీ": 6479,
      "ch": 6480,
      "హార": 6481,
      "దిలీ": 6482,
      "దూరం": 6483,
      "వాటిలో": 6484,
      "వాతావరణ": 6485,
      "ర్‌కు": 6486,
      "యోజనం": 6487,
      "పెర": 6488,
      "వారిలో": 6489,
      "‌ల": 6490,
      "నిషే": 6491,
      "ఓటు": 6492,
      "దీనిని": 6493,
      "తెలుగులో": 6494,
      "భిన్నంగా": 6495,
      "రై": 6496,
      "సురే": 6497,
      "హిత": 6498,
      "స్వీక": 6499,
      "క్రే": 6500,
      "వ్రా": 6501,
      "యుద్ధం": 6502,
      "అద్ద": 6503,
      "బాహు": 6504,
      "బొమ్మ": 6505,
      "వర్మ": 6506,
      "ఫోర్": 6507,
      "స్టిక్": 6508,
      "చెప్పాడు": 6509,
      "దాఖ": 6510,
      "మించి": 6511,
      "చైర్మ": 6512,
      "అవసరమైన": 6513,
      "ఆకర్షి": 6514,
      "ఆరోపించారు": 6515,
      "కోరిక": 6516,
      "హారం": 6517,
      "అంటు": 6518,
      "స్తి": 6519,
      "షు": 6520,
      "ఏక": 6521,
      "ద్ధతి": 6522,
      "ముంద": 6523,
      "ఫలితాలు": 6524,
      "విల": 6525,
      "హాన్ని": 6526,
      "గాయి": 6527,
      "మవుతుంది": 6528,
      "ప్రకటన": 6529,
      "వెంకటే": 6530,
      "మాచ": 6531,
      "ఆయా": 6532,
      "90": 6533,
      "ంచుకుని": 6534,
      "ఆర్టీసీ": 6535,
      "ఇన్ని": 6536,
      "భాగాలు": 6537,
      "అన్": 6538,
      "చేతులు": 6539,
      "స్పీక": 6540,
      "వృత్తి": 6541,
      "దశలో": 6542,
      "కావడంతో": 6543,
      "స్తాన": 6544,
      "మహారా": 6545,
      "వినో": 6546,
      "పూజ": 6547,
      "చేస్తున్నార": 6548,
      "నిర్వహించిన": 6549,
      "పార్టీలో": 6550,
      "క్షిణ": 6551,
      "ed": 6552,
      "స్తుండ": 6553,
      "రాజ్‌": 6554,
      "టీఆర్ఎస్": 6555,
      "ఇండ": 6556,
      "ముస్": 6557,
      "ర్థుల": 6558,
      "బడ్జెట్": 6559,
      "చెప్పింది": 6560,
      "అందరికీ": 6561,
      "వెలుగు": 6562,
      "ఆయనకు": 6563,
      "దర్శకత్వం": 6564,
      "బాల్": 6565,
      "సర్వీ": 6566,
      "గాని": 6567,
      "బాయి": 6568,
      "ీక": 6569,
      "రాణి": 6570,
      "అమెరిక": 6571,
      "ఇన్స్": 6572,
      "న్‌కు": 6573,
      "అయింది": 6574,
      "ఫిబ్ర": 6575,
      "వెల్": 6576,
      "500": 6577,
      "అనుకూల": 6578,
      "సాధించిన": 6579,
      "కాంతి": 6580,
      "సింహ": 6581,
      "క్ష్మీ": 6582,
      "ంచాల్సి": 6583,
      "న్‌గా": 6584,
      "తరచూ": 6585,
      "చారి": 6586,
      "అనుభవం": 6587,
      "అంటారు": 6588,
      "31": 6589,
      "దేశాల్లో": 6590,
      "కళాశాల": 6591,
      "డౌన్": 6592,
      "అర్హ": 6593,
      "పరిశోధన": 6594,
      "ఓట": 6595,
      "సంగీత": 6596,
      "ఆకర్షణ": 6597,
      "దృశ": 6598,
      "భౌ": 6599,
      "కాలిక": 6600,
      "ప్రొఫె": 6601,
      "పట్టుకు": 6602,
      "అనారో": 6603,
      "వైన": 6604,
      "ఇరు": 6605,
      "గ్యం": 6606,
      "పడుతున్నారు": 6607,
      "తేజ": 6608,
      "స్థలం": 6609,
      "సంబంధిత": 6610,
      "వీలు": 6611,
      "బీఐ": 6612,
      "సమర్థ": 6613,
      "యూనివర్": 6614,
      "వివాహం": 6615,
      "ముక": 6616,
      "మనీ": 6617,
      "రాజ్యా": 6618,
      "ంద్": 6619,
      "క్యాన్సర్": 6620,
      "ome": 6621,
      "వివరణ": 6622,
      "పిటి": 6623,
      "ఆశ్ర": 6624,
      "డూ": 6625,
      "ధ్ర": 6626,
      "కూడిన": 6627,
      "న్నివే": 6628,
      "మెద": 6629,
      "సంప": 6630,
      "ంజ": 6631,
      "యూనిట్": 6632,
      "గ్రహి": 6633,
      "ధ్యం": 6634,
      "క్రింది": 6635,
      "వేశి": 6636,
      "పశ్చి": 6637,
      "రాజే": 6638,
      "లొ": 6639,
      "రేటు": 6640,
      "నేటి": 6641,
      "స్ట్రేలియా": 6642,
      "పుష్": 6643,
      "వస": 6644,
      "పార్టీలు": 6645,
      "సింగ్‌": 6646,
      "స్పి": 6647,
      "పరిష్కారం": 6648,
      "కుమార్‌": 6649,
      "ఇష్టం": 6650,
      "రాల్లో": 6651,
      "సుక": 6652,
      "ఆడి": 6653,
      "షియ": 6654,
      "పిండి": 6655,
      "హర్": 6656,
      "శైలి": 6657,
      "ర్యాల": 6658,
      "విమర్శించారు": 6659,
      "మధు": 6660,
      "తెలుపు": 6661,
      "వీటిలో": 6662,
      "బస్సు": 6663,
      "షెడ్యూ": 6664,
      "వేస": 6665,
      "జున": 6666,
      "అందువ": 6667,
      "భారీగా": 6668,
      "సిరి": 6669,
      "నిరోధక": 6670,
      "అదృ": 6671,
      "గర్భ": 6672,
      "లోక్‌": 6673,
      "గ్న": 6674,
      "లాల": 6675,
      "బ్లి": 6676,
      "మాయ": 6677,
      "సున్ని": 6678,
      "కున్నారు": 6679,
      "క్ష్మ": 6680,
      "పోర్ట్": 6681,
      "మెడి": 6682,
      "ంచాల్సిన": 6683,
      "ఎగు": 6684,
      "విమాన": 6685,
      "చేతిలో": 6686,
      "అన్నీ": 6687,
      "బలహీ": 6688,
      "క్రీడా": 6689,
      "శరీర": 6690,
      "it": 6691,
      "కొట్ట": 6692,
      "ఎఫ్": 6693,
      "ఐటీ": 6694,
      "ల్చి": 6695,
      "దుకా": 6696,
      "క్షా": 6697,
      "నివారి": 6698,
      "రీలు": 6699,
      "చేసుకుని": 6700,
      "విద్యాల": 6701,
      "దారితీ": 6702,
      "టెక్నాల": 6703,
      "అదుపు": 6704,
      "పథకం": 6705,
      "నామి": 6706,
      "వ్యాసం": 6707,
      "స్థాని": 6708,
      "కోండి": 6709,
      "మవు": 6710,
      "ణానికి": 6711,
      "దార్థాలు": 6712,
      "మాంసం": 6713,
      "పాన్": 6714,
      "ఉచిత": 6715,
      "అంతర్గ": 6716,
      "భయం": 6717,
      "ట్టుగా": 6718,
      "ంచటం": 6719,
      "బహిరంగ": 6720,
      "మందులు": 6721,
      "వినియోగి": 6722,
      "సిపి": 6723,
      "వేరే": 6724,
      "చేసారు": 6725,
      "ంచుకున్నారు": 6726,
      "ంపుల": 6727,
      "ఉద్యోగుల": 6728,
      "అనుకూలంగా": 6729,
      "దర్యాప్": 6730,
      "కుక్క": 6731,
      "ప్రశం": 6732,
      "ఇచ్చింది": 6733,
      "సంభా": 6734,
      "ప్రాధాన్యత": 6735,
      "కేసులు": 6736,
      "ov": 6737,
      "ప్రారంభించారు": 6738,
      "మిగ": 6739,
      "మ్యాచ్‌లో": 6740,
      "ట్రే": 6741,
      "వడం": 6742,
      "క్సెస్": 6743,
      "ఒకరు": 6744,
      "మిని": 6745,
      "స్వంత": 6746,
      "నిరు": 6747,
      "పరిమాణం": 6748,
      "కొంచెం": 6749,
      "చాలు": 6750,
      "రాష్ట్రాల్లో": 6751,
      "పరచ": 6752,
      "దర్యాప్తు": 6753,
      "అలె": 6754,
      "ముగ్గురు": 6755,
      "దితర": 6756,
      "ఎక్స్": 6757,
      "అగ్ని": 6758,
      "మట్టి": 6759,
      "స్థితి": 6760,
      "డైన": 6761,
      "వీర": 6762,
      "నాల్లో": 6763,
      "సిక్": 6764,
      "ఆమెను": 6765,
      "ంచినా": 6766,
      "స్వి": 6767,
      "కొట్టి": 6768,
      "హ్నం": 6769,
      "సందర్భా": 6770,
      "ఉపయోగించవచ్చు": 6771,
      "అనుగుణంగా": 6772,
      "వేలు": 6773,
      "మీక్షలు": 6774,
      "బదిలీ": 6775,
      "టాలీవుడ్": 6776,
      "le": 6777,
      "మృదు": 6778,
      "బడే": 6779,
      "ఫిక్": 6780,
      "వైన": 6781,
      "దొంగ": 6782,
      "వెలు": 6783,
      "యింది": 6784,
      "ఇబ్బందులు": 6785,
      "నిధులు": 6786,
      "డుగు": 6787,
      "సిస్ట": 6788,
      "ఆయు": 6789,
      "ఇంజి": 6790,
      "ంటర్‌": 6791,
      "ఎపి": 6792,
      "మున": 6793,
      "ఆధ్": 6794,
      "ఫిల్": 6795,
      "వర్‌": 6796,
      "జాతి": 6797,
      "వుండ": 6798,
      "దై": 6799,
      "Home": 6800,
      "హృద": 6801,
      "సిస్": 6802,
      "రిజి": 6803,
      "సీజన్": 6804,
      "ఎప్పుడు": 6805,
      "ధరలు": 6806,
      "కంప్యూటర్": 6807,
      "్యాలు": 6808,
      "ందర్": 6809,
      "హౌస్": 6810,
      "ృప్తి": 6811,
      "కొడుకు": 6812,
      "న్డే": 6813,
      "రించే": 6814,
      "ug": 6815,
      "ాలంటే": 6816,
      "నిన్న": 6817,
      "వరూ": 6818,
      "ళూరు": 6819,
      "సంకే": 6820,
      "అరెస్టు": 6821,
      "బహుమ": 6822,
      "చేసుకున్నారు": 6823,
      "ందున": 6824,
      "మంత్రులు": 6825,
      "స్లా": 6826,
      "టిడిపి": 6827,
      "కొల": 6828,
      "యత్నాలు": 6829,
      "ీకరణ": 6830,
      "స్యం": 6831,
      "క్రింద": 6832,
      "ముని": 6833,
      "పేజీ": 6834,
      "డాన్ని": 6835,
      "హద్దు": 6836,
      "కోవాలి": 6837,
      "తెలియదు": 6838,
      "ర్ణా": 6839,
      "తరం": 6840,
      "తూర్పు": 6841,
      "ంచబడిన": 6842,
      "పిల్": 6843,
      "నుంచే": 6844,
      "విశ్వా": 6845,
      "రుణ": 6846,
      "మేనే": 6847,
      "కాలేదు": 6848,
      "విషయ": 6849,
      "నీటిని": 6850,
      "కటించింది": 6851,
      "పెట్టుబడి": 6852,
      "పరిస్థితుల్లో": 6853,
      "మద్యం": 6854,
      "ఎనిమి": 6855,
      "వేశారు": 6856,
      "టిస్": 6857,
      "కోవడానికి": 6858,
      "వాతావరణం": 6859,
      "ing": 6860,
      "ఎప్పటి": 6861,
      "స్మార్ట్": 6862,
      "సబ్": 6863,
      "నెస్": 6864,
      "సలహా": 6865,
      "లాభ": 6866,
      "ద్‌": 6867,
      "పెట్టింది": 6868,
      "ఫ్లో": 6869,
      "గరి": 6870,
      "ఉపయోగించడానికి": 6871,
      "బ్బులు": 6872,
      "గృహ": 6873,
      "గోల్": 6874,
      "ద్రి": 6875,
      "ట్విట్ట": 6876,
      "క్షిణా": 6877,
      "పెంచు": 6878,
      "ప్రశ్నించారు": 6879,
      "ప్రోత్స": 6880,
      "అత్యా": 6881,
      "బెంగ": 6882,
      "జనాభా": 6883,
      "చెందు": 6884,
      "త్రాలు": 6885,
      "వేసుకు": 6886,
      "ఆధ్వర్": 6887,
      "కారులు": 6888,
      "దళ": 6889,
      "వంగా": 6890,
      "ఐపీ": 6891,
      "చేస్తాయి": 6892,
      "అమర్": 6893,
      "వసర": 6894,
      "తంత్ర": 6895,
      "నాన్న": 6896,
      "తేలి": 6897,
      "కోట": 6898,
      "క్రికెట్": 6899,
      "బాహుబలి": 6900,
      "99": 6901,
      "ారానికి": 6902,
      "ఎత్తున": 6903,
      "పాయ": 6904,
      "సిద్ధా": 6905,
      "సామర్థ్యం": 6906,
      "కస్ట": 6907,
      "వ్యాప": 6908,
      "లుకు": 6909,
      "తోట": 6910,
      "పెరిగింది": 6911,
      "ఔషధ": 6912,
      "బృందం": 6913,
      "చేతుల": 6914,
      "దార్థం": 6915,
      "స్‌ను": 6916,
      "జరిపి": 6917,
      "పశ్చిమ": 6918,
      "అర్ధ": 6919,
      "కుర్": 6920,
      "కంటి": 6921,
      "సగ": 6922,
      "రుడు": 6923,
      "ఇసుక": 6924,
      "ఆడియో": 6925,
      "దుస్తులు": 6926,
      "మాల్లో": 6927,
      "ద్దాం": 6928,
      "మూనా": 6929,
      "బంగ": 6930,
      "దిగువ": 6931,
      "ఒప్పందం": 6932,
      "క్షు": 6933,
      "వేధి": 6934,
      "నిమిషాల": 6935,
      "వర్గం": 6936,
      "ారే": 6937,
      "రూపం": 6938,
      "గుంటూ": 6939,
      "విట": 6940,
      "అంశాలు": 6941,
      "దితరులు": 6942,
      "నాగార్": 6943,
      "ఆప్": 6944,
      "రజ": 6945,
      "పోలీస్": 6946,
      "బ్యాక్": 6947,
      "ముఖం": 6948,
      "థ్": 6949,
      "ంచుకుంది": 6950,
      "విశేషం": 6951,
      "ఉమ్మడి": 6952,
      "కారణాల": 6953,
      "ంగు": 6954,
      "మాట్లాడారు": 6955,
      "ic": 6956,
      "లోడ్": 6957,
      "నల": 6958,
      "కఠిన": 6959,
      "పాకిస్తా": 6960,
      "వలసి": 6961,
      "ఒక్కో": 6962,
      "ప్రోత్సహి": 6963,
      "మధ్యా": 6964,
      "గ్లా": 6965,
      "టై": 6966,
      "రాజీనామా": 6967,
      "నిజం": 6968,
      "కార్మికుల": 6969,
      "మ్మే": 6970,
      "ప్రధానంగా": 6971,
      "ఉద్దేశ": 6972,
      "కేర": 6973,
      "చూసే": 6974,
      "యేషన్": 6975,
      "బాస్": 6976,
      "శాం": 6977,
      "వ్యవహార": 6978,
      "మిలియన్": 6979,
      "నిధుల": 6980,
      "ట్టిగా": 6981,
      "డియం": 6982,
      "మిత్ర": 6983,
      "వర్గాలు": 6984,
      "రేపు": 6985,
      "am": 6986,
      "ఇటు": 6987,
      "కుమారుడు": 6988,
      "ఖరీ": 6989,
      "అఖి": 6990,
      "తినిధి": 6991,
      "నిపించే": 6992,
      "శృ": 6993,
      "సరే": 6994,
      "నిరూ": 6995,
      "అభిప్రాయ": 6996,
      "ంటోంది": 6997,
      "ప్రభుత్వానికి": 6998,
      "ణ్‌": 6999,
      "మీపంలో": 7000,
      "కేజీ": 7001,
      "లోకే": 7002,
      "ప్స్": 7003,
      "కోస": 7004,
      "విస్తృత": 7005,
      "లాక్": 7006,
      "చూడాలి": 7007,
      "చం": 7008,
      "మించిన": 7009,
      "మితి": 7010,
      "తరహా": 7011,
      "ఆదాయం": 7012,
      "ఎవరైనా": 7013,
      "ంటున్నా": 7014,
      "ఆధ్వర్యంలో": 7015,
      "కోరి": 7016,
      "రించడం": 7017,
      "అసాధారణ": 7018,
      "ఆమెకు": 7019,
      "కూట": 7020,
      "టెలి": 7021,
      "కుంటే": 7022,
      "బాలిక": 7023,
      "అయ్యే": 7024,
      "ంజ్": 7025,
      "చైత": 7026,
      "లెక్కి": 7027,
      "విడ": 7028,
      "క్ష్మి": 7029,
      "నాగార్జున": 7030,
      "వాళ్ళు": 7031,
      "బరు": 7032,
      "రోజూ": 7033,
      "వస్తువుల": 7034,
      "సూచిస్తుంది": 7035,
      "నితీరు": 7036,
      "కృష్ణా": 7037,
      "ఎంచుకోండి": 7038,
      "పోతున్న": 7039,
      "టిస్తున్న": 7040,
      "సినిమాతో": 7041,
      "అవసరమైన": 7042,
      "షింగ్": 7043,
      "గుంటూరు": 7044,
      "వెళు": 7045,
      "కెసి": 7046,
      "యోజనాలు": 7047,
      "యార్": 7048,
      "పెరి": 7049,
      "బిజీ": 7050,
      "రెడీ": 7051,
      "సరస": 7052,
      "ఇస్తుంది": 7053,
      "డ్డీ": 7054,
      "వినియోగం": 7055,
      "గడ": 7056,
      "స్కా": 7057,
      "పర్‌": 7058,
      "మాచారాన్ని": 7059,
      "ప్రియ": 7060,
      "దుగా": 7061,
      "కేరళ": 7062,
      "నాశ": 7063,
      "పురాత": 7064,
      "చరణ్": 7065,
      "మెంటు": 7066,
      "మంట": 7067,
      "ముస్లిం": 7068,
      "లంక": 7069,
      "సంక": 7070,
      "టులు": 7071,
      "క్రీడ": 7072,
      "పాస్": 7073,
      "మేన": 7074,
      "దీనిలో": 7075,
      "టైటిల్": 7076,
      "సిఫార్సు": 7077,
      "బంగా": 7078,
      "th": 7079,
      "దులుగా": 7080,
      "వెళ్లిన": 7081,
      "ర్షి": 7082,
      "అధికారంలోకి": 7083,
      "సినిమాల్లో": 7084,
      "ఉడికి": 7085,
      "అనుబం": 7086,
      "భేటీ": 7087,
      "బయో": 7088,
      "సాలు": 7089,
      "ఉపాధ్యా": 7090,
      "టెన్": 7091,
      "సినిమాకి": 7092,
      "సాడు": 7093,
      "గాను": 7094,
      "ముగింపు": 7095,
      "వెళ్లే": 7096,
      "దాకా": 7097,
      "మాస్": 7098,
      "నౌ": 7099,
      "సుప్రీంకోర్టు": 7100,
      "ద‌": 7101,
      "వేయి": 7102,
      "వాయు": 7103,
      "నువ్వు": 7104,
      "పాయింట్": 7105,
      "చేపట్టిన": 7106,
      "ఉద్యోగం": 7107,
      "ర్ణాట": 7108,
      "వేచి": 7109,
      "ంచుకునే": 7110,
      "రావాల": 7111,
      "కండి": 7112,
      "75": 7113,
      "భాగాల": 7114,
      "కొన్న": 7115,
      "త్యామ్": 7116,
      "ల్లాల": 7117,
      "శ్వాస": 7118,
      "పూర్‌": 7119,
      "దూర": 7120,
      "మిలీ": 7121,
      "రంగం": 7122,
      "పరా": 7123,
      "తీసుకున్నారు": 7124,
      "తరుల": 7125,
      "గరంలో": 7126,
      "చేస్తామని": 7127,
      "తీసుకొని": 7128,
      "అనంత": 7129,
      "లాది": 7130,
      "ఏప్రిల్": 7131,
      "ఆయ": 7132,
      "198": 7133,
      "ట్రె": 7134,
      "అవుట్": 7135,
      "అర్జున్": 7136,
      "ఎస్పీ": 7137,
      "కిరణ": 7138,
      "వైపు": 7139,
      "త్రాల": 7140,
      "యతీ": 7141,
      "శ్రీనివాస్": 7142,
      "కురి": 7143,
      "చ్చింద": 7144,
      "బోతున్న": 7145,
      "చాడు": 7146,
      "ఫూ": 7147,
      "న్‌ను": 7148,
      "సిరీస్": 7149,
      "ంచింద": 7150,
      "స్పెష": 7151,
      "అవినీతి": 7152,
      "గ్రి": 7153,
      "ఇంటర్నెట్": 7154,
      "ఎర్ర": 7155,
      "ఫలితాల": 7156,
      "కారణాలు": 7157,
      "ఖాన్": 7158,
      "హెచ్": 7159,
      "స్ట్రా": 7160,
      "మాణి": 7161,
      "హిందీ": 7162,
      "డిజి": 7163,
      "సగటు": 7164,
      "సుపు": 7165,
      "36": 7166,
      "ఎగ్": 7167,
      "ఏర్పాట్లు": 7168,
      "బీసీ": 7169,
      "సిఎం": 7170,
      "నిరూపి": 7171,
      "కొవ్వు": 7172,
      "సేపు": 7173,
      "ముడి": 7174,
      "ఇవ్వడం": 7175,
      "బ్రె": 7176,
      "ఖరి": 7177,
      "హరీ": 7178,
      "ఇవా": 7179,
      "వంతం": 7180,
      "బంగారు": 7181,
      "అనుకున్న": 7182,
      "అతడి": 7183,
      "ంట్రా": 7184,
      "విశ్రా": 7185,
      "32": 7186,
      "బలహీన": 7187,
      "ఆహ్వాని": 7188,
      "is": 7189,
      "మర్చి": 7190,
      "త్రికి": 7191,
      "వాయిదా": 7192,
      "నందం": 7193,
      "దాటి": 7194,
      "హిం": 7195,
      "నిర్వహించ": 7196,
      "పాజి": 7197,
      "ఊపి": 7198,
      "దొర": 7199,
      "పరిగణ": 7200,
      "ఇందుకు": 7201,
      "ంచీ": 7202,
      "అయ్యింది": 7203,
      "నిమిషాలు": 7204,
      "ఇంజ": 7205,
      "వ్యాధులు": 7206,
      "శర": 7207,
      "లేదో": 7208,
      "పైన": 7209,
      "సర్వ": 7210,
      "పిలుపు": 7211,
      "కమ": 7212,
      "అందించిన": 7213,
      "నుగొన": 7214,
      "ugu": 7215,
      "కార్పొరే": 7216,
      "తెలిసింది": 7217,
      "కీయాల్లో": 7218,
      "తికూల": 7219,
      "కడుపు": 7220,
      "పెట్టుబడు": 7221,
      "కుడిగా": 7222,
      "పౌర": 7223,
      "నికే": 7224,
      "ర్ణ": 7225,
      "దేళ్ల": 7226,
      "క్ష్యంగా": 7227,
      "క్యం": 7228,
      "హీరోయి": 7229,
      "టోర్": 7230,
      "elugu": 7231,
      "బస్": 7232,
      "మాజ": 7233,
      "దిగి": 7234,
      "ంఛ": 7235,
      "పర్వ": 7236,
      "il": 7237,
      "జనర": 7238,
      "భోజనం": 7239,
      "నిచేయ": 7240,
      "నిరోధి": 7241,
      "హాజరు": 7242,
      "షాక్": 7243,
      "పండుగ": 7244,
      "సున్నిత": 7245,
      "చెట్టు": 7246,
      "ల్టీ": 7247,
      "ఉల్లి": 7248,
      "డెన్": 7249,
      "రాజా": 7250,
      "ంట్రీ": 7251,
      "రికార్": 7252,
      "క్షులు": 7253,
      "ఆగస్టు": 7254,
      "నిర్ధారణ": 7255,
      "క్షంగా": 7256,
      "ఒకరి": 7257,
      "విరుద్ధ": 7258,
      "విత": 7259,
      "స్పూ": 7260,
      "విభజి": 7261,
      "సులో": 7262,
      "పరిధిలో": 7263,
      "చెక్క": 7264,
      "స్ట్రి": 7265,
      "గేమ్": 7266,
      "యత్నించండి": 7267,
      "యిర్‌": 7268,
      "మురు": 7269,
      "వెచ్చ": 7270,
      "ఆడు": 7271,
      "జూన్": 7272,
      "డిసెంబర్": 7273,
      "నియంత్రి": 7274,
      "ఉండేది": 7275,
      "డట": 7276,
      "కాలా": 7277,
      "వేసే": 7278,
      "ఫ్రికా": 7279,
      "ఒప్పు": 7280,
      "స్తుంటే": 7281,
      "చేసినా": 7282,
      "సారం": 7283,
      "బలం": 7284,
      "మేక": 7285,
      "వంతు": 7286,
      "అతడు": 7287,
      "గ్రామంలో": 7288,
      "లుక్": 7289,
      "పార్ట్": 7290,
      "పెరుగుద": 7291,
      "కాలేజీ": 7292,
      "పెట్రో": 7293,
      "స్క్రీన్": 7294,
      "అభిప్రాయం": 7295,
      "నాయక": 7296,
      "హిందూ": 7297,
      "పాకిస్థా": 7298,
      "చివరికి": 7299,
      "కెరీర్": 7300,
      "అడిగి": 7301,
      "దరి": 7302,
      "ఏజె": 7303,
      "’.": 7304,
      "అట": 7305,
      "సమర్పి": 7306,
      "నిపిస్తోంది": 7307,
      "అలంక": 7308,
      "జ్ఞానం": 7309,
      "యజమాని": 7310,
      "కిలోమీటర్ల": 7311,
      "మిషన": 7312,
      "క్కులు": 7313,
      "కావలసిన": 7314,
      "ఫం": 7315,
      "అందించే": 7316,
      "మూడ": 7317,
      "2015": 7318,
      "ol": 7319,
      "లేవ": 7320,
      "రమణ": 7321,
      "రోజుకు": 7322,
      "చిత్త": 7323,
      "నిలు": 7324,
      "సింగ": 7325,
      "పిలి": 7326,
      "పెడ": 7327,
      "మానాలు": 7328,
      "పంచాయతీ": 7329,
      "డిజై": 7330,
      "ములో": 7331,
      "పోరాటం": 7332,
      "ou": 7333,
      "విండో": 7334,
      "అయ్యారు": 7335,
      "ఎక్స్‌": 7336,
      "ంగిక": 7337,
      "మొబైల్": 7338,
      "సాగ": 7339,
      "మూసి": 7340,
      "ల్చ": 7341,
      "కాలంగా": 7342,
      "వివాహ": 7343,
      "జత": 7344,
      "తుంటే": 7345,
      "వాణిజ్య": 7346,
      "వర్షం": 7347,
      "శాంత": 7348,
      "జింగ్": 7349,
      "కెప్టెన్": 7350,
      "దిగ": 7351,
      "లాడు": 7352,
      "మార్కెట్‌": 7353,
      "విశేష": 7354,
      "కుమార్తె": 7355,
      "ఫ్రీ": 7356,
      "మహారాష్ట్ర": 7357,
      "కానికి": 7358,
      "ళ్లుగా": 7359,
      "దేశానికి": 7360,
      "శ్వర్": 7361,
      "బెంగళూరు": 7362,
      "నిపించింది": 7363,
      "రాలి": 7364,
      "విప": 7365,
      "మాదిరి": 7366,
      "స్వే": 7367,
      "క్లిక్": 7368,
      "రాలేదు": 7369,
      "స్వాధీ": 7370,
      "ఉపాధి": 7371,
      "ేత": 7372,
      "దాడులు": 7373,
      "హోం": 7374,
      "క్రికె": 7375,
      "ఆరా": 7376,
      "తెలుస్తుంది": 7377,
      "చేయటానికి": 7378,
      "క్కెర": 7379,
      "త్రిలో": 7380,
      "బిగ్": 7381,
      "ఇంటర్వ్యూ": 7382,
      "ంతు": 7383,
      "స్థాపి": 7384,
      "ల్‌కు": 7385,
      "సర్‌": 7386,
      "పోల": 7387,
      "సరిహద్దు": 7388,
      "స్రా": 7389,
      "పరీక్షలు": 7390,
      "150": 7391,
      "\".": 7392,
      "రామ్‌": 7393,
      "అవసరాల": 7394,
      "తుందో": 7395,
      "ఘో": 7396,
      "గొడ": 7397,
      "రైలు": 7398,
      "మెత్త": 7399,
      "త్తం": 7400,
      "జాబితాలో": 7401,
      "క్ట": 7402,
      "దర": 7403,
      "ట్రైల": 7404,
      "వదిలే": 7405,
      "తూనే": 7406,
      "స్తం": 7407,
      "లైంది": 7408,
      "తిపాద": 7409,
      "యాంక": 7410,
      "టీఆర్‌ఎస్‌": 7411,
      "ఉంచు": 7412,
      "ఏకంగా": 7413,
      "సెంచ": 7414,
      "కామెడీ": 7415,
      "షన్‌లో": 7416,
      "ఎండ": 7417,
      "తాయని": 7418,
      "జిల్లాలోని": 7419,
      "వస్తాయి": 7420,
      "నైనా": 7421,
      "స్మ": 7422,
      "క్షంలో": 7423,
      "అంతేకాదు": 7424,
      "అప్లి": 7425,
      "పోటు": 7426,
      "పరిశ్రమ": 7427,
      "శాబ్": 7428,
      "ముగా": 7429,
      "రేటింగ్": 7430,
      "రూపొందించిన": 7431,
      "వీటిని": 7432,
      "వాడి": 7433,
      "మరిన్ని": 7434,
      "జిల్లాల": 7435,
      "as": 7436,
      "క్యు": 7437,
      "చివరకు": 7438,
      "పవన్‌": 7439,
      "రాసిన": 7440,
      "అసో": 7441,
      "అర్ధం": 7442,
      "కుంది": 7443,
      "సాధించింది": 7444,
      "ఏపీలో": 7445,
      "పిలుస్తారు": 7446,
      "వ్యాయామం": 7447,
      "జరిగింద": 7448,
      "సేకరణ": 7449,
      "దాఖలు": 7450,
      "క్రాంతి": 7451,
      "హాట్": 7452,
      "రెస్ట": 7453,
      "తేదీన": 7454,
      "ఆసక్తిక": 7455,
      "ఓటమి": 7456,
      "విత్త": 7457,
      "సీట్లు": 7458,
      "ఒంట": 7459,
      "స్‌కు": 7460,
      "టాల్": 7461,
      "బీచ్": 7462,
      "కైనా": 7463,
      "యోజనాల": 7464,
      "శిశువు": 7465,
      "గ్రం": 7466,
      "కింది": 7467,
      "నెక్ట్": 7468,
      "ధర్మ": 7469,
      "పైనే": 7470,
      "వంటివి": 7471,
      "దృష్ట": 7472,
      "మృత": 7473,
      "తీసుకోవడం": 7474,
      "ఎంటర్": 7475,
      "ఫ్యామిలీ": 7476,
      "వేసింది": 7477,
      "యాజ": 7478,
      "గులా": 7479,
      "క్షం": 7480,
      "రెండే": 7481,
      "పెరుగుతుంది": 7482,
      "నిండి": 7483,
      "ంచడంలో": 7484,
      "ప్రజాదరణ": 7485,
      "ల్సిందే": 7486,
      "ఆఫ్‌": 7487,
      "జ్యో": 7488,
      "శాశ్వ": 7489,
      "బాలు": 7490,
      "సంక్షేమ": 7491,
      "శీతా": 7492,
      "బర్‌": 7493,
      "లిగే": 7494,
      "నివార": 7495,
      "క్రిప్": 7496,
      "బ్రాండ్": 7497,
      "33": 7498,
      "స్మార్ట్‌": 7499,
      "రెస్టారె": 7500,
      "ఆరం": 7501,
      "ంగ్స్": 7502,
      "చోట్ల": 7503,
      "అత్యు": 7504,
      "సెక్స్": 7505,
      "లించారు": 7506,
      "మొట్ట": 7507,
      "హెల్": 7508,
      "డిస్": 7509,
      "ట్వీట్": 7510,
      "శుభ్రం": 7511,
      "చూస్తున్న": 7512,
      "రోగి": 7513,
      "అడుగుల": 7514,
      "దానం": 7515,
      "సంచలన": 7516,
      "ఆధి": 7517,
      "ఏది": 7518,
      "యాలి": 7519,
      "ల్ట్": 7520,
      "స్టై": 7521,
      "చదవ": 7522,
      "ఫుల్": 7523,
      "వేర్వేరు": 7524,
      "ర్థులు": 7525,
      "లోక": 7526,
      "మెంట్స్": 7527,
      "గై": 7528,
      "పుట్ట": 7529,
      "లెక్టర్": 7530,
      "ఫలితం": 7531,
      "పరమైన": 7532,
      "నిశ్": 7533,
      "భవిష్యత్తులో": 7534,
      "పట్టించుకో": 7535,
      "సాఫ్ట్": 7536,
      "దిగిన": 7537,
      "చెప్పుకొ": 7538,
      "జియో": 7539,
      "ళ్ళి": 7540,
      "కీయాల": 7541,
      "స్తావి": 7542,
      "ల్‌ను": 7543,
      "ఊపిరి": 7544,
      "దేవాల": 7545,
      "అతిపెద్ద": 7546,
      "ఎలి": 7547,
      "ంచె": 7548,
      "బ్యాంక్": 7549,
      "సంతోషంగా": 7550,
      "పోతున్నారు": 7551,
      "దశాబ్": 7552,
      "గ్రాముల": 7553,
      "సొంతం": 7554,
      "రోజులుగా": 7555,
      "టించారు": 7556,
      "రాశి": 7557,
      "ప్రొడ": 7558,
      "పింగ్": 7559,
      "సందర్భాల్లో": 7560,
      "తినిధులు": 7561,
      "Re": 7562,
      "ంటుంద": 7563,
      "అధికారం": 7564,
      "మానంగా": 7565,
      "ప్రభావ": 7566,
      "కాగి": 7567,
      "ంచగల": 7568,
      "అనుభవి": 7569,
      "ఇతరుల": 7570,
      "కాంత్": 7571,
      "వ్యాఖ్యానించారు": 7572,
      "ఇద్దరి": 7573,
      "స్టేట్": 7574,
      "శస్త్ర": 7575,
      "సంపూర్ణ": 7576,
      "పారిశ్రా": 7577,
      "సెర్": 7578,
      "బై": 7579,
      "నోటీ": 7580,
      "తాత్": 7581,
      "దూరంలో": 7582,
      "మంత్రిగా": 7583,
      "జవా": 7584,
      "దానిపై": 7585,
      "జైలు": 7586,
      "అనుభూ": 7587,
      "క్రికెట్‌": 7588,
      "బాద్‌": 7589,
      "చెప్పడం": 7590,
      "రోజున": 7591,
      "సిద్ద": 7592,
      "బిజి": 7593,
      "వేషన్": 7594,
      "క్షీ": 7595,
      "ఏమిట": 7596,
      "భావిస్తున్నారు": 7597,
      "అధికారిక": 7598,
      "ఆచరణ": 7599,
      "రంగుల": 7600,
      "వస్తుంద": 7601,
      "వసూలు": 7602,
      "ష‌": 7603,
      "రోజువారీ": 7604,
      "48": 7605,
      "ల్‌గా": 7606,
      "లలో": 7607,
      "లంలో": 7608,
      "ప్త": 7609,
      "దేశంలోని": 7610,
      "మిక్": 7611,
      "స్తాం": 7612,
      "ఎనిమిది": 7613,
      "అప్ర": 7614,
      "విఫల": 7615,
      "న్నుల": 7616,
      "విలో": 7617,
      "మిమ్మ": 7618,
      "ష్ణు": 7619,
      "క్టోబర్": 7620,
      "ఒంటరి": 7621,
      "మరు": 7622,
      "ల్లిదండ్రుల": 7623,
      "చేపట్టారు": 7624,
      "లైన": 7625,
      "ఎప్పుడ": 7626,
      "కావాలి": 7627,
      "క్రియా": 7628,
      "Telugu": 7629,
      "లాన్ని": 7630,
      "మంతా": 7631,
      "హాని": 7632,
      "శేఖర్": 7633,
      "ళా": 7634,
      "యూరో": 7635,
      "జరా": 7636,
      "mo": 7637,
      "గ్రౌ": 7638,
      "కాంబి": 7639,
      "వలస": 7640,
      "ఆదర్శ": 7641,
      "సర్దు": 7642,
      "ట్లే": 7643,
      "ఛార్": 7644,
      "వధి": 7645,
      "విన్": 7646,
      "లైన్": 7647,
      "ఎమ్మెల్యేలు": 7648,
      "స్థానాల": 7649,
      "ప్రారంభంలో": 7650,
      "మౌళి": 7651,
      "తను": 7652,
      "ప్రామాణి": 7653,
      "పొందింది": 7654,
      "లైట్": 7655,
      "నివారణ": 7656,
      "హస్య": 7657,
      "మోషన్": 7658,
      "నుకుంటే": 7659,
      "ఇల్లు": 7660,
      "తెరి": 7661,
      "ండింగ్": 7662,
      "స్వాధీనం": 7663,
      "బదులుగా": 7664,
      "ఖచ్చిత": 7665,
      "ప్పటివరకు": 7666,
      "వర్ణ": 7667,
      "ఎంట్రీ": 7668,
      "‌డం": 7669,
      "కొంది": 7670,
      "రావడంతో": 7671,
      "లోక్‌సభ": 7672,
      "జాన": 7673,
      "ధై": 7674,
      "దళి": 7675,
      "విష్ణు": 7676,
      "పాక్": 7677,
      "మీడియాతో": 7678,
      "వర్గ": 7679,
      "భగ": 7680,
      "రాష్ట్రానికి": 7681,
      "పేర్లు": 7682,
      "క్లో": 7683,
      "చ్ఛి": 7684,
      "సంబంధాలు": 7685,
      "యన్స్": 7686,
      "వీరు": 7687,
      "వరంగ": 7688,
      "వలను": 7689,
      "కుట్ర": 7690,
      "ంచుకోవడం": 7691,
      "త్‌లో": 7692,
      "వెల్లు": 7693,
      "దండ": 7694,
      "నిర్వాహ": 7695,
      "వారితో": 7696,
      "కటించిన": 7697,
      "త్రివిక్ర": 7698,
      "కాంట్రా": 7699,
      "భావిస్తారు": 7700,
      "భవనం": 7701,
      "హ్మ": 7702,
      "మంజూ": 7703,
      "ఎస్సీ": 7704,
      "ఫస్ట్": 7705,
      "కూర్పు": 7706,
      "ఫై": 7707,
      "పంజా": 7708,
      "జరుగుతోంది": 7709,
      "సంబ": 7710,
      "02": 7711,
      "బంగారం": 7712,
      "మెడ": 7713,
      "సరిపో": 7714,
      "ంచుకోవాలి": 7715,
      "క్యారె": 7716,
      "విశ్రాంతి": 7717,
      "ఎడి": 7718,
      "బౌల": 7719,
      "నిరాశ": 7720,
      "ఆమోది": 7721,
      "మైతే": 7722,
      "తేలిక": 7723,
      "తొమ్మి": 7724,
      "అప్లికేషన్": 7725,
      "తీసుకోవాలి": 7726,
      "….": 7727,
      "నలు": 7728,
      "బ్యాటరీ": 7729,
      "తెగ": 7730,
      "కున్నా": 7731,
      "సూర్": 7732,
      "ఎరుపు": 7733,
      "తుది": 7734,
      "కన": 7735,
      "లెస్": 7736,
      "ల్సీ": 7737,
      "పోష": 7738,
      "స్టూ": 7739,
      "01": 7740,
      "లను": 7741,
      "ర్షణ": 7742,
      "వంబర్": 7743,
      "ఇదిలా": 7744,
      "సునీ": 7745,
      "నిర్వహించడానికి": 7746,
      "జ్ర": 7747,
      "ఎస్టీ": 7748,
      "మధ్యాహ్నం": 7749,
      "పట్టిక": 7750,
      "సీమ": 7751,
      "తిదీ": 7752,
      "మారిన": 7753,
      "ర్నూ": 7754,
      "ద్దే": 7755,
      "నిలిపి": 7756,
      "బేస్": 7757,
      "దృష్టిలో": 7758,
      "నున్నాయి": 7759,
      "లాగ్": 7760,
      "చోట": 7761,
      "తెలియని": 7762,
      "ఇన్స్టాల్": 7763,
      "వైఎస్‌": 7764,
      "ఉద్దేశి": 7765,
      "భౌతిక": 7766,
      "ఆయ‌": 7767,
      "మండిపడ్డారు": 7768,
      "హై": 7769,
      "గింపు": 7770,
      "ఇతరులు": 7771,
      "స్ర": 7772,
      "సంతా": 7773,
      "గుర్తించారు": 7774,
      "చెడు": 7775,
      "మాస్టర్": 7776,
      "కోల్పో": 7777,
      "నిలో": 7778,
      "పోర్టు": 7779,
      "డ్యా": 7780,
      "పొందవచ్చు": 7781,
      "పోయింద": 7782,
      "సందర్శ": 7783,
      "మొత్తంలో": 7784,
      "దేశవ్యాప్తంగా": 7785,
      "లింగ": 7786,
      "ro": 7787,
      "గ్రహ": 7788,
      "లోపే": 7789,
      "ధరల": 7790,
      "పెరుగుతున్న": 7791,
      "మరణం": 7792,
      "కశ్మీ": 7793,
      "ప్రెస్": 7794,
      "క్షన్‌": 7795,
      "స్తూనే": 7796,
      "చుట్టు": 7797,
      "జై": 7798,
      "గ్రామీ": 7799,
      "ఎడమ": 7800,
      "వాదాలు": 7801,
      "సైట్": 7802,
      "కారుల": 7803,
      "ఆర్ధిక": 7804,
      "ప్లాస్టిక్": 7805,
      "ఇంజనీ": 7806,
      "సెప్టెంబర్": 7807,
      "US": 7808,
      "సెంటర్": 7809,
      "ధృ": 7810,
      "సరికి": 7811,
      "విన్న": 7812,
      "ఉంచండి": 7813,
      "చూసుకు": 7814,
      "నిలిచి": 7815,
      "కంపెనీలు": 7816,
      "జెండా": 7817,
      "రంగులు": 7818,
      "మందుల": 7819,
      "పెంపు": 7820,
      "వికెట్లు": 7821,
      "కెసిఆర్": 7822,
      "సారా": 7823,
      "సీరియ": 7824,
      "ప్రాజెక్ట్": 7825,
      "బల్": 7826,
      "మన్న": 7827,
      "ంచుకోవాల": 7828,
      "విభాగం": 7829,
      "నీయంగా": 7830,
      "బాట": 7831,
      "వడ్డీ": 7832,
      "త్వాన్ని": 7833,
      "సాధన": 7834,
      "స్ఫూ": 7835,
      "నిర్ల": 7836,
      "సహక": 7837,
      "37": 7838,
      "అద్దె": 7839,
      "చేస్తున్నాడు": 7840,
      "నిర్మించిన": 7841,
      "పెరిగిన": 7842,
      "అన్నా": 7843,
      "వైద్యులు": 7844,
      "గార": 7845,
      "వింగ్": 7846,
      "నెమ్మ": 7847,
      "వెం": 7848,
      "ఎముక": 7849,
      "పడం": 7850,
      "కానుంది": 7851,
      "శ్రీనివాస": 7852,
      "కథలు": 7853,
      "మాచార": 7854,
      "నాథ్": 7855,
      "ఎమ్మెల్సీ": 7856,
      "అనువర్త": 7857,
      "హోమ్": 7858,
      "సుదీర్ఘ": 7859,
      "మూత్ర": 7860,
      "ప‌రి": 7861,
      "34": 7862,
      "ష్టాలు": 7863,
      "డెంట్": 7864,
      "సృ": 7865,
      "సాహిత్య": 7866,
      "నిరంతరం": 7867,
      "చ్చినా": 7868,
      "బిల్": 7869,
      "కుపచ్చ": 7870,
      "చిట్": 7871,
      "మెయిల్": 7872,
      "ఆదేశించారు": 7873,
      "డియ": 7874,
      "గాజు": 7875,
      "వస్త్ర": 7876,
      "సంక్రాంతి": 7877,
      "సింగి": 7878,
      "దిశగా": 7879,
      "యాంటీ": 7880,
      "అతిథ": 7881,
      "రైన": 7882,
      "ంచేలా": 7883,
      "స్ఫూర్తి": 7884,
      "కాపీ": 7885,
      "డొ": 7886,
      "ఓట్లు": 7887,
      "గొంతు": 7888,
      "సాగింది": 7889,
      "గ్రీన్": 7890,
      "మున్సిప": 7891,
      "నైపుణ": 7892,
      "స్థాయికి": 7893,
      "ప్రోగ్రా": 7894,
      "పానీ": 7895,
      "ముద్దు": 7896,
      "డ‌": 7897,
      "అల్ల": 7898,
      "అలంకరణ": 7899,
      "పిల": 7900,
      "చెప్పా": 7901,
      "టర్స్": 7902,
      "ఓట్ల": 7903,
      "ంగ్లా": 7904,
      "బలంగా": 7905,
      "ద్యో": 7906,
      "వాటు": 7907,
      "లిన్": 7908,
      "ద్వే": 7909,
      "et": 7910,
      "కేల": 7911,
      "సాగుతోంది": 7912,
      "దల": 7913,
      "పరిమిత": 7914,
      "300": 7915,
      "వాదం": 7916,
      "లుగురు": 7917,
      "చిత్రీక": 7918,
      "క్రమణ": 7919,
      "ఇంగ్లీ": 7920,
      "65": 7921,
      "క్లీ": 7922,
      "పారిశ్రామిక": 7923,
      "38": 7924,
      "చీఫ్": 7925,
      "ఆవేద": 7926,
      "దీక్ష": 7927,
      "వెర్షన్": 7928,
      "తుకు": 7929,
      "సినిమాని": 7930,
      "ఇళ్ల": 7931,
      "వాటా": 7932,
      "ట్‌ను": 7933,
      "యజమాను": 7934,
      "డ్రై": 7935,
      "వరీ": 7936,
      "కళ్ళు": 7937,
      "నోట్ల": 7938,
      "పుట్టి": 7939,
      "రీమే": 7940,
      "సరికొత్త": 7941,
      "అంతేకాకుండా": 7942,
      "తీసుకునే": 7943,
      "డిజిట": 7944,
      "అలీ": 7945,
      "వశా": 7946,
      "ఉద్యోగులు": 7947,
      "చ‌": 7948,
      "కాకు": 7949,
      "క్వి": 7950,
      "కేటీఆర్": 7951,
      "ఉత్స": 7952,
      "చేరిన": 7953,
      "సిన్": 7954,
      "ప్రాసె": 7955,
      "శై": 7956,
      "నేర": 7957,
      "వ్యతిరేకి": 7958,
      "డిమాండ్‌": 7959,
      "ఇర": 7960,
      "ఆమ్": 7961,
      "ఇండియన్": 7962,
      "ఘి": 7963,
      "వారే": 7964,
      "ఎత్తి": 7965,
      "క్రూ": 7966,
      "పుల్": 7967,
      "కంపెనీల": 7968,
      "అధిగ": 7969,
      "సిద్ధి": 7970,
      "గుజరా": 7971,
      "కూతురు": 7972,
      "లార్": 7973,
      "ధన్య": 7974,
      "జూలై": 7975,
      "విధానాల": 7976,
      "అనుసం": 7977,
      "పడ్డాడు": 7978,
      "ఆరోగ్యం": 7979,
      "చెప్పాలి": 7980,
      "రాహుల్‌": 7981,
      "వాట్": 7982,
      "తిరుప": 7983,
      "శత్రు": 7984,
      "తీసిన": 7985,
      "రేవం": 7986,
      "పరిశీల": 7987,
      "కార్మికులు": 7988,
      "అడగ": 7989,
      "55": 7990,
      "తోడు": 7991,
      "బెంగా": 7992,
      "లైంగిక": 7993,
      "లియ": 7994,
      "గించారు": 7995,
      "నాల్": 7996,
      "బాయ్": 7997,
      "ఎవరో": 7998,
      "నిసరిగా": 7999,
      "యాక్": 8000,
      "స్తోన్న": 8001,
      "నిని": 8002,
      "టించ": 8003,
      "అసంత": 8004,
      "లాగా": 8005,
      "ప్పున": 8006,
      "క్షాల": 8007,
      "ఎంసీ": 8008,
      "చివర": 8009,
      "బంగ్లా": 8010,
      "ప్‌లో": 8011,
      "నను": 8012,
      "విలువైన": 8013,
      "సాంప్ర": 8014,
      "పార్టీని": 8015,
      "తీసే": 8016,
      "కట్టి": 8017,
      "భర": 8018,
      "దుపా": 8019,
      "బాక్స్": 8020,
      "విందు": 8021,
      "అందంగా": 8022,
      "ళాల": 8023,
      "రేపి": 8024,
      "నిర్వ": 8025,
      "గీత": 8026,
      "ఒడి": 8027,
      "ప్పుల": 8028,
      "బాహ్య": 8029,
      "స్‌తో": 8030,
      "స్క్రిప్": 8031,
      "విశ్వాసం": 8032,
      "మిస్": 8033,
      "గ్రామాల": 8034,
      "పూడి": 8035,
      "చేసుకునే": 8036,
      "బయలు": 8037,
      "క్రెడి": 8038,
      "కీర్తి": 8039,
      "యంతో": 8040,
      "మైంది": 8041,
      "పిడి": 8042,
      "తాన": 8043,
      "కోటి": 8044,
      "మెట్రో": 8045,
      "పాప": 8046,
      "ముందుగానే": 8047,
      "ర్గ": 8048,
      "ఏసీ": 8049,
      "id": 8050,
      "కిల్": 8051,
      "చట్టా": 8052,
      "చేర్చ": 8053,
      "స్వాగ": 8054,
      "కాశవంత": 8055,
      "ప్రామాణిక": 8056,
      "ప్రభాస్": 8057,
      "సంయు": 8058,
      "ట్టుకో": 8059,
      "ముడు": 8060,
      "ఘు": 8061,
      "మూనాలు": 8062,
      "శీల": 8063,
      "విత్ర": 8064,
      "హార్డ్": 8065,
      "కాపాడు": 8066,
      "దిన": 8067,
      "ంటున్నార": 8068,
      "పాయింట్లు": 8069,
      "అమెరికాలో": 8070,
      "పత": 8071,
      "ఊహించ": 8072,
      "వెన్": 8073,
      "ట్టె": 8074,
      "వస్తున్నాయి": 8075,
      "అంశంపై": 8076,
      "విమానా": 8077,
      "పెర్": 8078,
      "ల్లోనే": 8079,
      "ప్రశంస": 8080,
      "రాజమౌళి": 8081,
      "మాదంలో": 8082,
      "పట్నం": 8083,
      "నిలిచింది": 8084,
      "షెడ్యూల్": 8085,
      "వారాల": 8086,
      "ఉల్లం": 8087,
      "అనుకో": 8088,
      "ఆశ్చర్": 8089,
      "జ్ఞాన": 8090,
      "వద్దు": 8091,
      "నెట్‌": 8092,
      "స్తాను": 8093,
      "04": 8094,
      "యూనియ": 8095,
      "స్తాయని": 8096,
      "జూనియ": 8097,
      "బ్యాన": 8098,
      "సార్‌": 8099,
      "చెంది": 8100,
      "క్ట్రా": 8101,
      "వర్ణి": 8102,
      "కాఫీ": 8103,
      "యాణం": 8104,
      "క్షాలు": 8105,
      "ఫెడ": 8106,
      "కారి": 8107,
      "ష్య": 8108,
      "విభిన్న": 8109,
      "స్వీయ": 8110,
      "జర్న": 8111,
      "పరిమితం": 8112,
      "థె": 8113,
      "ంచబడ్డాయి": 8114,
      "తామని": 8115,
      "సానుకూల": 8116,
      "సరైన": 8117,
      "నాశనం": 8118,
      "బ్లూ": 8119,
      "కంలో": 8120,
      "వాదులు": 8121,
      "టీ20": 8122,
      "అంగు": 8123,
      "ఆసక్తికరమైన": 8124,
      "విస్": 8125,
      "వంశీ": 8126,
      "ఉపయోగించే": 8127,
      "ఫోటోలు": 8128,
      "మిన్": 8129,
      "రణి": 8130,
      "అమ్ము": 8131,
      "క్‌లో": 8132,
      "కంటెంట్": 8133,
      "అప్పుడే": 8134,
      "రిటై": 8135,
      "మోసం": 8136,
      "పోలిస్తే": 8137,
      "ప్రైవేటు": 8138,
      "ప్రభుత్వాన్ని": 8139,
      "ఆదేశాలు": 8140,
      "డించింది": 8141,
      "ఎగువ": 8142,
      "అర్హత": 8143,
      "రాని": 8144,
      "సంస్కరణ": 8145,
      "బడ్డ": 8146,
      "వెండి": 8147,
      "టైన": 8148,
      "ఇద్దరూ": 8149,
      "దుంప": 8150,
      "మీక్ష": 8151,
      "కూలి": 8152,
      "గరిష్ట": 8153,
      "సెప్": 8154,
      "పరిపాల": 8155,
      "లోపు": 8156,
      "ఉపయోగించడం": 8157,
      "నార్హం": 8158,
      "విద్యార్": 8159,
      "చొప్పున": 8160,
      "తెలుసుకోవడానికి": 8161,
      "జపా": 8162,
      "శాస్త్రం": 8163,
      "మీరే": 8164,
      "కై": 8165,
      "ఫ్యాషన్": 8166,
      "రాక్": 8167,
      "చేయాల్సి": 8168,
      "విరు": 8169,
      "సీట్ల": 8170,
      "వూ": 8171,
      "అవ్వ": 8172,
      "నెర": 8173,
      "బెదిరి": 8174,
      "స్వామ్య": 8175,
      "కోర": 8176,
      "తరఫు": 8177,
      "కుటుంబాల": 8178,
      "నియామ": 8179,
      "పండ్లు": 8180,
      "తీసుకువ": 8181,
      "ఇక్కడి": 8182,
      "ల్యూ": 8183,
      "డ్రో": 8184,
      "ంబి": 8185,
      "టంలో": 8186,
      "కొనే": 8187,
      "ఉండటంతో": 8188,
      "రిజర్వేషన్": 8189,
      "ఇవాళ": 8190,
      "వాటికి": 8191,
      "వాతి": 8192,
      "అందుకున్న": 8193,
      "ట్విట్టర్": 8194,
      "విని": 8195,
      "ర్‌రెడ్డి": 8196,
      "వాలి": 8197,
      "ఫార్మా": 8198,
      "లాండ్‌": 8199,
      "పేర్కొన్న": 8200,
      "టిగా": 8201,
      "న్‌రెడ్డి": 8202,
      "మెన్": 8203,
      "రాష్ట్రంలోని": 8204,
      "తుగా": 8205,
      "ఢిల్లీలో": 8206,
      "ట్రిక్": 8207,
      "క్షిత": 8208,
      "ంబు": 8209,
      "శానికి": 8210,
      "త్సరంలో": 8211,
      "ఇంద్ర": 8212,
      "క్రీమ్": 8213,
      "వస్తువులు": 8214,
      "దేశీయ": 8215,
      "ఉద్యోగ": 8216,
      "పల": 8217,
      "త‌న": 8218,
      "విపరీ": 8219,
      "వేగం": 8220,
      "టేబుల్": 8221,
      "మాస్కో": 8222,
      "చంద": 8223,
      "హైదరాబాద్‌లో": 8224,
      "గ్రామానికి": 8225,
      "చేసింద": 8226,
      "మెరుగ": 8227,
      "వెంకట": 8228,
      "‌టి": 8229,
      "__": 8230,
      "చ్చార": 8231,
      "క్షేత్ర": 8232,
      "సెంచరీ": 8233,
      "సవరణ": 8234,
      "మాట్లాడే": 8235,
      "హీరోల": 8236,
      "బీమా": 8237,
      "05": 8238,
      "అంచు": 8239,
      "నిచేసే": 8240,
      "జిల్లాల్లో": 8241,
      "విజ్ఞ": 8242,
      "యోగ": 8243,
      "ంగానే": 8244,
      "పథకాల": 8245,
      "కాడ": 8246,
      "వివాదం": 8247,
      "ఏర్పడ": 8248,
      "నీస": 8249,
      "హాస": 8250,
      "విచారి": 8251,
      "బ్లిక్": 8252,
      "ఉపయోగించ": 8253,
      "లకు": 8254,
      "అప్పట్లో": 8255,
      "నెమ్మదిగా": 8256,
      "షేర్": 8257,
      "దంప": 8258,
      "విశ్లేషణ": 8259,
      "03": 8260,
      "తాగు": 8261,
      "పారా": 8262,
      "197": 8263,
      "మూర్": 8264,
      "గొండ": 8265,
      "నిపిస్తాయి": 8266,
      "మెట": 8267,
      "పాల్గొన": 8268,
      "జీవితాన్ని": 8269,
      "ల్యాణ్": 8270,
      "పొగ": 8271,
      "నీకు": 8272,
      "తుపా": 8273,
      "ఆర్డ": 8274,
      "మ్యూజిక్": 8275,
      "ri": 8276,
      "ద్వీ": 8277,
      "గొట్ట": 8278,
      "ట్రంప్": 8279,
      "ఫేస్": 8280,
      "కృతజ్ఞ": 8281,
      "వియ": 8282,
      "కార్తీ": 8283,
      "పరిశోధ": 8284,
      "వుంటుంది": 8285,
      "టీన్": 8286,
      "పురుషులు": 8287,
      "హిక": 8288,
      "నీటిలో": 8289,
      "అసోసి": 8290,
      "నిచేస్తుంది": 8291,
      "మనార్హం": 8292,
      "ఎకరాల": 8293,
      "విషా": 8294,
      "ర్యాం": 8295,
      "క్రై": 8296,
      "ధాన్ని": 8297,
      "దోహ": 8298,
      "లాపాలు": 8299,
      "కలసి": 8300,
      "ఆండ్ర": 8301,
      "జ్యోతి": 8302,
      "వ్యాధుల": 8303,
      "క్కడికి": 8304,
      "నోటి": 8305,
      "అందుబాటులోకి": 8306,
      "వ్యాపారం": 8307,
      "ండం": 8308,
      "సృష్టించడానికి": 8309,
      "గుణ": 8310,
      "గూగు": 8311,
      "నేతృ": 8312,
      "వుతున్న": 8313,
      "పర్యావరణ": 8314,
      "యాక్షన్": 8315,
      "44": 8316,
      "అవుతుంద": 8317,
      "ఉత్తర్": 8318,
      "మోతా": 8319,
      "di": 8320,
      "త్‌కు": 8321,
      "చుకున్న": 8322,
      "శ్రీలంక": 8323,
      "వడ": 8324,
      "ఎక్కడా": 8325,
      "కేంద్రంలో": 8326,
      "యోగి": 8327,
      "నామ": 8328,
      "పెన": 8329,
      "మహిళలకు": 8330,
      "న్నింటి": 8331,
      "విమానాశ్ర": 8332,
      "హెడ్": 8333,
      "జాలం": 8334,
      "షియా": 8335,
      "రాజ్యాంగ": 8336,
      "ఢీ": 8337,
      "స్టార్‌": 8338,
      "తీర్చి": 8339,
      "ౖనా": 8340,
      "మేం": 8341,
      "ంబరు": 8342,
      "జన్మ": 8343,
      "యూనివర్సిటీ": 8344,
      "నిమ్మ": 8345,
      "పెట్టాడు": 8346,
      "జస్టి": 8347,
      "లావా": 8348,
      "యాం": 8349,
      "వెంట్": 8350,
      "అరవి": 8351,
      "Read": 8352,
      "డ్రైవర్": 8353,
      "లండ": 8354,
      "రానున్న": 8355,
      "కుంటూ": 8356,
      "ప్రాజెక్టుల": 8357,
      "ప్రారంభమవుతుంది": 8358,
      "ముంబయి": 8359,
      "దార్థాల": 8360,
      "అటవీ": 8361,
      "మైక్రో": 8362,
      "ంగం": 8363,
      "మార్క్": 8364,
      "రూబి": 8365,
      "2020": 8366,
      "ష్కరణ": 8367,
      "పురుషుల": 8368,
      "హ‌": 8369,
      "ట్టాడు": 8370,
      "స్ట్రో": 8371,
      "విభాగంలో": 8372,
      "ంచం": 8373,
      "కెక్కు": 8374,
      "అశ్": 8375,
      "వసంత": 8376,
      "తున్నాయని": 8377,
      "బంతుల్లో": 8378,
      "39": 8379,
      "రెండి": 8380,
      "గ్లో": 8381,
      "నెట్వర్క్": 8382,
      "దొరికి": 8383,
      "వుడ్‌": 8384,
      "పరీక్షల": 8385,
      "07": 8386,
      "మంజూరు": 8387,
      "అరెస్ట్": 8388,
      "చైర్మన్": 8389,
      "ధూ": 8390,
      "ంటింగ్": 8391,
      "un": 8392,
      "‌గా": 8393,
      "స్థితిలో": 8394,
      "కిడ్": 8395,
      "టిఆర్‌": 8396,
      "గోధు": 8397,
      "అప": 8398,
      "చిహ్": 8399,
      "అయో": 8400,
      "కింగ్‌": 8401,
      "ఏర్పడిన": 8402,
      "ఆరోపి": 8403,
      "మోటా": 8404,
      "వివాదా": 8405,
      "చెల్లింపు": 8406,
      "కార్మిక": 8407,
      "స్థానాన్ని": 8408,
      "ఫైల్": 8409,
      "దంగా": 8410,
      "స్కూల్": 8411,
      "శతాబ్దం": 8412,
      "శ్య": 8413,
      "ఆంగ్": 8414,
      "మామూ": 8415,
      "స్యను": 8416,
      "ప్రాణాలు": 8417,
      "జ్ఞాప": 8418,
      "09": 8419,
      "పాల్గొన్న": 8420,
      "శారీ": 8421,
      "సీటు": 8422,
      "రించాల": 8423,
      "దుస్తుల": 8424,
      "మంటే": 8425,
      "నినా": 8426,
      "ఆయ‌న": 8427,
      "ముక్కు": 8428,
      "వ‌ర్": 8429,
      "కున్నాడు": 8430,
      "బట": 8431,
      "వార్షి": 8432,
      "వస్తోంది": 8433,
      "తుంటారు": 8434,
      "ఆఫ": 8435,
      "వాగ్": 8436,
      "ముర": 8437,
      "బారి": 8438,
      "చల": 8439,
      "ఇవ": 8440,
      "రాస": 8441,
      "2013": 8442,
      "మూడే": 8443,
      "మార్కెట్లో": 8444,
      "టార్గె": 8445,
      "ఆం": 8446,
      "ళాలు": 8447,
      "సిసి": 8448,
      "మ్రా": 8449,
      "దాడుల": 8450,
      "నోత్స": 8451,
      "ఫ్రెండ్": 8452,
      "తిభ": 8453,
      "అయ్యా": 8454,
      "కార్యా": 8455,
      "గ్రౌండ్": 8456,
      "రూపాన్ని": 8457,
      "గులాబీ": 8458,
      "ఖండి": 8459,
      "చిక్కు": 8460,
      "హదారి": 8461,
      "ెస్": 8462,
      "బెట్ట": 8463,
      "అవును": 8464,
      "చేసుకొని": 8465,
      "రోహిత్": 8466,
      "ఉచి": 8467,
      "కోడ్": 8468,
      "ఆపిల్": 8469,
      "మాధ": 8470,
      "ఫీచర్": 8471,
      "వ్యాప్తి": 8472,
      "సౌంద": 8473,
      "విష‌": 8474,
      "ంచాను": 8475,
      "అధికంగా": 8476,
      "త్యామ్నాయ": 8477,
      "47": 8478,
      "ద్ధతులు": 8479,
      "శ‌": 8480,
      "ంత్రా": 8481,
      "ధోనీ": 8482,
      "గోధుమ": 8483,
      "ట్రీ": 8484,
      "లాభా": 8485,
      "వ్యవహారం": 8486,
      "ఉల్లిపాయ": 8487,
      "క్తిని": 8488,
      "06": 8489,
      "బహుళ": 8490,
      "కీయాలు": 8491,
      "రిట": 8492,
      "అందం": 8493,
      "టీజర్": 8494,
      "స్నేహితుల": 8495,
      "పండ": 8496,
      "సాస్": 8497,
      "పిలుపుని": 8498,
      "టిన్": 8499,
      "కస్": 8500,
      "అసహ": 8501,
      "ంచుకున్నాడు": 8502,
      "మొత్తానికి": 8503,
      "నిజమైన": 8504,
      "రీం": 8505,
      "శక్తిని": 8506,
      "వాపు": 8507,
      "సామర్": 8508,
      "య్యం": 8509,
      "ముగిసిన": 8510,
      "బెల్": 8511,
      "వ్వులు": 8512,
      "వీరిద్ద": 8513,
      "యన్నారు": 8514,
      "బాగానే": 8515,
      "రూబిళ్లు": 8516,
      "గ్రామీణ": 8517,
      "గించడానికి": 8518,
      "అబ్బాయి": 8519,
      "న్నాం": 8520,
      "వస్తువు": 8521,
      "రంధ్ర": 8522,
      "సూపర్‌": 8523,
      "తేడాతో": 8524,
      "విప్ల": 8525,
      "చేందుకు": 8526,
      "సాగుతుంది": 8527,
      "రాదు": 8528,
      "తీర": 8529,
      "కాశ్మీ": 8530,
      "ఉపకరణ": 8531,
      "పతి": 8532,
      "అనారోగ్య": 8533,
      "అందించారు": 8534,
      "సుగు": 8535,
      "అభినంది": 8536,
      "రేట్": 8537,
      "ర్యాలీ": 8538,
      "ws": 8539,
      "గుర్తించ": 8540,
      "సందర్భాల": 8541,
      "విజేత": 8542,
      "నీస్": 8543,
      "సెయింట్": 8544,
      "08": 8545,
      "చదివి": 8546,
      "పార్క్": 8547,
      "గోళ": 8548,
      "విజయాన్ని": 8549,
      "మూరి": 8550,
      "బిజీగా": 8551,
      "ay": 8552,
      "విమానం": 8553,
      "పాల్‌": 8554,
      "స్వేచ్ఛ": 8555,
      "ప్రశాంత": 8556,
      "ఉద్యోగాలు": 8557,
      "రోగుల": 8558,
      "భై": 8559,
      "మ్య": 8560,
      "డువు": 8561,
      "టెస్ట్": 8562,
      "అస్": 8563,
      "ఓవర్ల": 8564,
      "ఖై": 8565,
      "వెళ్లారు": 8566,
      "లిస్టు": 8567,
      "విగ్ర": 8568,
      "సంఘాల": 8569,
      "సాగుతున్న": 8570,
      "పాయింట్ల": 8571,
      "భూముల": 8572,
      "జిల్": 8573,
      "మింగ్": 8574,
      "దేవర": 8575,
      "శైలి": 8576,
      "చూస్తూ": 8577,
      "రావృ": 8578,
      "ందరూ": 8579,
      "బ్రిటీ": 8580,
      "ల్లోనూ": 8581,
      "నెల్ల": 8582,
      "స్వామ్యం": 8583,
      "రోల్": 8584,
      "అత్త": 8585,
      "కెన్": 8586,
      "పశు": 8587,
      "ద్మ": 8588,
      "64": 8589,
      "పేస్": 8590,
      "ఎగ్జి": 8591,
      "బ్బి": 8592,
      "పట్టింది": 8593,
      "చేరింది": 8594,
      "రాడు": 8595,
      "):": 8596,
      "త్సా": 8597,
      "రెగ్య": 8598,
      "కామ": 8599,
      "త్ప": 8600,
      "బద్ద": 8601,
      "వళి": 8602,
      "ఫీజు": 8603,
      "ందరికీ": 8604,
      "తినే": 8605,
      "ప్రీమి": 8606,
      "మేలు": 8607,
      "నిర్వహిస్తారు": 8608,
      "స్పందించారు": 8609,
      "ఎక్": 8610,
      "భావో": 8611,
      "స్తున్నాను": 8612,
      "ఎమ్మెల్యేల": 8613,
      "కార్లు": 8614,
      "దైన": 8615,
      "మిడి": 8616,
      "శృంగ": 8617,
      "దిగ్గ": 8618,
      "వ్వి": 8619,
      "శక్తివంత": 8620,
      "యింగ్": 8621,
      "నివాసం": 8622,
      "సీబీఐ": 8623,
      "అభివృద్ధికి": 8624,
      "కేట్": 8625,
      "రెసి": 8626,
      "oo": 8627,
      "స్నేహితులు": 8628,
      "త్తుగా": 8629,
      "వివే": 8630,
      "మోతాదు": 8631,
      "ట్‌గా": 8632,
      "కుటుంబానికి": 8633,
      "గందర": 8634,
      "న్నిహి": 8635,
      "జనరల్": 8636,
      "గూడ": 8637,
      "తిబి": 8638,
      "తాధిక": 8639,
      "గాయం": 8640,
      "కుండ": 8641,
      "ప్రాతిని": 8642,
      "మాణ": 8643,
      "భించింది": 8644,
      "బయలుదే": 8645,
      "డిగ్రీల": 8646,
      "న్‌తో": 8647,
      "సంస్కృతి": 8648,
      "నీళ్లు": 8649,
      "ఫ్యూ": 8650,
      "సంభాషణ": 8651,
      "వర్గీ": 8652,
      "సీతారా": 8653,
      "వచ్చ": 8654,
      "అదుపులోకి": 8655,
      "అసి": 8656,
      "నిజమైన": 8657,
      "రుచికరమైన": 8658,
      "రిగే": 8659,
      "నుగొనేందుకు": 8660,
      "తరఫున": 8661,
      "వ్య‌": 8662,
      "సాంగ్": 8663,
      "శాయి": 8664,
      "యాజమాన్": 8665,
      "ఏమిటంటే": 8666,
      "క్షితంగా": 8667,
      "సభ్యుడు": 8668,
      "తీర్చిది": 8669,
      "42": 8670,
      "స్తారా": 8671,
      "శుద్ధి": 8672,
      "హెచ్చరిక": 8673,
      "చేస్తాన": 8674,
      "నృ": 8675,
      "సార్వ": 8676,
      "కౌన్సి": 8677,
      "చేస్తున్నాయి": 8678,
      "శారీర": 8679,
      "ఒక్కసారిగా": 8680,
      "లిమి": 8681,
      "లాభం": 8682,
      "బాబుకు": 8683,
      "పడ్డాయి": 8684,
      "న్నం": 8685,
      "ఫేస్‌": 8686,
      "విగా": 8687,
      "చేస్తార": 8688,
      "ప్రభుత్వాలు": 8689,
      "జల్": 8690,
      "మిలి": 8691,
      "బెట్టి": 8692,
      "షియం": 8693,
      "అనూ": 8694,
      "జేయ": 8695,
      "అణు": 8696,
      "నాలుగో": 8697,
      "సర్టిఫి": 8698,
      "చెత్త": 8699,
      "స్తున్నామని": 8700,
      "వెలువ": 8701,
      "స్థానాల్లో": 8702,
      "డిపాజి": 8703,
      "ప్రాణ": 8704,
      "చ్చితంగా": 8705,
      "జేశారు": 8706,
      "గాయాల": 8707,
      "మించ": 8708,
      "సైని": 8709,
      "ంచామని": 8710,
      "రిటీ": 8711,
      "నిపుణుల": 8712,
      "నిర్వహించే": 8713,
      "బ్రౌ": 8714,
      "కంఠ": 8715,
      "వస్థను": 8716,
      "రంగంలోకి": 8717,
      "దృష్టిని": 8718,
      "బాధితుల": 8719,
      "మొత్తాన్ని": 8720,
      "పరీక్షి": 8721,
      "సేవ్": 8722,
      "గ్రంథ": 8723,
      "పెట్టుకుని": 8724,
      "నెక్షన్": 8725,
      "గించి": 8726,
      "ఉత్తరా": 8727,
      "ఇంగ్లాండ్": 8728,
      "దంతా": 8729,
      "వాషింగ్": 8730,
      "ర్నూలు": 8731,
      "ఇరా": 8732,
      "ఆకలి": 8733,
      "స్తుంటారు": 8734,
      "మెరుగైన": 8735,
      "పుష్క": 8736,
      "దిలి": 8737,
      "బెడ్": 8738,
      "కారుడు": 8739,
      "49": 8740,
      "తిపాది": 8741,
      "థియేటర్": 8742,
      "సంక్లిష్ట": 8743,
      "మెంట": 8744,
      "మార్గాలు": 8745,
      "రీంన": 8746,
      "అనుష్క": 8747,
      "నిర్ణయాలు": 8748,
      "బ్రేక్": 8749,
      "త్న": 8750,
      "మనుష": 8751,
      "ంట్రో": 8752,
      "ఉపయోగించండి": 8753,
      "యోగం": 8754,
      "క్షన్స్": 8755,
      "రించేందుకు": 8756,
      "బూట్లు": 8757,
      "టికెట్": 8758,
      "చివాల": 8759,
      "ఏమ": 8760,
      "కొరియా": 8761,
      "చూడాల": 8762,
      "వెను": 8763,
      "రాజ‌": 8764,
      "ంచుకొని": 8765,
      "చేయటం": 8766,
      "్యాత్": 8767,
      "పోలీస్‌": 8768,
      "ద్వి": 8769,
      "శుభా": 8770,
      "రాబోయే": 8771,
      "దరు": 8772,
      "బుల్‌": 8773,
      "విరుద్ధంగా": 8774,
      "తిష్టా": 8775,
      "మిషన్‌": 8776,
      "పేలు": 8777,
      "లానికి": 8778,
      "ఉందా": 8779,
      "మెజ": 8780,
      "ur": 8781,
      "పేరిట": 8782,
      "డై": 8783,
      "లావాదే": 8784,
      "చింత": 8785,
      "న్నాడ": 8786,
      "వాల్యూ": 8787,
      "స్మి": 8788,
      "చీకటి": 8789,
      "మొన్న": 8790,
      "కార్యాచరణ": 8791,
      "వుతోంది": 8792,
      "ఫ్రే": 8793,
      "తేనె": 8794,
      "ఉపశ": 8795,
      "గొడు": 8796,
      "మూలం": 8797,
      "కేబి": 8798,
      "సరళ": 8799,
      "సంచలనం": 8800,
      "నిర్మించారు": 8801,
      "గ్రామాల్లో": 8802,
      "ఫరె": 8803,
      "పెయి": 8804,
      "కోవటానికి": 8805,
      "కిలీ": 8806,
      "హార్మో": 8807,
      "ప్యాకేజీ": 8808,
      "జడ్": 8809,
      "ఇను": 8810,
      "ఆమోదం": 8811,
      "అవయ": 8812,
      "అండ్‌": 8813,
      "ఎమ్": 8814,
      "ఎన్టీఆర్‌": 8815,
      "సర్దుబాటు": 8816,
      "ఆవిష్క": 8817,
      "ఫంక్షన్": 8818,
      "రోడ్": 8819,
      "ప్రేక్షకులు": 8820,
      "సంతృప్తి": 8821,
      "మామ": 8822,
      "జరిగాయి": 8823,
      "వేరి": 8824,
      "ఆహ్లా": 8825,
      "సత్వ": 8826,
      "పడితే": 8827,
      "మాజంలో": 8828,
      "మారుతుంది": 8829,
      "క్షో": 8830,
      "2009": 8831,
      "నేనే": 8832,
      "వీధి": 8833,
      "వొ": 8834,
      "అభినంద": 8835,
      "ీవుడ్‌": 8836,
      "లుక": 8837,
      "టుల": 8838,
      "అంకి": 8839,
      "సూక్ష్మ": 8840,
      "మందిని": 8841,
      "పోలింగ్": 8842,
      "ఇచ్చాడు": 8843,
      "పోతోంది": 8844,
      "చేస్తుంద": 8845,
      "తొమ్మిది": 8846,
      "అద్భుతంగా": 8847,
      "ఆలయం": 8848,
      "సహాయంతో": 8849,
      "డార్": 8850,
      "చేసుకున్నాడు": 8851,
      "more": 8852,
      "కుల్": 8853,
      "క్కిన": 8854,
      "గెలుపు": 8855,
      "టెండ": 8856,
      "చేసాడు": 8857,
      "ంటున్నాను": 8858,
      "నెక్": 8859,
      "ంటార": 8860,
      "ేయ": 8861,
      "వాటర్": 8862,
      "ఆధ్యాత్": 8863,
      "డెవ": 8864,
      "బ్యాంకుల": 8865,
      "ఎప్పటిక": 8866,
      "మెజారిటీ": 8867,
      "ఎండి": 8868,
      "పులి": 8869,
      "వారిపై": 8870,
      "సైడ్": 8871,
      "నెటి": 8872,
      "ఉరి": 8873,
      "సీఐ": 8874,
      "అన్నింటి": 8875,
      "సత్తా": 8876,
      "విజన్": 8877,
      "బలోపే": 8878,
      "శరీరంలో": 8879,
      "కొట్టే": 8880,
      "ఆశా": 8881,
      "తెలుసా": 8882,
      "ప్రారంభించిన": 8883,
      "నాలుగే": 8884,
      "తిష్టాత్మ": 8885,
      "తాప": 8886,
      "కావాల్సిన": 8887,
      "స్కోరు": 8888,
      "భాగాన్ని": 8889,
      "కుముందు": 8890,
      "విలీ": 8891,
      "దినోత్స": 8892,
      "ఇంకో": 8893,
      "వాన్": 8894,
      "ఏమైనా": 8895,
      "జొ": 8896,
      "వాదుల": 8897,
      "డిష్": 8898,
      "క్టరీ": 8899,
      "మాజం": 8900,
      "వారంలో": 8901,
      "పడ్డా": 8902,
      "ఇట": 8903,
      "రూమ్": 8904,
      "జరీ": 8905,
      "ష్టి": 8906,
      "తొలు": 8907,
      "చేసుకోవాలి": 8908,
      "పంప": 8909,
      "కూర్చుని": 8910,
      "ఖరారు": 8911,
      "సాని": 8912,
      "కళ్ల": 8913,
      "మంటూ": 8914,
      "నేర్": 8915,
      "ఖమ్మ": 8916,
      "చేసుకోవాల": 8917,
      "నిధి": 8918,
      "చురుకు": 8919,
      "46": 8920,
      "ఏమాత్రం": 8921,
      "పరిష్కార": 8922,
      "కుండానే": 8923,
      "వివాదాస్ప": 8924,
      "‌‌": 8925,
      "టైమ్": 8926,
      "భాషా": 8927,
      "సాగే": 8928,
      "to": 8929,
      "రిసార్": 8930,
      "గ్లూ": 8931,
      "గాళ్ల": 8932,
      "విధానాన్ని": 8933,
      "డిప్యూ": 8934,
      "దారితీస్తుంది": 8935,
      "బృంద": 8936,
      "కత": 8937,
      "పూల": 8938,
      "డిచి": 8939,
      "దాగా": 8940,
      "పాకిస్తాన్": 8941,
      "డ్యు": 8942,
      "యీ": 8943,
      "ంబర్‌": 8944,
      "మమ": 8945,
      "నచ్చ": 8946,
      "ఏర్పడింది": 8947,
      "నిరుద్యో": 8948,
      "సిగ్న": 8949,
      "వృద్ధ": 8950,
      "అతిథులు": 8951,
      "టోర్నీ": 8952,
      "చేశాయి": 8953,
      "ద‌ర్": 8954,
      "రిస్తారు": 8955,
      "కాగితం": 8956,
      "నుంచీ": 8957,
      "రాఘ": 8958,
      "దేవుడు": 8959,
      "సేవలను": 8960,
      "నిషేధి": 8961,
      "sh": 8962,
      "ఇన్నింగ్": 8963,
      "బాబా": 8964,
      "విడిచి": 8965,
      "వెన్యూ": 8966,
      "రీతిలో": 8967,
      "త్తే": 8968,
      "ర్లో": 8969,
      "వర్షాలు": 8970,
      "శాస్త": 8971,
      "తేల్": 8972,
      "ఆర్మీ": 8973,
      "క్‌ను": 8974,
      "భ్ర": 8975,
      "జంతువులు": 8976,
      "చర్మ": 8977,
      "గురైన": 8978,
      "శీతాకాలంలో": 8979,
      "ద్రో": 8980,
      "టిక్కె": 8981,
      "ంశం": 8982,
      "దెబ్బతి": 8983,
      "కృతిక": 8984,
      "న్యూజి": 8985,
      "సైన్": 8986,
      "భరి": 8987,
      "సెక్యూ": 8988,
      "ధోరణి": 8989,
      "సత్": 8990,
      "ల్డ్‌": 8991,
      "400": 8992,
      "ఫాలో": 8993,
      "వికెట్ల": 8994,
      "వెబ్‌": 8995,
      "సర్కారు": 8996,
      "నంతో": 8997,
      "నిమ": 8998,
      "నిజామా": 8999,
      "హెచ్చరించారు": 9000,
      "ఫ్రెంచ్": 9001,
      "తొలుత": 9002,
      "బ్రో": 9003,
      "కాయి": 9004,
      "గ్రామం": 9005,
      "అవత": 9006,
      "అందాల": 9007,
      "శివా": 9008,
      "విధులు": 9009,
      "మియా": 9010,
      "తేజ్": 9011,
      "కాశాల": 9012,
      "డిద": 9013,
      "దంలో": 9014,
      "మెడిక": 9015,
      "సాంస్": 9016,
      "సైట్": 9017,
      "ంచబడతాయి": 9018,
      "పొందే": 9019,
      "స్థానికులు": 9020,
      "ఉపయోగించిన": 9021,
      "ఉద్యోగి": 9022,
      "పెయింట్": 9023,
      "లోకేష్": 9024,
      "గుడ్లు": 9025,
      "విశ్వాస": 9026,
      "తేమ": 9027,
      "వ్ఞ": 9028,
      "చెప్పాల": 9029,
      "అమిత్": 9030,
      "వెల": 9031,
      "నోటిఫి": 9032,
      "రేడియో": 9033,
      "చెల": 9034,
      "ఫిక్స్": 9035,
      "మునిగి": 9036,
      "బన్": 9037,
      "కంట్రో": 9038,
      "దాడికి": 9039,
      "పోయాలి": 9040,
      "and": 9041,
      "పరిధిలోని": 9042,
      "పంపు": 9043,
      "కోలు": 9044,
      "మీటర్లు": 9045,
      "చుక్క": 9046,
      "విలు": 9047,
      "సెక": 9048,
      "మద్య": 9049,
      "నిర్మాణానికి": 9050,
      "నీలం": 9051,
      "అడ్డ": 9052,
      "ంచుకోవడానికి": 9053,
      "యంగ్": 9054,
      "మన్నా": 9055,
      "వేయాల": 9056,
      "కొక్క": 9057,
      "జోక్యం": 9058,
      "ఉద్యోగాల": 9059,
      "లోపం": 9060,
      "విద్యుత్‌": 9061,
      "ma": 9062,
      "వెన్నె": 9063,
      "ప్పటికి": 9064,
      "రిగిన": 9065,
      "చారిత్ర": 9066,
      "నామినేషన్": 9067,
      "ల్లోని": 9068,
      "స్తారో": 9069,
      "స్వభావం": 9070,
      "తరపున": 9071,
      "వేట": 9072,
      "హానికి": 9073,
      "అజ": 9074,
      "లాపాల": 9075,
      "ణాత్మ": 9076,
      "ab": 9077,
      "స్టేషన్‌": 9078,
      "యినా": 9079,
      "చూప": 9080,
      "ఒప్పంద": 9081,
      "సంబంధ": 9082,
      "పైనా": 9083,
      "శిఖ": 9084,
      "నీడ": 9085,
      "క్లాసిక్": 9086,
      "అయ్యాడు": 9087,
      "పొత్తు": 9088,
      "కణాలు": 9089,
      "చుకో": 9090,
      "ఆరోగ్యా": 9091,
      "భివృద్ధి": 9092,
      "పరస్ప": 9093,
      "మంత్రుల": 9094,
      "ఘనంగా": 9095,
      "నాగే": 9096,
      "తెచ్చి": 9097,
      "అవ‌": 9098,
      "గాయాలు": 9099,
      "పేరును": 9100,
      "జోడించండి": 9101,
      "సెంట్ర": 9102,
      "ప్రెసి": 9103,
      "నైపుణ": 9104,
      "క్రం": 9105,
      "తొలిసారి": 9106,
      "అధికారికంగా": 9107,
      "ఫార": 9108,
      "పంచం": 9109,
      "సుఖ": 9110,
      "ఐటి": 9111,
      "జనాత్మ": 9112,
      "రెండింటి": 9113,
      "నెల్": 9114,
      "కోత": 9115,
      "అతన్ని": 9116,
      "తిగా": 9117,
      "పట్టా": 9118,
      "కేక్": 9119,
      "మావో": 9120,
      "మార్పుల": 9121,
      "స్నానం": 9122,
      "నిచేస్తున్న": 9123,
      "విషయమై": 9124,
      "పోత": 9125,
      "శుభాకాం": 9126,
      "యూజర్": 9127,
      "ఆదేశాల": 9128,
      "పురుగు": 9129,
      "కేసుల": 9130,
      "సాద్‌": 9131,
      "అవుతోంది": 9132,
      "ల్డ": 9133,
      "196": 9134,
      "టైటి": 9135,
      "పడుతుంద": 9136,
      "అనుమానం": 9137,
      "సాయన": 9138,
      "బన్నీ": 9139,
      "జమ్": 9140,
      "సతీ": 9141,
      "తీసుకుంటా": 9142,
      "క్రియే": 9143,
      "2012": 9144,
      "షిప్": 9145,
      "మార్గంలో": 9146,
      "కేంద్రాల": 9147,
      "మాట్లాడిన": 9148,
      "లోగా": 9149,
      "ట్రాఫిక్": 9150,
      "వినాయ": 9151,
      "గుడి": 9152,
      "చేసుకోవడం": 9153,
      "క్రెడిట్": 9154,
      "స్కీ": 9155,
      "ముంది": 9156,
      "వీక": 9157,
      "బోతున్నారు": 9158,
      "కౌంటర్": 9159,
      "ుని": 9160,
      "రీమేక్": 9161,
      "ప్రభావాన్ని": 9162,
      "సుబ్బ": 9163,
      "విశ్లేషి": 9164,
      "లిత": 9165,
      "ప్రాముఖ్య": 9166,
      "కోర్టులో": 9167,
      "కాష్": 9168,
      "నితి": 9169,
      "జీబీ": 9170,
      "ముగిసింది": 9171,
      "గెలిచిన": 9172,
      "బోర్డ్": 9173,
      "కుంటారు": 9174,
      "పోరు": 9175,
      "సింధ": 9176,
      "మిర్": 9177,
      "తెలంగాణా": 9178,
      "విసి": 9179,
      "షర్": 9180,
      "సామ్రా": 9181,
      "కెక్కిన": 9182,
      "విశ్వస": 9183,
      "పెడితే": 9184,
      "ఆదు": 9185,
      "తీసుకుంది": 9186,
      "ఛై": 9187,
      "--": 9188,
      "రిని": 9189,
      "కాన": 9190,
      "సురేష్": 9191,
      "వాల్‌": 9192,
      "కోల్‌": 9193,
      "గురువు": 9194,
      "అయ్యాయి": 9195,
      "ళ్లే": 9196,
      "చేయనున్నారు": 9197,
      "టుగా": 9198,
      "మావేశాలు": 9199,
      "దర్శనం": 9200,
      "క్షిణాఫ్రికా": 9201,
      "ందాం": 9202,
      "స్టోరీ": 9203,
      "సంగా": 9204,
      "నిందితుల": 9205,
      "అశో": 9206,
      "పేర్ల": 9207,
      "ఎవరికి": 9208,
      "కైన": 9209,
      "శ్రీనివాస్‌": 9210,
      "గ్రఫీ": 9211,
      "గోపాల్": 9212,
      "నెల్లూరు": 9213,
      "వర్డ్": 9214,
      "అమ్మాయిలు": 9215,
      "వాసి": 9216,
      "పెళ్ళి": 9217,
      "లింగ్‌": 9218,
      "లేషన్": 9219,
      "లెక్": 9220,
      "ప్రాంతీయ": 9221,
      "ఆఫర్": 9222,
      "నొక్క": 9223,
      "ెన": 9224,
      "’,": 9225,
      "దేవరకొండ": 9226,
      "దోష": 9227,
      "న్యూస్": 9228,
      "హింస": 9229,
      "కురు": 9230,
      "సృజనాత్మ": 9231,
      "తుందా": 9232,
      "విజ్ఞప్తి": 9233,
      "రఘు": 9234,
      "ట్రాక్": 9235,
      "క్వె": 9236,
      "డిజై": 9237,
      "వాడే": 9238,
      "సీజ": 9239,
      "విరాట్": 9240,
      "నికిని": 9241,
      "నిర్మ": 9242,
      "43": 9243,
      "అప్పటికే": 9244,
      "యోగా": 9245,
      "సాంస్కృతిక": 9246,
      "సంఘాలు": 9247,
      "ంటున్నారా": 9248,
      "లాగే": 9249,
      "దృష్టికి": 9250,
      "కాంబినేషన్": 9251,
      "రింగ్‌": 9252,
      "సాధించ": 9253,
      "56": 9254,
      "II": 9255,
      "కృత్రి": 9256,
      "పరిర": 9257,
      "సమయానికి": 9258,
      "శ్రేణి": 9259,
      "ంద్రా": 9260,
      "క్రమ": 9261,
      "ఆలయ": 9262,
      "తానే": 9263,
      "థీ": 9264,
      "మూహం": 9265,
      "ణాల్లో": 9266,
      "గాక": 9267,
      "వుతాయి": 9268,
      "గుర్తించడానికి": 9269,
      "జంతువుల": 9270,
      "రావడానికి": 9271,
      "గణా": 9272,
      "బ్రిట": 9273,
      "41": 9274,
      "మేష్": 9275,
      "పర్స": 9276,
      "డిప్యూటీ": 9277,
      "లిగించే": 9278,
      "డిజైన్": 9279,
      "బిజినెస్": 9280,
      "యంత్రా": 9281,
      "రాజ్యసభ": 9282,
      "నిస్": 9283,
      "జన్మి": 9284,
      "సెమీ": 9285,
      "అలెర్జీ": 9286,
      "ఫోన్ల": 9287,
      "వాలో": 9288,
      "రపు": 9289,
      "ఉడికించాలి": 9290,
      "పునా": 9291,
      "జోన్": 9292,
      "నీటితో": 9293,
      "సాన్ని": 9294,
      "సెస్‌": 9295,
      "చూడటానికి": 9296,
      "కూరు": 9297,
      "ళితే": 9298,
      "స్తున్నాం": 9299,
      "సత్యనారాయణ": 9300,
      "ప్రియాంక": 9301,
      "దేశాన్ని": 9302,
      "చూస్తున్నారు": 9303,
      "కుంభ": 9304,
      "స్పెషల్": 9305,
      "య్యింది": 9306,
      "న్నాహాలు": 9307,
      "జరిమానా": 9308,
      "ఉద్రి": 9309,
      "జరుగుతుంద": 9310,
      "ట్రంప్‌": 9311,
      "వశాత్తు": 9312,
      "లైఫ్": 9313,
      "గౌత": 9314,
      "జీర్ణ": 9315,
      "ఫౌ": 9316,
      "లిగింది": 9317,
      "సెక్యూరిటీ": 9318,
      "అరుదైన": 9319,
      "చంద్ర‌": 9320,
      "మనే": 9321,
      "ల్పు": 9322,
      "పెట్టాల": 9323,
      "రేవంత్": 9324,
      "ఆలస్యం": 9325,
      "అనుబంధ": 9326,
      "చురుకుగా": 9327,
      "ఆధ్యాత్మిక": 9328,
      "వెళ్లా": 9329,
      "మిరి": 9330,
      "గుడ్డు": 9331,
      "స్థానాలు": 9332,
      "ైతే": 9333,
      "అనుభూతి": 9334,
      "నిసరి": 9335,
      "హిందు": 9336,
      "గణే": 9337,
      "ఒంటరిగా": 9338,
      "ప్రాంతానికి": 9339,
      "మెరి": 9340,
      "వేటు": 9341,
      "స్నేహ": 9342,
      "బడ్జెట్‌": 9343,
      "అందించ": 9344,
      "పరిణామాల": 9345,
      "మాధ్య": 9346,
      "దూకుడు": 9347,
      "జైన": 9348,
      "58": 9349,
      "డాక్టర్‌": 9350,
      "రూపాయి": 9351,
      "పిటిషన్": 9352,
      "చేయనున్న": 9353,
      "సంస్కృ": 9354,
      "మహబూ": 9355,
      "అన్వే": 9356,
      "ందాన్ని": 9357,
      "చొర": 9358,
      "విల్": 9359,
      "కోణం": 9360,
      "సదరు": 9361,
      "శాల్లో": 9362,
      "ంతోనే": 9363,
      "సిలి": 9364,
      "57": 9365,
      "బిట్": 9366,
      "షార్": 9367,
      "ఇయ": 9368,
      "కార్ల": 9369,
      "ion": 9370,
      "చేయు": 9371,
      "మోస": 9372,
      "నంద్": 9373,
      "దిగారు": 9374,
      "ట్యూబ్": 9375,
      "పోతాయి": 9376,
      "TV": 9377,
      "హూ": 9378,
      "సౌందర్య": 9379,
      "జర్మనీ": 9380,
      "ప్పే": 9381,
      "పెద": 9382,
      "బౌలింగ్": 9383,
      "అసంతృప్తి": 9384,
      "ఒకేసారి": 9385,
      "బియా": 9386,
      "యంత్ర": 9387,
      "ప్రొఫెషన": 9388,
      "విర": 9389,
      "అడ్డం": 9390,
      "చారంలో": 9391,
      "అవసరమ": 9392,
      "అసాధ్యం": 9393,
      "కావు": 9394,
      "రెవెన్యూ": 9395,
      "టిక్స్": 9396,
      "వైకాపా": 9397,
      "హాయింపు": 9398,
      "తాం": 9399,
      "ారిత": 9400,
      "రాకుండా": 9401,
      "కోడి": 9402,
      "రానా": 9403,
      "చిన్": 9404,
      "ఖమ్మం": 9405,
      "పరుస్తుంది": 9406,
      "మడ": 9407,
      "నిరాక": 9408,
      "ఎవరికీ": 9409,
      "నిపోయిన": 9410,
      "మార్కె": 9411,
      "Ne": 9412,
      "చెక్": 9413,
      "ర్యంగా": 9414,
      "దూసుకు": 9415,
      "మచ్చ": 9416,
      "టీరియా": 9417,
      "వైఖరి": 9418,
      "థ్రి": 9419,
      "కాళ": 9420,
      "నియోజకవర్గం": 9421,
      "ఎగ": 9422,
      "బ్రహ్మ": 9423,
      "2011": 9424,
      "రెస్టారెంట్": 9425,
      "ఫ్ట్‌": 9426,
      "నియోజకవర్గంలో": 9427,
      "కౌంట్": 9428,
      "అత్యుత్త": 9429,
      "నోరు": 9430,
      "వాల్యూమ్": 9431,
      "బ్యాంకులు": 9432,
      "పెట్టుబడులు": 9433,
      "ఎక్కు": 9434,
      "వైఎస్సార్‌": 9435,
      "ఆధా": 9436,
      "ఒలిం": 9437,
      "ఆర్టి": 9438,
      "చిన్నారి": 9439,
      "ఇంజినీ": 9440,
      "స్రావం": 9441,
      "దంత": 9442,
      "చేరుకున్న": 9443,
      "చెరువు": 9444,
      "ఫ్ల": 9445,
      "మాస": 9446,
      "రేంజ్": 9447,
      "ఆవిష్కరణ": 9448,
      "వితేజ": 9449,
      "సెట్టి": 9450,
      "బలోపేతం": 9451,
      "బోతోంది": 9452,
      "నందంగా": 9453,
      "ద్ధతిలో": 9454,
      "డిజైన్": 9455,
      "బరిలోకి": 9456,
      "అంతేకాక": 9457,
      "వెలుప": 9458,
      "పాక్షి": 9459,
      "వెయ్యి": 9460,
      "వినిపిస్తున్నాయి": 9461,
      "తున్నాను": 9462,
      "చూద్దాం": 9463,
      "స్టులు": 9464,
      "కృతజ్ఞతలు": 9465,
      "గెల": 9466,
      "రెగ్యుల": 9467,
      "మీక్షి": 9468,
      "ఆలస్య": 9469,
      "యజమానులు": 9470,
      "జర్‌": 9471,
      "అసిస్టె": 9472,
      "ఇత": 9473,
      "బ్యూటీ": 9474,
      "రాజస్థా": 9475,
      "జేడీ": 9476,
      "విస్తృతంగా": 9477,
      "రేఖ": 9478,
      "రౌండ్": 9479,
      "రథ": 9480,
      "రెడ్": 9481,
      "పటే": 9482,
      "గ్రూప్": 9483,
      "కుర్చీ": 9484,
      "ఏంటి": 9485,
      "డాన్": 9486,
      "మయ్యే": 9487,
      "మీపంలోని": 9488,
      "సంక్షో": 9489,
      "దేశ్‌లో": 9490,
      "ac": 9491,
      "సరిపోయే": 9492,
      "ఛాంపి": 9493,
      "్యాలె": 9494,
      "యూపీ": 9495,
      "ఏటా": 9496,
      "సాధించి": 9497,
      "బాబునాయుడు": 9498,
      "హ్ర": 9499,
      "పాక్‌": 9500,
      "కొక": 9501,
      "క్రాస్": 9502,
      "పలక": 9503,
      "అత్యవసర": 9504,
      "బాంబు": 9505,
      "లియో": 9506,
      "విస్తరణ": 9507,
      "త్యాల": 9508,
      "కొద్దీ": 9509,
      "శుభాకాంక్షలు": 9510,
      "టికీ": 9511,
      "ర్రె": 9512,
      "వుండే": 9513,
      "ఉండటానికి": 9514,
      "గర్భం": 9515,
      "ప్రాముఖ్యత": 9516,
      "నిత్యం": 9517,
      "కార్డ్": 9518,
      "టిఆర్": 9519,
      "తాత్కాలిక": 9520,
      "పరిగణలోకి": 9521,
      "చిన్నారు": 9522,
      "యాని": 9523,
      "ల్లులు": 9524,
      "వ్యాపి": 9525,
      "క్లారిటీ": 9526,
      "తెలుసుకున్న": 9527,
      "వెస్టి": 9528,
      "కట్టుబడి": 9529,
      "వడానికి": 9530,
      "పాకిస్థాన్": 9531,
      "అనిపిస్తుంది": 9532,
      "ర్థన": 9533,
      "కైక": 9534,
      "ఆశ్చర్యం": 9535,
      "పొరుగు": 9536,
      "జరిగితే": 9537,
      "ఉచితంగా": 9538,
      "మార్పిడి": 9539,
      "ఉత్సాహ": 9540,
      "జట్టులో": 9541,
      "అవుతున్న": 9542,
      "న్నామని": 9543,
      "జయం": 9544,
      "క్రేజ్": 9545,
      "గూగుల్": 9546,
      "బోధి": 9547,
      "ఎన్ను": 9548,
      "సీపీఐ": 9549,
      "అడవి": 9550,
      "పోస్టుల": 9551,
      "తెరాస": 9552,
      "కూలీ": 9553,
      "దశల": 9554,
      "టౌ": 9555,
      "వుంటే": 9556,
      "ష్ఠ": 9557,
      "భామ": 9558,
      "పరిణామాలు": 9559,
      "భారం": 9560,
      "ఎక్కి": 9561,
      "డైరెక్టర్‌": 9562,
      "సంకేతాలు": 9563,
      "దిల్": 9564,
      "పట్టుకుని": 9565,
      "తిరుమ": 9566,
      "కుది": 9567,
      "తీపి": 9568,
      "బ్యాట్స్‌": 9569,
      "నిర్ధారించుకోండి": 9570,
      "2010": 9571,
      "సరిపోతుంది": 9572,
      "జరిపిన": 9573,
      "రోజా": 9574,
      "మొదటిసారి": 9575,
      "వెన్న": 9576,
      "వర్స్": 9577,
      "ent": 9578,
      "శీర్షి": 9579,
      "వెళితే": 9580,
      "చేరారు": 9581,
      "బిఐ": 9582,
      "చౌదరి": 9583,
      "నివ్వ": 9584,
      "సూత్రం": 9585,
      "ఛాన": 9586,
      "చెవి": 9587,
      "మైదా": 9588,
      "ప్రైవేట్": 9589,
      "సమయాన్ని": 9590,
      "కిలోల": 9591,
      "ఫ్యాన్స్": 9592,
      "సెన్సార్": 9593,
      "గుర్తించి": 9594,
      "కాలువ": 9595,
      "తెలిపాడు": 9596,
      "ఏమిటో": 9597,
      "గ్స్": 9598,
      "పొందుతున్న": 9599,
      "రెండేళ్ల": 9600,
      "సైరా": 9601,
      "ఫైర్": 9602,
      "ఎన": 9603,
      "తీసుకెళ్ల": 9604,
      "మన్‌": 9605,
      "విషయంపై": 9606,
      "కునేందుకు": 9607,
      "పాండ": 9608,
      "ఉంచడానికి": 9609,
      "నియోజకవర్గ": 9610,
      "నోటీసులు": 9611,
      "నాయిక": 9612,
      "నిర్వహిస్తున్న": 9613,
      "సోవియ": 9614,
      "కానుక": 9615,
      "సంఘటనలు": 9616,
      "దేవుని": 9617,
      "క్యాల": 9618,
      "సంబంధాల": 9619,
      "లేదంటే": 9620,
      "కోల్‌క": 9621,
      "అతనిని": 9622,
      "‌ల‌": 9623,
      "వింత": 9624,
      "రాష్ట్రాలు": 9625,
      "రాశారు": 9626,
      "విలేక": 9627,
      "టీం": 9628,
      "అసెంబ్లీలో": 9629,
      "న్‌లై": 9630,
      "బంగాళా": 9631,
      "స్టాక్": 9632,
      "జారి": 9633,
      "ఎంపీలు": 9634,
      "వాన": 9635,
      "చంపే": 9636,
      "మాలి": 9637,
      "ప్లేయ": 9638,
      "శీర్షిక": 9639,
      "ప్రస": 9640,
      "వీల": 9641,
      "రిన": 9642,
      "డ్రి": 9643,
      "విభే": 9644,
      "డేట్": 9645,
      "పునః": 9646,
      "ఏకా": 9647,
      "టీమ్": 9648,
      "అతిథి": 9649,
      "టార్గెట్": 9650,
      "పాడ": 9651,
      "ఒక్కొక్క": 9652,
      "సంస్థాప": 9653,
      "మార్చడానికి": 9654,
      "పరిస్థితిని": 9655,
      "ంప్": 9656,
      "లేర": 9657,
      "ట్లీ": 9658,
      "52": 9659,
      "కాస్": 9660,
      "భరించ": 9661,
      "నిర్దేశి": 9662,
      "చెందారు": 9663,
      "బాధితు": 9664,
      "లేం": 9665,
      "ఆహ్లాద": 9666,
      "నిపించడం": 9667,
      "గెలిపి": 9668,
      "ఖాతాలో": 9669,
      "స్టూడియో": 9670,
      "విడ్": 9671,
      "శాతానికి": 9672,
      "ఏపీకి": 9673,
      "క్కినేని": 9674,
      "ఐదేళ్ల": 9675,
      "చదరపు": 9676,
      "ప్రాతినిధ్యం": 9677,
      "శ్రీదేవి": 9678,
      "ుడి": 9679,
      "పియన్": 9680,
      "సోషల్‌": 9681,
      "ne": 9682,
      "లింక్": 9683,
      "వ్యవహారాల": 9684,
      "ఉద్రిక్త": 9685,
      "విశ్లేష": 9686,
      "కించి": 9687,
      "బర్గ్": 9688,
      "గించిన": 9689,
      "తీసుకుంటే": 9690,
      "న్నో": 9691,
      "మనించాలి": 9692,
      "స్టర్‌": 9693,
      "మీదుగా": 9694,
      "ధ్రు": 9695,
      "క్తీ": 9696,
      "క్క‌": 9697,
      "పంచంలోని": 9698,
      "స్తీ": 9699,
      "ముఖులు": 9700,
      "ఔషధం": 9701,
      "ఓటర్ల": 9702,
      "పేపర్": 9703,
      "శత": 9704,
      "టిస్తున్నారు": 9705,
      "ఇదంతా": 9706,
      "మైంద": 9707,
      "రొమ్ము": 9708,
      "అడుగులు": 9709,
      "వ్యాపారు": 9710,
      "యాన్": 9711,
      "ర్డ్": 9712,
      "దిద్దు": 9713,
      "గలదు": 9714,
      "యంత్రం": 9715,
      "వెల్లుల్లి": 9716,
      "రాసి": 9717,
      "కళ్ళ": 9718,
      "భ‌": 9719,
      "తేడాది": 9720,
      "స్టోర్": 9721,
      "కార్డులు": 9722,
      "పచ్చి": 9723,
      "కృత్రిమ": 9724,
      "సికి": 9725,
      "కెన": 9726,
      "క్వార్": 9727,
      "సినిమాపై": 9728,
      "'.": 9729,
      "దూసు": 9730,
      "ఘనత": 9731,
      "లపై": 9732,
      "ర్స": 9733,
      "హాల్": 9734,
      "అప్పుడ": 9735,
      "రొమా": 9736,
      "సరా": 9737,
      "లోక్": 9738,
      "విధానాలు": 9739,
      "జ్యం": 9740,
      "పరిహారం": 9741,
      "భవిష్యత్": 9742,
      "స్లీ": 9743,
      "వేశం": 9744,
      "సాధించారు": 9745,
      "రంగాల": 9746,
      "లోపాలు": 9747,
      "ఫోన్లు": 9748,
      "సోనియా": 9749,
      "సాఫీ": 9750,
      "ంటున్నాయి": 9751,
      "తినిధుల": 9752,
      "అనుభవ": 9753,
      "నివాస": 9754,
      "కైన": 9755,
      "క్తికి": 9756,
      "లుపులు": 9757,
      "కాశాన్ని": 9758,
      "బ్యూరో": 9759,
      "పిక": 9760,
      "చూడటం": 9761,
      "చికెన్": 9762,
      "కాలుగా": 9763,
      "తిబింబి": 9764,
      "అన్యాయం": 9765,
      "లిప్": 9766,
      "తోన్న": 9767,
      "యావ": 9768,
      "గెలిచి": 9769,
      "గాళ్లు": 9770,
      "అంశాన్ని": 9771,
      "నాథ్‌": 9772,
      "విడిగా": 9773,
      "అవసరాలు": 9774,
      "ైంది": 9775,
      "టివ్‌": 9776,
      "రించబడింది": 9777,
      "అంగుళాల": 9778,
      "పోల్": 9779,
      "పరిచే": 9780,
      "టాన్ని": 9781,
      "ఖర్చులు": 9782,
      "యూనియన్": 9783,
      "హీరోలు": 9784,
      "శాఖల": 9785,
      "నిర్ణయించారు": 9786,
      "ఈయన": 9787,
      "ప్లె": 9788,
      "జగన్మోహ": 9789,
      "చాటు": 9790,
      "ఏకైక": 9791,
      "చూసింది": 9792,
      "పూట": 9793,
      "వెడ": 9794,
      "ధోని": 9795,
      "రికీ": 9796,
      "దుష్": 9797,
      "మెయి": 9798,
      "కియా": 9799,
      "రోడ్ల": 9800,
      "మ‌రో": 9801,
      "స్వాత": 9802,
      "రుణాలు": 9803,
      "మోద": 9804,
      "ంచాలో": 9805,
      "మానే": 9806,
      "రాను": 9807,
      "బంద": 9808,
      "ul": 9809,
      "శయ": 9810,
      "నిర్ణయించింది": 9811,
      "చీర": 9812,
      "అనుచ": 9813,
      "మిళంలో": 9814,
      "పోలింగ్‌": 9815,
      "జమ్మూ": 9816,
      "పెంచడానికి": 9817,
      "కుప్ప": 9818,
      "ఇండో": 9819,
      "పరిశ్రమలో": 9820,
      "సామాన్య": 9821,
      "భరో": 9822,
      "ఆపై": 9823,
      "యాన": 9824,
      "శిబి": 9825,
      "అరుదుగా": 9826,
      "కోప": 9827,
      "త్సాహ": 9828,
      "ఫర్ని": 9829,
      "ఆధారిత": 9830,
      "ఎంచుకున్న": 9831,
      "మార్గాల": 9832,
      "ఆపై": 9833,
      "భాషల్లో": 9834,
      "భరణ": 9835,
      "డుస్తున్న": 9836,
      "శిటీ": 9837,
      "పడుతూ": 9838,
      "ఆదేశించింది": 9839,
      "కుంటున్న": 9840,
      "మ్యూనికేషన్": 9841,
      "శోధన": 9842,
      "పూజలు": 9843,
      "ప్రాంతాలు": 9844,
      "ఇంధన": 9845,
      "నిర్మాణంలో": 9846,
      "నిర్మిస్తున్న": 9847,
      "మూత": 9848,
      "చోటుచేసుకుంది": 9849,
      "సీన్": 9850,
      "బ్యాటింగ్": 9851,
      "పెంచే": 9852,
      "ఆదాయ": 9853,
      "అణ": 9854,
      "‌తో": 9855,
      "గ్యాస్": 9856,
      "ఛే": 9857,
      "చెప్పండి": 9858,
      "ఇంగ్లీష్": 9859,
      "పోస్టర్": 9860,
      "గేమ్స్": 9861,
      "స్నేహితు": 9862,
      "బండ": 9863,
      "చేతుల్లో": 9864,
      "భిస్తుంది": 9865,
      "దిక": 9866,
      "ర్యాలు": 9867,
      "స్కి": 9868,
      "స్పేస్": 9869,
      "కెక్కుతున్న": 9870,
      "51": 9871,
      "కేషన్‌": 9872,
      "దాస్": 9873,
      "గర్భా": 9874,
      "నిమిత్తం": 9875,
      "రించాడు": 9876,
      "ప్రభావాలు": 9877,
      "మంచం": 9878,
      "అడిగిన": 9879,
      "ముద్రం": 9880,
      "నాన్": 9881,
      "సీఈ": 9882,
      "చేయాల్సిన": 9883,
      "ఏకై": 9884,
      "పడా": 9885,
      "చేరుకుంది": 9886,
      "సమర్థవంతంగా": 9887,
      "ఏకైక": 9888,
      "స‌మ‌": 9889,
      "ఎంచుకోవడం": 9890,
      "అవా": 9891,
      "బాని": 9892,
      "న్నులు": 9893,
      "రామారావు": 9894,
      "నిశ్శబ్": 9895,
      "చంప": 9896,
      "సిల్": 9897,
      "మన్వ": 9898,
      "వంగ": 9899,
      "మాండ": 9900,
      "సృష్టించిన": 9901,
      "ag": 9902,
      "మాట్లాడటం": 9903,
      "క్రియాశీల": 9904,
      "ంటున్నాడు": 9905,
      "బంతి": 9906,
      "ంచుకునేందుకు": 9907,
      "సందేహం": 9908,
      "కిరణ్": 9909,
      "నెటిజన్": 9910,
      "ధనం": 9911,
      "వుతుంద": 9912,
      "సహచ": 9913,
      "నిష్ప": 9914,
      "బాగుంది": 9915,
      "ఖు": 9916,
      "59": 9917,
      "నేట్": 9918,
      ",\"": 9919,
      "ర్స్‌": 9920,
      "పిల్లి": 9921,
      "జీల": 9922,
      "వాక": 9923,
      "చూశా": 9924,
      "ధారణ": 9925,
      "నేప": 9926,
      "ఇస్తే": 9927,
      "ంచడమే": 9928,
      "దారుణంగా": 9929,
      "వాతావరణంలో": 9930,
      "2008": 9931,
      "లిసిన": 9932,
      "అమీ": 9933,
      "సోవియట్": 9934,
      "భువ": 9935,
      "ఆధిప": 9936,
      "ak": 9937,
      "హత": 9938,
      "భాస్క": 9939,
      "లెక్షన్": 9940,
      "రెట్లు": 9941,
      "ప్రాక్": 9942,
      "స్థానానికి": 9943,
      "దిగుమ": 9944,
      "స్కే": 9945,
      "వెలుగులోకి": 9946,
      "రష్": 9947,
      "మరికొన్ని": 9948,
      "ంటికి": 9949,
      "చెప్పాలంటే": 9950,
      "ప్రజల్లో": 9951,
      "దీప్": 9952,
      "లక్షల": 9953,
      "మెను": 9954,
      "ఘటనలో": 9955,
      "వంటగ": 9956,
      "చూస్తుంటే": 9957,
      "రేషన్‌": 9958,
      "భావిస్తున్న": 9959,
      "బీజేపీకి": 9960,
      "అంగ": 9961,
      "నంత": 9962,
      "చేశామని": 9963,
      "ుల్లో": 9964,
      "టివి": 9965,
      "అధ్యా": 9966,
      "జరుగుతున్నాయి": 9967,
      "దారుణ": 9968,
      "చలన": 9969,
      "కుంటున్నారు": 9970,
      "పాలిటీ": 9971,
      "దయ": 9972,
      "ధికారి": 9973,
      "కణాల": 9974,
      "వరుణ్": 9975,
      "న్నాన": 9976,
      "వీరిలో": 9977,
      "శ్వరం": 9978,
      "మెగాస్టార్": 9979,
      "చెల్లించ": 9980,
      "కాకి": 9981,
      "త్సరానికి": 9982,
      "గ్గిస్తుంది": 9983,
      "se": 9984,
      "ఇచ్చా": 9985,
      "బూడిద": 9986,
      "తించ": 9987,
      "గణాం": 9988,
      "ాలే": 9989,
      "బియ్యం": 9990,
      "అనిల్": 9991,
      "గూడె": 9992,
      "లేడీ": 9993,
      "వయసులో": 9994,
      "రివ్యూ": 9995,
      "అభిమాని": 9996,
      "సాధనం": 9997,
      "ఎపిసో": 9998,
      "దికి": 9999,
      "బయటికి": 10000,
      "ప్రారంభించింది": 10001,
      "మయ్యారు": 10002,
      "యాంలో": 10003,
      "తేలింది": 10004,
      "డీల": 10005,
      "కలలు": 10006,
      "అపార్ట్": 10007,
      "ందుకే": 10008,
      "పూత": 10009,
      "దీనితో": 10010,
      "బెస్ట్": 10011,
      "అసౌక": 10012,
      "టాబ్": 10013,
      "శృంగార": 10014,
      "పోరాట": 10015,
      "ర్‌తో": 10016,
      "రీల": 10017,
      "బంధం": 10018,
      "తుక": 10019,
      "రోగులు": 10020,
      "దుర్కొంటున్న": 10021,
      "54": 10022,
      "చిత్రంతో": 10023,
      "పురోగ": 10024,
      "లంలోని": 10025,
      "పిలవ": 10026,
      "పుట్": 10027,
      "శ్రీకాకు": 10028,
      "ంగుల": 10029,
      "పుం": 10030,
      "రాద": 10031,
      "బహిర్గ": 10032,
      "ప్రారంభించడానికి": 10033,
      "ఆండ్రాయి": 10034,
      "క్కింది": 10035,
      "వేక్షణ": 10036,
      "స్పోర్": 10037,
      "పిలువ": 10038,
      "చెట్లు": 10039,
      "మావోయి": 10040,
      "తాత": 10041,
      "ధను": 10042,
      "నిన్ను": 10043,
      "లెక్టర్‌": 10044,
      "ఆంధ": 10045,
      "కంపై": 10046,
      "ంచేది": 10047,
      "సింగిల్": 10048,
      "జాయి": 10049,
      "క్స": 10050,
      "ప్రై": 10051,
      "దీప": 10052,
      "కురిపి": 10053,
      "అనుకుంటే": 10054,
      "జట్ల": 10055,
      "న్స": 10056,
      "లాడ్": 10057,
      "సంభావ్య": 10058,
      "షర": 10059,
      "బంధువులు": 10060,
      "చేయాలో": 10061,
      "సిడ్": 10062,
      "వుడు": 10063,
      "వారీగా": 10064,
      "వస్థలో": 10065,
      "హారి": 10066,
      "కోపం": 10067,
      "ఇస్లా": 10068,
      "డైలాగ్": 10069,
      "మిరియాలు": 10070,
      "లికా": 10071,
      "స్సులో": 10072,
      "లిస్ట్": 10073,
      "త్వంలోని": 10074,
      "ందాడు": 10075,
      "శాసన": 10076,
      "ఫండ్": 10077,
      "ప్రేరేపి": 10078,
      "కార్పొరేషన్": 10079,
      "అఫ్": 10080,
      "సేవా": 10081,
      "భూములు": 10082,
      "ప్రోగ్రామ్": 10083,
      "క్కీ": 10084,
      "ఛైర్మ": 10085,
      "ఫర్నిచర్": 10086,
      "భాజపా": 10087,
      "సామర్థ్యాన్ని": 10088,
      "గ్గరకు": 10089,
      "మాల్": 10090,
      "2000": 10091,
      "న్యూయార్": 10092,
      "ప్రాధాన్యం": 10093,
      "చెందింది": 10094,
      "పిలుపునిచ్చారు": 10095,
      "అప్పు": 10096,
      "జిత్": 10097,
      "విభా": 10098,
      "చై": 10099,
      "ందిగా": 10100,
      "సిగ": 10101,
      "తువు": 10102,
      "సమయ": 10103,
      "సీసీఐ": 10104,
      "పొందారు": 10105,
      "రియన్": 10106,
      "విచ్": 10107,
      "రుజు": 10108,
      "మార్కులు": 10109,
      "కోల్పోయిన": 10110,
      "ంటాం": 10111,
      "త్తిన": 10112,
      "అధికారంలో": 10113,
      "వాయిస్": 10114,
      "ఆర్థ": 10115,
      "పరిగణన": 10116,
      "కష్టాలు": 10117,
      "జిల్లాకు": 10118,
      "ట్రాన్స్": 10119,
      "తీగ": 10120,
      "వైద్యం": 10121,
      "పరిపూర్ణ": 10122,
      "వాలే": 10123,
      "క్షమా": 10124,
      "దానితో": 10125,
      "వాలా": 10126,
      "వీకరణ": 10127,
      "నౌక": 10128,
      "do": 10129,
      "ఎంటర్‌": 10130,
      "ోత్స": 10131,
      "క్రియను": 10132,
      "ఆర": 10133,
      "గించ": 10134,
      "దాదాపుగా": 10135,
      "చతు": 10136,
      "స్వరూ": 10137,
      "కోణంలో": 10138,
      "కోరుతూ": 10139,
      "సొమ్ము": 10140,
      "వ్యత్యా": 10141,
      "అడిగా": 10142,
      "కేంద్రంగా": 10143,
      "పిచ్చి": 10144,
      "వాహం": 10145,
      "దును": 10146,
      "రెండూ": 10147,
      "ప్యాడ్": 10148,
      "స్థిరంగా": 10149,
      "నాలో": 10150,
      "క్షించడానికి": 10151,
      "ఇంగ్ల": 10152,
      "గిరిజన": 10153,
      "నాయి": 10154,
      "అనిపించింది": 10155,
      "విడా": 10156,
      "రిప": 10157,
      "ఘోర": 10158,
      "ప్రారంభమైంది": 10159,
      "పరిచయ": 10160,
      "స్వర": 10161,
      "దీపా": 10162,
      "ఆవిర్": 10163,
      "రికార్డుల": 10164,
[...]
